#version: 0.2
Ġ t
h e
Ġ a
r e
i n
o n
i s
e r
a t
Ġt he
o r
e n
a n
o u
Ġ s
Ġ w
Ġ c
i on
e s
Ġ f
i t
Ġ p
Ġ o
a l
a r
e d
Ġ b
r o
Ġo f
Ġ in
Ġ m
Ġt o
Ġ is
Ġ d
n d
l e
a s
in g
o m
i c
en t
T he
i l
Ġ n
Ġt h
o t
Ġ h
e l
Ġ C
Ġ re
u s
c t
Ġa nd
Ġf or
at ion
Ġ M
v e
Ġ y
Ġ l
Ġb e
Ġ P
e t
Ġ A
Ġy ou
Ġ E
Ġ S
re s
Ġ on
Ġ 2
i d
o w
m ent
Ġ e
o l
o s
p e
a c
T h
t er
a y
Ġ I
Ġ v
Ġa re
Ġ g
l y
i m
u r
u t
il l
i g
Ġ 1
om m
r a
0 0
Ġs t
or t
Ġp ro
c e
i r
u l
Ġth is
s ion
o re
Ġc on
ou r
Ġ (
Ġ R
k e
Ġa l
Ġn ot
Ġ F
l d
Ġw e
u ro
at e
Ġh a
c h
s t
es t
Ġ B
i a
it h
p p
v er
Ġ D
Ġa t
a d
Ġ T
Ġd e
W e
us t
u n
b le
Ġth at
is sion
Ġw ill
uro pe
Ġw ith
an d
he r
g e
Ġn e
Ġ it
ou ld
q u
omm ission
a m
r i
Ġha ve
Ġa n
M r
s e
Th is
. .
o p
e m
a in
Ġd o
Ġ G
f f
i ve
Ġ H
Ġ -
o d
ou t
er s
an t
f or
ĠC ommission
Ġs e
n t
it y
as e
u m
h at
urope an
Ġc an
is t
for m
p ort
es s
I t
i es
r ou
O N
Ġs h
Ġe x
Ġc om
ar t
Ġ L
u re
Ġa s
res s
ac k
Ġb y
Ġ he
Ġ r
en d
Ġl i
u b
o c
ig h
Ġ N
ro m
Ġh as
e ct
Ġw as
is ter
Ġ us
form ation
Ġ O
i e
ion s
ic e
A N
in ister
T E
a ct
Ġyou r
Ġ J
a il
i al
a ble
e p
a k
Ġ W
ar d
Ġm ore
b er
Ġf rom
Ġin formation
Ġw ould
i f
a ke
igh t
Th at
al l
Ġ :
u d
Ġp l
Ġal l
s o
Ġ U
Ġli ke
Ġa d
i v
le ase
Ġ or
Ġ2 00
os t
I n
Ġcon t
ar y
l o
om e
Ġ 3
T I
rou nd
a ge
Ġv ot
t her
Ġa b
r an
ĠE U
Ġ u
Ġc h
re e
Ġs u
Ġ im
R O
Ġw or
l ic
ul t
Ġ our
Ġ V
Ġm e
c l
Ġv er
id ent
ĠM inister
as t
E R
he n
Ġal so
it e
Ġthe re
Ġre s
Ġ K
F or
n c
Ġg o
Ġ le
Ġa g
el l
Ġ qu
ment s
p t
an k
ĠS t
W hat
u e
on t
o k
in e
i re
ac e
E uropean
E S
on e
E N
Ġc l
ation s
res ident
.. .
Ġ en
ar k
el s
a g
Ġ 4
g round
Ġver y
Ġ .
I N
a b
e c
ack ground
in d
The re
e re
an ce
c c
t h
ig n
Ġ k
0 1
Ġw h
er m
B ackground
Ġab out
i p
ĠE uropean
Ġcom p
d u
3 2
Ġn o
a re
t e
A R
Ġm ust
Ġne ed
a ir
Ġne w
Ġ j
ou nc
in t
ct ion
im e
Y ou
l and
a p
ot el
Ġbe en
A L
ounc il
ou nt
e ar
Ġa m
ol l
ĠM r
r ic
an y
Ġa pp
H ow
al ly
C I
Ġ 5
r y
Ġsh ould
ou s
on g
at ed
o g
j ect
ĠC ouncil
id e
o ok
l a
Ġ un
er v
9 9
Ġp art
c on
Ġw hat
Ġs a
r u
Ġvot e
Ġu p
ĠI n
v el
Ġre port
it ion
o int
Ġ ro
H E
p os
ter n
P ress
Ġt ake
Ġon e
f ore
ra m
is h
u res
O R
ĠP resident
Ġ( +
el y
b s
Ġre lease
air s
oll ow
Ġhe re
Ġa v
Ġn ow
it t
Ġ 0
Ġd is
Ġde b
ac h
pp ort
g h
ic al
Ġst ay
Ġse e
ub lic
Ġs pe
Ġwor k
a v
W hen
us s
Ġcl os
Ġof f
ff airs
am e
re at
E U
p er
ie w
in k
Ġs o
ĠR e
ay s
Ġm y
us e
ail able
ĠA ffairs
O U
res ent
l l
ran s
at es
an c
B ut
em ber
TI ON
an g
Ġ out
at ive
e w
Ġ 7
i z
Ġ2 9
Ġdeb ate
Th ank
er al
on s
o v
en ce
I C
E L
Ġpl ace
Ġ 6
p l
Ġt ime
Ġre g
Ġav ailable
ir st
e ver
x t
est ion
Ġp ol
Ġan y
ic h
i an
u ch
I S
ing s
ut ion
en s
Ġit s
E C
d e
ro w
Ġa cc
as s
ur ther
ver y
n e
E D
n ow
O M
Ġp oint
Ġr ight
re t
g ram
Ġad d
w o
Ġ Ġ
T S
ĠCommission er
ĠO F
ĠR ep
Ġf ollow
Ġthe se
ĠC h
t o
Ġy ear
or d
Ġp er
Ġon ly
ĠE urope
Ġt ra
v en
Ġclos ed
Ġ 8
ĠU n
ar l
Ġ 9
Ġim port
p le
ire ct
Ġt e
Ġsa id
Ġ ...
Ġdo es
i ed
Ġc o
Ġ2 01
is e
Ġw ant
m e
Ġp os
vel op
Ġ |
Ġgo od
W h
d ay
i ble
A S
ore ign
Ġpro du
ĠD e
i le
Ġp re
act s
or s
c ome
it ies
t ed
bs ite
er n
Ġag ain
P E
pe ct
i b
Ġk now
2 00
Ġm uch
A TION
Ġo ther
Ġpro c
Ġh ow
ation al
u nd
C ont
Ġt wo
Ġp e
Ġd i
Ġcon s
I ON
i ous
u g
Ġa r
Ġwe re
en c
Ġv iew
A pp
g y
ĠP ro
con om
ĠF oreign
1 0
g et
I T
en eral
Ġthe m
Ġc ount
p r
A nd
The y
o b
Ġj ust
ĠH otel
he re
M S
Ġa ct
Ġpro pos
nd er
ic y
cl us
Ġimport ant
Ġsu pport
ble m
M s
h ing
Ġ1 2
ark et
Ġc omm
erm an
N D
Ġf irst
R E
le ct
ce pt
la use
ou nd
r uss
Ġthe y
il ity
il d
p h
russ els
C ommission
cl ud
ent ion
em b
arl ia
ĠS ec
f ul
Ġis s
ĠT HE
ĠD E
Ġpro blem
er t
o ve
if ic
Ġp r
op le
an ge
RO PE
Ġro om
Q u
Ġf in
or y
Ġc le
Ġo p
S t
f t
Ġpro gram
os e
ow n
3 0
an s
Ġre c
ur re
Ġ The
n er
in ut
Ġf ind
A n
Ġre qu
y st
arlia ment
Ġt rans
ROPE AN
Ġm ake
a x
Ġs ome
Ġs p
ĠP ress
TE MS
ĠA g
Ġthere fore
S o
Ġ1 0
Ġs erv
) .
Ġin v
Ġs c
App lause
yst em
Ġe m
Ġdi ff
re n
ir on
Ġapp ro
O L
Ġus e
w ard
Ġto o
ĠC omm
U S
M inister
u al
Ġe very
Ġwe bsite
Ġu nder
or k
A ll
Ġre m
Ġpe ople
Ġo ver
v ed
u ation
A TE
c k
Ġfollow ing
Ġth ink
Ġs it
Ġc ase
ad e
at er
he d
velop ment
on d
00 0
O n
The se
i um
ĠUn ion
ĠF in
Ġcon c
M ore
Ġl ook
i o
w n
l es
e g
ĠM ar
Ġcont act
I I
ES S
ou gh
in a
Ġbe t
Ġqu estion
e e
Ġh otel
s s
Ġp h
Ġm od
Cont acts
Ġha pp
Ġf urther
Ġprodu ct
Ġth an
Ġde c
v iron
Ġ1 9
3 5
Ġb ut
ĠM ember
inut es
Ġw ell
F in
if ied
r it
Ġg u
u es
OU N
al s
viron ment
e ch
u x
ur n
ol d
Ġg et
ĠA ND
Ġs ub
al y
Ġ +
ult ure
T R
ic s
TE R
ol ution
Ġo b
urre nt
Ġw ay
Ġin to
Ġp ublic
Ġ ent
ri es
ri b
re d
ĠRep resent
1 1
ĠSt ate
Ġag ree
Ġad op
ic k
n ot
P resident
ĠN o
Ġ ra
ad y
CI L
Ġl ong
Ġb est
Ġd es
o od
er ation
c ial
Ġb el
ust ice
Ġs ystem
Ġc our
ĠU N
A T
ĠE n
Ġthe ir
Ġp ri
OUN CIL
erman ent
ĠSec ret
om et
1 2
rou p
B russels
Ġ end
E M
Ġin d
ur al
H ER
clus ions
conom ic
Ġl a
Ġst art
Ġas s
Ġm arket
is ion
is m
ag es
Ġ1 1
Ġpol icy
c om
an ia
P AR
al ity
Ġ1 4
Ġt r
ĠRepresent ative
oc ial
iv es
Ġcle ar
t ect
ar ge
Ġm any
res t
e f
Ġe ff
el come
Ġm an
Ġwor ld
Ġwh ich
P P
Ġs im
H e
ĠP ermanent
Ġs ay
it ed
al k
ill ion
D o
Ġm at
Ġwh o
Ġin st
l p
ul ar
f ter
el f
r ia
Ġg reat
Ġdis c
ĠSecret ary
Ġd et
ĠJ ustice
Ġp lease
O T
Ġcan not
Ġpart ic
Ġ ke
Ġagain st
Ġt ak
Ġyear s
an n
i k
ost els
Ġspe ak
Ġa c
ic es
Ġpos s
Ġp ers
How ever
Ġ1 99
Ġin te
Ġl oc
Ġim p
r ate
w ay
enc y
est ions
erm any
Ġv is
p ain
ie ve
O ur
Ġadop ted
Ġm ain
A C
P lease
Ġ Y
p lo
m er
Ġm ade
Ġme as
Ġat t
Ġst ill
Ġconc ern
ic t
at h
lic k
Ġb u
Ġcon f
Ġop en
Ġre l
i ent
Ġm ost
as ed
Ġpro ject
Ġl ast
I s
l ine
Ġ2 0
s w
EN T
Ġin clud
Ġres ult
ĠEU ROPEAN
ut y
Ġpro v
â Ĥ
âĤ ¬
ĠRe g
ar m
Ġf e
Ġcon clusions
or row
Ġres p
I R
T HE
w e
Wh y
Ġex t
o y
o ver
Ġsit uation
Ġto day
Ġs et
ĠUN ION
our g
G eneral
Ġc ent
Ġwh y
d er
at a
Ġn um
land s
Ġs ame
Ġcour se
Ġre f
ĠC on
Ġl ist
Ġhe lp
Ġdiff ere
Ġthe n
2 0
ot h
n ce
Ġex am
Ġ1 5
C h
i er
Ġth ree
T o
or ity
Ġto m
oc k
Ġ29 5
op eration
Ġproc ed
om p
in es
el g
I TEMS
plo y
ru ct
Ġw hen
at ing
I f
ĠP RO
Ġc urrent
Ġf ree
Ġfor m
ra ct
Ġview s
w it
Ġf ound
Ġtom orrow
o pe
anc ial
ou se
Ġiss ue
Ġd one
Ġc all
ĠR EL
Ġprogram me
Ġp age
h ip
Ġ ,
Ġth ank
E n
irect ive
R e
Ġv al
E X
Ġpl ay
es sion
Ġcount ries
Ġm ay
Ġare a
un g
Ġh is
Ġch ange
Ġst ate
Ġ200 9
ĠFin ance
Ġsh all
E T
it s
Ġle g
v ent
it te
Ġd el
ut ure
re ady
ĠP ol
ul l
f e
et her
Ġcomp le
Ġd id
Ġd own
Ġas k
Ġre as
ol og
Ġan sw
r ing
ar s
ver s
L et
w ed
Ġs omet
m ail
r ation
ĠDE B
Ġproduct s
ĠDEB ATE
Ġne xt
Ġd ay
con d
Ġ1 3
w ays
P ro
E x
S lo
n ing
elg ium
D E
Ġc ould
ust ria
U n
Ġa p
re land
ĠM inutes
ux emb
Ġmat ter
Ġm illion
Ġs m
m ark
ra ph
Ġde m
Ġre p
Ġo wn
pt ion
Ġposs ible
D en
Ġal ready
al e
ĠSt ates
P AN
N o
Ġha d
uxemb ourg
Qu estion
rou gh
he s
Ġs er
itt ing
Ġ if
Ġcont in
r is
Ġmeas ures
Ġdet ail
v es
Ġin c
Ġin f
Ġst and
ul es
un ic
Ġhow ever
Ġb us
tern al
Ġf av
as es
Ġse cond
t he
un ity
F urther
Ġpro tect
Ġhapp en
Ġh igh
Ġ Z
our t
ether lands
1 5
at ely
in ess
ep uty
TI CI
S T
O P
ul ation
ric ulture
It aly
Ġde f
ere d
a ve
re ak
i x
r at
Ġc ol
ar ia
PAN TS
Ġsomet hing
TICI PANTS
Ġsu ch
Ġa ction
I L
Ġre st
u c
PAR TICIPANTS
A s
S pain
ĠE uro
itte e
wed en
4 0
A t
in c
Ġ3 0
cc ess
al th
ol id
Ġs itting
Ġcom e
ur ity
Ġacc ess
Ġ200 7
ert ain
it al
Ġqu estions
ro l
Ġnum ber
i et
um an
e k
ut h
Ġre ally
Ġ1 8
C E
ĠA l
Ġf uture
Ġp ay
Ġproc ess
Ġpropos al
ow er
g an
ĠI N
il y
qu ir
ĠA n
ĠRep ublic
Ġin t
t s
ran ce
ir d
Ġc ar
Ġe ven
A M
t y
Ġvot ed
r ong
Ġvot es
i el
is ed
f ort
P R
m b
Ġ2 5
Ġc he
ain s
Ġc ost
Ã ¼
ĠA nd
N ot
g er
t ic
Ġal ways
o ol
Ġm et
Ġinv est
Ġdiffere nt
a j
B elgium
Ġre ad
c es
Ġb ack
L at
in ce
ang u
Ġvis it
Ġd ata
ĠP arliament
ow s
Ġ1 6
ĠA r
C H
Ġob ject
u p
u le
in ist
TER N
Ġwor d
Ġfav our
b al
Ġe as
ot her
A re
tern ational
Ġp ress
Ġh ope
Ġbe ing
v ing
A d
r al
Ġf und
) :
L uxembourg
ĠC o
A ustria
Ġb o
Ġ âĤ¬
RO V
Ġc or
B ook
c ess
IN G
i ence
Ġwith out
I reland
est s
Ġp resent
Ġfor ward
ud get
l ish
ĠP OL
r ist
Ġpers on
S ub
ĠA PP
c o
Ġor der
Ġ201 0
in s
ard s
Ġre ce
v al
ar ch
c u
Ġneed s
Ġde velopment
P arliament
Ġpoint s
S ee
quir ies
Ġin ter
Ġroom s
ra de
th ing
Ġf act
Ġ1 7
1 3
t en
U R
Ġ200 8
Den mark
I D
Ġac cept
OT HER
Ġre al
Ġex p
n ers
Ġw at
Ġme et
w are
is s
Ġansw er
a z
Ġg roup
ĠR es
lo ad
Ġbel ieve
ploy ment
Ġpol it
Fin land
H ere
Ġf ew
wit ter
A G
S weden
l ed
Ġ X
G ermany
Ġse c
ist ance
Ġf ar
Ġus ed
ATION S
C omm
Ġw here
Ġ !
one y
Ġoff er
ĠAPP ROV
ĠAPPROV ED
P ol
ĠDEBATE D
ĠD eputy
C ON
v iew
Ġp ack
ur ing
ĠĠ ĠĠ
Ġs ur
ar n
0 2
ust om
er r
Ġst ep
ion al
ur s
m ber
i or
ĠIn formation
Ġs ign
Ġb l
N etherlands
ant s
Ġth ings
Ġrequ ire
A l
ar g
Ġ ide
Ġam end
Ġf l
ch n
Ġpartic ular
ig ures
Ġagree ment
ĠP l
Ġg ive
du c
e b
Ġa ch
M y
un e
Ġte xt
Ġch ild
Ġright s
in ing
p a
t ing
Ġc ut
iv en
4 6
ĠJ an
is hed
emb ers
Ġup d
Ġe qu
Ġw elcome
ĠT witter
Ġeff ect
N ow
Ġres olution
ĠPOL IC
r itt
O S
Ġ We
0 9
we en
ib ility
Ġbet ter
im es
Ġth rough
Ġc ertain
U L
Ġa ir
Ġr ules
Ġadd ress
ac y
Ġgo ing
ĠPOLIC Y
Ġin quiries
Ġtak en
ere nce
ol ut
ple ment
E AS
ĠE x
a use
AN S
TE N
Ġad v
Ġc re
1 6
5 0
iel d
F F
Ġsu ccess
Commission er
C OUNCIL
Ġspe c
n ov
Ġo per
Ġd irect
Ġh and
Ġ /
on ia
Ġcount ry
w ork
1 4
Ġa fter
ĠC OUNCIL
Ġrequ est
Ġserv ice
Ġon line
TERN AL
I P
out h
ritt en
is ation
et ition
Ġke y
Ġ Th
ri end
C on
Ġexam ple
Ġch ang
Ġinte rest
Ġp ut
Ã ¶
Ġdo cu
Ġ ed
at her
9 8
a h
v ention
Ġresult s
Ġsm all
re en
Ġt y
ĠH e
Ġdetail s
Ġf un
Ġbet ween
OM M
Ġbe fore
m en
I A
Ġno on
re ed
Ġte chn
Ġm oney
Ġen ough
Ġto ol
ĠJ u
Ġproced ure
Ġw ish
ĠA m
A nt
2 2
Ġserv ices
Ġex per
v ious
Ġ2 4
Ġbus iness
it i
Ġiss ues
Ġm ak
e el
Ġp ass
id ed
um m
ort h
Ġt alk
Ġs ite
our s
ĠMr s
O ther
u ff
ung ary
tern et
omm end
I m
Ġf am
Ġspe cial
Ġn ame
M E
ĠDe velopment
M ENT
0 3
F ollow
Ġg row
Ġse ct
Ġsh ort
Ġa id
Ġch o
n ess
C an
t al
rate gy
Ġresp ons
Ġl ot
ĠAg riculture
v ia
Ġf lo
y pr
Ġinc re
ur g
Ġd ays
Ġ her
ypr us
er gy
p are
in ation
Ġt urn
iz e
Ġreas on
a ff
D F
F irst
st and
. :
L E
g ress
z ech
n a
Ġver sion
Ġpr ice
EAS E
Ġcont rol
E st
is k
Ġ2 8
ĠI I
9 7
Ġspeak er
Ġh ostels
35 2
u ally
as h
Ġb oth
O V
T U
Ġp ur
ĠC ourt
Ġprotect ion
C omp
lo bal
ist s
ĠPRO C
l ess
it ions
er y
Ġf ull
qu e
or ities
at ure
Ġp ar
Ġproblem s
id es
Ġ4 5
Ġqu ite
ot t
Ġe ach
Ġc ap
Ġex pl
Ġen ergy
Ġ est
Ġla w
Ġ2 2
9 6
G et
en sion
cl ub
ĠREL EASE
Ġth ose
Ġcons id
it iz
ĠI s
ab ility
a u
Ġl ink
ric es
Ġre t
Ġre form
ĠM AR
AN N
Ġen vironment
2 01
Ġproject s
or g
ĠIn ter
ven ia
ith u
angu age
Ġb r
ĠH ostels
ĠB e
ĠN ew
Ġf il
Ġin s
A g
l ation
Ġb ook
Ġph one
j oy
Ġc lick
A IR
Ġ el
Ġdec ision
ight s
ĠHostels club
Ġl ess
ff ice
Ġb as
Ġex pect
d om
end a
Ġse lect
ter s
en g
ont h
y s
itt ed
Ġb udget
erv ice
n ment
Ġappro ach
ĠComm ittee
1 8
v ak
Ġm ed
re m
le g
ul g
ne x
Ġ &
ing le
ĠA s
Ġh uman
et work
Ġle t
Ġwat ers
7 5
Ġ ?
Ġbe g
inc ip
Ġpolit ical
T el
i ation
ĠE conomic
Ġtr ue
ce ed
Ġact iv
Ġun t
O ne
f ast
Ġm in
Ġb en
Ġd ist
o f
ĠM ay
Ġli fe
I B
S ome
Ġs ocial
ĠA d
ithu ania
et s
ĠI TEMS
im ate
Ġtra de
Ġimp ro
Ġm ention
Ġde al
c ri
ition al
IT H
p es
ĠS ocial
i as
Ġare as
Ġle vel
ĠU S
ob ile
reak fast
p ro
ĠC ON
p ly
Ġf riend
Ġc ity
ro ss
om b
CI AL
Ġacc ount
ent s
Ġe uro
Ġr un
Ġg en
Ġme ans
U N
Ġa round
ot e
age ment
ific ation
Wh o
ĠJu ly
itt le
EU ROPEAN
or m
p ar
ĠC l
Ġwe ek
om ania
Y our
Ġc ustom
1 7
9 5
en se
am p
PR ESS
Pol and
Ġy et
ĠL e
ĠEn vironment
Ġeas y
W here
it ive
ent ial
) ,
ĠJ une
rib ution
Ġbe h
A D
W ith
Ġo ld
ĠA FF
Ġco operation
ĠS c
ĠPro gram
Ġm onth
ort ug
Ġex c
Ġs ince
Ġth ing
Ġcurrent ly
om en
Ġcon d
AIR S
ĠAFF AIRS
ĠI nd
ĠR E
ĠB ar
It s
ic a
Ġh im
rans port
i j
our ces
e x
ud g
Ġres pect
Ġnot hing
p art
Ġf our
od y
ris is
Ġpro m
Ġbe come
Ġfin ancial
Ġb ed
in ed
ult ural
e xt
Ġth ird
D e
Ġne ver
itiz ens
Ġ2 1
Ġcom ments
ulg aria
E urope
g ot
H ungary
I M
Ġapp l
ĠF OR
Ġ29 6
Ġrec ommend
Ġtrans port
Ġs k
Ġchild ren
ĠW OR
3 3
ech n
a ur
Ġt ax
Ġf ield
is c
or n
ner gy
Ġunt il
Ġan other
Ġcontin ue
g lish
ar i
e an
Ġne cess
Ġde velop
conom y
Ġe lect
ĠD irective
ĠW ITH
Ġcomp any
rib ut
Ġle ad
Ġpr incip
olog y
Ġl ittle
Ġsu pp
Ġqu ality
W elcome
Ġ2 99
Ġa im
2 5
Ġ z
Ġb ig
Ġsect or
vak ia
A P
od e
r on
ust ry
M ember
is her
Ġg eneral
Ġe le
Ġe vent
Ġk ind
Slo venia
Ġme an
r id
ust ain
Ġwho le
Ġflo or
Ġleg is
0 4
W ritten
Ġpos ition
Ġw in
Ġw ater
Ġc rit
it or
ro om
ĠA f
Ġm om
Ġd ou
ic ally
Ġoff ers
Ġp ract
Ġt erm
Ġdo ing
Ġsh are
Ġapp lic
T od
ou ra
Ġtool s
I G
Ġl im
Ġm inutes
E very
m ed
ĠS e
Ġor gan
is ions
ing dom
L ithuania
S ec
Ġm aj
ĠC ol
Ġa way
ent ly
s el
8 6
ĠP DF
Est onia
Ġbu ild
Ġm ove
A F
N ew
Ġconcern s
Ġcom ment
Lat via
C yprus
C lick
Ġto p
em s
St ate
Ġp ict
o ber
s elf
Ġ 000
Ġg raph
Ġm ot
Ġpartic ip
ic ult
Ġph ot
n ect
Ġc are
The n
Ġcon st
Ġab s
as k
ĠS h
Ġ @
it ing
Ġp le
ap s
Ġdes ign
C zech
Ġp rices
Ġd ate
le x
Ġ200 0
ot al
Ġben ef
c ed
og ue
0 5
r ont
unic ation
Ġ *
ortug al
Ġfin al
P ri
ar is
Ġf ac
Ġdown load
i od
4 5
a f
Ġpro gress
Ġnew s
OR T
ĠCh rist
ĠPROC ESS
m es
r as
Ġgo ver
Ġdiff icult
Ġ2 7
B e
oc us
Ġall ow
I V
m an
1 99
i vers
ed eral
Ġd ra
Ġpri v
ĠM EM
al f
Ġrem ain
Ġword s
ree ment
2 7
S h
a ut
IT Y
Ġto tal
inist ry
I nd
our ce
ĠG u
d o
R es
Ġs l
ĠPol icy
Ġpro f
s c
A B
F rance
e le
re ct
Ġre le
Ġwork ing
ra q
30 3
ĠA ss
Ġle ft
Ġrep resent
Ġt imes
Ġs olution
Ġcons ult
TEN TS
o h
Ġap pe
ke y
ĠRe port
Ġsim ply
Ġsub ject
Ġ200 6
ĠT rade
Ġ5 0
Ġro le
Ġst ud
CON TENTS
ĠC ent
We bsite
Ġa uth
Ġlook ing
f ect
A fter
is ing
Ġr isk
Ġsec urity
in ion
Ġass istance
Ġ ve
Ġj o
ap er
Ġdem oc
ĠMar ch
O f
R ule
un ately
ff ic
Ġinclud e
nov ation
Ġmom ent
O r
ĠM an
Ġs he
Sub ject
Ġm on
pe cial
ĠB russels
Ġl o
S ION
Ġst aff
Ġim plement
Ġche ck
at or
Ġe conomic
ĠREL ATIONS
ĠProgram me
p en
ent le
Ġst uff
ward s
Ġmod ified
Slo vakia
Ġg iven
ĠF ran
ĠF und
Ġcost s
1 9
g g
Ġval ue
i pp
n es
ĠI t
Ġnecess ary
et er
Ġcomm on
udg ment
Ġth ough
Ġnot ified
Ġgu ests
ear ch
ruct ure
D P
Ġ i
Ġwe b
An nex
I ES
or ld
Ġh ot
Ġunder stand
3 7
Ġo pport
el ations
Ġcon clud
du ct
U M
ar ity
Ġ %
res id
ĠEU RO
Ġ4 303
Ġap art
ĠC O
im um
. )
Tod ay
tic le
ĠInter ior
ĠH ouse
ANN EX
ĠA nt
at s
Ġp ower
anc es
Ġstate ments
b o
Ġgraph ics
ad ies
Ġpl an
v est
Ġc risis
pr il
A V
duc ation
Ġan n
ĠG e
Ġser ious
Ġpack age
e u
in o
is es
M ain
S S
Ġd ri
uss ia
Ġpropos als
a pp
r acy
ra d
l arge
Ġn etwork
resid ency
Ġadd s
ĠM ad
Ġm ess
Ġ1 00
Ġrel ations
Ġspec ific
S ervice
Ġin iti
ĠI m
Ġmeet ing
err or
nc y
Ġsa f
ĠM inistry
ĠG ermany
0 6
t on
in al
Ġwith in
Ġneed ed
Ġcons um
Ġg l
ĠEU R
ĠG roup
um p
Ġadd ed
o ine
Ġre se
C l
it ut
Ġl og
Ġch all
ren g
entle men
m s
Ġt est
Ġr ate
Ġloc ated
2 4
A r
Ġf ile
AN D
r im
u ary
Ġb al
Ġl ine
Ġ2 3
Ġt ri
Ġp at
Ġ7 5
iet y
Ã ¤
ES C
ĠCh ina
E uro
Ġst rategy
Ġits elf
Ġt our
Ġst rong
ric t
isher ies
Ġsh ow
Ġhe alth
if y
ĠK ingdom
Ġn ational
F rom
iv ed
sel ves
0 7
Ġh ome
Ġproced ures
Ġb ar
port s
M any
Ġo pt
ĠE C
OU T
Ġent er
Ġa ff
TU RE
il ities
ĠP h
ĠL a
R IC
Ġc itizens
eel ie
ĠS ch
en e
ur y
ur key
am es
EX TERNAL
Ant oine
ĠWOR D
l ished
Ġh ard
ew ork
ram ework
Ġreg ard
3 1
Ġp ost
ĠPROCESS ED
ĠC ont
TI N
Ġs end
Ġm en
Ġmak es
c el
r and
Ġsim ple
R omania
ar ant
Ġg ame
ĠR ed
i que
P L
Ġatt ention
et y
Ġfe el
U D
le ction
T otal
le t
le ar
Ġreas ons
B ulgaria
l ing
ĠM arket
ĠA pril
Ġen joy
ro es
ce mber
Ġlong er
l in
Ġ200 5
iz ed
an ies
ar get
Ġ200 1
TR ANS
Ġin ternational
Ġbeg in
ĠAf ric
p end
Ġ ON
Ġs ingle
get her
Ġw rit
Ġm embers
Ġto gether
P ORT
b y
There fore
Ġinv ol
Ġpri ority
n g
s h
Ġper iod
us sion
ate g
0 8
fort unately
Ġcor rect
Ġh olid
Ġso ft
ĠV ice
Ġp op
er c
Ġse ver
Ġf o
Ġn on
ĠCommission s
end ment
Ġl ive
Ġex ist
ĠComm unity
A K
an i
Ġst at
Ġinvest ment
C o
ĠS p
reat y
f er
at ives
Ġgrow th
J udgment
Ġo pp
ĠA mer
ri ef
Ġus ers
Ġman agement
! !
ĠB ank
Ġinst all
ar ian
Ġv ar
Ġke ep
C C
Ġf ul
id d
Ġ29 7
Ġtra d
large ment
3 4
Ġw rong
pl es
Ġconsid er
Ġb ro
Ġb reakfast
m ost
it er
pport e
ustain able
2 1
W ill
Ġ3 5
pos e
T O
Ġl arge
Ġbe c
Ġd ial
Ġso on
g s
o om
ĠE m
p ri
Ġ Qu
Ġres erv
EN TS
ĠF igures
iv id
D es
it es
al m
35 5
ĠMEM O
m itted
ĠK roes
Ġext rem
Ġne ar
Ġach ieve
id ence
Ġst op
Ġ ]
Ġs ession
Ġhe ad
ĠT O
Ġcle an
ring e
Ġa ble
ro s
Ġsever al
Ġp ark
Ġper fect
A b
l er
Ġw ar
Ġloc ation
it her
Ġh ist
ell ent
Ġus ing
ab our
Ġrem ains
Ġret urn
C om
Ġrese arch
Ġf ood
a i
Ġpart ners
ĠAg reement
Ġbel ow
ST AT
Ġo cc
ĠC ase
Ġ201 5
Ġop inion
A DE
Ġd uring
e ed
U se
W ant
Ġ200 3
ide o
z e
Ġ ..
Ġ200 4
Ġdisc uss
2 6
Ġ et
Ġt ry
ĠP R
ĠE N
ain ed
Ġro ad
am b
re am
P l
r ast
ĠT ransport
2 8
Ġne got
Ġ9 3
R eg
an o
Ġas pect
Ġappl ies
Ġon ce
Ġle arn
Ġdel i
ĠJan uary
as ter
Ġb rief
Ġwrit ing
Ġtra ining
Un ited
Ġm ov
ct ober
Ġor ig
ĠReg ions
Ġcertain ly
u el
Ġref er
Ġw a
ĠA G
On ly
Ġs ure
ĠS T
il i
ac hed
enc es
Ġfam ily
Ġg lobal
Ġcon nect
du ction
Ġevery thing
Ġobject ives
Ġ2 6
Ġpro ceed
Ġupd ates
Ġof ten
Ġclos e
a ment
on se
Ġd irective
Ġcent re
z a
qu is
OM IC
200 1
Ġh ouse
Ġty pe
ic ies
Ġres ources
Ġam ount
Ġdisc ussion
ĠDe cember
Ġ3 355
C urrent
b e
Ġ Thank
rat ul
ĠO ffice
Ġach ie
it ors
ig ation
Ġcom fort
Ġ3 2
Ġcomple t
Ġabs olut
ĠEn glish
Ġb ank
ĠM ed
IN AN
Ġs at
Ġs ide
us ic
clus ion
Ġ ess
Ġpro per
ep t
Ġapp ly
UL TURE
Ġfollow s
ĠDe f
y l
Ġt re
Ġcom es
cept ion
Ġmaj or
t a
OU R
3 6
ĠE ducation
ĠW orld
Ġextrem ely
Ġp ort
ĠO r
anc ing
m ar
Ġd ont
Ġl and
ER G
g en
an a
Ġk m
Ġleg al
Ġn ight
Ġh ours
op y
Ġinf ringe
Ġdocu ments
Ġl ater
Ġ200 2
Ġrequire d
i res
Ġl at
Ġimpro ve
G R
Ġt ask
Ġexper ience
Ġmonth s
iv ely
IN T
ĠSec urity
ĠEURO STAT
f act
i en
w ell
Ġa ut
Ġc ou
if ul
Ġdocu ment
I F
i ations
Ġreg ion
ĠHe alth
I K
e uro
Ġqu ick
A m
t le
Ġ es
Ġc at
Ġin de
ĠF ederal
ĠG eneral
ĠIn ternet
m inist
on es
ess ment
Ġrece ived
pporte ur
U C
t hen
ĠF or
ĠB er
reed om
Ġw ind
Ġ5 46
Ġinclud ed
Ġrece ive
iv il
ĠMAR K
Ġc a
Ġf ish
ĠP art
C ons
ĠW hat
Ġprov ide
En vironment
k i
v a
Ġhe ar
P ortugal
h od
Ġpos itive
ĠB l
Ġ0 2
O D
Ġw alk
ĠF R
Ġinte g
Ġhappen ed
E conomic
s ide
Wh ich
Ġperson al
ĠA ll
ĠT R
Ġvot ing
Ġw omen
ot s
ĠN eelie
ak ing
Ġwork s
Ġprincip le
Sec ond
Ġc red
Ġamend ment
Ġest ab
II I
ol f
Ġnot e
Ġex act
Ġappro ved
Y es
Ġpropos ed
Ġy es
Ġle ast
Ġmention ed
Q U
S he
z er
ĠS u
ĠAm endment
b on
ER S
ĠW h
C OM
ic ial
Ġhe art
Ġcall ed
it ution
Ġl anguage
% .
3 8
Ġpriv ate
Ġc am
Ġc ases
Ġcont ent
Ġcont acts
Ġsystem s
aut iful
ar a
Ġresp onse
ĠG erman
ĠO ctober
Ġpre vious
Ġrest aur
at ory
ĠT reaty
Mr s
Ġent ire
e es
ig ration
Ġclear ly
Ġb ased
Ġfun ction
ĠCol omb
ĠC OMM
Ġl ight
ĠEU s
ĠE nergy
C Y
ĠF rance
Ġ29 8
ove mber
ept ember
C ourt
Ġim age
ord ing
Ġre ject
un ities
ĠWITH OUT
p s
Ġn ice
ĠH ome
ir m
ĠH ow
Ġen c
Ġcomp et
Ġar ri
ĠC omp
ĠF l
ab ly
Ġhapp y
Ġmess age
he l
ĠM on
Ġar t
r ime
Ġg r
Ġgu arant
Un fortunately
Ġrespons ibility
Ġcomplet ely
Ġpri orities
Ġs um
os s
op her
h old
Ġs ent
unic ations
Ġconclud es
ĠC an
ĠP residency
ra g
Ã ĸ
ĠA b
U B
Ġ urg
en n
Ġcomp etition
Ġ )
Ġf ront
Ġtak es
E G
Ġto wn
ivid ual
p re
w ord
Ġf ocus
Ġg entlemen
ust ri
med i
INAN CIAL
P ublic
a id
Ġs y
Ġf ail
ĠB ug
ree ce
Ġexc ellent
Ġdem and
Ġt arget
Ġide a
TR ADE
Ġopp os
euro pa
E V
Ġc reat
Ġit em
Lat est
Ġt ell
P h
Ġm il
anc ed
he ad
ĠAfric a
ĠMARK ET
Ġb ath
ist ics
g u
Ġj ob
IS HER
ater ial
tect ion
Ġs ch
Ġu nd
olut ions
Ġbas is
Ġsoft ware
3 9
Ġreg ist
OM E
p or
u ge
er g
Ġbu y
Ġan im
k a
Ġprogram mes
Ġrep ly
p ut
Ġfil es
P er
Ġm ind
ĠA ug
ac cept
Ġch arge
Ġte am
Ġlegis lation
Ġbe ach
se qu
ĠN ovember
Ġind ustry
ISHER IES
4 4
T H
Ġo bs
Ġde cl
ru ary
Ġmod ern
Ġeff ort
Ġchang es
d en
on y
ig ital
Ġcon g
com ing
ad a
at ic
Ġre view
ric ultural
Ġm ark
ell i
Ġcond itions
l i
Ġf air
og n
ord er
Ġstep s
cri pt
Ġpol icies
s p
er ia
ill a
oc iety
Ġun accept
Ġcre ate
2 9
D oc
h aps
i ol
Ġt reat
al es
ĠC ost
Ġg ot
eb ruary
Ġd ire
ĠG DP
AL L
Ġ0 7
Ġel se
Ġachie ved
e y
ch ange
Ġhot els
O INT
S u
Ġc ateg
Ġadd itional
Ġr ue
Ġcont ribution
Ġem ployment
o o
Ġf ive
echn ical
Ġdemoc racy
P re
Ġt able
Ġf igures
ĠI II
Pri ority
ĠR ussia
5 5
Ġre nt
Ġcomple te
Ġask ed
Ġgen er
reng then
Ġunaccept able
TI CE
ac es
Ġactiv ities
Ġv ia
S c
Ġp ub
Ġn at
ĠM obile
end ed
C L
ct ions
ĠS EC
ĠS pain
Ġab ove
iz ation
Ġchang ed
m a
Ġc ard
ov a
Ġgroup s
200 7
Ġdial ogue
Ġess ential
E ach
w w
ĠE l
Ġse a
Ġful ly
ĠP al
ĠA D
Ġse arch
Ġimp act
ĠB o
US TICE
Ġcho ice
S O
ĠS eptember
Ġamend ments
Ġpur pose
Ġapplic ation
8 0
E W
Ġmet hod
or ies
Ġbe autiful
Ġe conomy
E K
u ck
Ġse ems
ru ction
Ġ0 4
f erence
or way
Ġse en
EN CY
L adies
Ġs umm
ĠD im
Ġde v
Ġany thing
ĠIt aly
a pe
h ib
ĠS umm
ac ed
st r
ag ing
Ad d
RIC ULTURE
urs day
pare ncy
Ġsaf ety
ĠColomb ani
T rans
Ġact ions
Ġcong ratul
as ing
Ġl ove
lo g
V EL
u ed
Ġcom b
Ġdire ction
Ġe ver
Ġholid ay
ĠF ret
IS C
on a
ĠC or
ĠM ic
ĠT ime
ri ed
Ġ You
ian s
Ġevery one
M er
g o
Ġf ramework
Ġo il
Ġh ig
Ġother s
ĠFret well
ic i
ĠD irect
Ġthank s
ĠCo operation
ĠC ulture
ĠI V
Ġlink s
ist an
ĠV al
Ġen g
ĠReg ulation
Ġed uc
VEL OP
6 0
S e
Ġw orth
Ġp ool
Ġcl ass
Comp etition
ro at
at ab
Ġpe ace
Fin ancial
Ġtalk ing
Ġm usic
ĠW ind
ud e
Ġ4 0
are d
S pe
h a
Ġs ize
Ġfor ce
ren ch
Ġind ividual
Do es
Ġcho ose
er ve
Ġch ar
og raph
pl ay
Ġprodu ction
Ġexpl an
S P
at ors
Ġm or
Ġpre c
4 9
ou l
vest ment
Ġbec ause
ang er
EM ENT
Ġconf erence
Ġabsolut ely
2 3
O ver
k ra
ire d
ich a
ĠDef ence
Ġw el
ĠA ir
O pen
V I
Ġpict ure
I nt
Ġre ady
Ġyou ng
Ġgo es
ĠUn ited
Ġmarket s
B y
EN CE
TIN G
Ġh old
ĠM ont
Ġdou b
he sion
in i
Ġm aterial
ĠT urkey
Ġdirect ly
Ġs ale
ĠI P
ĠF ebruary
ist ic
Ġle ave
Ġ201 1
T A
Ġs w
Ġw he
ro so
iven ess
Ġincre ase
Ġexact ly
Ġre ality
ĠP ublic
Ġstate ment
Ġcap ital
Ġv ideo
Cont act
Ġloc al
Ġwas te
Ġmatter s
ĠB elli
olid arity
Not e
ĠBe fore
ĠBelli ard
Ġs ound
it a
ĠH OME
Ġopport unity
8 8
W ould
Ġ201 3
Ġgover nment
F OR
g ed
n ter
s id
VELOP MENT
6 5
t i
Ġs ol
AG RICULTURE
cri ption
Ġele ments
idd le
un ch
F ISHERIES
ĠC H
her n
Ġsu gg
ful ly
ĠFin ancial
com es
- -
Ġcomp anies
c hes
h ic
er a
Ġreg ulation
4 7
V is
Ġt em
Ġp o
led ge
Ġallow ed
Ġc ode
ĠE ast
Ġal one
Ġag enda
Ġbuild ing
Ã Ħ
en ge
Ġm ar
Ġm ult
Ġv ol
ver t
Ġra pporteur
Ġconcern ed
Ġ3 1
S E
Ġf ight
Ġp ot
Ġd est
Ġh ost
ĠR om
Ġper form
Ġrec ord
Ġb ad
ĠE IB
Ġiniti ative
C O
Ġh on
ran ge
Ġstand ards
Ġinfringe ment
o e
y pe
il t
ĠA C
Ġsc he
Ġaff ect
Ġa ware
Ġe v
iv ing
ĠTh ursday
M ENTS
T ake
Ġin ternet
Ġd atab
il ar
ĠE ESC
Ġact ually
Ġinde ed
H ave
W ell
c hed
J USTICE
M ad
Y et
a ult
Ġt el
im s
if e
Ġim medi
S K
re et
Ġstart ed
Ġexam ples
c he
Ġf arm
Ġm iss
ament al
b an
ĠA ction
res ted
Ġde pend
200 0
a ul
y n
Ġ ident
Ġreport s
) ;
j ust
er ing
Ġam b
Ġapart ment
A PP
D O
o pp
Ġa ge
ap an
B oth
C he
ou d
it arian
ens ive
Ġ199 9
ĠGe org
Ġp ast
Ġm ax
Ġn ature
10 40
Ġdef in
w here
ĠV ass
Ġprov ided
Ġen largement
Ġem ail
ruct ural
Ġupd ate
ĠRe f
Ġknow n
Ġsub st
Ġsch ool
roat ia
a w
Ġf ill
Ġb ring
Ġto ok
ĠC ons
ell ing
Ġterm s
Ġb it
ir t
ore d
ĠV I
r ight
Ġyour self
Ġsat is
L anguage
Ġm ember
Ġparticular ly
Ġexpect ed
S uch
s pect
Ġw ww
it ure
Ġo ption
Ġto wards
Ġcl imate
J ust
y a
Ġst ation
angu ages
us h
Ġin novation
Ġr ates
A Y
Ġre v
Ġal most
Ġhe ld
Ġ201 4
ĠReg ional
icha el
7 0
ot ing
ol a
oc iation
Ġpay ment
rast ructure
Ġsum mer
C OMM
e in
ĠT ra
ip ment
M an
Ġf all
Ġpart s
Ġcomm it
in ary
Ġre ach
Ġ7 0
Ġte le
Ġappro pri
Ġlat est
ĠAug ust
o x
Ġg round
Ġ8 0
Ġdec isions
Ġnegot iations
n is
Ġinst ru
F ind
P art
w ise
al d
ĠIn st
EC ON
Ġcre ated
R elations
Ġs ens
ĠI g
Ġfriend ly
E A
at ures
Ġsp ace
Fin ally
Ġpract ice
ĠF INANCIAL
Ġoff ice
uc lear
Ġdou ble
omm od
over nment
Ġsign ific
it able
ir c
Ġreg ul
Ġdatab ase
v ant
Ġs olutions
il es
Ġqu ot
Ġmod el
Ġ14 2
Ġval id
Ġple ased
Second ly
M ay
n s
Ġ x
Ġm ach
ĠE conomy
ac ity
Ġobject ive
Ġfund ing
u ter
Ġs ense
ĠM embers
8 5
o on
Ġm ount
la v
Ġreg ional
ĠWind ows
Ġchar act
T wo
i ra
re c
Ġrec ogn
ump ing
Ġeduc ation
F R
le y
ĠSe a
A cc
b ate
r ary
Ġag reed
Ġinclud es
ustri al
S im
s er
Ġw arm
ĠA t
ĠA ud
ure d
Ġpre pare
Ġhapp ens
Ġind ic
Ġmak ing
r ated
ĠC ar
Ġre ached
em oc
um er
Ġus er
iter ran
V ery
as on
Ġval ues
Ġbeh ind
kra ine
Ġt ick
Ġup on
Ġext ra
Ġadv ant
Ġtechn ical
Ġ93 96
Ġw ond
Ġf reedom
Ġp ath
ack s
Ġcont ribut
re g
ission s
Ġint ro
Ġm ist
Ġm ight
Ġr ather
Ġve hic
F ree
ĠM al
Ġopen ed
Ġstand ard
UR ITY
Ġfriend s
ivers ity
U K
l ight
Ġhelp ful
ar ation
Ġlist en
re ad
on z
ĠW est
Ġ0 9
Ġselect or
ĠPl an
Ġrestaur ant
Ġpl ann
Ġ201 2
Ġsit u
id el
Ġact ive
R oom
o le
ĠA v
ĠS er
ĠO per
ep end
Ġcont ains
i ke
j a
Ġd anger
as c
ĠP ri
ĠS an
Ġappro x
Ġpict ures
m ing
Ġl arg
ok es
IN TERNAL
ĠIn ternational
Ġ6 5
APP OINT
Ġ 99
us es
Ġtra vel
ĠCon vention
Ġcomfort able
G u
ar ly
Ġin ternal
Ġd am
ĠRes earch
Ġquick ly
iterran ean
l la
r s
ro p
Ġh alf
ĠL is
Ġimport ance
rat ic
Ġinvol ved
8 1
M e
R ec
g ing
ĠP er
ĠD G
ab les
ION S
Ġaspect s
Ġnat ural
O W
l ative
Ġf re
Ġde ad
Ġ6 4
ĠO n
Ġour selves
ECON OMIC
M on
M ost
Ġf an
Ġgood s
An y
l u
o ice
la x
Ġchall enge
L AR
ĠA N
ĠG o
Ġse par
Ġwant ed
Ġcustom ers
itut ions
Ġl ate
igh b
Ġag o
Ġrem ark
os p
um s
Ġ14 9
Ġtak ing
c omm
r ink
es tern
nc es
ĠIn vestment
ix ed
M ed
b ody
Ġc al
TRANS PORT
E m
L e
it le
Ġb illion
ĠE d
ĠN ot
av id
ĠG reen
itor ing
Ġf lex
Ġcomp rom
Ġj oint
Ġa ud
Ġaccept ed
c ast
Ġs il
iv al
Ġe ither
Ġv ict
pr ise
Ġpers ons
Al so
Ġpur ch
b ar
s z
duc ed
Ġmen u
ĠS outh
Ġoff icial
ough t
mar quis
CL US
Mad am
en a
ed nes
Ġl ab
ra z
Ġhist ory
k s
In formation
ov o
Ġpr int
inut e
Ġeffect ive
Ġenvironment al
ĠSEC URITY
O J
a res
ĠG onz
d ays
Ġb at
ot ion
se e
if t
rate g
O Y
Ġ round
Ġf ore
Ġd er
Ġre d
Ġadd ition
Ġcent ral
H otel
an e
TE D
Ġenc oura
an ish
ĠS k
Ġsupport ed
Mer ger
ednes day
m ore
Ġf acts
ĠBer lin
ĠSt rategy
Ġpart ner
Ġ6 7
Ġacc ommod
OP ER
Ġple as
Ġimplement ation
O ffice
Ġ ur
ĠE r
ĠS CH
ay er
ĠR elations
ĠT el
ec ision
Ġout side
Ġread ing
4 2
Ġd iv
ĠC as
Ġre pl
Ġevent s
4 8
R ed
n ew
Ġp ages
Ġb row
Ġv ac
Ġsh ows
Ġ5 8
Ġar ch
Ġr ange
ail y
ĠChrist opher
4 1
ĠC ap
Ġv iol
ĠJ os
y le
er o
ĠM art
ĠF isheries
Ġen s
ob ility
95 86
Ġgover n
P e
u fact
Ġ This
Ġt error
Ġc ru
Th ose
ad or
ag ed
Ġsim ilar
Ġide al
Ġbal ance
O G
and s
ec ut
Ġfe ed
Ġa head
Ġequ ipment
Ġchall eng
Ġf ran
Ġf ast
ĠI nt
In ternational
Ġconsult ation
Ġsignific ant
CLUS IONS
P ay
Ġs un
Ġl ic
ĠI D
TI C
ult s
4 3
Ġs ociety
res sion
ĠF rench
oc ation
ast e
Ġcl ient
Ġco ver
Ġagree ments
Ġprov ides
Ġbenef it
A IN
P O
Ġs ix
Ġc ame
Ġl ies
ĠP at
ag raph
US S
Ġcrit eria
ĠEm ployment
us iness
Ġbo ard
ĠM y
oc al
ru it
wit zer
u ild
ĠA L
de bate
First ly
c ent
ph one
Sub mitted
o id
Ġre act
Ġg as
Ġg ra
ne y
8 9
E nergy
Ġsh op
Ġr out
end ing
Ġmot ion
Ġobs erv
P S
Ġdis play
200 5
Ġdiffere nce
ĠPh il
E mail
S ince
ill s
ĠCON CLUSIONS
Ġjo bs
Ġtechn ology
Be fore
ili ou
ERG Y
ĠP e
ĠJ oh
ĠDe b
ĠAg ency
Ġauth or
7 7
Ġs ustainable
Ġse ction
Ġam ong
ock s
ĠPRO GR
o rest
w ide
Ġc ross
Ġb orn
Ġe y
TI V
Ġrequire ments
T echnical
Ġc ulture
Ġl ow
ĠN etherlands
Ġ4 8
Ġtra in
Ġbenef its
APPOINT MENTS
OPER ATION
Ġd om
ĠP L
ĠR ights
Ġ3 3
Ġpart ies
Ġob vious
Ġcomple x
Ġfund amental
Ġbegin ning
Ġ ).
im b
olog ical
Ġfund s
Ġair port
t ain
Ġt er
Ġl anguages
ĠT V
Ġli ving
ĠN e
val uation
Ġcongratul ate
Ġwond er
witzer land
B ec
C ouncil
t ion
Ġre lax
ĠI reland
ig ure
Ġhe ard
ab led
Comm ittee
ĠWe b
Ġmed ia
Ġ ill
Ġin form
Ġd en
Ġd im
Ġse em
M ar
Ġm obile
ĠM e
ia m
ĠV er
Ġacc ording
Ġtrans parency
Ġserv ed
Ġra il
Ġpark ing
Vis it
i us
AS S
Ġrespons ible
ipp ed
ĠAmer ic
M aria
ĠG R
Ġsa fe
200 2
App ro
str Ã¶
ĠLis bon
sz l
6 7
Ġth us
ĠT r
Ġem ploy
Ġphot os
Ġal tern
Ġ3 4
Ġim pos
IN S
ale z
Ġdra w
l ig
Ġt ou
Ġst ated
ĠL abour
In ter
Ġag ricultural
ĠEuro pes
ĠIg les
ĠS ME
Ġst age
TE L
Ġdist ribut
aris a
H er
i os
ĠR ec
Ġra d
the less
Ġlim ited
ĠAmer ica
Ġbath room
ĠGonz alez
W ork
ĠC D
Ġad minist
aly s
Ġtr uth
Ġpass word
201 0
Ġbeh alf
ĠP aper
ĠS lo
Ġsub sid
pecial ly
Ġbro ad
Ġdoub t
ĠIgles ias
M arisa
Ġc ivil
ĠP re
ra el
art h
Ġout come
ĠPro tection
Ab out
Ġcomprom ise
The ir
Ġinst itutions
Ġlegis lative
ĠMad rid
Ġaut om
c a
ic o
Ġv ill
Ġde leg
Ġr ule
Ġun ique
bo ard
Ġopt ions
E AR
L ER
w a
Ġ [
Ġw ays
Ġf ace
ĠS O
am a
Ġreg ister
Ġpub lished
ak es
ĠCon ference
Ġcred it
D irective
Ġs ays
it iveness
ĠE M
ur d
ra b
um e
Ġ5 00
ĠBar roso
n ual
Ġj our
Ġinte rested
Ġthough t
idel ines
Ġs us
ain t
ard en
Ġar gu
plement ation
Ġbas ic
Ġorig in
Ġestab lished
6 8
U ND
es e
om ep
ĠT e
um ber
N ever
ĠM c
ĠN orth
Ġprof ession
ĠPROGR AM
% )
a pt
Ġp res
ĠP aris
ĠS ystem
ter m
Ġbu ilt
ĠPol and
at ur
Ġli k
ĠAg enda
ĠMad am
p ol
Ġ $
it ical
ĠE st
Ġal ong
qu es
Ġex change
Ġ199 8
over ty
Ġhappen ing
O b
T rade
Ġc opy
Ġde ep
Ġcomm unication
ĠCon clusions
Ġstud y
Ġpot ential
is hes
Ġe arly
rou lla
Ġim ages
Ġreg ions
AS T
Ġfe atures
Ġser ver
ĠMic hel
1 00
o ke
Ġfish ing
H el
Ġm is
ic ient
own load
Ġrequ ires
Ġinterest ing
omep age
ro ll
Ġcont ext
CI SION
au gh
z o
Ġl ack
OR K
Ġty pes
ners hip
FOR M
E IB
r d
Ġ 00
an ism
Ġn orm
ĠM ac
ĠA ustria
ĠR o
em ployment
ĠL in
Ġ6 0
Ġknow ledge
Ġmeas ure
Ġbo x
it ary
ĠRe lease
S p
or ry
ĠB al
ĠP ark
ĠD ISC
Ġim m
ĠCent ral
O C
U RE
Ġb reak
et ter
ĠA part
Ġgo al
Ġcomp uter
Ġthem selves
rib e
Per haps
e z
Ġc irc
Ġd aily
ĠT H
oc ol
l ines
Ġpar agraph
Ġfield s
Ġtreat ment
G ood
S m
Ġm ag
Ġd ream
ĠA re
id er
ac hes
Ġcl ar
Ġide as
ĠInd ustry
Ġprepare d
8 7
9 3
v els
Ġf ine
ro ad
e ad
Ġp an
Ġst ory
Ġse lection
Ġcont ract
ip s
Ġsa ve
Ġopport unities
Ġvar ious
Ġreject ed
6 6
G I
Ġ ri
Ġc ause
Ġresp ond
E ven
P RE
ĠC OM
Ġde ath
ĠH ans
Ã¼ r
f in
Ġt on
res h
ra ft
ĠJ apan
ĠW ork
In st
IS SION
Ġhig her
Ġp aper
Ġl ost
ĠG reece
Ġcom ing
Ġfound ed
ĠAr t
Ġexplan ations
Ġdim ension
G E
b ott
pos ition
Ġ0 6
DE VELOPMENT
Ġexper i
Ġcustom er
H is
it ation
Ġre pe
ĠM a
et h
os ovo
ĠDE F
En joy
Ġurg ent
H ome
at o
Ġth reat
se mb
Ġcap acity
D isc
Ġw ritten
ĠT or
Ġli ves
ag er
AR D
Ġansw ers
Ġparticip ants
Che ck
Ġchalleng es
b ers
h ol
Ġ4 6
Re ad
ĠDirect or
9 0
i ff
Ġd u
ĠI M
ber g
Ġor d
Ġ3 7
Ġapp lause
IS T
Ġeffort s
d own
Ġst rengthen
Ġit ems
ĠG rand
Ġappe ar
m as
s ter
Ġt im
erv ices
enc ies
Den nis
Ġsuccess ful
Ġimmedi ately
Ġlarg est
A id
D irect
o z
re te
Ġb ott
ĠC om
et ary
ur ch
ra ud
ers on
pos al
Ġ9 2
Ġbr ings
Ag riculture
Ġa f
ĠI raq
ph as
ĠComm unication
9 2
Ġs olidarity
Ġb ody
Ġcon sequ
ail s
Ġcateg ory
im ately
Ġ7 4
Ġcons ist
Im pro
201 3
Ġmax imum
Bec ause
V ice
Ġb an
ĠT rans
Ġh arm
Ġg ives
ĠL uxembourg
av a
Ġpre vent
Ġelect ric
Ġm ap
Ġd rink
Ġst ra
ĠB R
d am
Ġb log
ĠA pp
ĠS y
ĠW ednesday
Ġstart ing
Ġphot o
Ġproper ty
R ES
Ġp erm
ar ter
un t
EN Minister
Ġ199 7
Ġcol lect
Ġguarant ee
ĠB Y
.. ..
mb ass
Ġselect ed
Ġwa iting
i ate
Ġs ource
Ġc ards
ĠP ort
Ġapp oint
Ġcall s
Ġwat ch
Ġdiscuss ed
K ey
on om
un a
Ġex ternal
Ġcont ain
Ġpart y
ĠIn n
Ġco ve
Ġser ies
ĠP eter
Ġg reen
ĠW TO
Ġle ar
5 2
b ook
v is
ĠM or
Ġweek s
Ġmove ment
A v
h ood
r ite
Ġ Q
Th ird
ver age
OR S
Ġass essment
Ġcent er
Ġpop ular
Use ful
E TING
S ource
Ġ Question
Ġre ception
Ġsk i
v ote
or se
Ġto t
Ġd ue
ast ic
Ġcomp l
Ġdis e
pa ign
Ġsitu ated
B l
Ġs ort
Ġp en
Ġp aid
Ġor al
Ġgu est
strÃ¶ m
f ace
ĠA ct
ul a
ĠR ad
ĠJ ean
Ġpl ans
Ġuse ful
Ġtr ack
Ġman ufact
Ch rist
Ġincre ased
Ġstat istics
V II
Ġw ine
Ġm ass
00 00
ĠU kraine
Ġem phas
Ġmin imum
Ġcove red
ĠP r
ĠB en
for ce
ĠL at
Ġmy self
Comm on
Ġgl ad
Ġconnect ion
Ġoppos ite
6 1
M O
c ont
ar ies
Ġsh own
ĠCO OPERATION
Ġsu ff
Ġqu iet
ES ID
Ġtr ust
Ġcomment ed
Ġhist or
yl um
5 7
u is
Ġs elf
Ġp ie
al t
EN D
are l
Ġconcern ing
Ġsur ve
T ransport
U p
ord ination
Ar ticle
ant ic
av ing
AC K
Ġrest rict
Ġconsum er
let ter
Ġtre nd
Su pport
H uman
c or
c hen
i i
u z
us ed
Ġg ames
Ġorig inal
Ġyes ter
B ER
S ocial
Ġt w
is on
Ġcon cept
ĠF orest
iv ity
In ternal
IN D
Ġ9 6
Ġfin ancing
PAR ENCY
ffic ient
9 4
A ss
U G
U P
b urg
Ġt ru
ĠC ity
ĠS he
id ing
Ġde part
op h
Ġwork ers
d umping
Ġt en
Ġh y
ĠM E
ĠD an
ress ed
Ġwh ile
Ġem erg
oura ble
Ġconsum ers
Ġwind ow
Ġmor ning
L ook
ĠP ot
ĠS TR
ĠG od
ĠH er
TE S
Ġme ch
rough t
Ġeas ily
Ġaddress ed
sp okes
ĠOper ational
N or
as ur
Ġ- -
EC spokes
Ġ9 0
Ġwant s
Ġknow s
Ġthink ing
Re port
Ġcol or
mb H
Ad op
Ġes pecially
i ver
ment ary
ĠB el
ĠB elgium
cl aration
Ġdec ided
Ġpartners hip
A ction
b ia
u ments
er cial
Ġw ent
ur ance
ia b
Ġse ason
Ġ20 20
Ġform at
Ġfo ot
e v
l im
m us
ĠG lobal
Ġad vert
ĠĠ Ġ
Ġind epend
Ġrun ning
Ġrele vant
Ġtri p
N ational
S TR
ĠM i
ĠS w
ild ren
Ġsp ir
Ġappro val
Ġdra ft
Ġrele ases
Ġinteg ration
h ouse
Ġl abour
Ġab st
Ġcl a
ib ilities
Ġtrans fer
Ġhuman itarian
Ġbed room
Ġdri ve
ĠPart nership
ĠPROGRAM ME
d ra
Ġc amp
ĠA cc
Ġv an
row th
Ġar range
Ġinterest s
Ġentire ly
V D
i ber
ĠD o
Ġpre par
Ġdetail ed
Ġapart ments
Ġcru cial
6 4
H O
s ible
y r
Ġ ut
ĠM il
ri k
ie v
ov ed
Ġgr ant
CISION S
l s
Ġh uge
EU R
An other
Ant i
c her
e qu
Ġm and
ĠP aul
ĠG mbH
Ġprincip les
Ġfac ilities
cel ona
Ġpop ulation
L AND
S pecial
r ative
Ġt err
ar b
ĠP ortugal
all s
clus ive
Ġatt ract
ict ion
Ġsupp ly
uild ing
Ġdistribut ed
L A
ar ing
ill ed
Ġan alys
ud s
du ce
olog ies
Ġlim it
TRANS PARENCY
E EC
i ers
Ġw ide
Ġdes c
ĠY ear
Ġappl ied
ĠAss essment
I AN
u y
Ġc art
ĠP et
ĠS ant
In f
Ġ8 5
Ġac ross
Ch ina
ĠNew s
ĠSc ience
Ġregist ered
Ġcharact er
Pe ople
I X
re y
in as
at t
ĠC al
ĠB rit
Ġle vels
Ġsit es
Con clusion
Ġimpro ved
Ġpract ical
Never theless
f ish
Ġf oreign
ĠP C
ĠF ree
ĠB US
ĠD es
200 3
En glish
Ġstand s
Ġequ ipped
ron ic
Ġappropri ate
Ġdanger ous
9 1
I ER
b a
in ated
it uation
ĠF ood
Ġres ol
ip pe
are nt
ord ers
Ġpre m
200 9
mbass ador
D UC
Ġfor get
ĠM ichael
ĠA M
ĠS ol
Ġsupport s
g es
re ly
ĠP H
ra p
ĠH el
ere nces
Ġk it
urre ncy
Ġbed s
opp ing
semb ly
S omet
ĠS witzerland
ur ation
Ġpro t
Ġrel ated
Ġinclud ing
tic les
Ġoper ation
Ġanim als
T ele
T urkey
en h
Ġd ru
Ġst ructure
ĠT echn
Ġspe ed
Ġspe ech
lex and
ele b
Ġmon itoring
Ġstat us
Ġcam paign
Ã ľ
Ġs pr
ĠEx ternal
IG H
Ġwa it
ighb our
v ision
Ġ #
it ime
Ġqu al
eg al
Ġaccept able
Ġcrit ic
Ġiniti atives
itution al
or ge
Ġc ert
ĠS al
ur t
ĠF ax
Ġ8 9
Ġinf rastructure
Ġincre asing
ari at
Ġrele ased
Ġwhe ther
Ġtot ally
I TI
L a
g ar
at ically
Ġm ail
Ġwe ak
ĠT our
ĠW estern
ĠV an
Ġ4 4
ipp ing
Ġopt im
ĠCost asur
Ġvehic les
re as
at eral
Ġst ability
ĠD en
Ġch arg
EN ERGY
Ġnetwork s
ĠSME s
R ussia
re w
ĠP ie
Ġst rateg
ĠR omania
ok ing
Ġ4 75
Ġapp rec
Ġreg ret
ific ations
Ġeven ing
ĠAr ticle
eng th
Ġelect ions
5 1
5 4
C ar
P r
it ude
Ġb ackground
il le
il ia
res p
ac co
00 352
ch ise
IN ESS
ĠPro cess
Ġget ting
Ġsay ing
Ġadv ance
Ġinstru ments
F l
J ustice
P eter
b ack
w h
Ġc r
Ġon es
Ġcon ver
and id
ĠO pen
Ġad m
ER V
Ġbu ff
ĠCent re
Ġsche me
Ġsatis f
L IC
k t
n ia
Ġ( âĤ¬
Ġar ticle
Ġreform s
ĠST ATE
8 3
E F
Ġex erc
ĠIn f
Ġtrans l
Ġpresent ed
Ġcond ition
os en
Th us
Ġcon v
Ġsim pl
Ġexp end
Ġeuro s
Ġsl ow
ĠDim as
ĠSumm it
N umber
ent y
ĠC he
Ġ4 1
ab y
Ġgreat er
Ġplay er
ĠĠĠĠ ĠĠĠĠ
Co operation
Open ing
F ocus
Ġ error
re l
ĠP ar
ĠA p
ĠS o
ĠB est
ĠT ur
ĠH uman
um n
end s
Ġch ance
ount ry
Ex pl
ĠIs rael
Ġfran chise
Ġtou ch
ĠC yprus
id s
ĠD om
Ġex hib
ĠV II
AR Y
Ġ0 3
Ġra ised
C roatia
L I
y cl
Ġm em
est ic
am ber
ĠN ational
Ġ3 00
av ros
ĠPro spect
Ġcomm ittee
Ġ28 5
Ġpo or
Ġvill age
u a
is ely
Ġf isheries
Ġb ase
Ġis land
Ġl adies
ĠE CON
ĠR uss
ĠO b
hen gen
Ġav oid
Ġso le
ian o
ĠPro duct
ues day
Ġhand s
Other wise
Ġlo ad
Ġreserv ed
Ġreserv ation
ĠAD OP
m ical
ĠG U
ag ue
Ġreg ular
rate ful
Ġpress ure
Ġaim s
ĠAss ociation
Ġviol ence
8 2
c le
Ġf urn
Ġf igure
ĠC zech
ĠR est
Ġad just
Ġconf lic
Ind eed
ĠTR ANS
ici ency
i ated
ĠS ervice
ĠD el
ĠD ay
ras mus
Ġann ual
Ġaccommod ation
6 2
E xt
T C
o very
Ġf ear
ĠS weden
Ġg rateful
Ġrec ent
Ġeff icient
Ġmaj ority
PL OY
Ġ QU
in ner
Ġs port
Ġs ales
Ġg arden
Ġst yle
um ption
ag en
Ġent ry
ik a
ĠCon st
Ġcar ried
Not hing
Ġmed ic
Ġdevelop ed
r ant
u k
il ateral
ĠC AP
op er
ĠU r
Ġbut ton
Ġactiv ity
Ġtrad ing
Ġterror ism
ĠPhil ippe
Ġa x
or a
ri an
Ġsu itable
ok er
anc y
TION S
gy pt
Ġinvest igation
ĠFor um
G reece
Ġm m
ot o
ĠN ov
ĠW all
ES T
Ġind ustrial
Ġcomple ted
Ex ternal
Ġperform ance
ĠLin ux
ĠDEF ENCE
ĠBUS INESS
Ġexpend iture
D ec
s k
ĠM s
ĠI tal
ĠB AR
Ġhigh light
Ġsepar ate
PRE PAR
Ġmech anism
ĠPie bal
b ably
or iz
Ġm inute
Ġd uty
Ġn uclear
ub e
gh an
ĠComm unications
Re view
Ġcar ry
o ot
al ia
Ġst ake
Ġha ving
ĠK osovo
Ġconf irm
cript ive
Doc uments
ĠECON OMIC
ĠPiebal gs
D ownload
ĠP A
ĠW ar
ud ge
av igation
Fin al
Ġpay ments
Ġthrough out
Ġexist ing
Ġsumm it
Ġbrow ser
Ġens ure
ECspokes Antoine
L ast
b ourg
Ġb rought
Ġal b
Ġex cept
Ġ3 6
ĠV AT
Ġget s
Ġdisc ount
Ġconf idence
Ġpack ages
ĠSumm ary
Ġaltern ative
B R
P DO
at ch
Ġs le
Ġp oll
Ġd on
ff ee
Ġcomm unity
Ġprotect ed
Ġcol le
Ġjo in
Ġmark ed
raz il
O B
el t
et ing
Th ree
app oint
cel and
ĠMed iterranean
H igh
p id
y ond
in ter
ĠM iddle
Ġl uck
ĠE S
use um
US T
Ġnum bers
Ġfil m
UD G
Ġestab lish
Ġvict ims
5 6
v o
ut e
ĠH ot
ĠSt avros
Ġem issions
ond on
ĠProspect ive
PLOY MENT
A f
G o
t raq
on ik
ow ers
am ed
Ġeff iciency
Ġche ap
Ġwin ter
ĠMan uel
ĠBug traq
Ġeng ine
Ġmist ake
R IS
u er
Ġ1 000
ĠG overnment
ĠV ER
On ce
ĠY outh
Ġhigh ly
pre ne
Ġregist ration
Ġcommit ment
T raq
U nder
c er
Ġ il
re prene
Ġc e
Ġp ain
Ġin nov
ĠA uth
Ġst ates
st ein
ĠRe le
ĠPROC ED
Ġrecommend ations
Ġdevelop ments
Ġauth orities
Cl os
ĠSecurity Focus
ĠBug Traq
Appro val
C ould
l ad
n y
Ġd ie
ĠB usiness
ia ble
Ġne g
ĠJ o
ag s
Ġpre fer
mb uds
Ġsw im
o ose
Ġs an
ĠC arl
Ġl ines
ĠB ulgaria
Qu estions
Ġem b
Ġvisit ors
ĠAs ia
Ġappe al
Ġpurch ase
Ġconsequ ences
ĠADOP TED
P rom
m p
is ch
Ġs ong
Ġf ire
Ġf irm
Ġm obility
ĠS ervices
Ġsu per
Ġ5 2
ous ly
av es
Ġjust ice
Ġsc reen
More over
Ġconsid ered
Ġparticip ation
ras bourg
Ph one
Ġs ides
Ġc ultural
Ġd oll
ĠF er
ie f
Ġfe ature
Ġins ide
ced ure
Ġrisk s
Ġterr ace
A ir
T ra
m ann
ar ily
ĠP E
ĠI ran
Ġob lig
Ġplay ers
mb ol
Ġmet ers
Ġimplement ed
Ġlear ning
N E
R el
Ġbe ar
Ġst ock
rou d
Ġfin ally
stand ing
Ġexpl ain
ĠRele ases
D G
d i
p ress
Ġc ook
Ġp overty
ĠM ark
ric h
Ġcons ists
Ġdef ault
Ġrepresent ed
Des criptive
7 3
g el
Ġ er
ĠM od
res se
ĠF act
ĠD ub
Ġdo or
EN S
og le
Ġany one
Ġprodu ced
Ġpr im
Ġform s
ĠBar celona
Ġapplic ations
Ġet c
Spe c
7 2
8 4
E O
j our
Ġs ell
ĠP rime
ĠB udget
ell a
air man
199 9
itut e
Ġdeli ber
Ġrefer red
ecut ive
N on
Ġ 01
Ġw ood
ort hern
Ġpl aces
ĠK ore
Ġ4 3
ĠEuropean s
Ġdoes nt
ĠMar ia
Comm it
Ġadv ice
Sh ould
ĠFran k
Ġdeli ver
ĠWh ite
5 3
7 1
D et
n al
Ġc urrency
Ġd a
Ġd istance
Ġv oice
and a
ĠU K
ĠUn it
Ġstart s
UN IC
Ġserious ly
ĠAir port
LAR G
M A
S UM
t es
it ial
ĠI T
Ġcomp on
Ġ199 6
Ġmach ine
5 9
o is
re hen
Ġw ishes
Ġc eleb
ar us
Ġn ames
av ailable
pr ises
Ġplay ing
ĠCo R
ustom s
Ġadvant age
EAR CH
Ġton nes
B el
B reakfast
Ġw rite
Ġc ast
Ġre new
ĠS il
Ġex port
ĠL ou
... ?
Ġprec isely
D id
Ġv ess
Ġv irt
oc co
Ġpl at
Ġdet erm
Ġplay ed
Ġrepresent s
Ġfre qu
Ġimpos sible
T AC
i ance
on io
it ely
ĠG i
Ġmat ch
Ġcare fully
Ġcat al
SK I
PREPAR ATION
et urn
os ed
all ery
Ġsu fficient
ĠComm on
Ġur ban
Ġnorm al
A part
T ime
p ret
in n
or ial
Ġp ure
Ġd ates
Ġn ights
Ġth ous
ĠB AL
ant ly
ect ion
ĠJ ac
Ġwork ed
ĠSecret ariat
Ġ199 5
Ġinf lu
Ġlead ers
F ederal
L ink
L oud
Ġm er
Ġl ength
ĠP AR
ĠS P
ĠB on
am ic
ĠH ungary
Ġpl ant
Ġag riculture
Ġwh ite
Ġ8 4
Ġbel ong
Ġla un
Ġconf ig
Ġeffect s
ĠEC U
Ġaffect ed
b it
s ch
ĠP ina
em pt
Ġsu c
IN VI
AC H
Euro pes
Ġcou nter
comm unications
Ġrout e
Ġanalys is
LARG EMENT
M L
d ate
n et
ĠM alm
ĠS a
ĠS port
ĠB r
TE C
ĠCouncil s
Ġlook s
Ġra ise
Ġset s
Ġconst ruction
TIV E
5 00
7 9
T ax
Ġ ir
Ġf it
it ious
Ġre duction
ĠD VD
Ġcl ub
ab il
Ġoff ered
Ġsub mitted
Ġappe ars
ĠSp anish
Ġdepend s
A ct
C od
G reen
s es
Ġd igital
ent al
Ġh our
ĠA RE
op s
IN E
OR G
Ġ8 8
200 6
200 8
ĠDE CISIONS
Ġbl ack
ather ine
Ġfo rest
ĠVass iliou
Ġspir it
Ġsuc ceed
7 6
Ġs al
ĠC ast
us ion
ĠS m
ĠB alk
se c
AN CE
ĠU p
IN K
Ġar ticles
Ġover all
Ġlist ed
ruct ures
Ġsecond s
Comp anies
sc ribe
rim inal
Ġdeli very
Ġbrief ly
ĠAud itors
Ġremark s
Ġprofession al
F ER
G reat
M ake
e ep
k en
he st
Ġf resh
Ġm ission
ĠM ag
ĠA UD
Ġst reet
ish ing
ll i
Ġ7 3
pect ed
Ġref lect
ĠJan ez
Ġdesign ed
Ġdemoc ratic
OUR T
ĠCOMM ISSION
Ġarri val
Ġplann ed
ĠMart in
Pay ments
Ġdeleg ation
ghan istan
7 4
A ccess
B E
I Z
M ID
U E
n o
Ġa ffairs
Ġbe comes
ĠI nc
Ġst ore
Ġ0 8
Ġcomm ercial
Ġref erence
Ġcontin ues
Ġoper ations
Ġed itors
Ġgrow ing
ĠCl imate
Every one
Ġdam age
Ġjour ney
Ġstra ight
Ġb order
ĠD emoc
Ġpl us
Ġrem ember
Ag enda
Ġbook ing
ari ff
Ġcou ple
ĠForest ry
G roup
ĠH a
ĠL E
ĠL ondon
Ġcont rary
Ġ5 5
Ġun s
Ġequ al
Ġcontrol s
Ġpar am
Ġaccount s
Se lect
ĠAmeric an
I CI
Ġp roud
Ġst ring
ĠG entlemen
um b
200 4
Ġset ting
Ġsur round
ĠInd ia
Ġholid ays
ĠPROCED URE
U T
ro duction
ĠC am
Ġre duced
ĠE R
EC AF
Ġacc ession
Ġtra ffic
Ex am
Ġfam ous
Ġnews letter
Ġsubsid i
Y S
Ġs em
Ġc ur
Ġc rime
ĠI r
ĠL szl
Ġhe av
ĠU R
Ġpre vention
Ġworld wide
Ġprov isions
af ety
Ġbec ame
COMM ON
L ear
N orway
P RO
S er
ĠM et
Ġcon ven
Ġcon duct
est ival
Ġwith dra
end er
ec k
ap ter
Ġ5 1
Ġ5 6
Ġfollow ed
Ġpropos es
ick ing
Ġspeak ing
Ġ28 2
ĠAs sembly
Ġsupp l
Des cription
Reg ional
Ġsy mbol
Ġcal c
Ġwonder ful
g est
i ot
en ed
il ing
im al
ĠR ES
Ġ7 6
IC ES
Ġconc rete
State ment
Ġmot or
Ġtarget s
Ġanim al
Adop ted
C D
H N
ĠA R
Ġpro bably
Ġdis appoint
ĠFin land
Ġcontin ued
Ġsec ret
Ġlim its
IF E
7 8
C lear
F our
e ib
Ġf ruit
ĠS A
Ġst ar
ver se
Ġsh opping
Ġch osen
ag a
ip l
Ġco ast
De velopment
Ġocc as
ĠVass il
UDG ET
Commit ments
at al
or age
en ary
Ġc oll
ol k
ĠG Ã¼
ĠG rowth
EL L
ines e
Ġspec ies
Ġwin ners
Add itional
Ġamb itious
M od
Ġ That
Ġs old
Ġc ars
ic it
Ġl ose
Ġworld s
ĠAnd or
Man aging
D eputy
S A
a is
Ġa ward
Ġb orders
Ġm id
Ġn et
ac he
ut in
ĠF ramework
Ġan ti
ĠH igh
Ġme ant
ĠK arel
Ġco vers
Ġcent ury
Ġcontin u
Ġcol lection
Ġsec ure
Comm unity
Ġbr and
Ġsupp le
ĠCost a
Ġfarm ers
ĠPot onik
6 3
N ER
R ep
r um
en ing
Ġc ant
it ate
ad d
Ġr at
Ġli ber
ĠO mbuds
Ġ3 9
Ġdec ide
Ġgu idelines
ĠEn g
ĠY our
Ġbl ue
Ġupd ated
Ġdevelop ing
Ġtour ism
iab ility
K I
V III
p age
en er
om as
ĠP os
Ġg one
ra in
Ġst eel
ĠV illa
ĠEn ter
Ġsatisf ied
B reak
D igital
i ro
Ġto days
ĠM ore
ĠE X
00 27
ob by
IL L
ĠRE G
rim ination
ĠPH P
5 8
D avid
Ġs orry
Ġc ore
Ġf ixed
ac c
ect or
ĠO L
AN T
Ġun employment
ach ing
Ã¶ r
ĠCl ub
ĠPR ESS
ĠCons umer
Ġkit chen
D I
w eg
Ġc as
Ġp ension
Ġb ur
Ġn or
Ġl os
ĠS ingle
ĠD ep
Ġsh ip
Ġen orm
Ġper haps
ĠUn iversity
omet er
Ġopen ing
Ġdem on
Every thing
Ġtry ing
Ġs outh
Ġf a
ro y
Ġg ave
ĠO R
ru ption
ĠIn ternal
Ġco hesion
Ġph ase
ient ific
Ġask ing
ĠMAR G
Ġmil k
Ġmil itary
ighbour hood
r ust
ĠE AST
ĠR ules
Ġsh ower
ĠO ther
Ã¼ b
Ġmeet ings
Ġprom ote
Ġcrit ical
Ġparticip ate
bo x
Ġbal con
* *
D uring
P ER
m ission
Ġw id
il s
ĠC roatia
ĠA S
ir th
Ġde le
ĠN etwork
ab or
Ġclos ely
ĠHe ad
ĠAs h
Ġprof ile
app ro
ĠLa w
ĠFl ash
Sm all
Ġbuff et
P ost
u ction
Ġa wa
at ively
Ġb all
Ġb aby
Ġbe yond
ĠG al
Ġex ception
ĠN orway
ec ilia
ĠPl ay
Ġless ons
ĠUS A
Ġrecommend ation
Ġmaterial s
Ġdiv ided
Disc over
ĠShe et
C opy
N one
R est
t d
t ained
z eg
Ġ ;
ou nce
Ġf old
ent ral
os c
ac ious
ive red
Ġse x
Ġad apt
Ġdeb t
iz es
eg u
AC E
Ġset t
Ġ15 0
Ġint ended
leg al
ien na
Ġmethod s
Ġwel comes
Ġmount ain
Ġadvant ages
Ġexerc ise
Expl an
R em
R ef
l antic
m et
ĠM er
ĠF A
Ġde g
ĠO S
ric k
Ġ0 5
OT AL
Ch oose
Ġvar iety
go ing
ĠMARG INS
C K
Ġt ack
Ġa verage
is ations
Ġs qu
Ġp ret
as ures
Ġe valuation
Ġg e
Ġnot ice
ĠL ocal
Ġ20 2
Ġdel ay
Further more
Ġinter vention
Ġlet ter
Ġtick ets
m osp
s ive
v an
Ġ ign
ed s
Ġb lo
Ġv ision
ĠIn novation
vel y
Ġper cent
Ġplann ing
ĠAuth ority
INVI TES
A J
Ġc m
ĠM ON
ĠO p
Ġreg ime
ĠCh arl
und er
Ġcomm itted
Ġke pt
Ġimprove ment
ĠJoh n
Ġcritic ism
ĠItal ian
D LE
J oint
h n
en ger
al le
ĠF irst
ĠD avid
ĠT o
ĠT uesday
ĠL ink
Ġr ural
That s
Ġimport s
pect ive
All ow
Ġdel ivered
Pro tection
Ġfact or
Pol itical
Im plementation
ĠFund s
h r
m it
r ay
Ġs ources
Ġbe gan
ĠB ern
Ġsu p
Ġsp oke
Ġpolit ics
ex ico
Ġtop ic
ĠFran z
Ġvess els
F ax
Ġb on
ĠC ard
Ġfor um
ĠP ad
ĠS pecial
ĠR en
ĠL uc
ĠSt and
Ġty p
Ġauth ority
ĠCont ribution
Ġinteg rated
Ġapprox imately
Her ring
Ġautom atically
ĠSO CIAL
Ġswim ming
f ree
k ki
il ies
Ġh ous
ĠC R
ĠP an
ĠB ur
ĠT ri
art ment
Ġus ually
erv ation
Ġro ll
ang es
ond s
Ch ildren
Ġbl ock
Ġpar ad
Ġinstall ation
Ġbank s
ĠAb bott
Ġcateg ories
ĠKore a
( %
C or
b ania
o or
o res
ĠC OURT
Ġl ake
ac her
ĠT od
bs ites
OM S
Ġsp read
Ġrel ates
En ter
Ġtechn ologies
IG N
ĠOr gan
Em ployment
H as
n el
y d
Ġc ities
Ġp urs
Ġl ower
et itiveness
Ġe arl
ĠI X
Ġst e
ĠR O
ch arge
ru pt
ATE G
Ġbusiness es
isc al
Res umption
Ġmov ing
Ġhost el
Ġsatis fact
Ġtele phone
Ġpie ce
B AN
b all
b ased
at ible
Ġf raud
as tern
ĠS am
Ġst ri
ĠB an
EN LARGEMENT
ind ing
enc ed
Ġinvest ments
Ġfac ing
Res earch
Ġcam era
Ġdefin itely
ĠAre a
Ġadvert ising
S ustainable
os nia
Ġ3 8
TI S
Ġcomp lic
Ġun f
Ġve get
37 9
Ġproceed ings
Ġhon est
ĠDeb ian
Ġtru ly
ĠSw iss
Ġax is
N ext
Ġc ell
al a
Ġl oss
ĠA c
ĠR ober
ad ing
Ġus es
ĠO l
ĠJ ava
Ġsc en
ann es
ST A
Ġint end
Book ing
Ġmed ium
ĠAss istance
Ġful f
Ãĸ M
Ġfail ed
Ġhig hest
Ġcontribut e
Ġclient s
Clos ure
C S
D is
E ESC
H A
U s
m in
Ġp ick
Ġin itial
om an
et te
ĠA ut
Ġat mosp
oc ated
lo ok
erv es
Ġ8 3
Ġext ension
ĠAd d
Ġz one
Ġele ment
por ary
ĠGo ogle
E P
L ist
Ġt itle
Ġs am
et t
Ġyou th
Ġv on
ĠT ax
EC OMM
ĠEurope Aid
ĠPro di
Ġmet res
Ġexp ensive
De claration
Ġtick et
rehen sive
D ont
I r
t ime
Ġf ell
Ġto b
ĠF RE
Ġpl ug
els on
ian e
Ġco ol
Ġgu ide
Ġ199 4
Ġdef ined
ĠRes ults
ah n
oura ge
Ġperfect ly
ĠCap ital
Ġinform ed
Ġsle ep
ĠBalk ans
B ar
D emoc
L egal
h ab
y m
Ġst ress
Ġcon clusion
op les
out hern
Ġch ann
Ġdis put
Ġco ffee
Ġass ess
com p
Ġoper ational
With out
Ġregard ing
ĠAv ra
Ġencoura ge
Ġpleas ure
ĠAUD IT
6 9
B udget
C CI
M aj
t able
Ġc andid
ĠC ong
ĠP AP
ĠL am
Ġli b
Ġli ft
RO W
pos es
Ġdec or
Pro gram
Ġser ve
Ġrecommend ed
reng th
Pl ace
Ġmiss ing
force ment
ĠTRANS PORT
ĠAvra am
A mer
w in
ic ip
ĠP ack
ĠS und
ul ed
Ġhe s
Thank s
Ġ9 7
ĠAnd roulla
Ġbig gest
Ġinvol ve
Ġocc up
Ġflex ibility
ĠVassil ious
Break down
t el
ion e
Ġm ir
00 1
st an
ĠB ru
pp er
Ġr ich
Ġwor se
Ġref uge
Comm unication
Ġchang ing
ĠIs lands
ĠPR ESID
ĠNot es
Ġflex ible
onom ic
Third ly
Ġapprec iate
Ġconflic t
B etter
M al
Ġm inister
ĠP ed
ly ing
Ġwe ap
ĠB as
ĠB arn
ĠSt ud
ide os
Ġtrans lation
Ġsp end
Ġreason able
Ġhear ing
UB LIC
bar ometer
USS ED
ĠDISC USSED
reprene urs
D R
D ina
Q L
Ġre in
Ġl ay
ĠA rab
ĠT ele
RO M
Ġup g
Ġacc ident
Ġrec ently
Ġsc ope
ĠGe orge
Ġ75 3
Ġquot as
Ġfore cast
Ġindepend ent
UST OMS
Ġenorm ous
C ap
G O
J oe
Ġt ests
Ġfor mer
ĠP ost
ff ect
Ġfind ings
Ġrequ ests
Ġass oc
Ġrun s
ĠWOR K
Ġmean ing
SS ON
Ġgovern ance
UNIC ATIONS
MID DLE
B A
is a
Ġs now
ĠI S
Ġst rength
ĠD R
ri pt
Ġdis posal
clud ing
Ġsomet imes
arg in
eb an
pare nt
CC CC
hold ers
ĠDim it
Ġregul ations
Ġey es
ĠMc C
ĠDen mark
Ġdeliber ation
G lobal
H ence
a ud
Ġt ours
it ect
Ġb ug
Ġto ld
im a
ĠD I
ist a
ĠL td
Ġsee k
ĠPro f
iti ative
Ġsk in
Ġwalk ing
Ġ04 75
Ġdisplay ed
Ġemploy ees
Ġargu ment
enh agen
Ġalb um
Ġsan ctions
ĠIr ish
ĠAUDIT ORS
N L
P resse
V b
g ent
w ith
ou ble
Ġs ports
ra k
ĠF IS
ĠG l
ĠG old
ĠH en
Ġr ise
Ġcont rad
pos it
ĠCh amber
Ġadop tion
Ġsur pr
Ġtask s
Ġinstru ment
augh ter
Ġdise ase
ĠHot els
C ol
M ER
v ate
ro ck
Ġe at
Ġex ists
AN G
ĠV AN
ĠV inc
Ġ4 9
ount ries
St at
Ġra pid
Ġlead s
C ome
M embers
S C
el d
Ġg ir
ur b
ĠB O
ĠB razil
ĠT echnical
Ġ4 00
arlia ments
Ġsc ript
com ed
Ġcol our
Ag reement
Ġrelations hip
Ġrestaur ants
sequ ently
ĠAC P
Christ opher
TEC TION
Ġearl ier
M ichael
R EL
T ON
b order
u f
v i
it age
Ġd ed
Ġbe coming
ĠS pa
res hold
ul ated
Ġwe ather
ĠD ial
Ġpl aced
Ġag encies
ere n
Ġprodu ce
ĠPro ject
Ġpropos e
ux ury
elf are
Ġeas ier
Ġshort ly
Ġshare d
Ġgl ass
Ġinstall ed
Ġamount s
Ġsugg est
ĠEr kki
. (
N e
P OL
S EN
i pe
Ġf ee
ĠC la
ĠM ED
ig er
ĠB ro
ĠL o
ure ment
Ġwor ry
Ġen h
ug os
Ġmod els
Ġent ries
ient s
Ġdist ribution
Ġlead ing
Ġmess ages
ees c
Ġyester day
( )
E ducation
L Y
T ext
or ing
as y
Ġst orage
Ġwe ight
ri ers
ĠH enn
ĠCh inese
Ġinv ite
Ġcour ses
rengthen ing
Ġsol ve
Ġsil ence
cont in
Ġmand ate
Ġatmosp here
S H
W E
Ġsh ipping
Ġr ace
ĠV ienna
Ġdeb ates
Re al
Ġcustom s
ĠAnt i
Ġdev ice
Ġpleas ant
ĠCas ino
Ġrail way
Ġelectric ity
RES EARCH
Ġbalcon y
E lect
I O
R IT
c ell
o ff
Ġf ant
Ġd ied
ic ro
et he
st at
ĠO ffic
Ġres ort
ĠK y
ip le
Ġun ion
ĠRe v
EM PLOYMENT
Ġinter pret
Ġrequest ed
Ġversion s
rid ay
Ġfail ure
ster dam
Ġdesc rib
Ġinnov ative
S ch
Ġth reshold
Ġun ivers
St art
itte es
ĠCo hesion
ĠRes ort
ĠQu estions
Ġwel comed
ATEG Y
M arket
M EM
T itle
n os
n ight
Ġs n
Ġw all
ĠC amp
ĠE gypt
ĠT om
op enhagen
ell es
Ġwh om
Ġ7 1
II a
Ġpri ze
ier re
ĠAm sterdam
Ġann ounc
Ġstrong ly
Ġexplan ation
ĠGeorg iev
Ġcommit ments
Ġsurve y
ĠSTATE S
ĠHenn on
T ype
V EN
h an
h of
or f
Ġs pl
Ġc od
ĠJ oint
now n
Ġco ordination
Ġsp acious
Ġunder t
Ġmod e
ĠRepresent atives
ĠCon f
ĠX IV
Ġfl at
Ġbeg ins
ĠMed ia
ĠPal est
H U
R ue
f ers
Ġs and
ĠD ecision
Ġli f
TE IN
ec onomic
Ġsome one
Re form
Ag ain
ony m
Ġey e
ĠGeorgiev as
G L
J oh
S ituation
Ã Ł
Ġt ill
ĠA lp
Ġv ital
for ums
ber t
og ether
Ġprodu c
ib ly
Ġform al
olid ay
Ġcre ation
Ġfam ilies
Ġconst ruct
ĠSh ar
C A
f l
u gh
y ear
Ġw on
ar u
Ġb and
ĠI celand
ĠR oom
ad er
ĠG r
act ive
ĠW ord
ag ues
Ġun c
anc ell
Ġconc ent
oy al
En largement
ĠAn na
az za
Ġsign ed
Ġfl ight
UN ITY
Ġprom otion
Ġsl ight
ĠMan agement
Ġinfringe ments
Ġsugg estions
jour nment
ĠCoR s
ĠAsh ton
B ERG
D ata
F ran
k o
Ġ ic
Ġm igration
Ġg ain
Ġ6 6
Ġinst ruct
ĠY ugos
Ġext ent
ris es
ĠAn nual
Ad journment
Ġfact ors
Ġpur poses
Ġconsum ption
tle ment
por ate
Ġvac ation
Somet imes
ĠRuss ian
Ġplat form
Ġtob acco
E l
M il
N eelie
T UR
Ġh op
ĠD ata
Ġr ub
AN E
ak istan
if th
Ġsu gar
ell ite
ES TERN
Ġacc omp
ĠDE VELOPMENT
Ġrec overy
Ġman age
ĠChrist ian
Ġmov ed
Ġdefin ition
Ġlic ense
Ġter rit
Ġdru gs
Ġlaun ched
D ef
M AR
n or
Ġc y
Ġyou re
am ily
Ġas ylum
TE M
iv iane
Ġadop t
Ġdes cription
Ġcour t
IR A
Current ly
Med iterranean
ĠSlo venia
A X
G e
J on
ĠA ID
ill ing
Ġst ructural
ĠR ome
st ood
un is
end ar
Ġsa w
Ġar ms
Ġbo ot
AG E
Ġgen u
AB LE
Ġstud ents
rict ive
ĠBo ard
Ġsubsidi arity
R eturn
T OTAL
w hat
z one
re j
Ġthe me
Ġfor got
ĠM L
Ġyou ll
ĠO ne
Ġcont roll
ĠK at
OU L
ret ary
And roulla
Ġph ys
Ġinf o
ĠRed ing
Ġcompet itiveness
Ġsubst ances
ĠMal ta
OJ A
ĠME ETING
ĠTechn ology
Ġstrateg ic
RIT TEN
A nc
O K
O ut
V IS
y ing
re es
Ġb irth
ĠM and
Ġe arn
Ġg iving
ĠR a
un ction
ĠG ood
Ġse ven
ub a
Ġgo als
IN IS
Ġcomm and
Ġman ual
Ġposs ibility
Ġconf ir
Not es
Ġpresent ation
Ġexp and
ĠAf ghanistan
Ġurg ently
Ġdemand s
Ġdest roy
M W
an as
Ġp as
ĠP ower
ĠS pe
ac ing
ĠL ib
ud an
Ġqu e
ever al
ath an
vious ly
AB IL
Cons umer
Ġguarant eed
ĠOn line
Ġemerg ency
ĠOmbuds man
weg ian
A U
T r
V al
W orld
z en
Ġs on
et able
ĠE nd
ĠS ociety
ĠS ERV
ad o
ĠT im
ust ral
ĠG ran
ĠL i
Ġcomp rehensive
Ġ7 7
Ġsp ot
He alth
Ġmain ly
Ġexp ress
Ġorgan ised
Ġ27 31
Ġarri ved
Ġrent al
Ġobvious ly
Ġbott om
Af ric
Lear n
D r
N at
f rom
h ow
h otel
re ens
Ġp ill
Ġh om
ĠP a
Ġwe bsites
Ġcont ents
pt y
Ġfin ished
An n
ĠY ork
ĠReg ion
Ġinvest ig
ĠRes olution
Ġest ate
Ġca uses
Ġcharact ers
Ġvehic le
FORM ATION
Ġrepe at
Impro ving
ĠBrit ish
ECOMM UNICATIONS
he z
ĠA lexand
Ġe c
Ġe arth
Ġg old
Ġg olf
ĠF re
ĠF uture
ĠD is
ĠV AL
Ġdel ight
quir y
Ġsect ors
Ġfour th
Ġtop ics
ify ing
Ġdiscussion s
imb ab
Ġsus pend
ĠBal tic
Ġcirc um
Ġharm on
Look ing
Ġprepar ation
Ġgrant ed
SUM ER
ĠJac ques
eban on
ethe less
N ob
S k
i h
Ġs ustain
Ġb i
ĠA T
ĠE F
id o
ĠI ND
ĠH ol
Ġse at
ĠN i
act ion
Ġim ag
Ġ5 9
Ġout put
ĠPro cedure
Ġtrans parent
Ġinst ead
ĠIs land
ĠCont rol
Ġmembers hip
ĠPal ace
Ġdev ices
Ġarrange ments
Copy right
Explan ations
S et
o es
s et
Ġ ult
Ġc ash
Ġf ram
Ġp residency
ar io
Ġb oy
le an
Ġh omepage
Ġre con
ĠE rasmus
ul ations
pp ed
ĠD EL
un k
oc ate
ok en
Ġdi vers
ĠPro t
US TR
IL D
Ġint ention
az a
Pri orities
Ġlog o
Ġpat tern
Ġmov ie
Over view
Acc ording
Ġrad io
ĠRo ad
Ġresol ved
Ġcompon ents
S everal
w er
y t
ĠA SS
ol es
ĠT U
ĠH ar
Ġall ows
lic ations
old ova
Ġmain tain
Ġatt ack
Ġche mical
Ġperson ally
ĠX II
Ġbal anced
Ġaff ord
Ġoppos ed
Ġtem per
ĠPri ze
ĠPe ace
ĠFer re
Ġcomplic ated
C re
M ac
S L
V ass
z y
Ġc old
Ġp arliament
Ġn avigation
ĠC ECAF
Ġfor th
ĠM in
ĠF ull
st ruction
ĠG reat
Ġex ports
ĠL A
ine a
ab el
Ġcomp atible
Ġ7 9
Ġ6 00
EC U
ĠCh ange
Ġ8 00
Ġfin ance
St ructural
Ġdisc over
Ġac quis
ĠEx ecutive
Ġoper ating
Ġed itor
Ġphot ograph
Ġes c
Ġintro duced
Ġlik ely
Ġconv inc
zeg ov
C USTOMS
L AV
m m
ic ious
et a
st ances
Ġdo g
ĠL and
In c
Ġtra v
und red
Ġfund ed
Ġbo at
Ġpass ed
201 2
Ġtest ing
Com position
ĠBl ack
Ġrepl ace
Ġdepart ure
Ġpret ty
imbab we
zegov ina
H omepage
K A
P UBLIC
S outh
b l
Ġt ab
in os
it z
ĠC a
id a
Ġe ight
Ġnot ed
ĠB ud
and o
ff icking
Ġpl enty
ĠV III
Ġ5 3
Ġdis charge
Ġman aged
Ġprov ision
Ġnum er
Ġtax ation
Ġcomb at
Ġmanufact ure
Ġhistor ic
A ud
R a
s on
Ġt aste
he t
in ions
Ġp ermanent
Ġn one
ĠC ode
ra id
un ich
ĠO ut
all ed
Ġ4 2
Ġup load
ĠRe form
ĠComm unities
IR ON
Ġdef icit
Ġsign s
Ġins p
eng ers
Ġhealth y
Ġev idence
Ġappropri ations
ĠBAL K
E Y
P la
P rices
S y
l t
re nt
en eg
Ġs we
Ġp m
Ġp arent
Ġn orth
Ġre duce
ĠB ay
em a
ĠG er
Ġus ual
In novation
Ġcont est
ree ments
ign ed
Ġro ck
Ġpre j
Ġsc ale
Ġrem oved
Ġatt end
Ġcor ner
Ġexper t
Ġenter prises
Ġhard ly
ĠComp etition
Ġimmedi ate
iliou EU
Apart ment
ĠARE A
L szl
M uch
M ED
V iew
V IRON
Ġh it
ig e
Ġme at
OR D
Ġsee ing
AT O
Ġcent s
wit ch
Ex c
ĠAnd ris
ash ion
Ġlaw s
ĠAd minist
Ġcond em
SO CIAL
Ġexhib ition
ĠMalm strÃ¶m
ĠLink s
Vass iliouEU
VIRON MENT
C ong
E B
F ull
R A
j o
x elles
Ġc riminal
Ġb ag
Ġh all
ĠP ay
ĠP ER
Ġnot es
ĠD iam
am ing
Ġpl ants
Ġad vent
Ġag ency
EC H
EC LAR
Ġspeak ers
Ġext ended
Pro gress
Ġfav or
ĠAn nex
Ġreal istic
Ġpat ent
Cons ult
Ġpen al
Ġoccas ion
E mer
F IN
g a
l am
ar ger
el ia
ĠM ann
ĠP la
Ġg allery
ur aru
Ġpro spect
ĠF il
ad es
Ġr id
ud icial
Ġen quiries
ap pe
Ġun fortunately
Ġsc and
Ġsc hed
Ġent ered
Ġpers pective
Ġansw ered
Ex pected
co hol
Ġlot s
Ġbook s
Ġdeal ing
Ġtrad ition
Ġabsolut e
Ġadminist ration
Ġc ourage
ol o
ĠR os
Ġal t
ĠF ire
ĠT AC
qu ality
ĠG N
ĠL as
ĠN ice
ĠV en
ĠSt ar
Ġcomp li
tern oon
ens us
ĠCh arter
Ġtax es
Int roduction
Av ailable
Ġliber al
Nob ody
3 00
D A
F A
F ood
g ence
Ġf le
Ġd ark
Ġd yn
ĠP act
Ġne ither
ĠH ost
Ġpl enary
Ġclos er
Ġfin ish
Ġposs ibilities
arm ing
Ġaccess ible
Ad v
Ġamend ed
ĠBe ach
Ġdeal t
Ġprom ot
aur ant
Ġsaf egu
Ġargu ments
ĠSTR ATEGY
ĠTour ism
Ġcolle agues
ĠPad uraru
Jon athan
W ESTERN
i ant
ĠC openhagen
ĠM at
ĠS im
ce an
Ġex it
Ġex clud
if ies
Ġres erve
Ġro se
pos ed
Ġ6 1
ED UC
Ġ9 5
Ġop ens
Ġevery body
Ġgu ard
Ġ25 0
ĠSch ool
Ġsumm ary
TA X
Ġgovern ments
Ġaf raid
Ġcharg es
Ġneg ative
ĠOp inion
Anc a
ĠBALK ANS
B UDGET
D eb
G A
O OD
c raft
Ġf at
Ġm ix
ing er
ĠC AR
ct or
Ġha ir
ĠB ut
Ġde posit
ĠSt ability
are t
Ġpol ice
Ġdisc rimination
Ex per
unic ip
AM EW
Ġsign al
Ġlearn ed
ĠWh y
AMEW ORK
d oc
j e
m al
Ġ ought
in ations
Ġm other
ĠS ur
em y
ĠN O
ĠSt ano
Ġsa ved
Ġevery where
Ġdes erves
Ġ199 3
Ġaccess ed
Ġturn ed
Ġconsid eration
Ġless on
ĠSc hengen
Ġwar ning
ĠAC TION
Sim ply
wh ile
ĠFIS CH
I l
Y ear
r or
Ġt ariff
re me
an im
it o
Ġin hab
Ġm ac
ve re
ĠS ee
ĠS atur
ur a
Ġst rict
Ġpro hib
ul ate
ri f
end ments
ial ly
RO L
ER N
Ġqu ant
ject ive
ĠCh airman
ĠPl ayer
Ġcare ful
ĠWest eren
Mon ica
ĠSo ft
ĠPed ro
C Z
P T
S earch
c y
g r
h t
Ġm ut
ĠA ward
os ter
ut ies
ĠR SS
ĠT ar
Ġex clusive
ĠO ld
ĠW ater
ĠK ar
Ġdis abled
Ġact ual
Ġsp oken
Ġover view
over n
Ġdial og
ĠTor res
Clear ly
REL ATIONS
I TER
T able
k m
Ġc ott
ĠC risis
Ġon going
ĠN ic
Ġ6 2
pl ace
now ledge
Ġprogram s
Ġbudget ary
ĠMEM BER
idd en
ĠSu pport
ĠSk ype
Ġadminist rative
Ġweap ons
B en
F INANCIAL
J an
K ingdom
M AN
O per
m iss
Ġc hat
Ġto ler
Ġd inner
ĠE L
im ated
Ġ4 7
IN A
OU S
ĠUn ions
Ġmarket ing
Ġvis ible
Ġatt ached
Ġelect ronic
Ġdri ving
Ġarri ve
ĠCan ada
Ġaccording ly
Ġaf ternoon
Ġhes itate
G EN
L ong
P ar
Y outh
m y
n am
o j
er ce
ou n
Ġm iddle
ic ated
ĠC ecilia
Ġg ift
ĠD a
port ion
ak en
all as
ES TIONS
Ġsa v
ile o
Ġdes erve
ĠEuro barometer
Ġbuild ings
ĠFran c
Pl ay
ratul ations
Ġvol ume
Ġbat tle
Ob viously
Ġspr ing
Ġmem ory
F i
t ies
Ġf ax
ĠA id
Ġv ideos
Ġst ick
ĠF riday
lic ation
Ġres ource
row n
Ġpre d
Qu ite
Ġem pty
ĠMar ian
Ġass ist
Ġinc or
Con f
Ġ22 9
Cl imate
ĠAfric an
Ġconnect ed
Ġcat ch
Ġdom ain
ĠTe am
ĠEst onia
Ġri ver
ĠTod d
Pla ice
J o
M IT
W ald
g age
Ġp il
Ġd ry
il a
Ġh um
ĠM ove
ĠI C
ĠT erm
ĠG ra
ĠG ree
Ġr ul
Ġli e
Ġme rely
Ġunder stood
eg ot
Ġrel ation
ĠLe on
199 8
sc ape
ĠAnt onio
Ġpower ful
Ġtour ist
ĠMon etary
asc al
Inter vention
ĠWall strÃ¶m
Ġsup erv
ĠDimit ri
1 01
I EL
l aga
m aking
m igration
s ite
s per
ĠM ill
ir k
ĠB rian
ĠL ithuania
AR E
Ġro w
Ġav ail
Ġfin ances
US SION
Ġdes ired
Ġ199 2
Ġcor resp
Ġbeh av
Ġold er
Ġorgan isations
Ġlat ter
Pre par
Ġdest ination
Ġmount ains
Acc ession
ĠBel arus
ĠNov ak
isch ler
contin uation
Ġproduc ers
) ?
4 10
F isheries
Ġ err
es ter
Ġf rag
Ġp owers
ro ps
ct ic
ĠM ult
ĠS C
Ġon to
em ark
ĠL ife
ĠV ill
Ġob st
Ġfun ctions
Ġsk ills
Ġele ction
Ġdiscuss ing
aced onia
Ġident ified
Ġarch itect
Ġobserv ed
ĠDISC USSION
Ġcatal ogue
Ġthous and
Ġwithdra w
ipl om
Ġdescrib ed
K eep
T Y
_ _
b ut
h ne
Ġs oul
Ġc os
ed d
Ġd uties
ing u
ĠR ich
ĠB re
Ġan t
op ol
ĠG MO
ĠH ub
TE E
ĠW ith
Ġver ified
ell ig
ĠSt ructural
ont e
la h
Ġun it
Ġspe ct
iz ing
Ġla unch
Con c
Ġconsider able
Ġ.. ..
Ġmult iple
Amer ic
MEM O
unis ia
C ivil
L aughter
M ult
m on
t r
u ment
Ġc ere
ro b
Ġv ary
ĠB us
ĠD u
ĠK arl
Ġno ise
Ġ6 3
Ġreg ards
Pro ject
Ġprocess es
Ġkind s
sh op
Ġimprove ments
Ġsubst ant
Ġschool s
Ġdead lines
Ġimm igration
Ġrestrict ive
ĠQU ESTIONS
uer to
Ġsett ings
ĠBru xelles
Ġannounc ed
ĠFerre ro
ECLAR ATION
* )
D ay
G RO
H L
S cript
V er
a uty
c an
o oth
p m
r ates
Ġt rou
en i
an z
as ters
Ġl arger
Ġst ocks
ĠF ed
ab ilities
ec ess
Ġk g
AL S
ang ed
Ġgreat est
Ġrel atively
ĠPRO TECTION
Ġexp ression
ommend ation
Ġrespons ibilities
IV E
Ġshe et
Ġtri ed
ateg ory
ili ar
rag ue
Ġmar itime
Ġfill ed
Nor wegian
Ġattract ive
ĠConst itution
Ġsupple mentary
ĠSund ay
eneg ro
D S
S QL
b and
s pe
u able
Ġ ice
ĠC ivil
ĠH ER
ĠL im
ĠJ a
ĠJ un
ĠU TC
IN TER
Ġact s
Ġcomm ittees
Qu ality
An nual
OL AF
ĠWe ek
leg ation
Ġpract ices
Ġunderstand ing
Ġreturn ed
Ġhon ourable
Ġsens itive
ĠIM F
ycl ing
ĠProt ocol
1 98
C omb
N ET
P al
w ater
Ġt abled
Ġf ather
ic ians
Ġg ar
Ġst able
Ġthat s
Ġsh ares
ĠL U
ĠW ill
ĠW olf
ĠV ol
ĠSt ock
Ġdis aster
St ud
Ġsome what
ĠMar c
ĠAn n
ĠĠĠĠ Ġ
Ġoper ate
Ġexpl ained
Ġbr ight
Ġpriv acy
Ġreserv ations
Ab bott
Ġsound s
ĠRom a
Dennis Abbott
Spec ific
Ġscand al
ĠNovak ova
T OR
i est
m inute
in ate
ou nter
ar o
ĠM exico
ĠE xt
ĠE lect
ĠH Ã¼b
ant e
ist ory
Ġex cess
Ġle aves
Ġav iation
IT AL
ĠAg ricultural
ik ing
az ing
eb ast
Ġins urance
Ġstud ies
amb urg
Ġsure ly
ĠFR AMEWORK
Over all
ĠInt eg
ĠHer zegovina
Ġcla im
Ir ina
Ġfant astic
ĠShar rock
Cong ratulations
Wald ner
P GI
c ile
h am
Ġw ont
Ġp et
Ġp resident
Ġn a
Ġl it
Ġr ank
ĠK ing
erv ed
HE L
Ġop inions
Ġrem ind
Ġconf ident
ruct uring
ĠCOMM IT
Ġcongratul ations
TEL ECOMMUNICATIONS
Ġil legal
ĠLou is
Ġheav y
ĠEnter prise
ĠCharl ie
Ġlib rary
repreneurs hip
Ġupg rade
ĠHÃ¼b ner
C ertain
C ountry
D EN
I AL
M in
M argin
c am
p ot
Ġb reat
Ġh undred
Ġre nov
ĠA B
ĠA fter
ĠR ural
ĠB ook
ĠD ec
ĠD igital
We re
qu al
Ġjust ified
Ġent rance
Ġvis ited
Ġdiffere nces
ĠZ e
ĠAl c
ten ance
Ġsur v
Ġsur prise
orn y
Ġconclud e
Ġpost s
ĠQu ality
Ġtre ated
Ġgener ally
ĠGeorg ia
Ġperm itted
Ġhistor ical
Ġpoll ution
Ġcircum stances
ĠFISCH LER
ĠSatur day
B al
L ocation
S pr
S ingle
U kraine
s y
s en
Ġp ra
Ġo w
ĠM ax
ĠM useum
Ġl ed
ĠP rom
ĠS E
ill ions
ul f
ĠF ischler
em o
ĠO lli
ĠW in
IC E
Ġte acher
Ġproc urement
ob il
Ġpropos ing
Ġfe es
Ġhelp s
Ġprocess ing
Ġtext s
Ġhim self
Environment al
ĠMon day
Part icip
Ġmach ines
Ġarch ive
Ġabst ained
Ġconven ient
C la
E IGN
H AS
S a
U ES
n io
Ġf aster
it ants
el ess
ĠM unich
Ġpro ved
ĠR ub
ĠB SE
Ġde als
ĠG en
ĠL ake
ĠO P
ak h
ĠSt at
ĠSt ard
TION AL
Ġacc om
Ġpe oples
ug ar
Ġsp ent
Ġlook ed
Let s
At t
Ġpass engers
Other s
ĠInst itute
Ġappoint ed
Ġdise ases
Tax ation
ĠLam y
B ased
W ater
e rest
Ġs ight
Ġp un
Ġb ought
Ġn ut
ot os
Ġk il
ens ation
ĠState ment
Ġ199 0
Ġimp ression
Ġcol ors
Ġvisit ing
Ġbr id
ĠCent er
Ġproper ly
Ġport al
Room s
ĠMe eting
Exam ples
ĠGÃ¼ nter
Ġbur den
Program me
Ġrefuge es
Ġforgot ten
I ED
t ate
Ġw oman
Ġb ound
Ġm icro
Ġd ram
ĠM ig
ĠE astern
ul ner
ĠF amily
ĠB a
Ġwill ing
ain e
um mer
ie ch
ard o
og er
Cont in
10 2
Ġsupport ing
St rasbourg
Ġob tain
ann ing
Ġatt itude
Ġexc iting
Or gan
Ġfeel ing
Ġbank ing
Am elia
opp ed
augh t
Ġord ers
Bl ue
Ser bia
ĠStard oll
C R
F ort
F igures
I ATION
J apan
W as
p ons
p ens
w an
ed ing
Ġin come
ent ions
ĠC F
Ġl iability
ĠA F
ĠE du
ac le
Ġg rand
ĠB MW
ri e
Ġex ecut
Ġ9 4
ert s
ik an
Ġvis its
Ġlist s
ull ed
Ġexpect ations
OUT H
Ġcorrect ed
Ġdecl aration
roso ft
Ġill ust
Direct or
Ġprim ary
Ġtack le
Ġconfir med
Ġsched uled
B as
M ax
P erson
R en
T e
W omen
b uilding
s aid
v y
or ca
Ġf Ã¼r
ar f
Ġm arg
ĠM ik
ĠM acedonia
Ġl obby
ĠP akistan
ter y
ĠB E
ain ts
ĠH E
Ġsh ut
Ġsh ape
ĠW ik
Ġpl ays
itt ings
Ġpr ison
Ġsc ore
Ġsc ientific
Ġrem ove
ploy ed
Ġdid nt
wed ish
Con sequently
Ġdri ver
ĠTra ining
ĠPat ten
Inst ead
ĠLat in
uz z
ĠBAR N
Ġinflu ence
ĠBarn ier
VEN TION
Ġcondem n
Ġpenal ty
A ut
B ACK
D el
re ction
Ġc op
al ter
ar ations
us ter
ĠM AT
Ġe leg
ut ch
ĠB y
ĠL ord
Ġall ocation
Ġad equ
ric s
Ġdis appe
OM I
red it
AC T
Ġrel ig
ĠAnd ors
ĠAnd reas
Ġexp ressed
Ġ! !
Ġrequire ment
Ġfl ights
Sec retary
Ġdownload ed
Ġtrad itional
Com ment
Ġocc ur
ĠSer bia
Ġfeed back
Ġclar ification
ĠMor occo
Ġyester days
Car lo
ĠUr mas
Ġvirt ual
Ġfold er
Ġgenu ine
C ase
C cile
M ON
h and
in st
il iation
Ġfor t
Ġy e
ĠS ub
Ġe conom
Ġpro of
ĠB ad
ad t
ĠH oliday
od ies
ĠN ow
ĠN ations
ĠJ oe
TI TU
Ġsu ite
ĠMinister s
ap ers
Ġserv es
Ġdec is
He ad
Ġinst ance
Ġac qu
Pro duct
Ġinf lation
ĠIN FORMATION
ĠAn gel
itiz en
Ġsupp osed
Ġwin ner
ĠOr der
Am endment
ĠComp any
Ġcreat ing
ici ary
Ġobserv ations
unt ary
Ġbedroom s
ĠPA ET
FER ENCE
Ġbon us
Ġcandid ate
Ġphys ical
ustral ia
ĠCOMMIT TEE
ĠBARN IER
B usiness
E r
E nt
T P
T HER
T arget
V AT
l as
m at
Ġf ab
ĠC itizens
ĠM erc
ĠE P
ac les
Ġst ru
Ġro b
ĠRe al
Ġ7 00
Ġ8 2
Ġco oper
OUN TR
Ġra in
Ġexam ine
Ġval uable
ĠEuro stat
Ġobject s
ten stein
Ġdirect ory
ĠCl ass
Ġdifficult ies
Ġbar riers
Ġcorrect ly
Int eg
Ġquot a
ĠTH IS
ĠDan iel
ĠSERV ICES
4 00
? ?
E s
u ters
Ġf em
it ness
el er
ĠC ustoms
ĠS YS
Ġal cohol
ĠF ront
ĠB ORG
am as
ĠG as
ĠN os
ĠN ik
Ġ7 2
Ġ12 0
Ġatt empt
Ġcol ours
ĠTh omas
Ġexper ts
ME ETING
Ġabs urd
ones ia
Ġlik ed
uis ine
Ġleaders hip
Ġtyp ical
Ġdisput e
Joh n
Afric a
Ġsuspend ed
M laga
T urn
k nown
l ive
p on
in ian
Ġw ild
ĠP lease
ĠP oker
Ġst ars
Ġst opped
ĠD on
Ġse g
Ġex ceed
ĠW here
Ġch urch
ell er
Ġun anim
ob e
ove red
OL L
Ġdes k
Ġend s
Ġdef ence
ĠChrist mas
Ġdri vers
Ġspecific ally
Ġstrong er
Co hesion
Ġsens ible
Ġlab elling
Ġshop s
cher s
Non etheless
Det ails
ĠTU OMI
egot iations
GRO UND
ĠTUOMI OJA
A lexand
M or
S ign
T our
Ġt ro
Ġs ad
Ġs witch
Ġf elt
as a
ĠM el
ĠP O
ĠP ascal
ly mp
ĠF ound
ri ve
op oul
ĠG olf
ĠH all
ĠK allas
con s
Ġ9 1
ug en
Ġcall ing
Ġinc red
Ġpack aging
ĠWe bsite
Ġweek end
Sc hengen
Trans parency
Ġhold s
Ġwhe el
Ġpres ence
ĠLat via
STR ÃĸM
lad im
Ġcast le
appro x
ĠBern ard
ABIL ITY
Ġdelight ed
ĠPla za
EDUC ATION
. ,
C entral
H OL
H aving
M obile
S te
S ection
y an
in en
al ing
Ġb ike
Ġb inding
el le
ĠM ich
Ġl es
ĠP alm
ĠS i
ĠS pr
ĠS olidarity
ir ms
ĠF rit
ĠF Ã¼
ĠT RE
ĠT reas
velop ing
ĠDe ut
Ġcons ensus
So le
Ġmod ule
Ġend ed
Ġend orse
Ġsur face
Ġfam iliar
Ġmed ical
Ġapplic able
Ġorgan isation
!! !
Ġnear ly
Ġcompet itive
ĠCor azza
Ġrecord ed
Ġmis under
ĠInf rastructure
Ġerr ors
B ur
C P
G overnment
P ark
a rest
p oint
r ig
s a
Ġis ol
Ġfor ces
ĠP AL
ĠP rague
ĠR ot
ĠB elg
ĠT er
Ġan c
ĠH O
ĠW a
ĠSt rasbourg
Ġun to
Ġthem es
Ġsub scribe
ĠPRO DUC
ĠPol ish
Ġdra wn
Sh are
ĠFran co
Ġi Phone
Ġsat ellite
Sim pl
Ġgra du
Ġtim etable
Ġrestrict ions
Maj a
Ġslight ly
Inc re
Ġsav ings
C ES
F reedom
R o
S V
b el
d es
l or
u ly
u pp
z b
Ġ There
Ġt reaty
re a
or ne
Ġc uisine
Ġis t
Ġis nt
Ġn amed
el lect
ĠM ain
ĠM aj
ĠP ierre
Ġde fe
Ġ5 4
ann is
uth or
Ġfl ow
Ġel ig
Ġmon itor
Ġenjoy ed
enn is
ĠNe ighbourhood
Ġclar ify
ĠDes ign
Prom oting
Ġoblig ations
Ġavail ability
. -
M aking
R ight
W TO
Y I
f urt
r un
r ants
ĠP arliaments
et ers
ĠS H
Ġe p
ol t
st ra
Ġdo ors
EN N
Ġun n
Ġpre ced
Ġsub mit
Ġ199 1
ĠCon c
ĠĠĠĠ ĠĠ
Ġdist in
Ġtri al
arant ee
Ġfo res
Ġcreat ure
Ġdecl arations
ĠCons ult
Ġcontribut ions
ĠSlo vakia
kt op
Ġdoll page
Ġfrequ ently
ĠDep artment
Ġconvinc ed
Ġnumer ous
Ġinhab itants
iech tenstein
D iff
L U
V A
a o
l ist
or ah
Ġw elfare
Ġp hen
Ġd ig
ĠC ountries
ĠM B
Ġl unch
Ġg ap
ur ally
ĠF ace
ĠF ern
ĠD r
ĠH amburg
la w
Ġtra fficking
ern el
St rengthening
TER S
Ġown ers
Ġpass enger
Ġtalk s
Ġnear by
Ġcreat es
Spe aking
ĠMont i
Ġur ge
ĠMi ros
Ġfurn ished
ĠDemoc racy
N ice
s m
z z
or os
en z
Ġs izes
Ġf ix
ĠC L
ve y
ĠP o
ĠP ass
et ting
Ġv ulner
ĠF orm
est ein
ia g
ĠT ick
Ġan g
ĠH T
Ġse ats
ĠO K
ĠU nder
ĠK ong
Ġcl ock
ĠMr President
ĠIn itiative
Ġro ot
Ġ9 8
Ġpos itions
Ġother wise
ĠMar got
Ġspec ified
ĠUS D
Ġgen eration
Ġlo an
Ġinvol ves
Ġclean ing
Ġdocument ation
ĠRom an
Ġdead line
Ġaud it
Ġreact ion
Tele phone
olk estein
Ġcas ino
Ġprej udge
Ġadvent ure
ĠGMO s
Ġrenov ated
Ġphen omen
A mbassador
L IS
Ġc ab
Ġc ry
ĠM oldova
Ġl uxury
ĠE valuation
ĠS OL
ĠS aint
Ġv aria
our nal
ĠB olkestein
ĠT op
ĠL EG
du le
Ġj udgment
anc ic
ov es
Ġvis a
IR EC
Ch ange
PR ESID
Im port
AF O
Ġconst antly
Ind ia
Ġtrad emark
Ġca pt
Ġguarant ees
Ġsugg estion
-- --
May be
Ġencoura ging
ĠDeb orah
ĠSy ria
ĠRad io
ĠSant a
Ġmedic ine
oriz on
Ġveget ables
Ġrub ber
Ġparent s
L o
S I
S umm
in ating
or ia
it ch
ro c
Ġm erc
ĠP RE
ate ver
ĠT ib
am s
ri er
ist ration
Ġsh ame
oc ij
In vest
ĠV iew
ĠK R
ATION AL
Ġsc ience
ET Y
Ad minist
Ġequ ally
Ġimpro ving
Ġport s
ĠWh o
Ġlab el
Ġsus p
hol m
Ġcla ims
Ġcert ific
Ġsqu are
ĠDial ogue
Exper ience
ocij ancic
C atherine
F uture
G F
G RE
N ame
N atur
S orry
Y PR
h o
u i
Ġa ck
Ġp ip
Ġm ouse
om alia
ĠC I
ĠC OR
us ing
Ġl ayer
ow ards
ĠI SO
Ġst ructures
ĠT y
AN GE
ĠEU ROPE
ĠK ocijancic
Ġcl ot
ere nt
Ġk illed
ang o
Ġtra il
Ġimp lications
Ġmain tained
ĠPol itical
Ġlink ed
echn ology
ĠEC B
ĠSu ites
Ġconsist ent
Bel ow
ĠOther s
Ġdeg ree
TAX ATION
ĠGree k
BACK GROUND
ellect ual
D ecision
P ut
b les
c ia
g ang
p o
p ite
re al
Ġp al
ed ia
ĠC atherine
ĠM A
ĠM AL
Ġbe aches
ĠP M
ĠA h
ĠE v
ĠE arth
ĠS un
ill ance
ig aret
Ġst ored
ĠB rand
pp ing
ist ical
ON S
ĠN OT
ĠW i
ab lish
ere nd
bs ter
Ġpre f
RE G
Ġtrans ition
Ġdec re
Ġra re
Ġpri or
ann ed
Ġsur f
Ġhand le
Ġsmall er
ĠCON FERENCE
Tod ays
Ġlog in
Ġperiod s
Ġrev olution
Med ia
Ġcal endar
Ġaud io
Hel p
Ġpan el
Ġord ered
Ġdrink s
IGH T
Dec isions
Ġmechanism s
Ġblo od
Ġhous es
Ġunf air
onym ous
ancell or
Ġinstruct ions
Return s
ĠTreas ury
D K
D an
E nd
H on
S end
e en
f ield
in z
Ġc itizen
Ġf er
Ġo d
le m
el a
ĠM AN
ĠD ie
ĠT reat
In ternet
Ġsu it
You ll
HER N
Ġfe et
Pro f
Ġbl ame
rid ge
Sec urity
ĠGu inea
Com ple
Am ong
Ġmist akes
Somet hing
Ġincreasing ly
Pr ice
ĠPE ACE
Ġfa ith
Ġdele te
Ġdivers ity
C reat
I de
T ry
U AL
f red
y ou
Ġt un
Ġs pp
Ġc alm
Ġb re
ĠS ituation
Ġpro ve
qu ently
od es
ĠL ive
ĠL IFE
Ġhe at
ail and
ap est
AL TH
Ġdis ag
EL S
Ġfin es
Ġimp ress
hip s
Ġaddress es
riend ly
Ġtax i
Ġjo ined
error ism
Ã¤ r
ene z
Ġwind ows
Ġdecl ared
ÃĦ KI
Ġrecogn ition
Ġexperi enced
Ġfurn iture
Mod ern
ffect ive
Ġded icated
Ġforth coming
Ġsafegu ard
B B
C ustoms
M ic
P ort
S afety
W ORK
p oc
u els
in er
it u
Ġin j
Ġm aster
Ġd uration
Ġh osp
ĠM igration
Ġl iter
ĠA ccess
ĠR ule
ĠL iber
ĠN ick
Ġad ults
ire less
Ġout standing
ian a
ens es
Ġcomm unic
urre d
Ġ19 89
Ġinst itutional
Ġref und
ession s
ĠEuro pol
Ġann ounce
ĠCont act
Ġachieve ment
Ġinde x
Ġgener ated
Ġsche mes
Ġsubst ance
Ġrev ised
Ġtrend s
Ġprem ium
Ġparam eter
Ġdemon str
ĠFA Q
ĠStand ard
ĠFRE E
ROW TH
Mal ta
G AL
L IFE
S ara
T op
i ov
Ġt end
Ġt ables
is ual
Ġw arn
Ġf ly
Ġd ies
Ġl as
Ġbe auty
ĠE ur
ĠS afety
ĠI l
Ġst ream
ul ous
ch mark
Ġcan cell
ĠN or
ĠN ord
ĠO ff
ail way
ĠK az
Ġj udge
OR E
per i
ĠCh amp
ord an
ĠDe claration
ound s
St aff
ck s
Ġass ociation
Ġext end
Ġset tlement
iet nam
ger ia
Ġcor rection
Ġinter face
Ġincre ases
Ġprom ise
Ġelect ed
Ġfac ility
Ġremain ed
Ġann ulled
AK IS
ĠApart ment
ĠMil an
Ġprot ocol
ĠRest aurant
oriz ont
ĠBan ner
ĠCong o
TUR AL
ĠSoft ware
Ġow ner
ĠFrit s
Natur ally
G AN
N EW
U nt
V IT
d a
m ap
r ac
at z
an mar
es h
Ġp ric
al se
Ġh orse
ĠM us
ĠS on
os is
ĠL ist
ure a
Ġr ide
ĠN EW
iv ities
Ġab ol
Ġch air
Ġ29 2
ven ue
Ġcomm end
Ġiss ued
ĠMar g
Ġsub s
Ġbo ost
Ġcor ruption
val u
az ine
Al bania
uff s
Ġher itage
IM PL
Ġshare holders
199 7
Ind ustrial
Ġbro ch
Ġcred ibility
ival ent
Work ing
Ġdeleg ations
Ġcopy right
lim inary
TAC s
Ġunivers al
Ġexclud ed
PRESID ENCY
F ight
F rench
I E
I TE
L ike
P OR
R D
S ure
l ights
Ġt ree
Ġc ult
Ġp or
Ġin put
Ġm useum
The res
Ġh ar
ĠC AM
Ġre verse
ĠS ustainable
ĠT iron
qu ate
qu est
ĠL iechtenstein
ĠW ars
ĠV ia
con nect
ang ing
Ġacc ur
Wh iting
Ġcount s
St and
Ġsp a
Ġem p
Ġmod ules
Ch inas
Ġmet ro
Ġmeet s
sel t
sc he
Ġlo vely
Me asures
Ġrepe ated
Ġrenew able
Post ed
ĠTiron i
E rasmus
h us
i xt
p act
Ġ {
en za
Ġf estival
it led
Ġp oker
Ġd rop
ĠE EA
ĠS ector
im pro
ĠR iver
ĠF lo
ĠF estival
ĠD et
ĠT ro
ĠT ool
Ġse as
ĠN orthern
iv ier
ER AL
ag n
Ġany where
Ġco ord
Ġ201 6
Ġob l
Ġent ertain
Ġspeak s
duc ing
ij a
Ġlo bster
Ġconclud ed
Ġtest ed
ĠRom ano
ĠVer he
Ġstrengthen ed
Fl at
Ġconfig ur
Ġunn ecess
B i
N O
N orth
O ption
W EL
c s
f a
h i
Ġ ),
Ġt ut
Ġb ran
Ġm al
Ġn ons
Ġre ve
et ween
ĠE DP
ĠR oyal
Ġwe ar
qu er
Ġsh ock
Ġr ig
act ions
What s
Ġen forcement
ec hes
Ġoff ic
EU RO
IC A
Ġ8 7
ession al
Ġmet al
UR ES
Ġflo ors
Ġbook ed
ĠAs ylum
Ġwin ning
Ġremain ing
Ġbro ken
Ġnat urally
Ġregul atory
Ġintro duce
ĠMy SQL
Ġestablish ment
osc ow
gent ina
Ġcontroll ed
Ġelig ible
B ank
H T
M iddle
P H
S ix
T V
k ed
o ch
p rom
Ġ id
Ġf ans
Ġb ird
Ġn om
ĠC at
ĠI o
ut a
sion s
Ġcon vention
Ġ( )
ĠF ac
ĠB osnia
ĠT otal
um in
Ġex plo
In s
Ġab road
Ġ6 8
Ġtra ged
ĠAg ain
Ġexam ined
Ġobject ions
Ġpresent s
Ġel im
Ġcare er
Red uction
Impro ve
Ġsuff ering
Ġtemper ature
Comment ing
B o
O ral
P at
U r
z es
on i
or ough
Ġc able
ent ed
Ġh orny
ĠA mbassador
ĠI b
Ġst y
ĠR am
ĠB i
um ers
ĠO t
ĠJ er
Ġcont rast
ĠK ey
Ġqu ote
ĠSt e
ĠSt ep
Ġreport ed
ĠDe legation
ĠPro v
ĠMar itime
Ġrel iable
sw ers
ĠAn g
Ġbeg un
Ġz ero
Ġbig ger
Ġconst ant
Ġmon etary
ĠAnt nio
Com ments
ustri an
Ġsol ved
Ġaffect s
Ġresol ve
Ġdru g
ĠTur k
Ġsong s
ĠPos selt
Ġdecis ive
A CI
B UR
D ie
D ates
N et
O ff
W he
b c
b ed
} :
Ġ era
le ge
ot ic
ĠC OUNTR
ĠM ess
ĠM aur
ĠP rem
ĠE nt
Ġe gg
Ġv ir
ke rel
ĠB reakfast
ĠD ol
ust ries
qu in
op ia
ĠG ene
ĠN ext
ĠO ur
ĠO ver
ĠO lymp
Ġpl ain
Ġam azing
Ġbel ie
ull ing
Ġequ ality
ĠRE V
ĠFOR EIGN
Ġz u
Ġprof it
Ġlog ic
Cons ider
Ġcreat ive
ĠAD D
ĠApart ments
ĠUp date
ĠUR L
Ġcontinu ing
Ġparad ise
Ġassoc iated
Ġinterpret ation
Ġacquis ition
Cla ude
ĠVerhe ugen
6 00
R C
W ind
b re
f old
n en
p ass
r ating
is ory
or ter
Ġb odies
Ġin tern
ic ate
il ed
el ine
ĠM ission
ĠM INIS
ĠS at
ĠS udan
ĠT ob
ĠG ROWTH
so le
ĠV ideo
ER Y
Ġun able
Ġco ins
RE EV
St ill
An g
Ġdes ire
Ġmain tenance
Ġsm ooth
Ġinc ent
Ġinter view
ĠTR ADE
Ġfunction ing
Ġident ity
Ġsitu ations
Ġdam ages
ĠCas a
INS TITU
Ġdeep ly
ĠDub ois
ĠVinc ent
Ġdyn amic
Ġcorresp ond
ĠRich ard
Certain ly
Fort unately
Alexand re
Ġtraged y
E PP
F und
J une
M a
M ES
V W
c ol
Ġf isher
Ġf uel
Ġp g
Ġp ays
Ġb ars
Ġd iplom
ĠC uba
Th ings
ĠD ist
em ic
ĠH y
ĠL eg
Ġr u
Ġli ved
Ġu pper
Ġwor st
cl es
ĠMinister ial
ĠK en
ĠSt ef
ind er
Ġj e
Ġj udg
anc er
Ġ8 1
Ġco here
Ġrel ating
oy er
Ġdef ine
CH T
Ġrece iving
Ġturn ing
Ġlet ters
Ġplan et
TIN I
Ġrefer ring
ĠAG RE
Ġess ence
Ġtre es
Ġaut umn
Ġca used
ograph ical
ĠMont enegro
Ġwarm ly
ĠAud it
Ġlisten ing
Ġweak ness
Ġstrateg ies
Ġslow ly
Ġsam ple
Ġfell ow
Ġchann el
ĠPRESID ENT
Stat istics
Ġmarg ins
L ocal
P I
R EC
g ic
k er
u it
Ġs la
al ed
ro t
Ġin quiry
ent oo
ĠP IN
ĠP ortug
ĠP uerto
ĠS wedish
id ance
Ġv ent
ir ty
ul s
ĠD un
ĠD utch
Ġdo gs
ĠG ar
ĠG ame
ĠJ on
ail ed
Ġk ids
Ġk ernel
Ġcomp uters
ru g
Ġ7 8
IC AL
ck er
olog ne
ĠEuro pa
ĠAnd ers
Ġforward ed
plement ing
Ġoper ates
Ġtalk ed
ĠAd obe
Pri vate
do or
Ġi P
Ar t
alm on
Reg ulation
Ġmov es
Ġland scape
ĠJoh annes
Ġsubsid ies
ĠEM U
Ġemphas ise
arb our
Ġconfirm ation
Ġawa it
Ġsatisfact ion
ĠRev olution
ĠWord Press
ĠFound ation
Summ ary
REEV Y
L arge
l arg
in ar
er ies
om ens
Ġn ine
ĠC up
ĠC rist
ac io
ra w
Ġst one
Ġpro portion
ĠR ay
ĠR ob
ĠF ROM
ĠD isc
Ġne ighb
em ployed
od ge
nt her
ĠL u
ĠJ es
ail ing
ĠW RITTEN
Ġsp ending
Ġgreat ly
Ġleg it
Ġed ition
Comp etitiveness
ij ing
iod iversity
ĠIm plementation
ĠEN ERGY
ĠEN VIRONMENT
EMENT ATION
Ġtem porary
Ġfight ing
Ġdream s
Ġcharg ed
ĠProduct s
Ext ra
ĠOL AF
ĠOrgan isation
Ġdestroy ed
Ra pporteur
Consult ation
ĠWolf gang
ikan en
orizont al
D ep
N uclear
P ur
P resent
U TURE
d s
d is
r ations
Ġs ac
Ġf ault
Ġf asc
Ġf irms
ar in
Ġb reed
ic ed
ĠM ount
Ġl y
Ġ1 10
Ġ( %)
ĠB org
ĠD A
ĠL y
oc ational
ĠN et
ĠW HO
ĠV ista
ĠSt ig
Ġ4 379
Ġcomp rises
Ġun its
Ġany more
Ġsc ene
AT TINI
En h
Ġcol umn
ĠAn ne
Ġair craft
Ġoper ators
Ġfac il
199 5
rad ing
Euro pol
pporte urs
ĠFl ore
Ġcomb ination
Ġprec ise
ĠAt lantic
Ġlarg ely
Ġprint ed
rateg ic
Pay ment
ĠTr ay
Ġjour nal
rel ated
ĠAp ost
ĠGU CHT
Ġcook ies
ĠGi ul
ĠRober t
Ġunc ertain
OLL OW
Sure ly
B C
C al
E d
E IRA
J OINT
R I
S ebast
d ated
m ans
Ġ ou
Ġs oc
Ġs olid
Ġf iscal
Ġin g
Ġto w
Ġd ign
Ġre ward
ĠM IC
ĠM eg
ĠA ctions
ĠS AN
Ġpro sper
ore r
ch ant
ĠB ack
Ġcan cer
ĠO J
th ough
ord inary
PE TI
App oint
ade quate
AC P
Ġform ats
ĠPol ack
ĠZ imbabwe
Ġint ens
Ġold est
Ġcheck ed
ĠSch ul
Ġsession s
ĠFR ATTINI
Ġfocus ed
Ġmiss ed
Ġtele vision
Ġsil ent
Ġsurpr ised
Ġpas sion
ĠLi ikanen
Ġfram e
Ġnons ense
1 000
D om
G erman
V ideo
m o
n st
t ra
or al
Ġs ittings
Ġb ra
Ġb urn
as is
ĠC S
ĠS up
Ġv ers
ch anged
st adt
st uffs
ĠB ILD
Ġan nex
em porary
ĠG RE
ĠH Y
Ġch apter
ĠK OS
Ġcl ause
Ġk ill
Ġk new
Ġstay s
Ġent itled
Ġown ed
15 0
ĠRes ources
Al most
Ġdirect ives
Ġmin i
ai wan
ĠMic rosoft
Ġsche dule
COMM UNITY
Ġground s
Me eting
USS IA
Ġexperi ences
Ġmass age
Ġmatch ing
ĠGal ileo
gr ace
MEETING S
INSTITU TIONAL
A c
C itizens
H ouse
L AN
L INK
M et
S witzerland
T y
h ou
i our
Ġ rom
Ġ iron
Ġm a
Ġm unicip
ĠA st
ol i
ĠR h
art ed
ĠJ ur
all ing
Ġim per
ĠV ladim
ast y
te g
ru gs
ĠIn s
Ġoff ices
wo od
enc ia
Ġcomm unications
ues e
Ġloc ations
Pro v
ĠIN TER
ĠEx change
16 2
Con ference
Ġrespect ed
ribut e
ĠCol lege
Ġfac es
ffic ial
Or der
Ġpat ient
Ġet h
EG F
Ġrecogn ise
Ġintro duction
Ġrout es
Ġdom estic
rey er
ĠBrit ain
ITI ES
Ġthous ands
ĠOffic er
Ġcy cle
ĠML LER
ĠAlexand er
Ġswe et
ĠDimitri j
Ġkil omet
Ġvulner able
Hon ourable
Ġobl igation
1 10
B uilding
D ouble
I d
d iv
m od
p ack
Ġt ight
Ġa w
Ġf ashion
Ġb es
Ġb ul
ent e
ĠC reat
ĠM obility
ĠP ap
ĠP oint
ĠE s
ĠS et
ĠS IL
Ġe valu
ĠR A
ĠR em
ĠR io
ĠB OT
We b
ĠH ahn
out s
ĠL ebanon
Ġhe ating
ect ed
Ġle ather
Ġk n
Ġ5 7
pl ate
Ġar ray
ss en
Fin ancing
Is rael
ung al
Un employment
New s
Ġweb cam
Ġoppos ition
Ġmark s
Ġwel coming
Ġobserv ation
ĠDirector ate
rap y
Green land
Ġfavor ite
Ġcott on
ĠMiros lav
Ġphenomen on
Ġimpress ive
ĠBILD T
B arb
N A
R oger
i form
i ences
l en
n i
Ġt ough
in f
ou b
Ġw ines
Ġf ifth
Ġb icy
ro g
Ġm ixed
ĠM ade
ĠP I
ĠS en
ĠS and
ig a
ig her
ĠR UP
ch a
ĠT own
am i
Ġhe ct
ĠJ n
Ġun a
Ġro of
ach t
pr int
ĠAg reements
Ġrem ed
Ġob tained
Ġass ets
Ġman ner
Ġman ager
ann ual
Ġcent res
Ġhelp ing
vent ions
ĠEuro s
Ġbo oth
Ġbl ind
Ġlead er
Ġmot orway
Ġcheck s
Ġthough ts
Ġshow ing
ĠAll iance
Ġsy nt
Ġreview ed
Ġelse where
Ġclass ic
ha us
Ġlab or
Ġregular ly
ĠRest rictive
Ġexcept ional
ĠDub lin
Ġplug in
ĠMig uel
ĠFace book
ĠRUP EL
9 00
B O
B osnia
C ULTURE
J uly
M ail
N eed
b od
h ard
u j
Ġt ag
Ġm us
Ġd iam
as se
os ing
ĠB log
ĠD O
ĠT re
ĠT ext
qu id
ĠG E
ĠH ong
ess a
ĠL og
Ġch amp
ell ed
ell ow
ag o
Ġdis grace
OU Minister
Ġ6 21
Ġinv ited
ĠMar io
Ġext reme
Ġhelp ed
20 7
Ġsm art
Ġser vers
CH O
ĠAm endments
Ġdist ort
ĠGu est
Ġconsult ing
Ġwar rant
Ġpub lish
ograph y
Ġvac c
Ġemphas is
Ġtransl ated
ĠUr ban
Tra ining
Democ racy
ĠPack age
Ġcontrad ict
ĠKy oto
ĠAdminist ration
Ġprospect s
Ġanc ient
Unt il
ĠCOUNTR IES
C F
L O
P C
T im
b us
k an
l ined
as ure
ic ation
Ġn ations
Ġl oved
ĠS ite
Ġv illa
Ġg lo
Ġst ations
ĠR el
ĠD id
ĠD anish
ĠD ownload
Ġne ut
em en
ĠCommission ers
ist ing
Ġex clus
end o
Ġyour s
ĠU s
ĠK DE
Ġcomp aris
Ġcomp ared
Ġcomp ensation
air y
Ġav o
Ġright ly
Ġte a
ik es
over s
Ġsm oking
az z
CON SUMER
Ġlaw y
201 1
Ġele v
Ġmom ents
Ġstud io
RIC A
Ġachieve ments
ĠFor ce
ĠSu per
Ġbuy ing
Spe ech
Ġrecord s
Ġimpos ed
Ġlack ing
Ġcontract s
ĠWork ing
Ġsuff er
END A
Ġsurve illance
Ġhy poc
DUC TION
IGH TS
Ġdeterm ined
ĠBur ma
ĠJava Script
Ġgir ls
Ġic on
Ge org
Ġchemical s
Ġobst acles
Ġexcess ive
Ġadequ ate
Ġconfigur ations
Pur pose
ĠTray nor
L ife
S an
b en
p al
he tic
at i
an sion
ar ters
Ġd ining
Ġn ar
Ġh or
ĠC ur
ĠC atal
ĠM ech
Ġbe er
id ers
Ġe ast
os oph
Ġg ear
Ġst ages
st al
ĠT IM
and on
ĠG B
ĠG aza
Ġsh oes
ure au
ĠN GO
ĠJ ournal
ĠW elcome
Ġch a
ĠK al
Ġcl oud
la via
Ġun ited
Ġspe eches
ich t
ĠSec ond
St ay
Ġevery day
ATE S
President s
Ġext ensive
Ġinc ident
ĠAn swers
Ġfl u
Ġtechn ological
Ġret ail
Ġclick ing
Ġmot iv
ĠSh ow
Ġfac ed
app y
Ġreturn s
ĠComp etitiveness
ALL S
ograph ic
Ġaware ness
ĠTra vel
ĠCarl os
Ġbelong s
Ġaward ed
Ġdemon st
Ġrapid ly
ĠYugos lav
Exc ellent
Ġprohib ited
overn ance
oun ge
Ġstru gg
urea uc
Ġunnecess ary
A Z
D L
P ract
S w
W atch
w ill
Ġt ank
on ent
Ġp od
Ġin cl
Ġm it
Ġth orough
ĠM P
ĠI van
ĠF ER
ĠF rans
ĠB ert
ĠD ays
ĠL IND
ĠN ET
ĠJ ew
Ġall ocated
In vestment
Ġsu ites
RO DUCTION
Ġen able
IN I
th i
Ġdis pl
Ġdis miss
EC D
ound ed
Ġra pporteurs
ĠEn largement
Ġinst itution
ĠReg ulations
ĠZ ur
Ġprocess ed
Ġoffer ing
Ġadv anced
Ġfil ter
Ġprom ises
UM AN
itut es
Ġocc urred
rast ructures
ĠNot ice
Ġglad ly
Inf lation
Tele communications
Ġqual ifications
Four th
Ġpercent age
Ġminister s
Ġcontrad iction
Ġpil ot
ĠMove ment
Comb ating
Park ing
C ross
K arel
N IK
a us
l ow
l ang
l ik
l ife
r ass
v ille
it als
Ġm ine
as i
Ġn ation
Ġv o
Ġal ias
ĠB yr
ĠG et
ĠG AL
Ġcan cel
ist ent
Ġr ising
ĠO f
AN A
ak er
ER DF
pt h
Ġj u
Ġdis k
OM inister
Ġrec ip
Ġra w
ĠAl bania
Ġpay ing
ior g
ĠPl at
Ġeffect ively
Ã¶ n
ĠRE PUBLIC
Ġsk y
ĠReport s
Ġenter prise
ĠAG AIN
Ġglobal isation
Ġart ist
Ġsol ar
Ġprint ing
ĠPL AN
Hel ene
ĠEng land
Democ ratic
Ġgir l
ĠNi elson
Ġdisag ree
C ategory
G ross
N ear
S W
S UD
W aste
Y L
c alled
i ating
l ong
in ema
en ue
ou red
Ġw itness
Ġp our
ar ious
ing ap
ĠM oscow
ĠS W
ĠS TEIN
ment al
os a
Ġst im
ĠF E
ĠD IREC
ĠH ung
Ġle aving
ern er
ATE D
Ġatt acks
Ġcar bon
AM ENT
Ġpolit icians
ĠX P
Ġrespons es
Ġorgan ization
Ġrepresent ative
rim in
Ġfair ly
TA IN
Ġmag n
Ass ociation
Ġadjust ment
ĠFrank furt
VIII c
ĠREG UL
alle l
Ġsatisfact ory
ĠRober to
Ġscen ario
Ġworry ing
Adv ocate
Ġbehav iour
Max imum
opoul ou
ĠHT ML
ĠGene va
B er
C all
C ost
C ulture
O fficial
P et
V ol
c ase
g overnment
i very
Ġt ennis
in y
ou nder
it ics
Ġp ig
Ġp ix
Ġin ev
Ġm outh
ĠC AS
ĠM all
ĠA ustrian
ĠS qu
ol io
Ġst ories
ir g
Ġde pth
un ting
for d
ON G
rom e
ĠW E
RO RIS
lic it
ĠV el
ĠCh inas
Ġco al
Ġar ran
Ġtrans position
Ġ10 40
OL A
Ġph arm
com ings
Ġmost ly
rat s
ĠAr ch
Ġfact ory
ĠEx press
Ġadv ise
Ġkey s
ĠTh ailand
ension s
ĠGu ide
Ġroad s
Ġmil es
Ġteam s
ĠQ ue
Ġcoll abor
Ġincor rect
Ġfem ale
ĠIo annis
ĠByr ne
ingap ore
RORIS M
7 00
E gypt
F re
F raud
L D
M B
T ogether
T owards
V ote
V iviane
o a
Ġ Ãĸ
Ġt una
he im
Ġa st
Ġto ile
Ġn ic
Ġh at
Ġh idden
ĠM en
ĠM usic
ĠP erson
ol er
ĠI SS
ig u
ĠB at
ĠG ames
Ġsh ips
ĠL uis
Ġhe ight
ep h
Ġch ain
Ġno vel
anc a
Ġtrans it
Ġappro ve
ĠState ments
EM ENTS
ĠPol icies
Ġdem o
ĠAl m
Con nect
Ġput s
Im plementing
Ġfil ms
ĠUS B
ĠInd ic
sc ale
Ġconsult ed
ĠCO STA
Ġlog ical
Ġinstall ations
ĠVal ley
Ġvol untary
Ġlisten ed
Ġofficial s
Ġcompl aints
Ġpie ces
ĠAcc ession
ĠJo a
Ġdele ted
Ġsurpr ising
Ġspl it
unction ing
ĠVen ice
Ġsuperv ision
Prepar ation
ĠSpr ing
ĠSchul z
B EL
D ate
O TI
P A
m ony
p ay
on ian
it les
al ities
Ġm ig
ĠC ab
ĠC ases
ĠM ass
Ġbe ings
ĠP ers
ĠS em
res a
Ġv ou
ĠF rom
ĠF ab
est e
ĠB ra
ĠT ype
un es
ĠG entoo
for ced
ack ing
ud den
Ġab ility
Ġab andon
ĠK la
ĠK inn
Ġle ts
Ġno body
AR I
Ġpart ition
Ġany way
Ġacc ord
Cont rol
ann a
Ġleg ally
Pro tect
Al ways
Ġfl ag
Ġed ge
Can ada
au er
ĠRE HN
Ġnecess arily
ĠSp ace
ĠBl ue
ĠCOMM ON
Ġdecl ine
hib ition
Ġamb ition
ĠInst ance
Ġindic ators
ĠSer ver
Ġrelax ing
ĠNews room
Ġmeant ime
Ġchann els
Members hip
Ġenh ance
Ġconstruct ive
Ġeleg ant
Ġdign ity
Barb ara
Ġavo ided
ĠAGAIN ST
1 97
8 00
B OUR
F I
I celand
M eg
S ad
S ave
T om
V ER
W in
W estern
a ug
b ec
l ock
u an
y e
he et
Ġs q
al and
Ġd as
ĠC ou
ĠC ross
ĠC ountry
ĠM aster
ĠS V
ĠS ie
Ġv ig
Ġst range
ĠR omp
ĠF ISC
ĠT alk
ĠT AK
em p
Ġsh ar
Ġsh ot
ĠL ight
ĠN ATO
Ġor ient
ace ut
Ġcomp ar
Ġj oy
og ues
Ġprodu ces
Ġfin anced
ater ini
ik i
Ġdef end
up s
Ġequ ivalent
ĠJu an
OV A
Ġprom pt
ĠCO W
Des ign
ĠGeneral s
Ġcompet ence
ĠSEC TOR
Add ress
Ġcomb ined
Ġdoub ts
Ġfall s
Ġwid ely
Ġconcent rate
akh stan
ĠAgain st
Whe ther
2 10
A ik
G en
L ES
N egotiations
P OS
S il
Ġt ip
he nt
Ġs ing
Ġc rops
Ġf alse
it ar
Ġp ow
Ġp ity
Ġd ro
ot or
ĠC ru
ĠC ond
ĠM ur
ĠA ustralia
ĠE conom
ĠS UM
ol as
Ġg reet
ĠF our
ch i
ĠT est
ri ble
ĠG EN
ĠL es
ĠL os
ĠN E
Ġad ult
Ġab use
ĠV iviane
ĠV ietnam
Ġres ident
ĠSt ation
ĠSt eel
IN EN
du ces
te en
ĠIn vest
Ġconc ert
Ġph il
TER IAL
Ġref erend
ock et
Ġstand ing
15 5
Ġbl ank
Ġkey word
Ġturn s
Ġpar a
ĠCl ancy
199 6
ĠGu idelines
Ġconsult ations
Ġbro ther
Ġhead ing
Ġconnect ions
Ġart ists
ĠCH F
ĠEIB s
Ġrecogn ised
Ġindic ated
Ġrepl aced
TIC S
Ġbathroom s
Ġindepend ence
Ġpension s
ĠTax ation
Ġdecor ated
Ne ither
ĠMED IA
Ġimag ine
ĠBud apest
Ġsubstant ial
Ġgar age
ĠStock holm
Particip ation
ĠWa ite
ĠPortug uese
A im
A ug
B est
R ad
S ur
U Y
W ednesday
c ar
h op
m atic
Ġc igaret
Ġf ool
Ġb ureauc
ĠM ary
ĠM AY
Ġbe at
ĠP iet
et ic
ĠA CC
ĠS M
ir ation
ĠF air
ĠB ON
ĠD U
Ġne ighbourhood
em ption
ĠN at
ĠN ap
ĠJ nos
ĠK UK
ĠSt art
Ġen large
Ġen emy
IN AL
Ġcomp os
Ġsa una
anc hez
IC K
ED ING
Ġval ley
IL EO
Ġint ellig
ĠAnd r
AG GF
Ġeffect iveness
ĠII a
Ġben chmark
Ġdifficult y
Res ults
Ġ% .
Cl ass
Ġ35 2
Ab ove
ALL I
Ġvict ory
Ġseem ed
Ġappoint ment
ĠHel p
Ġcert ification
Ġregret table
Ġconver gence
Ġsimpl ification
Ġcolle ague
Ġparam eters
Ġwithdra wn
Cre ate
Sy ria
Ġmut ual
ĠInteg ration
ĠApost ola
aceut ical
Aik aterini
F eel
I OU
I ME
L im
O p
W H
c ing
g i
m ma
s ized
Ġt id
it an
Ġm aps
Ġd ance
ĠC ultural
ĠC ologne
Ġre ct
ĠM Ã¼
et ically
ĠS U
ĠS anchez
Ġg ained
ur ies
ut t
ĠF e
ĠD er
ad ow
od s
Ġr ing
ĠN ig
ĠN ight
ak ers
ĠK rist
IN ES
ED PS
Ġtrans action
Ġrem ote
Ġext ract
oy s
Slo vak
Ġsect ions
De cember
Ġnever theless
Sh ort
Cl ose
Ġnegot iation
ĠPart y
Ġdemand ing
Sc ience
Man agement
Red ing
Ġrelax ation
ĠBY R
Human itarian
ĠSal z
Ġprim arily
ĠPos ition
Ġcell s
ĠMcC REEVY
Def in
USTR Y
Ġparliament ary
ĠAlc ide
Ġaccom pl
ĠGas peri
ĠPRODUC TS
iov isual
ĠEDP S
Ġexclus ively
ĠKinn ock
1 96
F ive
I raq
M inistry
T est
U ATION
c ue
h ua
i ques
in ery
is en
Ġc ure
Ġc ock
Ġb read
le v
le vel
il ly
Ġh ide
ĠC re
us c
ĠM O
Ġl ounge
ĠS L
ĠS av
Ġv it
Ġst rik
ch anges
am m
ri p
em ail
Ġhe l
Ġhe ll
ak is
ĠV enez
ĠK on
Ġqu arter
Ġcl arity
Ġen vis
ag ers
iz a
Ġ8 81
So ft
ATE R
On line
Ġla und
Ġconf usion
ĠPol ice
Ġcor porate
Al tern
OS LAV
Im ports
Ġshort comings
OV I
Ġactiv ate
Ġdesign s
ĠIm migration
ump s
EG OTI
Ġhon our
ĠPri v
rd ric
Ġdimension s
Ġbott le
Ġtw ice
wh ich
ĠOb jective
Ġconfig uration
Ġign ore
Ġaccident s
Ġbrid ge
Ġtut orial
Ġly rics
thi opia
4 379
A bs
A ID
B ack
C AP
F acts
L and
L eg
N S
N avigation
a ard
t rans
re ets
Ġw ins
Ġc ouncil
al is
ro te
Ġin i
Ġis lands
ot land
Ġh ung
ĠC V
Ġy ang
ac ific
ut s
00 01
ce ived
ĠR OS
ĠF L
ĠB ed
Ġdo ctor
ess ler
ĠL ic
ĠN H
ĠO cean
ĠJ ul
ak s
ĠW ell
ard ing
lic h
AR R
ED ER
ĠCh urch
Ġte aching
An imal
Ġtrans actions
Ġsp ons
Ġla id
Ġtr acks
To o
As k
Ġpolit ically
Ġsuccess fully
uff icient
Ġorgan ic
ĠGu arantee
Ġsubject s
Ġshe ep
ERS EN
Ġurg ency
Ġdecl are
Ġpeace ful
Ġauthor ised
ĠAmeric as
Ġmag ic
Ã¼r gen
UG OSLAV
Ġfirm ly
ĠMark os
Ġcompon ent
Exam ple
ĠPlay a
Ġparad ox
ĠCla us
ĠYugos lavia
Ġhop es
Ġterrit ory
ĠMand elson
ĠFISC HER
I ran
K E
K osovo
L iber
M at
M ont
P residency
R ate
U TION
b ur
b ean
Ġ rough
Ġt ort
in ic
Ġs outhern
Ġw ise
ar ctic
Ġth row
ot a
Ġh al
Ġl ag
ĠP utin
ĠS PE
os es
Ġpro p
ĠB os
ĠD i
ĠT wo
ĠH il
ĠN uclear
Ġme als
Ġcl imb
ĠCh ris
Ġ8 6
Ġ9 00
Ġsc an
Ġsc reens
Ġent hus
11 5
Ġind ustries
Ġdel icious
Ġcontin ent
Ġfavour ite
ustom er
arg o
ĠEx pl
Ġput ting
Ġexpl ore
Ġactiv ated
Ġmin or
Ġdist rict
ĠProgram mes
Ġcorrect ions
Ġeng ines
Ġhold ing
Ġrev ision
rop ical
OW SKI
Ġsepar ately
ĠRec ommendation
Sp okes
Ġmand atory
Ġdesc ribe
Ġcondition ing
Last ly
Ġoblig ed
abil isation
Ġcalc ulated
Ġinvolve ment
ĠPRESID ENCY
ĠStud io
Ġsustain ability
Ġguard ian
Jan uary
ĠSYS TEM
Ro ad
ĠTreat ies
Ġarran ged
C ard
M art
N orthern
N AFO
P ass
R ural
S EC
u pe
re p
in cluding
at is
Ġthe res
Ġin clusion
Ġh ole
Ġre n
ĠM S
ĠM are
ĠS TE
ra f
ke ep
ĠT unisia
um es
ist or
igh ter
ĠO pt
ĠO ption
ĠU rs
Ġcont ro
RO U
For mer
Ġen larg
els en
Ġun for
ish ment
Ġdis s
av en
pl us
ĠCh ildren
Ġcons c
Ġar m
ph an
11 2
ĠY UGOSLAV
vent s
OP OUL
Ġrest ric
AM A
Ġbl ess
Ġbl ocks
My anmar
16 0
Ġrepresent atives
Ġkeep s
uel a
Ġsent ence
Ġreview s
Ġclass es
Ġperform ed
Ġev il
Ġfarm ing
Ġcompl aint
Bl ack
ĠBen ita
Adop tion
Ġpure ly
Cod ecision
Cap ital
ĠRa im
Viviane Reding
VivianeReding EU
A head
E ast
F oreign
F rdric
R ANE
f ox
u ing
Ġ um
on ing
or ama
an ied
Ġs ought
Ġc ache
ro economic
el o
Ġre b
Ġre ass
us al
ĠM o
Ġbe ef
ĠP en
ĠP ACT
ĠS AP
ment ed
Ġe ve
ac in
ĠI AC
ur ious
ĠF reedom
ĠF ISHERIES
ĠD oc
Ġde p
op es
out ique
ĠL ind
Ġr ating
ĠN av
In v
Ġres idence
ank a
ĠSt reet
EN G
te k
Ġun w
Ġsa ving
Ġout door
ĠUn ivers
Ġcons olid
Ġend ors
ria ge
Ġdifferent ly
16 1
men ia
ĠAd am
Ġexc ur
IM ATE
AF RD
ĠMan ager
AV E
ESC U
Ġtour na
Ġconsider ations
Ġstop s
Reg istration
ĠCH ANGE
CO ST
Ġquot ed
Ġfran k
ARD S
Ġload ed
Ġexcept ions
ĠSm all
Ġsuppl ies
ĠGÃ¼ nther
Ġfulf il
ĠDiam ant
ITER RANE
ĠIC T
Americ as
Bal tic
Mor occo
ĠBelg ian
ĠMINIS TERIAL
ĠSqu are
ĠISS UES
ITERRANE AN
B L
P s
S ervices
T D
T ur
k et
Ġa er
in et
at om
Ġw alls
Ġp ace
Ġd ict
ĠS IM
Ġg ate
our se
ĠF EK
ch o
ĠB ush
ĠH ere
ant a
rou s
Ġsh aring
Ġ3 50
Ġch art
IN N
Ġk ing
int s
Ġso il
St ar
11 7
Ġra ises
Ġla ugh
20 20
cond ition
Pro cedure
ĠRes idence
UL T
olut ely
Ġpar allel
Ġmin ority
pro duct
De veloping
ĠSh op
AV IATION
ĠCOMM UNITY
li ers
Ġautom atic
ĠEM PLOYMENT
Ġcirc le
IST ANCE
Ġconver sion
ĠAp onte
Rel ax
Ġfit ness
Ġdisappoint ed
Rep ublic
acc ession
ĠFil m
Ġrid ic
Ġarchitect ure
osoph y
A round
B uy
G B
H ope
L as
S ol
S ME
h ost
p erson
t or
t ical
Ġt ips
Ġa wards
on n
Ġs lo
Ġo we
Ġb io
Ġin n
Ġin adequate
ĠM OD
ter ies
ay a
ĠI z
Ġ1 30
ir ing
ĠD IS
ĠD IM
ĠD ouble
ĠT AX
un n
un ning
ĠH ug
ĠJ UN
ĠK O
ell ers
Ġen abled
are r
og rap
Ġdis hes
ov ing
ĠCh ile
ord s
Ġprodu cer
Ġsc r
Ġmod er
Ġgu ys
Ġgu idance
12 0
Ġref ers
Ġrep air
Ġbus y
Ġrest ructuring
Ġ18 0
ĠAl ber
ĠAl lah
Ġdirect ions
Follow ing
IG R
IV ER
Ġlo ans
Ġgl ance
rim s
Ġtri ps
Ġopp ose
Ġmar ried
Ġfall en
OC K
ĠJapan ese
Ġmanufact ured
Christ ian
Ġut most
iling ual
PER LINK
ĠOffic ial
ĠLib ya
Ġshut tle
zb ek
Ġcertific ate
ĠTurk ish
government al
EGOTI ATIONS
Ġcontro vers
C B
E qu
F S
F ishing
I RO
I TION
M arch
P rime
P CD
R om
k y
p et
Ġt ail
in ent
Ġthe ory
Ġo k
Ġd ress
om s
ĠP AT
ĠA wards
ĠS ar
ĠS earch
id as
ul um
Ġ( %
Ġwe alth
ĠB or
ĠB ureau
ĠT E
ist ence
TE Q
ĠJ ose
ag ne
Ġun e
Ġreport ing
anc ies
ĠMar co
Ġdes ktop
AT ORS
Ġman a
ĠY es
IL ÃĦ
Al ready
Ġfl ash
ĠIs lam
Ġins pect
Ġprom ised
ras se
ĠFund amental
Ġrese ar
ĠLa ure
Ġsend ing
Ġmov ies
Ġport f
Ġindividual s
Ġmor al
Ġpurch ased
Ġaccommod ate
ĠSystem s
Ġdrink ing
ĠAcc ount
Ġprot est
Prom otion
Ġir re
Ġforest s
ĠHa iti
Ġsurround ings
Ġconduct ed
ĠOR GAN
Rest rictive
Ġhous ing
Ġaccomp any
Ġtrav elling
Spr at
Ġcop ies
Ide al
Ġhect ares
zbek istan
PCD D
B es
B razil
C ESS
I TED
S ON
S Minister
T ell
V oting
W AL
W oj
g n
g roup
j er
er ted
ou ch
Ġc ommission
Ġf lying
Ġo live
al et
Ġb ill
ro gen
il de
el ong
Ġre vers
ĠE SP
ĠS IS
ra ction
ĠR ound
ĠB ig
ĠB lo
un ate
Ġan al
ĠL ad
ub l
ĠN ero
ĠO s
ĠO nd
ĠJ ar
Ġpl ate
ĠU ser
Ġim pl
ĠV ict
ĠK AL
Ġqu ery
ĠRe view
iz ations
iz hou
ib e
So on
Ġatt ach
Ġref erences
ier ra
ĠAl g
Ġdirect ed
Ġest imated
oh a
Ġimplement ing
ĠMarket s
Ġexist ence
!! !!
Ġachie ving
Ġproper ties
Ãĸ N
Ġsy m
EV A
raz y
Ġcross road
ĠGR ASS
Ġbroad cast
Ġord inary
Ġqual ified
Ġoptim istic
Ġmedic ines
Bel arus
Ġsuppl ier
Text s
Ġquant ity
ĠFranc is
ĠHub ert
ĠBus quin
ĠFed eration
Ġconfident ial
ĠZe aland
Ġisol ated
Ġep is
Ġvaria ble
ĠTib et
Ġing red
oub ted
ĠZur ich
ĠRomp uy
A uthor
D ist
H istory
L ocated
M T
O h
Y izhou
f an
x im
or gan
Ġf ont
Ġp aint
Ġb er
Ġd iag
ĠC row
ĠC EO
et ch
ĠE V
ĠS af
ĠS omalia
Ġst r
ĠR IGHTS
ĠB uilding
ad ays
Ġne arest
se m
od ia
Ġr iding
AN K
ĠV IS
ĠK m
IN TS
ric ks
HE UG
ĠRe ader
Ġout look
Ġpoint ed
Ġact ing
Ġprogram ming
Ġsp aces
ee k
TR ÃĸM
Ġpublic ation
Ġcour ts
Ġind ices
Ġdisc ip
ĠY OU
ath y
Ġexp ansion
Ġfl ows
Ġoper ator
Comp any
ĠMAR TIN
Ġsince re
ĠRE PORT
aps ed
IV AL
ivers ary
Sh ow
Ġpat ients
Ġvar ied
be ing
ĠPal acio
Trans fers
ĠDirect ives
Inst all
ii i
Ġabst ain
Ġarrange ment
IAN OU
ĠNews letter
ĠVER HEUG
Ġsurround ed
ĠREG ION
Ġign ored
ĠAlp s
ĠAID S
Ġinvestig ations
ĠHost el
Ġstrict ly
Ġrul ing
Ġtrou ble
Ġpref erences
Ġbroch ure
Ġoffic er
bc d
Ġcomparis on
Georg ia
oubted ly
G rowth
L ib
S M
T witter
c ultural
d isc
s u
Ġa u
Ġp a
Ġin coming
Ġm el
le ts
Ġth ick
ow nt
ĠI d
Ġv ari
ir ts
Ġha bit
ĠB ol
ĠD erm
ĠD oll
ĠD rag
ĠD ECLARATION
ĠT a
ĠG L
ĠG ard
ĠG ord
ĠH tel
ĠL ong
ĠO bs
AN IA
ĠW as
ĠV itor
Ġme al
IN O
ap id
Ġun us
Ġun employed
ĠIn g
Ġdis p
ĠCh ic
ib bean
Ġsp are
Ġover come
Ġ14 0
Pro posal
Ġinf rastructures
Ġinvest ors
Ġpress ing
ĠCON SUMER
ĠLe vel
ĠSc ore
Ġprom oting
Ġz ones
Ġdownload s
ĠChrist os
ĠSch reyer
Ġtarget ed
Ġev ident
Ġage ing
Gu ide
Ġfre ely
ĠPort al
Ġengine ering
Ġdeterm ine
sec ut
Ġrat io
Ġexpert ise
Ġfle et
Jo in
Ġcos y
ĠFern ando
ĠMAL MS
ĠMech anism
ĠTalk o
upe a
Ġunfor get
ĠIAC OV
Woj tek
B ig
B ES
C lean
F ield
G H
G al
L T
L ess
L og
L anguages
O wn
P G
S ustain
W est
a im
d ers
i qu
r us
z ard
Ġt ran
re b
Ġc ord
Ġb ilateral
Ġb anned
ro v
Ġh ire
el ve
ct ors
ĠP ia
ĠP age
ĠA K
res den
ĠI ll
Ġg rat
Ġ1 12
Ġha reng
ĠB u
ĠB UDGET
ri ving
Ġas h
ĠN I
iv a
Ġch ap
Ġstay ed
EC TS
Ġco in
Ġar ise
11 1
ict ures
Ch airman
Ex port
Ġbus es
Ġhigh lights
ĠZ AL
Ġsign als
Ġtext ile
Ġins ert
With in
ĠSc he
ĠInd ustrial
room s
Ġorgan ized
199 4
Ġpriv at
Cl upea
Ġsy n
ĠBo x
Ġtem plate
Ġbat hing
Ġencoura ged
ocol ate
ĠCom fort
Ġelectric al
Ġdepart ment
ĠPaul a
ĠOb ama
Spec ies
Ġsucceed ed
Ġsuppl ied
Mil k
ĠTAC s
ĠGN U
Ġteacher s
ĠOP IN
ĠEdu ard
Bur ma
WEL COM
Ġincent ives
uls ory
ĠUrs ula
ĠDiamant opoulou
ĠMALMS TRÃĸM
Ġhareng us
A TIVE
H IC
K AN
M oney
M ean
O ctober
P le
P ON
S ir
S PE
T s
b reak
c z
f ile
h as
i pt
t t
t ry
Ġt ub
Ġt rem
he m
Ġw ife
Ġc ater
Ġf lav
Ġp ush
Ġb old
Ġin com
ĠC lick
ĠA le
ĠE b
ĠS l
ĠS ir
os h
Ġst reets
ĠF ort
st ate
ĠB ri
ĠB OD
ĠB rab
em ar
ĠG ova
end id
ĠN ep
ĠW omen
ud iciary
Ġch arm
ell s
ĠSt ructure
Ġapp arent
ject ives
ru its
av our
ew able
IC ATORS
ug gage
Ġtr ace
Ġclear s
ann i
Ġprov iding
Ġform ula
Ġap olog
ĠAl fred
TERN ATIONAL
Ġamend ing
Ġafter wards
Ġactiv ely
ĠAd vis
AD T
Ġsupp liers
Ġpriv ile
Ġhard ware
Cons umers
pre ad
EV ENTS
Ġobs er
li ke
Ġsearch ing
Ġmult i
Ġoption al
Pe ace
Ġsignificant ly
Hel lo
Ġnorm ally
ato es
Ġstrengthen ing
Ġcontain ing
Ġcert ified
Ġreflect ed
BE I
Ġdisappoint ing
Ġwid th
Ġfulf illed
ĠTele communications
Ġharmon isation
Ġmanufacture rs
Aud rey
Tour ism
ĠDid ier
Ġtoile t
Ġscr utin
ĠBrab ant
ĠGova ert
B rit
C ent
D em
G ive
L ebanon
T errorism
W RITTEN
X X
Z I
c at
p ing
Ġt ape
Ġa uf
is ure
Ġw est
Ġc aught
ar re
Ġd iving
Ġth in
Ġh iking
ĠM ap
Ġy ield
ĠP ED
ĠA ge
ĠS PR
ĠR eturn
st ant
st ream
ĠB ER
ĠD oha
ĠT err
od ing
ON IA
ĠL ag
ĠL ear
ĠL odge
ĠJ ames
ak ed
ĠW erner
ber ger
Ġme re
ast ing
ER CIAL
ĠK OV
ab s
Ġcomp ly
Ġun changed
iz er
ile mma
Ġar bit
Ġappro aches
ĠMar a
ss on
Ġph ones
IR D
IL Y
Ġ16 0
Ġinter rupt
UL TURAL
Ġcho ices
Est ablish
ĠInd onesia
Ind ustry
app ed
Am ount
ĠPart ner
por ation
ĠAug ier
Ġgener ate
Add ition
ĠCH AR
ira ble
Sim ilar
comm unication
Ġbat tery
ĠEr nst
Ġarch ives
Ġsun ny
Ġrad ical
Ġmag azine
Ġwatch ing
ĠPA PAN
Ġceleb rate
Ġpurs ue
TIS TICS
ĠGold en
ĠLo i
Ġpred ict
ĠJa ime
ĠFÃ¼ le
IMPL EMENTATION
ĠFlore nce
Ġprosper ity
ĠFER RE
Ġridic ulous
D ON
E asy
F L
H IP
M exico
T N
T ob
h ot
i ment
i em
l an
l ink
p ie
r ition
y es
er as
Ġc af
Ġf ib
Ġf ires
Ġp ets
Ġb orne
Ġm urd
Ġd airy
ic ular
ĠC ad
ĠC amb
ĠC opy
ĠA then
ĠS of
ĠS ource
ac o
ĠI R
ill es
ul ating
Ġcon vert
ĠF ri
ĠF ont
ĠF UND
st ar
st ed
ĠB L
ĠB ange
ĠB ah
ad us
ĠT ask
ĠT aiwan
ĠG allery
ĠG essler
ĠH us
ĠH old
ĠH EM
ON E
ĠJ ust
ĠW il
Ġinformation s
ĠU se
ĠV E
Ġres ist
ĠK r
ĠK YPR
You ng
Ġwhat s
Ġstay ing
Ġwork shop
ĠCh ar
ĠCh all
Ġtra gic
Wh ile
10 5
Ġ10 6
ĠComm erce
ĠMar ina
Ġent repreneurship
AT A
Ġend e
Ġvis ual
Ġlast s
ris y
ST ADT
CE E
ĠAr gentina
Ġperson nel
Ġair ports
ĠBe at
ĠBe ijing
amp s
AD S
Ġconst itution
Ġappe ared
Ġenter ing
ivid ually
Des pite
ler fish
Ġocc urs
Ġobs erve
Ġsumm ar
ĠEd itor
Ġder og
Ġbrow s
Ġlic ence
Ġbox es
fin ancing
Ġcollect ed
ĠMi h
ĠDom estic
Ġvirt ually
Ġult imate
ĠDEL IVER
Ġesc ape
FA O
ĠHER E
HOL M
Ġdispl ays
Ġportf olio
Ġcrossroad s
ĠBange mann
2 50
D ECLARATION
L ou
P U
W ar
a ire
c ard
d ing
u ct
v illa
y ard
Ġt ap
Ġt rick
he arted
in ars
in itiative
Ġthe rapy
Ġp ed
Ġm ad
Ġd I
ĠM ir
ĠM em
ĠM IL
ĠP oul
ĠS IK
ol ly
ol ved
Ġ( *)
ĠR un
ch t
ĠT able
am in
ĠH A
Ġse qu
Ġex clusion
ĠW ood
ĠV e
EN ESS
EN OV
ark s
ere als
Ġwh atever
AR T
Ġpart ly
con f
Ġro t
ĠRe in
ang ers
IC ATION
Ġ6 9
pl ing
Ġpre v
PE Z
Ġcomm od
ren a
12 5
Ġtr ig
Ġfound ation
Pro t
Ġsm ile
Ġdef ense
iet ies
Ġint oler
Ġche ese
Ġbo ats
Ġinter im
Ġhand ling
Ġed it
Ġbr ands
ij k
Every body
Res pons
Ġrepresent ation
Ġnegot iating
Ġprevious ly
Ġsy mp
Ġprec ious
Ġregul ated
ĠAL L
ĠPe ople
Mar ie
ĠApp ro
Ġperm it
Ġski ing
Ġsuff ered
alt ies
Ġadvert ise
ĠYear s
Ġaccomp anied
Person ally
Ur ban
Ġcohere nt
Pract ical
ĠOPIN ION
ĠDELIVER ED
/ +
F ruit
G adus
H OR
I J
P op
R isk
S IS
T w
U lt
W alk
Y N
c ific
d f
e lect
k in
m n
o oting
s he
v io
Ġs ake
Ġp sy
Ġin clusive
le ading
ĠC oll
Ġl ights
ĠP y
ĠE very
ĠS ingapore
im ates
ĠR od
Ġal arm
am an
ĠG arden
ĠH IV
out e
um ed
ess or
ĠL ANG
Ġas ter
ĠN IC
ĠN ature
ĠN eed
ie u
AN I
ĠJ ack
ĠJ ak
ĠJ Ã¼rgen
ĠW he
ĠW ALL
Ġpl astic
EN DO
ab e
Ġun fort
pos als
Ġso vere
ov al
uch t
EC T
IT OR
ĠFin n
Ġadop ts
Ġdes per
He inz
Ġdisc overed
Ġrel ate
En g
Pro ceed
DE CISIONS
ĠAl b
Ġinter ven
Ġspec ify
ij an
Ġaim ed
Ġshe ll
Ġsaf er
Ġkeep ing
pri ate
Ġca ution
Ġmor hua
Ġmar ine
ĠAmeric ans
Ġcollect ive
Ġlear nt
Ġtw in
Ġhy d
Ġadjust ed
ĠCast le
iot echnology
Ġstri ke
Text iles
Ġcompli ance
ĠJun cker
Ġclot hes
Stand ard
Ġentertain ment
ĠJon as
Sebast ien
udden ly
Meg rims
Sad ly
Ġenlarg ed
C ECAF
C ecilia
F ront
F oot
S eptember
V iol
f ront
g l
k ing
n ik
p ost
is dom
Ġw ake
Ġc ens
it ored
ic its
ĠM AG
ĠP in
ĠA V
Ġyou ve
pe ction
Th ink
Ġg rey
ce ive
ĠB RO
ver gence
ĠD iv
ad s
ĠT DI
Ġdo c
Ġr ational
AN U
TE X
ĠJ av
ail a
ep pe
Ġcont ained
Ġch ose
ĠV O
EL AND
OM ÃĦKI
Wh ite
Ġtrans fers
ĠMar o
Ġwell ness
Ġgu ided
Ġind is
Ġass ign
Ġmat ches
ann y
arm on
Ġsm oke
Ġinter ior
Ġinter medi
Ġcertain ty
Ġmon itored
Ġpat ience
Ġpost ed
Ġtown s
Ġtell ing
ha ust
ita e
Ġmult ilateral
Red uc
Ġterror ist
Ġreact ions
Ġgra ve
TIV ES
TIV ENESS
zo res
Ġ00 01
GI UM
Ġmanufact uring
Ġtw enty
Ġprepar ations
IX ED
LI AMENT
Ġce iling
Ġprefer red
Ġ43 98
ĠUR BAN
ĠEng ine
Elect ric
ĠPalest ine
ĠIND ICATORS
ĠFire fox
Ġcooper ate
Ġincred ible
Ġdistin ction
Ġsubs cription
ĠSup erv
ĠMall orca
Ġreferend um
Ġrestric ted
ĠOnd rej
: :
A UD
C ode
D B
E v
F C
P M
P os
R uss
S al
T uesday
W alter
c i
c are
f eld
h y
r ity
s q
w ar
x y
is er
or i
Ġs ick
Ġc ow
Ġm illions
Ġm ango
il ings
ĠC anc
ĠM id
ĠM OR
ve t
Ġl overs
ĠS MS
ĠS ummer
ter dam
Ġg ender
ur f
Ġst ores
ĠR isk
st ep
ad vant
ĠT i
am er
ĠL ars
ĠL eni
ĠO pport
ĠJ USTICE
ĠJ ordan
ĠV A
ĠK ale
th rough
ong ue
Ġro ots
per ty
eral d
ov en
ĠCh ancellor
ern ame
Cont ract
St ep
Ġrec over
ux e
ism s
ĠY OUR
Ġ16 15
ĠX ML
ys ics
incip les
Ġabs or
ĠAnt arctic
ĠIm pro
QU E
ĠCan aria
ĠAb out
ogn ition
Ġdest ruction
Mon itoring
Ġdiv ision
Ġter rible
ĠDo es
Ġadm it
Ġconflic ts
Ġadapt ed
Ġloss es
Ġlay out
ĠPalest inian
MAR K
Ġliberal isation
Ben ef
ĠMarian n
Ġbird s
Ang lerfish
ĠGiul io
Ġinev itable
ĠCru z
ĠVERHEUG EN
Ġunfort unate
3 10
D ress
D NER
F unctioning
G ER
H ot
K en
L ater
P an
a fter
b orn
r ase
w est
x x
z ig
Ġ Ã¤
Ġt ram
Ġt ired
in ique
Ġw et
Ġc up
Ġb le
Ġb rain
Ġm es
el lo
Ġfor ced
ĠA HERN
Ġe ar
ĠI ss
ig i
Ġst ret
Ġpro ven
ke ys
ĠF iscal
ĠF OOD
ĠF OLLOW
ĠB ang
ĠT UR
un o
ĠG O
ĠH am
Ġex changes
Ġli quid
ĠO il
ak i
Ġpl ot
Ġvot ers
ĠV il
Ġag ents
Ġag rees
ES TER
Ġcl ip
01 0
are lli
ric ulum
Ġtra ins
Ġview ed
IT UATION
ph a
ann ers
Ġprov iders
Ġexam ination
ST ATE
Ġrece ives
ID EL
ĠPl us
Ġdirect or
Ġtechn iques
ash a
OV ERN
Ġins ist
17 2
Ġparticip ating
Ġconst itutes
Ġmoment um
Ġpat ents
ĠSu pp
ĠCan ary
Su per
Ġclass ified
Ġdepend ent
irt ual
Gu ests
Ġfore most
ĠAL M
Ġmass ive
ĠDan ube
ĠHer itage
Ġut ter
equ ality
Ġattract ions
Ġmail ing
Ġhighlight ed
reprene ur
ĠRO OM
Us ing
ĠTim or
Ġpill ars
Ġsustain ed
MED ITERRANEAN
edd ing
Ġcere mony
Ġsurv ive
Import ant
ĠJes us
ĠMAY STADT
AID S
ĠGord on
Ġunforget table
+ ?
C ur
C ING
D er
D RE
F ac
G UE
J un
L V
R u
R ent
R ules
S olidarity
T ROL
b ank
f it
m l
Ġs elling
Ġw ireless
Ġc ul
Ġc inema
Ġf est
Ġp id
Ġp ending
Ġp apers
al us
ed er
ed ge
Ġb is
Ġd an
as ion
Ġh ors
ĠM AC
ĠP op
ĠP ACK
ĠA qu
ĠS TU
ĠS outhern
ĠI ts
im plementation
ĠR ight
Ġne ighbour
ĠG all
ĠH D
ĠL ud
ĠL ast
ĠO etting
cl ass
ast s
Ġres istance
ĠK l
ĠK re
EN E
Ġj ack
Ġun ity
Ġun iform
ink i
ĠRe ad
ple x
Ġdi ox
enc ing
Ġfind ing
Ġsome where
OL OG
OL UTION
Ġover night
ĠRepresent ation
Ġass ume
ĠCon nect
Ġproced ural
Ex ports
inc re
ĠTh ird
uff et
Ġspecial ist
Ġins pection
ĠAs ked
Ġdist ingu
ĠEnvironment al
Ġrespect s
Ġprincip al
Ġprof iles
ĠFran ois
Ġhouse hold
zer ba
ĠSu ite
ĠWh ich
Ġfocus es
Ġtell s
Ġund oubtedly
Per fect
li ver
ĠYou ng
Ġident ify
ĠPer u
Ġlic ens
PO INTS
Ġaltern atives
Ġappear ance
ĠApp le
Inf rastructure
vo ire
Af ghanistan
Ġclub s
eck ling
Ġminister ial
Ġpattern s
Ġphotograph y
Ġwithdraw al
ĠAF RICA
Ġrelig ion
Product s
Ġmisunder standing
Ġbran ch
ĠStef an
Ġstrugg le
iorg os
ĠKla us
ĠSUM MIT
ograp her
WAL DNER
Mean while
ĠFERRE RO
ĠAthen s
ĠdI voire
ĠOetting er
zerba ijan
C HE
D on
F ast
F lex
G r
H ard
I ve
I RE
J ul
N etwork
R ound
T T
T unisia
Z imbabwe
f riendly
u in
w ing
z za
Ġ q
Ġt al
Ġw rote
es c
Ġf uck
Ġm as
Ġre ly
Ġbe ars
ĠE D
ĠE CHO
ĠS ign
id umping
ac ular
Ġst ood
ul ator
Ġal ive
ĠF ar
st e
ĠB AK
ĠG overnance
Ġsh ap
ĠL AM
Ġhe t
Ġr ac
oc a
ĠN on
if a
ĠK im
els inki
Ġdis asters
pl iance
ern ing
ft en
Ġrec ycling
US TAIN
Ġunder ground
rit eria
Ġind ividually
Ġass et
Ġprov ider
Ġche aper
Ġcut ting
Ġcre am
Ġkey board
Ġbook ings
Ġbas ket
ĠLe ader
Ġrespect ive
isc her
Ind ividual
ĠGu y
Ġpat ch
Ġpost al
ĠEm ploy
Ġbad ly
ĠInst ru
Ġindic ator
Ġextra ordinary
ĠSer ies
ĠOper a
Ġremark able
Ġrepl ied
ĠCD s
ĠArt is
Support ing
Ġfoot ball
lim ited
Ġcamp ing
LAND S
Ġemb argo
Ġdoll ars
Ġdeg rees
Ġassess ed
ĠPAP ER
ĠHen ri
ĠProject s
Ġenh anced
Ġterrit orial
Ġrecon struction
Ġphotograph s
ĠGer rit
Ġscandal ous
Simpl ification
Ġfores een
ĠTick er
Administ rative
teg at
ungal ow
ĠNGO s
ĠREGUL ATION
IGR ATION
ĠScore board
% -
A A
E astern
G S
H eckling
L ight
M igration
O pt
R IK
S ector
U Z
d ep
g ency
j an
Ġt ent
in ians
Ġc razy
Ġf ate
Ġf ert
Ġf its
Ġp ir
Ġo cean
Ġb omb
Ġb ags
Ġb iodiversity
Ġm o
ic ing
ent a
ot y
ĠC E
ĠC arm
Ġl uggage
ĠP rices
ĠP acific
ĠE rik
id al
ol s
ĠB EL
ĠB und
ĠB outique
ĠD resden
and ro
Ġan x
em ies
ĠG ert
ĠH ard
Ġex ecutive
ĠL O
ĠL egal
ĠN orm
ĠW ay
Ġor phan
ĠV is
EN TR
ark oz
Ġj udicial
ry pt
Ġdis advant
ays ia
use ums
IS Minister
Ġfind s
Ġsp am
Ġinv ites
Ġproduct ive
Ġ19 80
Ġdes ert
AT H
Ġass ent
Ġopen ness
Ġfe as
rat or
ĠAl geria
ĠAn a
Sub scribe
AG EMENT
ĠĠĠĠ ĠĠĠ
Ġbl ow
Ġoper ated
ott i
Ag reements
ĠAd v
De ep
Ġmot to
Ġauth ors
Ġann iversary
Reg ister
III a
Ġund erm
Ġund erest
ALL Y
Ġworth y
ĠSan ter
Gu idelines
ĠAN N
ĠEd ition
strÃ¶ ms
ĠPROGRAM MES
ĠApart ament
Ãľ N
Ġce ilings
PRO GR
Ġmir ror
Ġtariff s
Oper ational
ĠMarian ne
ĠLU PO
MON TI
Ġseg ment
ĠTRE MONTI
Ġdefe ats
Ġabol ished
Ġsty lish
Ġegg s
Ġweakness es
ĠHung arian
ĠNat ural
ĠSalz burg
ĠPAT TEN
Ġtrem end
A RO
C ity
D ear
G DP
K OV
M ANS
M ANN
P oss
S ear
S af
T B
W AY
g art
m ax
n ie
n ame
p onse
Ġa qu
at on
Ġthe r
Ġw ider
ic ism
ot ive
Ġl akes
ĠP OS
ĠA SP
id ad
Ġv ast
ut ation
Ġst ressed
ĠR ud
ĠF ly
ĠF ig
Ġwe igh
ĠD ick
ad ium
ĠT ER
ĠG reens
Ġsh ift
ĠL PEZ
ĠL aila
ub er
ĠJ oz
ĠW at
Ġwor ried
lic ante
Ġour s
cl aim
ĠK n
ĠSt aff
EN B
IN ATION
ear s
HE ALTH
ll er
ll es
OM ER
AS E
Ġcons ervation
Ġar rested
ĠPro gress
Ġcount ing
ĠThe od
Ġtrans itional
Ġinv itation
ĠMar ie
PAR T
Ġposs ibly
Ġref lection
Ġref used
Ex hibition
Ġrep ro
ows ki
CH I
ĠRes erved
16 3
Ag ricultural
ij n
AF T
UM ENTS
Ġtour ists
ĠPh otos
Ġhead qu
ĠFR IED
ĠMon itoring
enn ium
ĠGeorg ios
COMM ISSION
Ġfall ing
ĠCar ibbean
Any one
TIC AL
Ġdeath s
ĠHans en
iver se
Ġcampaign s
Ġalb ums
Ġdon or
Ġlaun ches
ĠCam er
ĠRES EARCH
ĠFRE IVAL
Ġseek ing
Ġhom es
Ġcontest ant
arf ur
Aut om
ĠPalm a
Ġack nowledge
ĠTy rol
impro ving
ĠTAK EN
ĠKUK AN
ĠDerm ot
Ġscrutin y
Addition ally
ĠHEM ILÃĦ
Lou is
ĠFREIVAL DS
B an
F T
F ifth
G N
I ss
J ean
M IXED
P overty
R yan
S D
S ep
S udan
S ugar
k elsen
u um
z ones
re nd
Ġw ave
Ġm ort
le z
as ja
Ġh ier
ĠC all
ĠC ER
ĠP V
ĠA IR
ĠA lex
ĠE sk
ill er
ul atory
ĠR ue
ĠB AS
ĠB etter
ĠB road
ĠD em
ĠT al
ĠT onio
qu ake
qu ire
ĠL anka
lo oking
Ġim bal
ĠV ery
ES F
Ġmy th
Ġte ach
And or
here d
11 9
Ġra rely
Ġleg end
Un ion
ird as
Lat in
ĠAr ri
Ġexp licit
Ġcut s
Ġhand led
Ġbas ically
pro gram
ĠCON VENTION
Ġsince rely
ĠRE ACH
Ġchildren s
Ġorgan ize
Be autiful
Ind ic
AB OUR
ĠFR ENDO
Pre vention
Ġpub l
ĠBo hez
Ġoil s
Ġdepend ing
Ġtele communications
ĠAt zo
ĠAv iation
Rec ommendation
Em issions
Le ft
Ġamong st
ĠMe asures
ĠVer sion
alys is
Impro ved
Av iation
ĠRad os
ĠPr ice
ĠChe ck
rich t
Ġrenew ed
Ġcounter fe
ĠMalm strÃ¶ms
Ġconven ience
ener ife
Rem ember
ĠBas el
eld orf
Nat asja
ĠPa olo
ĠASS ISTANCE
ĠMill an
ĠRub iano
ĠMik kelsen
Ġaccur ate
ĠIb iza
bre v
Ġcorrespond ing
ĠKen ya
ĠAGRE EMENT
ĠHY PERLINK
Ġneut ral
ĠNET WORK
Ġaster isk
Ġpid la
ĠApartament os
A verage
B ON
B road
D ER
F ine
H AG
K AR
L abour
N ov
O ld
S hip
V arious
W AR
Y ND
] .
a ux
b n
c ode
e ffective
m ade
r ors
Ġa uction
an ical
Ġs almon
Ġc rises
it ative
Ġb ab
Ġin ner
Ġd ivid
Ġn orthern
ot ed
Ġre venue
ĠM os
ĠP ut
ĠS ad
Ġe ase
Ġe ating
Ġg ross
ĠR EDING
ĠF ollow
est yle
ĠD or
ĠG ift
ĠH AL
ĠH istory
ist ry
ĠL anguage
ĠW elfare
ab out
ec a
ere nc
Ġwh iting
AL OG
OR SKI
Ġpol y
ian nual
Ġ9 207
ple te
me at
Ġpr ide
Ġinv oice
Ġsc ar
Ġappro ves
US A
Ġpri zes
Ġform ed
Ġform ally
Ġmay be
ars h
ĠIN TERNAL
Ġfl our
Ġtext iles
OS Minister
Ġaid s
Ġorgan ise
Ġstud ent
Su pp
VI EW
Che mical
Ġsignific ance
rop ol
ĠAN TS
ane ous
ĠPL ASS
Ġclar ified
Ġpen alties
Ġstructure d
Ġfear s
ĠDVD s
Act ive
Ġsurround ing
Ġoccas ions
Ã¼b ig
Ġbirth day
ĠFre quently
ĠVill age
ĠLim ited
Ġdram atic
Integ rated
ĠDie go
ĠWars aw
Wind ows
Ġrom antic
ĠVladim ir
Ġhypoc risy
Ġpharm aceutical
Ġendors ed
ĠZAL M
Ġintoler able
ĠLeni ency
ĠKale vi
ĠPLASS NIK
( *)
) -
1 30
B at
B IA
C amp
F ar
I EF
L one
M ark
N IA
P ia
R USSIA
a a
a ution
c in
g or
h l
i u
k u
y o
Ġt aught
is lative
or ous
Ġs en
Ġf uels
al i
Ġm obil
nd or
Ġh ang
ĠC IV
ĠC redit
us z
ĠM im
ĠM oz
ĠM ECU
Ġbe et
ĠP ra
ĠE le
ĠS ri
ĠS ection
im acy
ur is
ig en
ra ble
ĠR ock
ĠB OL
ĠB ROW
ĠD EN
ad emy
Ġde ar
and er
qu ier
am o
ĠH I
ĠH ave
ĠO ECD
ĠJ enn
ĠW IN
ĠW alter
if ts
ud es
Ġch ocolate
Ġim pose
ĠK or
ĠSt a
EN BERG
Ġ4 50
ab elling
ap se
AL ITY
og o
IS ATION
Ġar rest
blem s
Ġtrans form
Ġproduct ivity
Ġsub div
12 1
Ġset tle
En s
Pro posed
Ġprotect ing
Ġaccess ories
ĠAl t
ĠPl anning
ME IER
Get ting
Ġmin orities
Ġnews p
ĠGu ido
Ġshe l
Ġunderstand able
ĠAnt on
ats on
PL AN
Co R
Ġvar ies
Ġconsider ably
Ġaut onom
COM PETI
ĠColomb ia
Ġfront iers
Ph il
Ġsw ift
Ġrecogn ize
reg ional
Ġvict im
Ġrepl ies
Ġlic ences
ĠPat rick
ruit ment
Ġharm ful
Ġconver ted
ĠDemoc ratic
Lear ning
ĠCong ress
nos is
Ġrow s
Ġgradu ally
Ġpreced ent
Ġpip eline
Ġdemonstr ated
ĠSTEIN MEIER
Pet itions
Ġvou cher
ĠACC ESS
usc any
ĠVenez uela
Ġenvis aged
Abs olutely
Bes ides
Ġunus ual
USTAIN ABLE
ĠANTS U
B ed
H Y
K O
K ES
L is
P ack
P ES
S R
S ite
T ri
r ise
y b
on ly
is ers
en zo
Ġs el
Ġs alt
Ġc ir
Ġp act
ĠC irc
ĠM ail
ĠM ach
ĠM IK
Ġl v
Ġl ux
ĠE c
ĠE quality
ĠS ab
ĠS AF
Ġe in
Ġe en
os ur
Th rough
ut ual
Ġst ance
Ġst akes
ĠR u
ĠR et
ĠF el
ĠF INAN
ĠD K
ĠD ream
ad ia
ĠT EN
Ġan tic
ĠH an
ĠH ed
ĠH and
ĠH OL
od ed
um ns
form ance
Ġex haust
ĠL ess
ĠL oc
ĠL ine
ĠN atur
For mal
EN VIRONMENT
ec ution
CI ETY
ous es
pos ure
Ġnow here
de f
ĠCh ief
App lication
Ġjust ify
Ġcomm unities
ific ial
Ġtrans mission
Ġmod ify
Ex change
Ġdef icits
ĠAnd rej
ĠâĤ¬ )
ID O
Al though
chn ya
ĠEx che
Ġcre w
Ġcountry side
na ire
Ġexpl ains
AD O
ĠSc otland
Ġmonth ly
Ġtransport ation
ron om
ced es
Ġdra g
Or ig
Ġnational s
pend iture
sh ops
Ġhead s
Cons olid
Ġcreat ures
Ġessential ly
ĠDim ension
Ġcomb ating
Ġdest inations
Rec ommend
ĠOn ly
OY ANN
ĠSO CIETY
ĠTH AT
fin ancial
Ġappoint ing
0000 0000
Ġcharacter istics
Ġoptim ism
Ġapprec iated
andid ate
EF A
ĠInf o
STA TISTICS
ĠBO EL
ĠTar ja
__ __
Ġprison ers
Ġeconom ies
umin ium
ĠPrem ium
ĠCreat ive
Ġnar row
emar ie
ĠPAPAN DRE
ĠKYPR IANOU
ĠSIK ORSKI
Proceed ings
0 20
6 10
B U
C ountries
C asa
C ALLS
G ra
G ener
L i
N ic
N ature
P aul
R et
R ailway
c ountry
d y
e a
j ana
k el
n ed
v ar
Ġs ou
Ġc aut
Ġp uzz
Ġp upp
Ġb id
Ġm ood
Ġm useums
Ġd r
Ġd ownt
Ġh ur
ĠC y
ĠM as
ĠM ost
ĠM OL
ĠM ID
ĠM IF
Ġl iable
ĠP ERS
ĠE thiopia
ĠS K
ĠS ugar
Ġg am
im o
ur se
ig o
Ġ1 01
00 3
ir in
ĠR I
Ġnot ifications
ĠF oster
est o
ver sion
ad i
un s
ĠG RO
ĠH of
Ġex emption
Ġas p
Ġas sembly
Ġus age
Ġus ername
AN O
so ever
In form
Ġ3 88
Ġch arming
Ġle isure
Ġag es
ric o
iz arre
Ġany body
IS L
EC E
Ġacc eler
und i
Ġ12 5
RE E
St rong
ystem s
Ġem ission
Ġover look
Ġph ases
Ġmod est
Ġdec ades
12 7
Re v
Re in
Re quest
Ġdel icate
ĠPol itics
Pro duction
ST ABILITY
As ia
Ġreal ize
ĠTh y
riend s
TU AL
ĠLe ague
ĠBar b
Ġrecommend s
ari os
Ġevent ually
ĠAnt anas
arian s
ĠAG ENDA
Ġcompet ent
Pre liminary
Ġgener ous
Ġindic ates
TIC LE
Ġmis leading
Ġthreat s
ager rak
Ġcompl ac
yr gy
Ġut il
Ġsimpl ified
ĠRuss ias
ĠSil ver
ĠEX TERNAL
ĠCharl es
CCCC CCCC
Elect ronic
Americ an
Contin ue
ĠMAT TERS
Ġincred ibly
Ġcommunic ate
ĠChamp ions
VIT ATION
BUR G
Ġimper ative
Ġlawy er
ĠLIND H
ĠPlat form
ĠHil ton
ĠYUGOSLAV IA
Ġcontrovers ial
Ġingred ients
ĠSPR ING
ĠKOV CS
Tob acco
ĠOndrej ika
ĠPACK AGE
ĠBAK OYANN
Sear ched
ĠExche quer
% ).
2 11
F ebruary
I OR
K AS
L IN
M obility
M INIS
O il
P oint
S em
T G
Y K
Y OUTH
Z E
c lic
d an
f ire
k g
n ger
n ya
t hat
u cc
w all
in ux
on ial
at lantic
or ient
Ġc yn
it as
al isation
Ġm ask
ic on
ic ars
Ġth read
Ġh us
ĠC ount
ve c
ĠA y
ĠS ave
ac a
ĠI ve
Ġv itae
Ġg ather
ur ities
ul i
ĠR OD
ĠR olf
ĠR ailway
Ġal ia
ĠB ET
ĠD J
ĠT am
un te
ri x
ĠG ir
ĠH erman
ĠH ague
ies e
ĠL ove
end e
ĠN EGOTIATIONS
ĠO d
AN Y
ak a
TI ES
Ġres cue
ok ia
ag ger
IN C
IN VITATION
Ġwhat soever
OR Y
av aria
per cent
ov i
IC H
EC K
IT T
IT Z
ific ent
Ġrec ipe
Ġinv ent
Ġunder way
Ġbet ting
35 0
12 8
Ġla pt
Ġ11 6
Ġdet er
Ġask s
Pro posals
Ex p
Ġinf ect
At lantic
Ġint ensive
Ġcar ries
Ġfund ament
ĠCo ast
nov ative
14 5
Ġpass es
Ġgrow n
Ġexpl os
ĠAd ri
ĠRE YND
ij us
Ġapply ing
Ġaut hent
Ph oto
ĠCor poration
Se a
ĠMont oyer
Ġwhe at
Ġmach inery
Ġindic ate
Ġfore ver
Ġrelax ed
ĠGR UB
IST AN
Ġemerg ing
Ġprepar ing
Ġprem ises
ĠDom inique
Ġax es
Cod Gadus
ĠProf essional
ĠVinc enzo
Fran k
Ġexpand ed
ĠHar ald
ĠHub er
anz ar
ĠElect ric
ĠWik icars
Ġhar vest
Ġfisher men
Ġtow els
ĠIns urance
Ġthorough ly
ĠExpl orer
ĠAlg irdas
Ġchap ters
ĠNep al
yrgy z
% ,
8 33
E qual
F N
F aro
H and
L L
O ften
T ar
b ach
d ed
e rested
l os
l ant
l io
n n
v in
re ne
at ile
Ġc urs
Ġc raft
Ġf r
Ġf ro
it he
Ġp us
Ġp ull
Ġp iano
Ġm ill
Ġto wer
ic her
il er
Ġn ative
ĠC Z
us ions
ĠM icha
ĠP av
ĠP ension
et e
ĠA x
ow ered
ol ve
Ġv s
Ġv ine
Ġv ib
Ġg est
ur on
ra ge
Ġst abil
ir s
ĠR Ã¼big
ĠF ord
ĠF AC
ĠB urg
ĠD am
ĠT enerife
and ou
am ount
op ard
ĠG ross
ĠG ulf
ĠH o
ĠH igher
ant as
ub lished
ĠW ATER
iv ation
iv ia
ĠK AR
IN CI
ere r
Ġcomp act
Ġcomp ulsory
AR S
Ġj ew
ounc ing
uss y
Ġclos ing
per t
ĠRe hn
pl an
wo bod
pect ives
10 49
Ġact ed
ner g
ual a
II US
Ġdec ides
Ġ19 88
TER RORISM
Ġind oor
HER LANDS
Ġconf ront
Ġprov ince
Ġset up
Ġlist ing
Ġcomple mentary
Ġread s
Ġobject ion
Ġbo ards
Ġreal ise
Ant idumping
Im pact
ĠMay or
Ġdeal er
UN IA
Ġwhole hearted
Ind onesia
ĠBank s
Ġfood stuffs
Am endments
hel m
ici aries
SP AIN
oul try
Part nership
epend ent
Ġsil ver
Red fish
Ġcover age
Hel en
Ġguest book
ĠAct ivities
Ass istance
Ġdiscount s
Ġdoll ar
Ġcatal og
Ġinflu enza
Ġsem inar
Ġcoast al
Ġbug s
MER MANS
ĠDial ogues
Ġpill ar
MED IA
Ġmac kerel
Ġfrag ile
Ġspect acular
ITAL Y
Ġfab ric
Sole a
Ġcry stal
Ġfer ry
ivier a
ĠFac ility
ĠOt to
Ġfasc inating
Ġeth ical
Ġbicy cle
ĠTIM MERMANS
ĠPerson al
pay ers
Defin ition
ĠLic ense
ĠHug hes
Ġresear chers
WELCOM ES
ĠFinn ish
ĠALM UNIA
Ġorphan ed
ĠMIF SUD
ĠREYND ERS
B r
B etween
C as
D VD
E AGGF
F ramework
G rand
I TS
N T
N IS
S OL
T en
T rad
V e
b i
d el
d irect
g ast
i for
l ers
n z
q un
s ight
v ation
v als
w as
Ġa us
is o
or o
Ġw isdom
Ġc ycl
it ives
Ġo m
Ġfor b
ĠS pl
id ity
ac ion
Th ursday
Ġg ym
00 4
ĠR ic
ĠR iviera
ĠF u
ĠF ore
ĠF ile
ĠT EL
ĠT EC
ĠT rad
Ġde eds
ĠG ucht
ĠL et
ĠN AV
ĠN OW
ak ings
ard ens
lic t
ĠV ED
ast richt
ĠK UB
Ġen quiry
Ġen emies
ag asc
ab ria
Ġj ump
Ġmy ster
Ġpre liminary
ors hip
Cont ent
Ġar row
Ġact or
Ġem ot
Ġunder line
ond er
ĠMar ine
ss l
12 2
Ġmeas ured
Ġatt ended
Ġconf igure
ĠCon duct
Ġchange over
Ġdel ays
olog na
fort able
Ã¼ ss
Ġback up
ĠAr m
Ġrece ipt
AG ER
ĠWe ger
ĠHe ath
201 5
75 1
Ġmin eral
Ġve ter
Ġlog ged
Ġreserv es
Yes ter
sp ace
Pre vious
Trans fer
Ġworth while
Ġident ical
Sim on
ĠCap acity
Ġlik es
resp ons
Ġadm ission
Ġtransl ate
Ġluck y
Ġce ase
Ġwood en
ĠBon n
Ġmid night
Ã¶r g
Ġsett led
Ġic ons
ĠVAL ION
Ġattend ance
Ġalt itude
ĠTerm s
ĠMich le
ĠSi im
ĠDeut sche
Ġpric ing
Ġou ter
ĠPriv acy
ALOG UE
ĠBROW N
Ġcaut ious
) )
1 35
D ial
F UTURE
J A
J ac
K at
M ess
M ISC
O CI
P LE
b es
f all
g ue
l ia
l ana
p an
p ark
Â £
Ġt iss
he ld
in ity
on ic
en eration
Ġs i
Ġw are
Ġf are
it ating
Ġp rag
Ġb ay
Ġb are
Ġm g
Ġh orizontal
Ġh unting
ĠC rete
ĠC yr
ĠP PE
Ġ2 10
ol ia
ter ior
Ġg rew
im edia
ir us
ul u
Ġcon form
ĠR D
Ġal arming
ĠF al
Ġha zard
ĠB I
ĠB art
ĠB OG
ĠD OM
ĠD iet
ad ers
ĠT aj
ust in
for ward
Ġse ar
ĠL ED
Ġr an
ie va
ĠW ild
ĠW atson
ĠU t
Ġch airs
Ġres olutions
ĠK ari
ok ed
ine es
Ġen glish
IN IST
ab eth
Ġwh ose
Ġj un
Ġav ast
Ġdeb ated
IS S
Ġte fan
ION AL
Ġjust ification
Ġsp ell
Ġph rase
He ading
IR L
Ġint ellectual
Ġcar rier
CH N
Ġword ing
Ġexp enses
Ġfew er
ĠX X
Ġfl ags
eb ook
EAS URES
Im migration
Ġshort age
Ġexpect ing
Ġmin im
Ġdist urb
Ġnecess ity
Ġgraph ic
ĠSh an
ĠSh ipping
Res olution
Or ders
Annex es
Ġcitizens hip
III d
Ġgr ass
Ġmind s
ĠVal ent
ĠPri orities
APPOINT MENT
Rec ent
Ġfre ight
Ġauthor isation
ĠTr ust
Ġsus pect
Ġimm unity
Sm oking
ĠPort o
VII a
ĠPet r
Inf ringe
estic ides
ĠES DP
Ġfrequ ent
Ġreflect s
Ġcur ious
ELL ANE
ĠNetwork s
Ġspl endid
Nat ural
Ġboy s
USTR IA
Ġmanufacture r
Ġbag gage
rob at
pens able
Ġtro ops
ĠMAN AGEMENT
Ġannounce ment
ĠDet ails
ĠiP od
Ġwarrant y
Ġelev ator
Ġcollabor ation
Protect ing
Ġvig il
ĠVitor ino
ĠIACOV OU
Ġtran qu
ĠWALL STRÃĸM
IDEL INES
Ġhors es
ĠCIV IL
anzar ote
MISC ELLANE
MISCELLANE OUS
1 40
4 30
4 50
A ch
D rive
E E
H ans
K EY
L ive
T reat
b ro
d orf
i at
m aster
p ed
in ates
on al
on ents
er ge
at re
Ġp in
Ġp cs
Ġin land
Ġd up
il ty
Ġn u
ĠC A
ĠC ash
ĠC lean
ĠM R
Ġy ellow
Ġl ady
ĠP OP
ĠE co
ĠE lection
ĠE den
ĠS Z
Ġst up
Ġcon vers
ĠR im
Ġnot ification
ch air
st rasse
ĠD rugs
ĠT an
Ġde pl
qu et
Ġan aly
ĠG M
ĠG ro
for cing
Ġse eds
Ġsh oot
ack ling
Ġhe ro
ĠO k
ĠW ald
cl ock
Ġqu o
te xt
AR TICLE
la va
Ġun iversity
av ig
ang el
now led
ĠCh i
ĠPro duction
Ġpr ay
Ġcle arer
St ability
Ġsc rat
He res
Ġinst ant
ĠY EAR
Ġatt ent
Ġrep utation
Ġhigh way
Ġdef ect
Ġint entions
Ad just
Ġinter connect
ĠRes id
err als
Ġturn over
OV INA
Ġcap able
Ġcap abilities
AD ENOV
ĠInd ian
IM P
IM INAL
Ġtax payers
Ġabs ence
Pri v
Ġprof ound
Ġmon opol
ator ies
Ġfeel ings
Des k
Ġcam eras
Ġcreat ivity
Int erested
ĠRef uge
Ġbring ing
Ġrecogn ized
ĠCar lo
Any thing
Ġaud ience
Ġpurch asing
ufact uring
ĠPre vention
Ġtim ing
Up date
ĠPaul o
Ġtransl ations
ĠChe chnya
ĠAp ache
ĠHuman itarian
Ġpoll ut
Ġrat ified
ĠOmbuds mans
Ġawa its
Herring Clupea
ĠML ADENOV
Ġgold en
According ly
rent ices
Ġrul ings
ĠMult i
ĠBre men
Min imum
ĠHE ALTH
Ġtun nel
ĠJoa qun
Tom orrow
Ġphil osophy
Ġkeyword s
Ġtid ak
utt gart
Ġexcur sions
ĠFEK O
SME s
ĠNI INIST
Ġtremend ous
ĠHAL ON
IEF ING
Ġantic ip
ĠROD R
percent age
Faro ese
andou ros
wobod a
agasc ar
A W
A pril
B I
B AC
D EM
F ore
G P
H i
H z
H AL
H alf
M ap
M erc
M ixed
M AIN
S port
S oc
S outhern
T erm
T ick
V IA
W ine
c m
f und
g anda
k ilde
l ena
t ons
u ce
Ġ ram
Ġt u
Ġt ur
or ters
Ġc ats
it ania
al ina
ed a
Ġb izarre
Ġm ale
Ġm erg
Ġm argin
Ġh oc
Ġh oles
ĠC CEE
ĠM ix
ĠP overty
ĠA zores
Ġyou nger
ĠE sc
ĠS v
ĠS ELL
Ġ2 20
Ġv ocational
Ġg ains
Ġ( ).
ĠR oth
st en
ĠB V
ĠB uy
ad ed
ĠT em
un al
ri o
Ġan onymous
ĠG SP
ĠG ARR
Ġse es
Ġse hr
ĠL ook
ĠL ang
ĠL ene
Ġas ide
oc ent
ĠN L
ĠN a
ĠO ct
ĠO THER
AN OV
ĠW C
if er
Ġ3 60
ree vy
ĠV isa
IN AKIS
ab a
AR TH
Ġnew ly
AL E
Ġun known
ru ck
Ġdis cl
pl atz
de velopment
Ġco ach
Ġco inc
Ġ201 7
ib iot
hing ton
RE FORM
ph ones
Ġproblem atic
Ġthink s
35 3
ĠY ves
Ġconf used
Ġform ation
Ġdel ivers
ĠAnd ree
ING LE
men se
OV O
ĠCON S
Be ing
Ġsl ides
Ġweb page
ĠCO ST
ĠGroup s
Ġenjoy s
Co ordination
Ġconsider ing
INT RODUCTION
Ġcat ast
ĠBl u
Ġcred ible
UB AL
aul i
Ġens ures
ĠPhil ipp
Ġdraw ing
Ġtou ched
ĠRec overy
Ġprofession als
FORM ER
Ġton ight
ĠPr inc
Ġemerg ed
Ġcart e
Ġcart el
att us
Ġsimpl er
Ġmedic inal
lad esh
ĠMod ern
Ġfrequ ency
Ġsex y
Ġsex ual
Ġpurs ued
Ġste am
WE EN
Ġconstruct ed
Ġunc lear
Ann emarie
Ġult imately
Ġreplace ment
ĠPay Pal
ĠTar ifa
edd ed
Ġcere als
Ġpra ise
Ġdisappe ared
Ġrelig ious
Ġunanim ously
ĠDeut sch
ĠAh ren
Comple te
Ġhosp ital
Ġcancell ed
ĠTool s
Six th
Ġexplo itation
ĠOlymp ic
Ġlegit imate
Ġuncertain ty
Ġchamp ions
ĠJew s
ĠIndic ator
BOUR G
ĠCOW ENMinister
ĠCond itions
Ġtort ure
ĠJose f
Ġcater ing
repreneur ial
ĠBOL KES
quier do
ĠBOLKES TEIN
D inner
F ew
H orse
H orizon
I DE
J os
K S
K EL
L ING
M ount
M OD
S ummer
T alk
a it
h or
n ational
p ower
r Ã¼
w ear
in formation
in th
in ator
is ible
at ar
or ic
an ou
Ġw ides
Ġc row
Ġf rust
Ġp it
Ġb ub
Ġb ands
Ġd ive
Ġd ish
Ġd umping
as cript
om es
el in
ĠC oc
ĠC AN
Ġy a
ĠP ter
ĠP resse
ĠA ff
ĠE t
ĠS z
ĠS ports
ĠS ANT
ĠS QL
ĠS ndor
Ġg ardens
ut es
Ġst em
ul us
Ġal ter
ĠF ight
ĠF eed
st one
ĠB ritt
and om
ĠG ÃľN
ĠH UMAN
ON T
ĠL ena
Ġli vely
ĠN az
Ġim mense
ĠV IL
ĠSt rategic
AR M
og g
ject ion
Ġun ex
Ġun lik
Ġsa ves
Ġwork shops
IS M
EC A
EC TR
ven cy
Ġ9 001
Ġar my
ĠDE M
Ġsp o
Ġ10 5
Ġbet s
Ġ19 87
11 3
11 6
ick a
Ġdes irable
ET ARY
Ex cept
40 9
ĠIN V
Ġmet als
ĠAr c
ĠAr n
ĠAr menia
Ġcor rid
Ġsign ature
Ġfl owers
ĠPl ace
Ġaddress ing
ĠEx c
work s
ĠTh or
Ġret ain
Ġreform ed
Ġbudget s
ĠAs ian
AD ER
Ġprom ising
Ġcrit er
oura ging
ĠFran ces
ĠIm per
quis ite
Ġfunction al
Ġgener ations
CL IMATE
Ġeduc ational
ÃĦ UB
Ġcontribut ed
Mon etary
Any way
ĠSk y
Ġsix th
Ġlow est
Ġden y
Ġrail ways
Ġemploy ed
Ob jective
ĠTH IRD
ĠDEF ICI
ĠAcc eding
Ġsole a
Ext ension
ĠES F
Det ailed
ĠGi ov
BE EK
ĠRES OLUTION
Ġdisput es
Budget ary
Amer ica
ĠVAL INAKIS
Ġinsp ired
ĠAdminist rative
ĠDiam andouros
Ġspect rum
ĠKing a
Ġbreat h
Ġaccom od
Person al
Ġdisappe ar
Ġacqu ired
Es pecially
ĠTRE AT
Administ ration
Ġack nowled
ĠKaz akhstan
POR TS
Ġsac rif
ĠLy on
Ġjournal ists
ĠMIC HEL
ĠBert aud
BEL GIUM
gi ene
ĠSU PP
ĠAlber to
CESS IVE
Lib ya
Ġapolog ise
Prot ests
arkoz y
ĠEsk il
ĠNIINIST Ãĸ
ĠGARR IDO
ĠAndree va
ĠAhren kilde
Ġunlik ely
0 32
A TI
B ERS
C ultural
D OM
F O
F ill
G C
I US
I OV
L aw
M ina
O l
P PE
S un
X EM
a an
c lick
l iness
n oon
Ġ \
is y
or ate
ou st
Ġw edding
it ality
Ġb n
Ġin cons
Ġm l
Ġm ang
Ġd ur
il o
ot ype
ĠC HE
ĠC rime
Ġl od
Ġl oud
ĠA z
ĠE IC
ĠS D
ĠS n
ĠS auli
ra ising
00 2
Ġst orm
Ġst unning
ĠR ica
ĠF un
ĠF arm
ĠF ried
ĠD arfur
ĠT ok
ĠT uscany
ĠG reg
ĠG erald
ĠH on
ant o
ant al
ĠN umber
ĠO UR
ĠJ udicial
ĠW hen
iv o
Ġ3 000
Ġab und
ĠV in
ĠK e
For d
Ġag g
ire ment
Ġnew est
erv ing
ov ine
AS tate
Ġcons ent
ĠPro perty
Ġserv ing
ĠComm un
Ġover d
Ġconc iliation
Ġdec entral
11 8
Ġra ising
Ġman aging
IR ST
Ġext ends
Ġref use
rat t
Ġvisit or
Sub sid
Ġaccept s
iss au
az e
ĠRes ponse
Al geria
Ã¶ l
Ġret rie
201 4
ithu an
Ġexc ell
Ġstud ied
duct ions
Ġspecific ations
ĠIm age
Ġregard ed
Ġexist ed
AK E
Ġstat istical
pri anou
ĠST ABILITY
ili ate
Ġcou ples
Ġcat tle
Ġcred its
hold er
ĠVal encia
Ġeng aged
Ġwhe els
Ġmult ilingual
Ġhost s
COMM ERCIAL
reg ular
Mon day
Med ium
ĠEd itors
ĠTr ump
Sp ace
ĠMa astricht
Disc ussion
urch ase
Ġconsist ency
LAND SSON
Ġsatisf y
Ġstake holders
Ġdon ation
Ġer u
ĠBr ig
ĠER LANDSSON
ĠMet ro
Ġlos ing
ĠCR IMINAL
Ġstri ve
Ġsam ples
Ġrein forced
ĠMcC reevy
Ġsuggest ed
ĠKy prianou
Ġsn acks
ÃŁ e
Ġfram es
ĠASS OCI
Mac kerel
Ġpun ishment
Ġdistin ct
Diff erent
Ġlas er
Ġdiplom atic
ĠDist rict
ĠKOS K
ĠSIL VA
Ġremed y
Ġvacc ination
Ġcha os
Fre quently
Ġaccord ance
ĠGEN ERAL
Ġbureauc racy
Ġlaund ering
Hope fully
Gal ileo
Viol ence
ĠVO TE
ĠFOLLOW ING
Ġutter ly
HAG EN
Ġlux urious
MINIS TR
yrgyz stan
ĠMicha ele
Ġwides pread
ĠGÃľN THER
ĠDEFICI T
! .
0 30
E AFRD
F air
G U
H oliday
K arin
N ING
N orm
P ierre
V ia
W ed
W ars
Z EK
a ver
e ing
s ub
s ki
w ig
y g
z lo
Ġt one
Ġt ube
Ġa uch
Ġa vec
on ess
Ġw ages
Ġw estern
Ġc ycling
Ġb inary
Ġb ikes
il ation
Ġth umb
Ġh ill
Ġh oney
Ġh arbour
el ing
ĠC omb
ation ally
ĠM es
Ġl oves
ĠP EN
ĠE FF
ĠE asy
ĠS hip
ĠS ki
ĠS ierra
ol ay
Ġg rad
ul ph
ĠR ou
ĠR OM
ĠF IN
ĠF red
ĠF UTURE
ĠB ow
ĠD av
ge b
op ing
ĠG re
ĠG AS
ĠG LAV
ĠG ÃĸN
ĠH or
ĠH appy
It al
Ġex empt
Ġex ecution
Ġr het
ĠN V
ect es
Ġwas h
TE GR
ĠJ ens
ĠW inter
if ier
ĠU kra
In clud
ĠV ers
ER Federal
ĠK u
Ġag ent
th ink
Ġk illing
01 4
AR IAN
og a
Ġpart ial
Wh atever
PE G
10 9
St rategic
Ġbut ter
Ġsub t
Ġ11 5
Ġconf erences
Ġfe els
IR AN
Ch ild
Ch ancellor
Ġcould nt
Ġser ial
Ġread er
ĠâĤ¬ .
Ġorder ing
cu it
ĠX I
ĠX L
Ġpack ed
Con struction
ĠHe in
Ġcho osing
Ġ45 410
ĠMAR TON
Ġins ufficient
Ġaccount ing
ron ics
Ġprof its
AB RIK
bo a
Ġdri ves
ĠIm pact
ĠEN G
28 5
Ġrefer ral
IK AS
ĠPart icip
Ġfail s
Ph otos
ĠCor b
epend ence
ĠAN IM
ĠInt roduction
ĠPe oples
Ġmeasure ment
Ġconsequ ence
ĠBR IEFING
Ġperm ission
ĠAct ive
Ġemphas ised
Ġconcept s
STR UC
Ġcamp site
La unch
Fl ash
ĠĠĠĠĠĠĠĠ Ġ
Ġsole ly
ĠQU OT
Ġinnov ations
Ġplat essa
Ġstraight forward
win ning
ĠCla ud
Ġlif elong
Nat asha
Ann ouncing
Ġpromot ed
Deb ate
ĠDimitri os
ĠCF SP
ĠHO TEL
Ġelim inated
Ġvir us
Appoint ments
Ġkilomet res
Ġcompar able
Ġtourna ment
Ġdiscip line
ĠAK VIS
Ple uron
TN ERS
Ġende avour
Ġindis pensable
XEM BOURG
ĠGÃĸN CZ
ĠMARTON YI
Pleuron ectes
0 50
A h
C EL
C redit
D C
H en
I ll
L ow
M arg
M usic
M emo
P aris
U ANA
V an
V ERG
Z EG
c ut
g ers
i ency
m id
r ally
Ġ Ãľ
Ġt ongue
re r
re ja
en vironment
Ġw ars
it ively
Ġp ione
Ġm arch
Ġd os
Ġd ilemma
ic ide
Ġth ou
el ly
ĠC N
ĠC SS
ĠC ustomer
Ġre aches
Ġfor ums
ĠM ake
ĠM US
Ġl oyal
ĠP ABRIK
ĠA mb
ĠS ov
ĠS OM
Ġe pid
Ġare nt
ill o
00 32
ĠF em
ĠF all
ĠF IEL
ĠB reak
ĠT u
ri ka
ain less
ĠG y
ĠH orn
ĠH elsinki
Ġse ed
ON A
ĠL AN
ĠL az
ĠL amber
Ġhas nt
ĠJ ob
RO PS
ĠV as
ES ENT
EN ING
Ġk id
ip zig
te ch
Ġj uris
You re
Ġapp la
Ġdis abilities
Ġout line
iz z
Ġte eth
ĠDe velop
10 4
Ġcomm ands
Ġconc essions
eg as
Ġdec ade
Ġbel ief
ĠEn rico
Ġman if
Ġopen ly
Ġrel ief
Ch ile
Re ports
EX PLAN
Ġcol umns
ĠAl ess
ĠAn y
Ġint ends
Ġsur plus
ĠEx ports
Ġtechn ique
LE AR
pro v
Ġrespect ing
Ġlegis l
Ġbenef icial
Ġbenef iciaries
IV ERS
Sh irin
Ġjo ke
Ġdri ven
ĠIm ports
Ġshow ed
ĠCont ext
Ġsoon er
ĠQu ick
Pl ant
ĠST AR
Ġcat ches
Ġgr ants
Ġeng agement
Ġprec aution
Ġident ification
AY S
ĠInst all
Ġsens es
ĠIg or
Ġdam aged
Le ave
cast s
Ġbat teries
OY ER
imb urse
Ġemploy s
Ġvill ages
Ġpres erve
Ġbreak s
Ġrespond ed
Ġprevent ed
Ġprevent ive
Ġtru cks
Ġpartnership s
Ġcamp s
ĠOpen ing
Ġexhib itions
ĠER DF
Ġsupple ment
Rem ove
ĠStand ards
Bar celona
Ġforecast s
ĠHen rik
Ġscript s
Ġunivers ities
Ġundert aking
Ann ounce
Ġtrav ellers
Ġinsp iration
ĠPER EIRA
Stud io
Ġhundred s
Bas ic
uster ity
des ign
Ġliter ally
GAL ILEO
Ġneighb ours
Ġmagn ificent
Ber lin
Ġpix els
ĠEconom ics
ĠNig eria
ĠIz quierdo
KAN EN
Ġfeas ible
Ġheadqu arters
ĠFAC ULT
Ġcriter ion
ĠPABRIK S
/ -
2 20
B M
B SE
E ight
H ost
K nowledge
M en
M oldova
O ct
R ober
R INE
S and
T ATION
V illa
Y R
b ul
b ian
b led
f i
l ins
m ont
p ublic
t ered
u ous
v re
z ing
Ġ erg
re aching
in ely
or ation
or able
Ġw age
Ġw ire
Ġf ought
Ġf ruits
Ġp ag
Ġp orn
Ġd ust
om ass
Ġth r
ot on
Ġh rs
ĠC te
ĠC ert
ĠC ACH
ĠC riminal
ĠC annes
us an
ĠM ul
Ġl inen
ĠS Ã¶
Ġ2 40
Ġe f
ac cess
Ġg al
Ġg od
Ġst rand
ort s
ĠB J
ĠB all
ĠB ell
ĠT ower
ĠT ex
Ġne ck
op en
ĠG ast
ĠG AMA
ĠH i
ĠH ann
Ġse ize
ĠL II
Ġr ice
oc c
ĠO Con
ĠJ A
ĠV R
ĠV IP
Ġver ification
Ġag ed
ell en
Ġqu eries
ace k
ag on
ag ic
ag ua
te le
Ġj a
Ġun iverse
itt a
gh ai
ang ible
ov y
ĠOF F
Ġimport ed
Ġpre view
RE Y
Ġfin est
Ġrec re
Ġrec ording
Ġem erge
Ġdiff er
Ġpublic ations
Ġend less
Ġac id
Ġpers pectives
AC TION
Ġcent uries
Ch anges
ET A
Un iversity
Ġfav ourable
ĠZ ag
15 8
ĠIN T
Ġinvest or
Ġeas tern
ID ES
iss on
OS NIA
UL L
Con vention
ah r
orth y
ential s
IM A
Ġparticip ated
Ġphot ographer
Ġconst itute
Ġlo op
Ġplan e
Ġsaf ely
Ġlog istics
Euro barometer
Ġmen us
AK ES
ĠSp ir
Ġcomplet ion
IF ICATION
Ġinteg rity
Ġheart s
Sc ientific
Ġmethod ology
Ġcomb ine
Ġfill ing
Ġmist aken
Ġofficial ly
Ġvac uum
ĠMart ine
Ġchalleng ing
ius eppe
Ġorigin ating
PRE TATION
iev able
Ġefficient ly
ĠNov otel
OB S
Ġpain ful
Ġsuper b
ĠSP A
Act ually
Great er
ĠOl ivier
Ġsleep ing
Ġassess ments
Maj or
Ġcandid ates
ĠCamp ing
Ġundert akings
ĠConf idence
Sk agerrak
Ġalt ogether
Ġcos met
Ġexecut ed
Ġcondemn ed
ĠSOL BES
Ġsusp ensive
ixt ures
Ġvent ure
Ġlegit imacy
Ġvers us
ĠDIREC TIVE
Ġintellig ent
Ġcock t
Ġsym pt
Ġepis ode
ĠWas hington
pie ce
sted t
ĠWhe eler
ĠSTU BB
ĠPATTEN Member
ĠASP ECTS
ĠPAPANDRE OUMinister
ĠThy ssen
Ġwholehearted ly
Ġscrat ch
ĠEIC HEL
ĠGLAV ANY
ĠQUOT AS
ZEG OVINA
ĠLII KANEN
4 20
B ilateral
E EA
F il
G AR
G olf
H ar
I PP
J EL
L ABOUR
M id
M ass
M ade
O liver
P ower
Z ENBERG
f air
h ots
j Ã¶
m und
p ool
r l
v ian
Ġt or
Ġt ons
in em
Ġc rimin
Ġf if
it ter
Ġp arliaments
ed o
Ġm u
le ep
le vant
ing ly
el and
ĠC os
ĠC art
Ġre iter
ĠM ot
ĠM oney
ĠM ini
ĠM otion
Ġy acht
Ġl ing
ĠP as
ĠP ic
ĠP ier
ĠS ac
Ġ2 30
Ġe b
ac ulture
Ġg erman
Ġg entle
Ġcon vey
ĠR aven
ĠB et
ĠB uch
ĠB ath
ĠB ody
ĠD al
ĠD ate
ĠD AM
se a
od der
ON IC
ĠL OU
ĠJ oo
ĠU l
Ġad mitted
ĠV b
Ġver d
ĠSt uttgart
Ġ4 73
Ġcomp osed
te in
Ġun real
Ġro aming
Ġso fa
EL V
IS E
ĠCh oice
ĠDe ath
Ġview ing
10 7
Ġpr on
Qu ick
St ock
Ġover w
ĠFin ances
Ġquestion naire
Ġ19 86
Ġgu ess
Ġgu ides
Ġgu ilty
Ġsub m
Ġdes pite
Ġman ip
Ġman ually
Ġdet ect
Ġke en
ĠY emen
EX CESSIVE
hes is
Ġsecond ary
Ġrest ored
uc as
40 7
olid ays
13 8
Ġaccept ance
Pol icy
ah l
iti atives
ĠInter im
Ġbr ill
Some one
17 0
Ġterm inal
Ġmove ments
Be h
199 3
Ġdemoc rat
ffic iency
Ġshe ets
Ġmon ument
ĠAnt ti
Ġstrong est
ĠCont in
ĠEm ma
ze j
ĠBer g
ĠFl or
enn y
ĠCor porate
ĠVal le
Se villa
ÃĦ L
Ġden ied
ĠSlo vak
Ġcivil ian
ĠTe resa
Ġthreat ened
Ġbott les
ĠPet ras
ĠSTATE MENT
Ġdon ors
ĠES C
Ġcook ing
Ġmer ger
ĠPAR TNERS
ĠBon us
Ġawa iting
Ġdelay ed
ĠAc robat
Dis play
ĠAut om
ĠDI ALOGUE
Col lect
Ġsand y
Ġexpand ing
Ġec os
ĠSur vey
overn ments
ĠDu an
ĠDec isions
ĠFISCHLER Member
Ġdram atically
ĠTUOMIOJA Minister
Ġdefe at
sm oking
Top ical
Ġwarn ings
Ġemp hat
Ġcoord inated
Enh ancing
Ġma ize
ĠGB P
Ġdismiss ed
Ġast on
ĠBat tle
ĠSem ester
Ġrevers ed
ĠFrancis co
Sustain ed
ĠCad iz
ĠChall enge
ĠNIC OLA
ĠJak ub
Ġjew el
ĠVED RINE
Yester day
Infringe ment
EXPLAN ATIONS
ĠCACH IA
, ...
1 75
B UD
C ond
C ounter
E am
E arly
F orest
H old
L uxury
O live
P akistan
S i
S am
T aking
c is
n ic
p one
t here
Ġt ropical
or amic
Ġs urre
Ġw ished
Ġw omens
Ġf airs
Ġp ul
Ġp air
Ġp ump
Ġp df
Ġto y
Ġto ll
Ġto ys
Ġd ans
as m
ic an
ĠC ant
ĠC ors
ĠC riteria
Ġre ar
ĠM und
ĠM EASURES
ĠP ast
ĠA zerbaijan
ĠE qu
ĠE IS
ĠE DUC
ĠS oc
ĠS ep
ĠS ound
pe z
Ġst ones
ĠF ocus
ĠB ear
ĠB og
ver ages
ĠD ou
ĠD raft
ĠT urn
ĠT rading
un as
ĠG raz
ĠH ill
ĠH OYER
ON IS
Ġex terior
ĠL ar
Ġr andom
ĠN OR
ie re
ĠW aste
Ġ: :
Ġpl a
Ġsu cc
Ġsu its
ĠV o
ĠSt ein
ok ers
ES TS
Ġen ables
ab b
Ġk ick
og s
Ġun st
Ġun equ
ĠPresident s
Ġdis m
Ġ7 37
Ġacc eding
Ġ... ?
ug g
An ch
An na
Ġsp ots
Ġem eta
hed ral
Ġhapp iness
rit ical
Ġent repreneurs
Ġcour ty
Ġ14 5
Ġatt raction
ient ists
IR ELAND
Ch apter
rat ors
IL E
Ġaccess ibility
ger y
ĠAr ms
Ġ17 0
13 7
46 1
14 2
Ġest imate
ij ten
De velop
Ġdownload ing
Ġ% )
ĠBl air
ĠComp uter
Ãĸ R
Ġmodern isation
55 9
anger ous
CO STA
ĠAt t
ĠSCH ÃĦUB
Ġrout ine
Ġimm ig
ĠApart hotel
Ġpan els
Ġexperi encing
Ġban anas
Ġsurve ys
Ġcla uses
Ġprot ests
Ġcr imes
Ġbuff er
Ġload ing
ĠJo bs
Ġdeliver ies
Ġceleb rated
Ġceleb rating
ĠPAR LIAMENT
PRO TECTION
Ġsymbol ic
ĠOS CE
Ġge ographical
ĠSund ays
Ġmir rors
Ġweap on
Ġcod es
Val ue
ĠEF OVI
Ġafford able
Ġdyn am
Deb ian
ĠNic olas
Ġtoler ate
Ġhum ans
Del ivery
inst all
Integ ration
Ġseg ments
Ġang le
Ġclot hing
rac ies
Ġseas ide
Ġshock ing
Ġbelie ved
ĠSAN TER
Ġdiam eter
Fourth ly
ĠBYR NE
ĠMcCREEVY Minister
Ġenthus i
atis fact
ĠOpport unities
OVERN MENT
ĠRados aw
ĠMim ica
ĠWIN BERG
Lis bon
ĠNatur a
Ġcomplac ency
Ġhus band
Ġveter inary
respons ible
Dial ogue
Ġstup id
ĠSELL AL
IOV IS
VERG ENCE
ĠSov iet
Ġappla ud
ĠFACULT AD
ĠOCon nor
ĠSCHÃĦUB LE
A H
C r
C y
C arm
D as
F lo
F ound
F IGHT
J O
L apsed
M ig
M ove
P utin
P ictures
R ich
S TI
S ex
S itu
a ac
b as
d iz
e us
f s
f uels
l on
m ir
p at
s ession
t an
v as
z ip
z io
he le
in ia
is lation
er ie
at ial
Ġp ars
Ġp oo
ar an
ed ps
Ġb arg
Ġb alls
Ġin con
Ġm i
Ġm ild
Ġd well
ing en
om a
ot es
Ġh ug
ĠC U
ĠC es
ĠC od
ĠC old
ĠC ategory
Ġre ductions
ĠM OT
ĠM AV
ĠP S
ĠE ve
ĠE TI
ĠE mer
ĠE aster
ĠS EA
ĠS EO
ĠS ITUATION
ĠS woboda
Ġ2 22
ment ation
ol ition
os ure
Ġv enue
Ġg ro
ul ly
ul ates
Ġcon ventions
ate m
ĠB Ã¶
ia h
ver ted
ĠD ell
ad en
ĠT s
ĠT ol
ĠG ru
ĠH arbour
Ġse vere
Ġsh ipment
Ġex posure
ĠL abor
Ġby tes
oc idal
ĠN AS
ĠJ acek
ĠW ales
ĠW ILL
ud i
TI F
Ġsu ffice
Ġwor ries
For m
ag li
th is
ap ans
ret ely
ĠCh air
ven ues
ern al
Ġdi verse
10 6
Ġcount ed
nder gast
Ġ12 3
Ġph p
rit orial
12 3
Ġass ure
ism iss
Ġfound ations
Re vision
ING S
cu ador
UR AL
Ġwhere ver
Ġfl ower
ah an
ĠJu ha
Ġenvironment ally
Ġexc use
ex istence
Ġdevelop ers
Ġelect oral
State ments
Ġsl ide
sc rib
Ġjo ining
Ġpost pon
Pl an
IF T
IF IED
Ġwalk s
ĠFR EDER
III bcd
Ġcompet itors
cript ions
Ġtreat ments
Ġrent als
Int ellectual
Vis a
Ġhost ed
Ġfarm s
Me et
ĠSCH WAR
ĠVer de
Ġbreak through
Sm art
Ġri vers
ĠGrand e
ĠApp lication
cont rol
IND USTRY
Ġtru ck
ECspokes Cor
Ġexerc ises
ĠBAR RO
uer te
Ġsuper ior
Ġer ad
Time zones
Ġmer ch
Ġspirit ual
ĠLE HT
Ġsymbol s
ĠPalest inians
yt la
ĠMin orities
Ġupload ed
Il legal
MAN Y
Ġincor por
Ġbehav ior
Sa ithe
Ġbrid ges
inst itutional
mat ics
ĠMerc ure
ĠSYS TEMS
Ste el
Incre ased
ĠConc ert
ĠConsult ation
Ġsurf ing
Ġrefund s
ĠDol om
Appoint ment
Aug ust
Ġbenchmark s
Ġhung er
Ġinspect ions
ĠBri vio
Ġcommod ity
ĠBund es
PROGR ESS
Ġcounterfe iting
Ġfundament ally
ĠCorb ett
IOVIS UAL
ECspokesCor azza
ĠLEHT OMÃĦKI
, -
5 20
A x
A ustralia
A USTRIA
B G
B RO
B elg
B order
C ustom
D iv
E valuation
F ire
G l
H istor
L ittle
P res
P oll
S TE
T echn
e fficient
f lu
k ie
l is
l ay
l ies
l amic
m illion
z i
Ġ They
Ġt itles
on na
Ġs ocks
Ġc her
Ġc um
Ġc ave
Ġc ulling
Ġf ing
Ġf ederal
it udes
Ġp ink
Ġp oultry
Ġin her
Ġm issions
Ġd angers
as ant
ĠM ol
ĠM otel
ĠP i
ĠP ract
ĠP RIC
ĠA U
ĠS S
ĠS el
ĠS um
ĠS TO
ĠS ole
ĠI f
Ġg el
ĠR oss
ĠF AB
ĠF TP
ĠB ou
ĠB io
ĠD EC
ĠD ise
ĠD rew
ĠT it
Ġdo ctors
ĠG a
oc ations
ĠO IL
ail ure
ĠW al
Ġad jour
Ġad idas
lo y
Ġwor n
ĠK a
ĠK iev
Ġle ct
EN IA
ag u
ab ri
Ġno isy
are ta
Ġj ury
ĠMr ti
ous ing
la f
Ġwork force
Ġpol ite
ne ys
Ġpe ak
Ġar ises
ob yl
Ġpr inter
Ġcle ared
30 2
ond o
ĠFin al
Ġbet a
Ġmod ifications
CIL IATION
ĠEn h
Ġass urance
arm a
IR C
we ight
Ġref res
Pro ced
Ġrep ublic
Ad apt
Ġinter pre
Ġexp ires
ĠRes pons
ĠPl ans
IP S
OV SK
Comp onent
ANN UAL
onth ly
pro of
ĠCON TROL
Ġaccount ability
Ġeuro zone
Ġbeh old
ĠRE FORM
Ġterm in
Ġconst itutional
Ġconst itu
Ġ* .
19 4
sh ore
ĠSp A
oom la
ĠEm p
Ġnegot iate
ĠBer nd
Ġart ificial
EG A
Ġfail ing
Ġtreat ies
oo oo
Ġclass ification
Ġtem pt
Ġregul ate
ane ously
Ġterror ists
AIN E
Ġbroad ly
ĠPre ndergast
Ġorigin ally
Sp anish
ĠWork s
Ġ46 07
ĠIM PL
Ġtim ely
ĠCom ments
Ġgreen house
Ġtransfer red
Ġlimit ations
ĠCal a
Ġprem ature
Pr int
ĠGU IDELINES
oper ability
RIS IS
ĠVER HAGEN
Ġpain ting
Tra vel
ĠBon ino
Ġcalc ulation
Ref errals
Ġblo gs
Ġcriticism s
ĠAc ademy
ĠAut o
Ġstrength s
Col omb
ĠRoom s
Ġgenu inely
ĠHol land
Emer gency
ĠNO TE
INTER PRETATION
ĠMax ime
ĠStat ute
uzz i
Ġunanim ity
ĠFÃ¼ ssl
Invest ing
GRE EN
Ġtrail er
Creat ive
Ġhosp itality
Ġcancell ation
ĠAng ola
REC OG
Id ent
ĠMade ira
Ġdemonst rate
Ġshar p
Ġdro pped
Ġcigaret te
Ġcigaret tes
bur gh
keep ing
ĠChic lana
Establish ment
ĠCopy right
Ġsymp athy
Ġsovere ign
Ru ijten
ĠEmploy ers
ĠFly nn
ĠBET WEEN
Jac ques
ĠShan ghai
Ġunex pected
Ġjuris d
Eam onn
ĠFREDER IK
ĠSCHWAR ZENBERG
A Minister
A FF
B u
B ET
B ring
C e
C am
D u
D raft
D rugs
F resh
G M
K ar
L abelling
M me
N ad
S ER
S ound
S ki
S omalia
a ft
c ano
d in
h al
o en
o que
r re
t ar
t otal
w ick
z og
in ers
in ical
in ning
er l
en berg
Ġs ind
Ġs ailing
Ġo zone
Ġo clock
ed e
ro id
Ġto ward
Ġd ual
Ġd ella
Ġd aughter
om ing
ic z
Ġn it
ĠC ULTURE
us ch
ĠM I
ĠP ent
ĠP AY
et ime
ĠA nc
ĠS AL
Ġe u
ac ities
Ġv oc
Ġg ren
Ġg aps
Ġg ras
im mer
ill ar
ig ious
Ġst ainless
ir i
ĠR ent
ĠR ose
ĠR amb
Ġnot ebook
ĠF IG
ĠF oot
ĠF ischer
Ġwe aring
est one
ĠB ill
ĠD OC
ad os
op tion
em on
ĠG ender
ĠH al
art s
ĠL EV
ĠL anzarote
ĠN ame
ĠN ob
ĠN okia
ĠO ber
ĠJ acks
iv als
ĠV ision
ER T
ĠK G
nc ies
ĠSt an
ĠSt ra
ĠSt ore
Ġen chant
ind ic
Ġcomp are
32 6
te chn
Ġam en
Ġun res
con i
ru gu
Ġup coming
ram s
Ġclos es
EL OS
row ing
ib a
ĠPro posal
pr s
Ġ12 6
ĠThe me
Ġ10 4
Ġunder lined
Ġ19 70
12 6
Ġtr s
Ġrel ative
sw er
ĠCon vergence
Ch antal
ĠPRO DI
Re ady
vent h
Ġcomple ment
ĠZ Ã¼
ĠAnd alus
Ġinvest ed
ĠAr ctic
ĠCo ffee
ĠPOL ICI
UL TI
16 5
Ġfun ny
Ġgrow s
TU N
Ġcap ita
pro blem
ĠRE QU
Ġapplic ant
Ġorgan izations
ORT H
ĠMEM BERS
19 1
Ġaff air
ĠCont ent
Ġnon etheless
ĠBank ing
Ġclean ed
Ġroad map
Ġnegot iated
ĠST AND
Ġamount ed
ĠMed ical
Ġland f
Ġcred entials
Ġfair ness
Ġpool s
hern obyl
Part icular
ommod ation
Ġindic ation
Ġpath s
ĠMal i
ĠPri x
Le on
Ġreact ors
ĠDeb t
Bec ome
Ġill usions
Ġbroad band
Ġdeep er
ĠRo jo
GE TS
Ġsort ed
uz zo
ĠPH ARE
ĠTechn ologies
Ġadm in
ĠPar ad
ĠDel ivery
Ġcarry ing
ĠAndor ra
Ġcontinu ously
ĠEnter prises
ĠOL DEN
Ġlos ers
Ġadapt ation
Ġtack led
Enter prise
BAN IA
Us ually
Ġmir acle
stan bul
nown ed
Ġundert aken
ĠLib rary
Ġtemper atures
Ġsafegu ards
Oper ation
Ġtoler ance
ĠSC HE
Conc rete
Ġimpression s
Ġillust rate
ĠPAL ACI
ĠTick ets
Ġmerc ury
Ġdies el
prom oting
ĠUpdate Star
ĠTob ias
Ġjudg es
Ġpublish ing
Tim etable
Ġpix el
Ġabandon ed
Ġpow der
Rad io
Op el
ĠSIM ON
Ġdiag nosis
Ġcord ially
Ġpsy ch
Ġinterven e
ĠInstru ment
rypt ed
ĠSAF ETY
ĠGRO UP
Ġforb idden
Ġattent ive
ĠSANT OS
Ġrhet oric
ĠINT RODUCTION
Ġunreal istic
Ġemphat ically
Ġcourty ard
rugu ay
ĠPOLICI ES
ĠOLDEN BURG
4 01
C ut
C RO
C are
C ereals
E ur
E nc
F P
F e
F am
F igure
F anny
H S
H UMAN
I UM
J ordan
U zbekistan
V ict
V ald
b ally
g io
i ens
n ings
t ains
w he
w anda
Ġ ich
Ġ Â£
Ġt v
Ġt ast
Ġt ags
Ġa rom
in eration
in novation
on struction
is or
at uzzo
en ess
an os
Ġw er
Ġf ut
Ġf ounder
Ġo g
Ġb ases
Ġb urd
Ġm uy
ing o
om bs
ic ian
Ġn ick
Ġre duces
ĠM iss
Ġl ou
et itive
ĠA AR
ĠS ul
ĠS end
ĠS UB
res pect
Ġe ager
os it
pe re
ac ian
ĠI v
Ġv ic
Ġg ut
im ation
Ġ1 35
Ġst ron
ir as
ĠR ain
ĠR EC
ĠR USSIA
ĠB ul
ĠB our
ĠB order
ĠB irg
ia go
ĠD ON
ĠD ora
ĠT W
ĠT ake
ri as
ain ing
ĠG T
Ġse ating
um ph
ĠL ab
ĠL ulling
ĠN am
ĠN egotiations
ĠO C
ĠO omen
ĠJ AV
ĠW rong
ĠW ien
if eration
Ġad s
Ġor ange
ĠV irtual
nc hen
Ġ4 60
og en
99 9
Ġro y
bs p
ach ts
av ier
ang an
Ġacc um
ĠDe v
10 8
Ġact ors
ific ant
urre ncies
Ġsp amb
Ġrem oval
ĠMar n
Ġgu iding
Ġsub sequently
Ġbel t
ism o
com s
Ġdet ected
Ġloc k
ict ure
Ġresult ing
Ġfe at
oy ola
Pro bably
Un ivers
Ġprotect s
ST AN
ĠAn onymous
Ġback wards
13 3
Ġexp ense
Comm ercial
Ġequ ip
Now adays
Ġsmall est
Ġel abor
Ġmin imal
ĠLe ipzig
AD A
ex p
Ġ21 000
isc ell
ĠSh are
ĠGu ard
ĠMan ufacturing
Ġann oy
ESC O
ĠPh oto
Ġpost pone
let ters
ĠMarket ing
Ġenjoy able
Reg arding
ĠAG RICULTURE
Ġcou n
Ġcompet e
Ġgener ic
ĠDirect ors
che stra
ĠGeorg ieva
Ġemail s
ĠInst itutions
reg ulation
ĠAN T
Em ploy
Ġbroad er
ĠPre par
ĠTor re
ĠBR A
Ġadjust ments
ĠConst ruction
ĠConst itutional
ĠMod el
pret ation
ĠSm art
Ġcontinu ous
Rep resent
Ġextension s
ĠBro ek
SH IP
Ġplatform s
ĠSpe ed
ĠSpe ech
ĠIND USTRY
Ġimag ination
ĠLA W
Ġmother s
spe cific
iest a
Ġfort ress
ĠClass ic
Ġexceed ed
Incre asing
bel ievable
REG IONAL
Ġdecre ase
Ġdecre ased
Prof essional
Mic hel
Ġsmooth ly
ĠMount ain
Ġfacil itate
Ty pes
Ġmunicip al
ĠRh ine
ĠGAL EA
ĠNap les
Altern atively
Spokes man
usal em
Ġdict ators
ĠESP ERSEN
Ġstr ings
ĠDoll ar
Field s
Ġash amed
ĠHus se
ĠWil helm
Ġtrig ger
Ġlicens ed
Mess age
Ġconvers ation
BAC CO
ĠGiov anni
ĠTREAT Y
ĠAless andro
Ġpoo rest
/ /
0 35
2 18
4 11
A pr
A lp
A ctions
B end
E ither
F eb
G ar
G od
G reet
H R
H ES
H yd
I Minister
K ore
K az
L ED
L unch
M D
M ur
M and
M otor
M utual
N AS
N EM
P EL
R un
R UL
T er
V and
V IL
W A
W el
b or
b ella
b inding
f riend
h m
h abil
l us
n ge
r ice
r ine
s ka
t op
v ist
at ification
Ġs uddenly
Ġc and
Ġp c
Ġp esticides
Ġo l
ar ound
Ġb oss
ro k
ro ph
Ġd oss
om ed
ent o
Ġh ace
ĠC ub
ĠC ook
ĠC av
ĠC ards
ĠC af
ĠC CC
ĠM ira
ĠP oll
ĠP EK
et us
ĠA k
ĠE g
ĠE mail
ĠE wa
ĠE qual
ĠS ic
ĠS now
ĠS AS
ĠS EM
ĠS ah
ol ic
ĠI st
Ġv ice
Ġv ague
Ġg amb
Ġg iant
im ming
ill on
ig ur
ke pt
Ġal uminium
ĠF am
ĠF IL
ĠF Ãľ
st ars
est y
ĠB oy
ĠB IL
ĠB orders
ĠD IN
ĠD ALLI
ĠT en
ĠG Ã¶
ĠG PS
ĠG iuseppe
ĠH amas
Ġr ises
Ġwas ted
ĠO B
ĠO wn
ĠW uala
if i
ud d
Ġall iance
Ġim pr
ĠV ASS
ĠK ORK
ĠSt abilisation
EN P
ab it
Ġwh oles
ap ing
Ġapp alling
Ġun pre
Ġout rage
Ġpoint ing
Ġpre ference
Ġ12 7
ph ony
ose v
ĠMar s
Ġbut tons
Ġgu itar
Ġent ers
Ġind irect
Ġsim ult
Ġinst ruction
Ġconf using
ĠReg ister
Ġref urb
ĠCon nie
ung s
ĠPol o
15 4
ST OWSKI
rat is
IL ITY
IL IOU
ĠIN S
ĠIN TERNATIONAL
Ġcar go
other s
ĠâĤ¬ /
cess ive
Ġexp ire
Pol ice
Ġret irement
Ġapproach ing
ĠUS E
Ġweek ly
ij i
Ġdesign er
Pri or
Ġprogress ing
ĠChrist ine
Ġsl opes
Ġpost ing
CC C
Com pl
Reg ular
Ġbank rupt
ĠMed ina
ĠPart ners
ĠCan ad
Ġfront s
EV IIUS
sequ ent
Ġrent ed
Ġdev il
Ġeng age
ĠMont e
Ġmax im
EA OJA
Ġdiv ide
Ġbrow n
Ġbrow se
Ġfeed s
Ġfast est
Ġdom ains
tain ing
Ġill ness
Mar itime
ĠCOM PETI
ĠIraq i
ĠTrans l
Ġspir its
ĠDes ktop
Ġconv ince
ĠIsrael i
Ġestablish ing
ĠBudget s
Ġsufficient ly
Act ivities
Ġsubsidi ary
Ġcoll apse
Ġrat ification
VIII ab
Ġpick ed
Ġinitial ly
Ġcool ing
Ġoccup ation
bert rand
fl ow
Ġconcent ration
Ġec ological
Ġconvinc ing
Ġpermanent ly
miss ible
ĠDa bertrand
ĠCF P
Te am
Ġrob ot
Ġpric ed
ĠMaur i
Ġintern ationally
ĠAGRE EMENTS
ĠDun ne
Cal c
ĠMeg lena
Ġintens ity
Ġkn ock
Ġnic ely
Ġresident ial
ĠBYR NEM
Ġstrik ing
Ġaccompany ing
disc rimination
ĠTerr aced
ĠLear ning
ĠCamb odia
ENTR AL
ĠJoz ias
ENB ARTH
ĠSad dam
Ġlapt op
ĠAdri atic
ĠVALION IS
Ġprag matic
Ġhazard ous
Ġvigil ant
ĠBOLKESTEIN Member
MOD AL
Ġacknowled ged
Ġexcell ence
ĠFIEL D
Announce ment
ĠZag reb
Ġcrimin als
ĠEIS ENBARTH
Carm el
ĠDrew es
ĠAAR TS
ĠKORK EAOJA
ĠBYRNEM ember
. ).
1 95
7 50
D ES
E TIC
K ER
M el
R ights
S at
T em
T OP
V O
W S
Y A
b r
b org
c iliation
d et
f al
n ut
p ic
r ale
t aking
Ġt ension
in te
at ibility
en ergy
Ġc oc
Ġf ur
Ġf atal
Ġf inger
ed y
ed ed
Ġd irty
Ġn ose
Ġh ol
ĠC r
ĠC OU
ĠC resp
Ġre du
Ġre ducing
Ġre nowned
ĠM any
ĠM IR
ĠM ah
Ġl ending
ĠP ath
ĠP rim
ĠA rena
ĠS OU
ĠS ven
ĠS IX
ĠS ebast
ol and
ol ine
ĠI de
Ġg rid
im p
ur ban
ig s
Ġ1 32
ra pporteur
ĠR oc
ĠR AM
ĠF C
ĠF EN
ĠF erenc
ĠF riends
Ġha m
Ġha vent
st ation
st ruct
ĠB ag
ĠB jer
ĠB ologna
ĠT at
ĠT rib
ĠT OTAL
se cond
em i
ĠG OOD
ĠH U
ĠL us
ĠN ever
ĠN ich
Ġwas hing
Ġus eless
ĠO ri
AN AS
act er
Ġyour selves
ĠJ im
ĠJ udiciary
ĠW AL
Ġwould nt
ĠV ar
ĠV AJ
Ġres id
ĠK OR
ĠK alia
Ġgo at
... ]
ark ed
IN FORMATION
01 6
are a
Ġdeb ating
Ġclos est
Ġmy sq
ĠCh ild
ĠCh ancell
Ġco at
Ġpre gn
Ġ12 2
Ġ12 8
Ġpr ime
Ġsp ade
Ġinv ented
ren ce
Ġover sh
ĠMar gar
Ġ19 85
rit rea
Ġgu y
TER M
HER E
Ġass igned
Ġvis as
15 7
40 4
ĠAn ast
Are a
Ġreal ized
arg es
ining rad
46 4
Ġair line
Ġcountry s
ah oo
Ġbr ush
leg ations
ias m
Ġgen etically
ĠLe one
ĠLe ft
Ġbeh ave
Ġsk ill
Ġpract ically
ĠSe pp
Ġconst ra
ĠSh ort
Res erve
ele ction
UM P
Ġ% ).
Ġann ually
app ing
Ar gentina
Ġpark s
Ġfood s
ai ro
ĠMed ium
ĠDef rre
36 0
Ġwind s
ĠWhat s
Ġinteg ral
Ġfunction ality
Ġenc ounter
aterial s
Ġanim ation
Su ccess
ww w
Ġdev oted
ĠMic ro
Ġchar ter
Int erest
Ġsugg ests
-- -
vert ising
FR Y
ĠAv iv
Rec ognition
Ġaud iovisual
Ġround s
AIN ING
Ġaltern ate
roll ed
Ġparagraph s
Ġban ner
unt u
Up dated
ĠMil itary
Ġconv iction
ĠChe mical
EST MENT
OB AL
Ġneg lect
Ġ56 172
Ġsold iers
Explan ation
Ġlif estyle
Ġinvestig ated
ĠHost al
Ġcorresp onds
tr ack
spe ed
ĠJun ior
Ġeconom ics
Ġrob ust
ĠRot ary
Creat ing
Ġbre ach
ĠNick olay
Ġcult ures
ixt ure
Improve ment
ĠTob acco
Fund ing
Met hod
Ġbicy cles
Ġorient ation
Ġstrik es
Ġslo gan
Ġinn ocent
xim ity
ĠCrow ley
Ġmurd ered
Reduc ing
ĠSuperv isory
Ġstret ch
ĠRud olf
ĠBAKOYANN I
ĠCount y
833 34
ĠREYNDERS Minister
ĠRODR IG
ĠTok yo
Ġoverd ue
ulph ur
Ġadjour ned
Nad ge
ĠZÃ¼ rich
Ġspamb ots
ĠPEK KAR
A qu
C OS
D uration
E arth
F ri
I TEM
N R
N am
N ovember
N OW
R Y
S n
T M
Z O
b ow
b est
c ap
i ances
j u
k ok
l ace
m are
m akers
m istry
p lease
r aries
s hip
u h
v ance
v adia
Ġ Ã¼
Ġt ied
he in
at en
Ġs ister
Ġs ights
Ġw aves
Ġc ite
Ġf usion
Ġf ixtures
Ġp up
Ġb ow
Ġb ien
Ġb unk
Ġm ol
Ġm ental
Ġd iction
Ġn avig
Ġh ate
ĠC ore
ĠC are
ĠC andidate
Ġre nd
ĠM ov
ĠA PI
ĠS ud
ĠS ex
ac ier
Ġv i
Ġv oor
im als
ra u
ore n
ĠR ail
Ġnot iced
ĠF a
ĠF IF
ĠF uerte
ĠB rist
ĠB ulg
ĠD alia
ĠT L
ĠT errorism
Ġde ck
un ter
qu el
am en
.. ...
em ed
ĠG h
ĠH osp
ĠH ustin
od ium
Ġse al
Ġsh ots
Ġsh adow
ĠL en
ĠL adies
ress ing
ĠN eg
ĠN ote
ĠO sk
ie val
ĠJ i
TI L
Ġch ick
Ġch ief
Ġsu ited
ĠV ITOR
ast ics
ĠK ear
ĠK ING
ĠK eep
ab is
Ġk ills
01 1
Ġcomp ut
ounc ed
ap ed
ĠIn form
av o
Ġ7 50
row ser
Ġtra ined
Ġtra vels
ors che
Commission s
St op
ĠThe se
Ġ10 2
Ġsc iences
Ġmod es
ĠUN ITED
12 4
Ġend ing
Ġass ert
ĠY ahoo
Ġrel iability
Ġlast ed
20 9
mail s
Pro cess
ĠEuro just
Ġint ense
ins ula
OV ER
ĠCourt s
ott on
ĠIs lamic
Ġexpect ancy
ĠCON F
ĠWOR LD
Ġz oom
ron ius
Ġprogress ive
Ind irect
Ġve al
Ġiniti ated
Ar ch
ĠEC SC
ĠCont est
Ġbegin ners
Pl us
28 0
ĠMed ic
Ġtre asure
Ġland s
ĠFR ON
Ġarri ving
ĠCan on
rag ona
Ph ysics
TH ENMinister
sid er
ĠPri vate
Ġcomprom ises
ĠSCH MIT
ĠCap itals
ĠJos eph
ĠBal ance
ĠRad isson
oph ob
ĠGod s
vision al
Air port
UNIC ATION
Ġrenew al
ĠLou nge
Apart ments
Link s
ĠSm ith
Ġship building
ĠRO ZE
ett ings
Ġoccup ied
Ġrefuge e
Again st
Ġearn ed
Ġconfir ms
zen berger
ĠSERV ICE
ĠGran ada
Mac ro
SL OV
ORD INATION
EB AL
Ġtoler ated
ĠMill ennium
ĠStat istics
Ġnut rition
Bas ically
ĠCitizens hip
ĠNik on
Ġowners hip
Ġvaria bles
Ġmerc y
Ġcertific ates
Ġpip es
ĠKaz im
Ġjudge ment
ĠFlo or
Ġbran ches
Ġbreed ing
ĠGRE THENMinister
Ġmunicip ality
ĠPoint s
ĠSet tlement
ĠPI EBAL
Ġsynt ax
Ġlabor atory
Ġmus ical
Ġlawy ers
ĠGAL ILEO
igu ous
ĠDer k
ĠBos se
ĠDIM AS
ubl jana
Ġtrace ability
Ġarbit rary
Ġderog ation
Ġbrows ing
ĠSupp ly
Ġneighbour ing
ĠNETWORK S
ĠRI EK
ĠLINDH Minister
Ġdeter ior
ibiot ics
Ġprecaution ary
Rober t
BUD GETS
atisfact ory
Colomb ia
RECOG NIS
Ġamen ities
iscell aneous
ĠHusse in
Vand na
ĠFEN ECH
ĠVAJ GL
ĠBrist ol
ĠHustin x
ĠKear ns
B ath
B uild
C OR
C risis
D raw
D riving
F ixed
G old
G HL
H ake
H ING
L iving
L IST
L inux
M em
M IGRATION
N OV
P a
P DF
R ot
R ates
R ms
R ole
S F
S ystem
S elf
S CH
S up
T on
U ER
U FF
Z A
c urement
f r
g ood
h our
m outh
n ose
t l
v ol
w ald
w arf
z t
Ġt asty
is lav
Ġs ail
Ġs ink
Ġf law
it ology
Ġp itch
Ġo asis
al in
Ġb ind
ro x
Ġm ent
Ġm ons
Ġd ying
le e
ĠC e
ĠC i
ĠC le
ĠC ir
ĠC hat
ĠC ome
ĠC AL
ĠC ounter
Ġre wards
ĠM ai
Ġl ingu
ĠP un
ĠA u
ĠE p
ĠE ss
ĠE va
ĠE ADS
ĠS ig
ĠS ER
ĠS arkozy
Ġe ars
Ġe co
ol ph
ac er
ĠI an
ig nt
ra it
ort ion
ul pt
Ġcon ce
Ġcon sole
ĠR i
ĠR ates
ĠR ov
ĠR ING
ĠR oute
ĠF ratt
ĠB ENS
ĠB avaria
ĠD ITH
ĠT ry
Ġan ch
se as
em ie
ĠG ON
od or
ist e
ess im
Ġsh orter
art e
ĠL IG
ĠL abel
ĠL oyola
Ġr um
oc o
ĠN er
Ġwas nt
ĠO H
AN TS
ĠJ O
ĠJ ari
Ġmore over
iv ate
ost ing
ĠV ac
ast rous
ĠK idd
ĠK ALL
ank ind
ĠSt ay
Ġcl oning
Ġ4 98
ab ling
ip her
ric ter
Ġun limited
erv atory
Ġpart ially
Ġdis arm
Ġdis astrous
iz ard
EC TIVE
ass es
ED EN
ĠCh rome
Ġper f
Ġper pet
AS K
ĠDe al
Ġar ts
ob a
Ġrec ession
ĠThe r
Ġtrans mitted
Ġ10 8
Ġunder lying
eg aard
TR UC
Ġpublic ly
EM BER
Ġman o
Ġmat t
Ġinte ger
Ġmeas uring
ĠReg ulatory
ET H
Ġleg acy
Pro blems
Ġsm ell
hes ter
Ġcontin ental
Ġdef ines
rat ory
IL O
ty pe
ĠAnd y
ĠParliament ary
Ġinter f
13 9
UR R
Ġsec ured
Ġide ology
ĠPl ant
Ġadv ocate
16 7
ĠTh ree
Ġpass port
ĠIs ch
ĠIs abel
ĠSc ott
ĠRE VIEW
De ath
ĠSe ville
Ġtop ical
ced ented
Sh op
bo ot
Ar ri
RIC ULTURAL
PL ES
sh ow
ĠEN LARGEMENT
Ġorig ins
Ġenc rypted
erg ies
Ġhold er
May or
ĠMembers hip
ĠAud ronius
reg aard
Ġintro duces
Ġjoint ly
Ġaud itors
ĠMy th
Ġill usion
Ġpan ic
Ġsimpl ify
Expl ore
BR D
Ġconfig ured
net ic
Ġuns atisfactory
Ġfold ers
Ref erence
ĠPan el
Ġlift s
Ġrein force
Stat istical
Ġrelationship s
ĠBro k
ĠBro ther
Ġgain ing
ĠKat tegat
ĠKat zenberger
ĠNi els
ĠCa ucas
ĠBud d
ĠOut look
Ġpromot ional
Ġcott age
GEN ERAL
ĠWith out
ĠHER ZEGOVINA
Pal est
DEN MARK
Ġbound aries
Organ ic
Diff erence
ĠPass word
Ġbroch ures
Fight ing
Ġrig id
Off er
ĠEnt repreneurship
Enh anced
ĠJur aj
Ġmotiv ated
Ġju ice
Ġrecip roc
Near ly
ĠArch ive
Ġcompos ition
ĠAndr zej
Ġaccompl ish
Mont enegro
ĠDoc ument
ĠMOD IFIED
Ġconfidential ity
Brit ish
ĠSof ia
Electric ity
Contract ual
Ġcul inary
Ġtal ent
dep th
ĠTheod oros
Iss ue
Ġcir cuit
Li isa
Ġauthent ic
ifor nia
Ã¼ss eldorf
ĠCyr il
fund ed
UBAL IS
ĠParticip ation
atem ala
agli ari
Ġjurisd iction
ĠFREDERIK SEN
Ġburd ens
Bend it
Kaz akhstan
habil itation
ETIC ALLY
ĠCresp o
Ġredu nd
ĠBjer regaard
ĠRODRIG UES
ĠKING DOM
ĠPIEBAL GS
ĠRING HOLM
ĠLIG I
0 46
2 32
2 12
2 95
2 33
B io
C te
C AS
D ale
D iet
E c
E ffective
F OLLOW
H AR
H erman
J ava
L es
L ang
L uc
M ach
N ICI
P ermanent
P rem
R apid
S pend
T L
T ackling
W N
c al
g ars
h orn
i arity
j i
k os
m ay
m arket
m ond
n ost
n bsp
q vist
r ue
s ource
t u
t our
x it
Ġt act
Ġt all
Ġt ribute
Ġs inger
Ġc er
Ġc ake
Ġc urrencies
es ch
it is
Ġp airs
Ġp rest
ed uc
Ġb orrow
Ġin k
Ġin comp
Ġd in
om er
Ġth rust
Ġh urt
ĠC hernobyl
ĠM unicip
ve ment
ĠP OT
ĠE TS
ĠE vent
ĠE QU
ĠS ome
ĠS ag
ĠS ix
ĠS ony
ĠS irk
ĠS INGLE
ĠS jÃ¶
Ġon Twitter
os lav
ĠI ron
ĠI stanbul
Ġg at
ut sche
ra els
Ġst ove
Ġst uck
ul ative
ĠR oy
ĠR ui
ch ron
ĠB ird
ĠB ridge
ad ier
ad emic
ĠT ony
We ek
un c
un er
em pl
ĠG d
ĠH omepage
ĠH orizon
Ġse af
art en
ĠL IS
ĠN IEL
ĠJ Ã¶rg
ak an
ĠW omens
ud o
ĠU lla
ĠU zbekistan
In itial
In novative
ĠV irg
ER A
ĠK h
ĠK rem
ĠK nowledge
ĠSt r
ES DP
EN CI
Ġcomp ens
32 7
ap ons
ĠMr is
la ve
Ġun just
Ġro les
av vadia
Ġout set
ret t
Ġadd itives
ib ral
Ġtwo fold
Ġar gue
ph y
ph ab
ert a
Ġpr ud
St ructure
Ġem bar
ond rej
Ġdec ent
Ġsub mission
Ġsub scrib
Ġass ured
com pliance
ann el
Ġposs ess
Ġimp etus
we et
Ġ15 00
Re ception
Let ter
Ex isting
ĠZ en
15 3
Ġrest art
As ylum
40 8
ĠAr ts
CH OP
ĠCo x
rist ina
ĠX III
Ġ! !!
Pol it
Ġchild hood
ĠJan e
Ġequ ity
olut e
14 1
Con clusions
Ġpass ive
TU GAL
Ġprotection ism
ĠInter governmental
Ġbr ut
Ġel der
18 9
IB O
IB LE
UN G
ĠCl ar
17 7
amp ed
ĠSc ientific
ij s
33 7
isc he
Ġz um
Ġorgan isms
Ġbenef iciary
af a
Ġsl ip
sc reen
Ġrele vance
Ġlo ose
Cl ub
Ġbar bec
ĠEC O
by e
Ġinvol ving
ateg or
erc ul
AK I
ĠQu ark
ĠDef icit
Ġgener ates
ĠVal ero
ĠAir bus
88 9
Ġsol o
47 3
Ġvol t
Ġvol umes
yn n
Ġcontribut es
ĠMal aysia
Gu inea
ĠEd it
ĠGonz lez
Ġred ress
Ġlic enses
Mar co
Appro x
Ob jectives
etter ing
Ġcirc ulation
ĠBR ENN
Ġsort s
Ġtw elve
Ass essment
ĠSol ana
Ġspr ings
ĠDen is
ĠTur in
Prom ote
Rel ating
Ġvess el
ĠMag azine
ĠLE ADER
Ġheav ily
CK ER
ĠMON TI
Ġroll s
ĠSam uel
ĠStud y
Ġlif ted
ĠGood s
Ver ification
NET HERLANDS
ĠExt ension
Ġmisunder stand
ĠRot terdam
LIS E
Ġcab in
ĠLEG LISE
Dan uta
ĠChamp ion
ĠMarg areta
ĠCAM PS
Ġreve al
ĠRam ada
ĠStep hen
Ġsla ve
ĠCrist ina
Present ation
ĠVladim r
Ġkilomet ers
Ġevalu ated
Ġcontradict ory
Ġdemonst ration
Sw iss
lang us
YL UM
Ġmig rants
ĠPers pective
ĠCOW EN
ĠBON NICI
Ġenthus iasm
Las zlo
ĠJUN CKER
ĠLad ron
Ġimpl ies
ĠGard a
ĠObs ervation
ĠAlfred o
ĠAdvis ory
Ġobser ver
Ġobser vers
Ġsequ ence
Ġprev ail
she ll
ĠBRO EK
Pos itive
ĠIss ues
ĠBang ladesh
Ġpir acy
Andor EU
Ġpubl isher
Ġswift ly
Trad itional
ĠKUB I
Tick ets
Ġcoinc idence
Ġaccomod ation
Ġthumb n
Ġef ovi
ĠEDUC ATION
Situ ated
Ġmerch and
Ġincorpor ated
Ġimpr ison
Ġunpre cedented
ĠChancell ery
ignt y
ĠBENS CHOP
ĠDITH MER
Ġembar rass
ondrej icka
Laszlo AndorEU
! /
5 01
B Y
B ay
B AB
B OSNIA
D im
D ub
D ismiss
E ff
E co
F act
F EL
F iscal
F riendly
F ully
G ut
H AN
L ack
L FN
M ust
P uerto
P ublished
S U
S ize
V E
W all
W rite
Y BA
b acks
v ial
w alk
Ġt witter
is i
er os
Ġthe ore
en burg
an ie
Ġf ever
ar agua
Ġin effective
Ġd ia
Ġd un
le te
om o
om on
om inations
Ġn icht
Ġh its
ĠC s
ĠC ens
ĠC ape
us er
ĠM ER
Ġl acks
ĠE AG
ĠS her
ĠS ard
ĠS ax
ĠS cript
ĠS DL
Ġe ine
ter ror
ĠI F
Ġv icious
ut z
Ġst ead
Ġpro long
ĠR TD
ĠR apid
Ġal le
Ġal ert
Ġal though
ĠF IRST
st yle
ĠB ib
ĠB ob
ĠB urn
ĠB UR
ĠB AJ
ĠB ANK
ĠD B
ĠD rug
ĠD acian
ad ows
ĠT arget
ĠT SE
ĠT win
We ve
un i
se y
op t
ĠG ER
ĠH EN
Ġsh oe
Ġex agger
ĠN id
ĠN eu
ie ving
AN TI
ĠJ orge
ĠW H
ĠW alk
ĠU ND
Ġcont emporary
lo o
lo v
Ġ3 20
Ġch ances
ĠK ol
ĠK now
Ġgo ats
ĠSt adium
European s
EN NE
Ġen viron
IN ENMinister
Ġapp rentices
Ġun p
Ġun re
ram e
av i
ang le
iz ers
Ġ6 50
de velop
ass a
ED O
ord inated
Ġpos e
Cont ribution
Ġcount y
An ne
OL I
OL O
US D
US KA
ond a
Ġmod ular
Ġmod ification
Ġadop ting
not e
EM ANN
Ġpers u
Ġpers ist
ict ions
ath on
Ġcent rally
Ġref resh
vent ing
vent ura
15 2
ĠAl an
PR US
ware ness
urs ed
Ġsign ing
ĠPl ug
Ġadv isory
Ġsuccess es
ĠAm ount
22 1
ours es
Ġher self
OV E
Ġcap acities
ANN IS
Ġins erted
Ġdist ant
pro portion
Ġweek ends
ĠSe ite
ĠSe als
199 2
Ġdemoc racies
ator ium
AV ROU
Ġhard er
let es
let te
Ġopp onents
Ġbro ke
Ab brev
Pl enary
ĠAG RICULTURAL
be y
ĠOr ig
Ġland ing
CY PRUS
Ġsent ences
ĠAb u
Ġpo et
Ġmar riage
Ġdefin ite
Ġstandard isation
ĠPri ority
Rec ently
Ġencoura ges
ĠSCH REY
Ġfeed ing
ĠPat ent
ĠPL AY
ĠGR YBA
Ġpassword s
Ġpres erved
ĠMac ro
ĠAre as
Av oid
Ġhy giene
enh of
Pr inciples
ĠDel ors
Ġsle e
Ġemb edded
ĠSil va
Ġdeterm ination
Ġmer langus
sec urity
ĠMag ic
Ġsem inars
osc ope
ĠBas ic
Ġdescrib es
Mil itary
Ġhop ing
Ġinvestig ate
Cre ation
Ġcourage ous
Plaice Pleuronectes
ĠTerm e
ellig ent
ĠProm otion
ĠEdu ardo
Director ate
Ren ewable
Ġstru ck
ĠMich alis
LU XEMBOURG
ĠFern and
Ġtrademark s
Ġod ds
ĠJer usalem
Ġbelie ves
Ġfisher y
Ġcohere nce
Ġsla ugh
Extra ordinary
Ġjournal ist
LAN TIC
Ty p
ĠJur is
Ġbes ide
hard t
SUD AN
rimin atory
Ġpig s
ĠQue en
Sil ver
Liber alisation
OPOUL OS
ĠTAX ATION
ĠLaure nt
Ġanal og
ĠVict oria
su ite
ĠId ent
ĠDrag on
Ġinterrupt ed
Ġsummar ised
ĠMih ai
Pop ulation
Ult imately
ĠEngine ering
Cur riculum
Ġfest ivals
Flex ibility
ĠANN EX
ĠTER RORISM
ĠCamer on
Ġsubdiv isions
ĠHed egaard
clic ally
ITZ ER
Ġcurs or
ĠBOG AR
ATI A
ĠGreg or
ithuan ian
ĠBrig itte
Wars aw
imburse ment
ĠGLAVANY Minister
ĠMund us
Ġpostpon ed
ĠDolom ites
SER BIA
Ġgren adier
ĠJacks on
ĠBirg itta
ĠCCC TB
osev ic
Ġsimult aneously
ĠRIEK STI
ĠCaucas us
ĠSirk ka
ercul osis
ĠSCHREY ER
ĠGRYBA USKA
3 01
5 95
? .
A E
B ern
B issau
C AR
D uan
E conom
H ol
J udg
K ing
L ove
M o
M aur
M USS
M obil
O F
O O
T ube
T ariff
T rust
T emporary
T winning
U TE
Z Y
a e
b ing
b ag
c ity
d al
h ih
m g
o i
u pport
z ys
Ġ ub
Ġt iles
Ġt urb
Ġt apped
in burgh
at isation
ou pling
Ġs cept
es a
es ome
Ġf right
it en
it ual
it ably
Ġo t
ar ium
ed eration
Ġb in
Ġb rew
as p
Ġn est
Ġh obby
ĠC el
ĠC OL
ĠM AS
ĠM ex
ve z
Ġl end
Ġbe verages
ĠP AN
et o
ĠA VI
ĠE PP
ĠS ession
ĠS yl
Ġon t
id i
Ġe cho
ay ing
Ġg ifts
ig l
ir ates
ĠF ather
ĠB ot
ĠB and
ĠB ackground
ĠB eg
ĠB eck
pp y
ĠD ark
ĠD UR
ĠT un
ĠT AM
ĠT imes
ĠT ouch
Ġde pri
ĠG ot
ĠG and
ĠH R
ĠH as
um a
um en
ON IK
Ġsh ipped
ĠL I
ĠL ow
Ġr anges
end or
ĠJ oy
ĠW atch
ĠU ganda
Ġch ips
ĠK RO
Ġqu ar
Ġqu est
Ġwh olly
erm arket
Ġcomp ounds
32 2
int age
CI VIL
ous ands
Ġnow adays
EU ROPE
Ġout dated
IC T
pl ates
Ġany time
EC TION
EC SC
ret ion
ven ient
Ġpre re
und as
Ġdi et
ĠPro blem
Ġinv isible
Ġsc rew
ĠComm ons
US KAS
Ġ19 76
Ġent repreneurial
ĠY ORK
Is aac
Ġleg s
ĠPol y
Ex act
DE CISION
Ġdem ographic
iet a
ĠAn imal
AM E
CH A
ĠCo al
ĠCo ordination
Ġpresent ing
AG ENDA
Ġpack s
ĠEx p
TEN EG
Ġadv oc
14 7
Ġed iting
ah a
ĠAm az
22 8
Ġspecial ists
18 5
Ġhuman ity
Ġdeal ers
Ġdevelop er
Ġcompany s
Ġz e
Ġple a
Ġ* **
Ġallow ance
Ġallow ances
Res pect
Ġjo ins
Ġeconomic ally
ĠIm ages
Ar ticles
Ã¤ t
Ã¤ nder
Ġet hn
amb ia
aster y
ĠOr te
Ġca fe
ĠBl anc
ERS ENMinister
EV EN
Ph ot
Ġvia ble
Ġdev ast
Mer lang
ĠVal dis
Ġtem ple
Ġvol unte
Ġhost ing
Ġhon or
Ġev olution
Ġdatab ases
Ġreach ing
EA U
ns b
lav anos
Sim ple
ĠAud io
ĠGo als
ĠGreen land
Ġlab els
see ing
rateg ies
ĠSCH ILY
ĠJoh ns
Ġinform al
AST AVROU
Disc ount
Ġcontain er
Ġpopular ity
ĠME Ps
ĠPet ros
ĠCal ifornia
ĠAM ER
Ġoptim al
Ġcr us
ĠDel uxe
isch arge
ĠIran ian
Ġir responsible
appro priate
Ġblock ed
Cor ruption
Ġscen arios
ĠAdd ress
ĠPAP ASTAVROU
Ġupg rad
Cap acity
Ġbi ological
Ġswe ep
Ġprej ud
FIN LAND
ĠCAR UANA
Ġmac roeconomic
ht aking
INTER MODAL
Stud y
ĠInteg rated
Ġpra wn
ĠMerc osur
ĠMaj or
Ġdig its
ĠTib or
Ġinj ured
ĠEur atom
Bi ocidal
Ins ert
Ġsty les
ĠSat ellite
Ġdiplom acy
Ġneighb or
Ġglo bally
ĠKal iningrad
Gen etically
UY T
WH AT
ĠKrist alina
ĠRaim undas
ĠUnivers al
product ive
Ġmoder ate
Dist ribution
sem ination
ĠIng rid
Ġprivat isation
Tw enty
ĠColl ins
Russ ias
Ġsen ior
Inform al
ĠSpl it
Ġtiss ue
ĠINV ESTMENT
ĠXL STAT
IPP ING
ĠBuch arest
ĠWAL SH
ĠKALL AS
ibral tar
ITZER LAND
TENEG RO
Merlang ius
+ +
2 13
3 12
5 50
B ol
C AN
C amb
C ERN
E le
E IT
E lection
E rik
F OOD
H orizontal
H armon
J ose
J AK
M I
M AC
M icro
N G
N GL
N ATO
R ome
S USTAINABLE
W ood
W inter
W ords
Z IM
a way
c re
e ur
f il
f irst
h uman
i ates
k ov
l oss
m erman
z ano
Ġ Ã¶
he ast
re i
in ant
Ġc rop
Ġc rown
Ġp etition
Ġp alm
Ġp ocket
Ġp ussy
Ġb ombs
Ġm ines
Ġto oth
Ġd il
Ġd are
ĠC over
ĠC orn
ĠC EEC
Ġre nder
Ġfor g
ĠM ob
ĠM asters
Ġbe aring
ĠP u
ĠP ool
ĠE DF
ĠS in
ĠS elf
ĠS oul
ĠS ettings
Ġon wards
Ġ2 35
ol ving
ol vency
Ġv ous
Ġg ri
Ġg rade
ly wood
Ġst ir
Ġpro tein
ul ators
ĠR S
ĠR on
ĠR ing
ĠR ate
ĠR UL
Ġwe bs
ĠB j
ĠB ull
ĠB UL
ĠD yn
Ġde pos
am ar
ri ft
ĠG ian
ĠG ener
ant i
Ġsh ore
Ġsh if
Ġex cluding
ĠL ady
ure rs
Ġr acing
Ġr hy
ĠN u
ĠN AT
ĠO le
ie k
ĠJ oomla
ĠW ant
ber ry
Ġad apter
iv ated
Ġcont am
TI LA
Ġch amb
ĠV egas
ĠK urd
Ġle af
ĠSt ars
Ġen light
ag le
ag ine
Ġk iss
erm e
ip edia
any a
Ġ5 01
ject s
la wed
Ġdeb ut
Ġsee ks
av ia
ew al
EC HO
Ġtra p
ern ity
Ġar med
10 3
Ġcomm un
St age
Ġrec ruitment
Ġsp here
Ġinv al
ĠComm od
Ġover seas
ĠMar cel
ĠMar bella
Ġ19 75
Ġ19 61
35 1
Ġent ity
ĠUN ESCO
ĠEn forcement
Ġ11 8
Ġinst al
Ġdisc retion
ĠY iorgos
ĠCon il
20 2
20 8
ung le
Ġcontin ually
Ġrest ore
Ġprocess or
Ġcost ly
Ã¼ d
Ġmet er
Ġread ers
Ġback s
Ġback ing
ĠCo hn
Ġinter active
13 1
az ard
AG A
Al ba
UL AND
Ġadv ised
Ġconsid ers
Ġfil ters
ĠMay stadt
Ġaim ing
Ġz ur
Ġremain der
27 1
ĠGu ests
gg ing
eter inary
Ġcommon ly
Ġunderstand s
ĠMad agascar
07 0
ĠPh one
Ġstat ic
Ġopp onent
Ġtrad itions
Reg ion
Ġwa ited
Ġproceed ing
ĠGerman s
Ġlight ing
Ġreject ion
Ġbuy ers
ĠEl b
ĠEl ba
atab ase
che t
Ġamb itions
ĠGeorg es
FR ANCE
Ġindic ations
UK A
ĠLis boa
Ġsepar ated
Ġprint s
ĠJos ep
ĠPat ric
TEL L
ĠMc M
ĠBal i
Ġri pe
Ġexperi ment
ĠTrans lation
ĠTrans fer
Ġperm its
Av ian
Ġabst ract
IGH BOUR
Ġ# !/
Ġcr ash
Ġcondition ed
ĠĠĠĠĠĠĠĠ ĠĠ
ĠItal ia
OB OD
mbuds man
Ġoblig atory
Ġexport ed
Ġsal ute
sec ution
ĠLE BR
Ġsem i
Ġcoast line
Ġassoc iate
Ġwall p
Ġhop ed
IRA Q
Set ting
Ġesc al
ida e
Ġcompli mentary
GEN ETICALLY
Par agraph
Project s
Ġpet rol
Particip ants
Sa fe
ĠFront ex
ĠFront iers
opoul os
Ġisol ation
Incre ase
erent ial
Prof essor
ĠNord ic
Ġjudg ments
Dep artment
ĠOJ ULAND
Ġburn ing
Ġcontradict ions
SW EDEN
ĠCou p
ĠSV OBOD
Facts heet
Ġlag ging
product s
ĠORGAN IS
ĠOs lo
Respons ible
HOR IZ
Ġdesper ate
Fac il
incre asing
Ġshap es
ĠLAM Y
ĠAdv anced
Ġunderest imate
Saf er
ĠFRIED EN
ĠHEMILÃĦ Minister
Ġmort ality
COMPETI TIVENESS
ĠCirc le
ĠLess ons
orient ed
ĠTEC HN
ĠFal con
ĠTaj ani
Ġmonopol y
ĠGerald ine
Ġagg reg
Ital ian
ĠBog dan
ĠNAS ON
ĠAndalus ia
ĠBRA UN
ratis lava
Ġoversh ooting
ĠFratt ini
BAB WE
hih ostels
) !
2 14
3 30
5 40
5 02
5 14
? !
B re
B on
B us
B ra
B ud
B log
C ED
C ities
C ustomer
F r
F arm
F REE
G UY
G OVERNMENT
H a
H et
H igher
K ÃĦ
M P
O ECD
R ail
R ather
R oman
R AINE
S TEIN
Y emen
Y VIA
b at
b onds
f ly
f ood
h os
h ave
m ers
r t
s ize
v ity
x ual
Ġ rou
he ro
is abeth
or ious
or atory
Ġc ows
Ġf itted
Ġf ocal
it em
it ations
Ġp ic
Ġb ond
Ġin ad
Ġin se
Ġm ins
Ġm ixture
Ġd orm
as er
ic ia
ic ted
Ġth irty
ĠC RISIS
ĠM it
ĠM aking
ĠP K
ĠP UBLIC
ĠA UBALIS
ĠA lavanos
ĠS AR
ĠS eg
Ġ2 37
id en
ac i
Th ousands
ĠI k
ĠI ber
ĠI TER
ĠI RC
Ġ1 11
ĠR ab
Ġal phab
ĠF ast
ĠF ashion
ĠF iesta
ĠB od
ĠB EST
ĠD V
ĠD as
ĠD all
ĠD AR
Ġat h
ad el
ĠT w
her s
ri ver
ri um
em ens
ĠG rad
ĠH u
ĠH is
ĠH im
ĠH oyer
od a
ist ant
ist ered
ĠL ug
Ġr aces
Ġr uled
Ġr isen
ĠN iger
ĠO UT
ĠJ ENS
ĠJ AGER
ĠJ ELV
ĠW ine
ĠW ESTER
if iable
ĠU PON
ĠU ruguay
Ġ3 65
lic ity
Ġver tical
ĠK ir
ĠK am
ĠK une
ĠK RIS
ĠK rak
Ġqu arters
ĠSt rengthening
Ġen cl
IN TERNATIONAL
ab ul
01 7
Ġcomp rise
ap i
ear ing
ong olia
Ġun h
Ġun believable
Ġpart itions
uss l
EL LI
ens ing
ens ity
ED ONIA
Ġadd ing
IT A
here nt
RE PORT
St rengthen
30 4
Ġrec ycl
ĠFin ancing
Ġconc erts
Ġcontact ed
ee f
Ġ19 79
rit ing
old er
TR AC
Ġ11 7
Ġclear ance
ef e
Ġman agers
Ġatt ribut
Ġatt itudes
Ġresult ed
arm s
ĠPRO PER
Re ally
Ġplay list
ris on
OP LE
Ġrest ra
ĠAl f
ĠAl gar
ĠAl bert
aj a
Parliament ary
Ġexp ired
ĠX avier
Ġsur prises
Ġsur gery
Al t
16 8
Ġdirect ories
ĠMAR IN
Ġbr ack
Ġclick s
18 7
ĠAd rian
ĠCON SUM
Who le
Ġtransport ed
ribut ions
Ġsector al
Be ijing
Ġsl ots
Ġprof itable
ĠCent ro
Ġcheck ing
19 0
ĠGermany s
Ġtri ple
Ġshow ers
Ġopt ical
ĠON LY
Ġreturn ing
ĠThank s
Ġaut o
Cons ervation
38 0
pre hen
medi ate
ĠAD MINISTR
65 65
hic les
Ġpot atoes
Ġsens or
Ġquot ation
Ġwarm est
Ġcontribut ing
Me asure
ĠAN OMER
Med ical
Le vel
ĠEd inburgh
Ġfacts heet
Ġcru el
ĠInt el
Ġgra in
ĠPe er
Appro priate
Ġadminist rator
Sp am
Ġpan orama
fin anced
Ġban ana
ĠTrans parency
ĠAct ivity
Ġtrack ing
VII b
ĠPr ince
ĠGlobal ization
Ġut ility
ĠQU ALITY
Go ogle
Ġpain ted
ĠJo ined
Ġemb ry
Ġscreen ing
ĠPE TER
Rel ated
Ġwood s
Ġcur ves
Ġcalc ulations
Ġlos es
Rest aurant
ĠMON ETARY
Ġscen es
Ġfulf ill
CS I
Ġsnow board
CCCC CCC
Sch ool
Tr ue
ĠAlexand ros
bl ock
ĠCa fe
ĠPay ment
ĠEL ECTR
Ġobst acle
Conc erning
Ġacqu ire
ĠEP SO
Turn ing
Ġunanim ous
ĠPo ettering
Mic rosoft
ĠFlo ors
Ġvir uses
Ġincent ive
Fund amental
ĠRob in
Ġreward ed
ungal ows
ĠCur ie
ĠMen u
Ġresident s
Ġaccompl ished
ĠWell ness
Ġclimb ing
Ġscan ner
Mart in
Ġconsc ience
ENG TH
unn ar
ĠPia zza
ĠHold ing
ĠAppro ach
ĠCanc n
ĠJenn ings
Recommend ations
Ġdownt own
ĠMOL YVIA
ĠBarb ara
ĠChampions hip
Ġinfect ions
ĠRefuge e
Ġpollut ants
Ġbub ble
ONT AL
Ġlod ging
Subsid iarity
ĠRaven stein
Ġbrill iant
Ġunequ iv
Ġimmig rants
ĠDEC EMBER
ĠSTAND ARDS
Ġroy al
ĠANT TILA
Kore a
ĠPEKKAR INEN
Ġmerchand ise
Gut ted
terror ism
ĠNid hi
MUSS EN
Ġethn ic
nsb ruck
ZIM BABWE
ĠJELV ED
ĠANOMER ITI
ĠMOLYVIA TIS
) (
2 40
3 40
4 15
5 46
A ward
A TIVES
A licante
B N
B US
B eg
B ox
B LA
B ORG
B uffet
C os
C agliari
D am
D EL
D own
D ROPS
E vent
E IRO
F er
F IC
G Ã¼
I U
I TICAL
L ate
M C
M N
M otion
O s
P ot
R ub
T F
T RE
T error
b oy
b untu
f alls
h ill
k h
l ast
o ft
r in
r ace
v ens
Ġt ries
Ġt angible
is se
or and
it el
it ivity
it rust
al o
al ism
Ġb ans
Ġm oon
Ġd ip
Ġd ated
as o
as ons
Ġn am
Ġh ills
Ġh orizon
ĠC ars
ĠC lear
Ġre posit
Ġre venues
ĠP U
ĠP il
ĠP el
ĠP resent
ĠP ET
et es
et ta
ĠE AGGF
ĠE AFRD
ĠE cuador
ĠS SL
ol ina
Th omas
ter a
Ġst ack
Ġpro ximity
ĠR F
ĠR ise
ĠR ory
ĠR IB
ĠR aul
ĠR occo
ĠR ibe
ĠF P
st a
st art
est ed
ĠB ec
ĠB ILL
ĠB eta
ĠB etween
ĠD S
ĠD Z
ĠD emo
ĠD Ã¼sseldorf
ĠT OUR
ĠT rent
Ġde af
se f
se ctor
ĠG n
ĠG ott
ĠG host
ĠH air
ĠH ED
ĠH aut
ĠH OW
ĠH yd
ant astic
Ġsh arks
ĠL V
ĠL j
ĠL und
Ġas semb
Ġhe el
Ġr ic
ĠN y
ie le
ĠJ am
ĠW EL
ud a
ĠU lt
RO S
ĠV ik
Ġres ign
Ġres umed
ĠK o
pt on
EN A
Ġcl im
th m
th al
Ġno ble
Ġj am
Ġam ple
Ġun less
erv ations
99 6
Ġwork place
Ġout lined
IC S
EL BEEK
ED eputy
OM ERY
ĠOF FER
Ġtra ils
Ġco pe
Ġpos es
ib ault
Ġpe e
ug a
enc er
IT ARIAN
Ġfirst ly
Qu al
ans k
ĠThe ss
Ġ10 3
Ġsc ientists
Ġ19 68
11 4
ĠUN G
AT T
ik o
Ġac ute
Ch anging
ĠZ ap
ĠZ YPR
Ġeven ings
Ġread mission
bal anced
Ġpress ed
Ġpresent ations
arch y
Ġ17 5
13 4
pa id
Ġupd ating
Ġair lines
16 4
Ġhand y
14 9
22 4
Ġflo od
Ġcap s
Ġest imates
ĠBe hold
eng es
18 2
18 6
ĠCON VERGENCE
ĠCl oud
AD ING
ĠSc and
ĠBar rot
ĠSe lect
Ġdesign ers
SS EL
Ġdri ft
rad a
Ġlog os
Ġopt imum
ĠAfric as
sh irt
ĠQu al
yl ene
36 5
UC LEAR
Ġca using
38 5
ĠComp anies
Ġbath s
39 0
sequ ences
ey e
ĠIII a
ĠIII bcd
Trans position
ĠWind ow
ĠAir lines
ĠTra p
Acc ount
Ġwarm ing
ĠAN TON
Ġvac ancies
Ġgovern ed
OG YI
ĠInt erest
Ġcross ing
Ġcivil ians
Ġjour neys
OC RA
Ġpan oramic
ĠSy d
ĠSy m
Ġcompl ain
Ġcompl ied
ĠPr int
ĠBen alm
UG AR
ĠSant iago
ĠHel ir
ĠTechn ological
Ġcr ack
ĠPar c
Ġmem ories
ĠRuss ians
sk y
ĠFer din
Ġsell s
Ġmer its
ĠBalk an
Ġcontinu ity
add ock
ĠHead s
Post al
ĠMON TG
Ġtyp ically
Ġveget able
EP SO
ĠHen k
Elect ions
Ġthreshold s
Ġlif etime
Ġproduc ing
Fran ck
Ġcontroll er
Ġearth quake
Ġprovision al
Exc ise
ĠMat ti
Ġsubstant ially
Ġrank s
Lo vely
ĠPRE VENTION
Ġsusp ension
ĠCI OLO
Put ins
ĠEv ans
ĠMus lim
ĠSector al
ĠDet ached
WEL LE
ĠCrist ian
Ġsac red
Ġsoc ieties
inf o
CF SP
Ġpod cast
Ġvo ices
Ġprompt ly
ĠNE IGHBOUR
Ġrect ified
Soft ware
Ġlaund ry
ĠMare k
Ġtourna ments
condition ed
ĠSar ah
Ġtub es
Ġflav our
ĠVe get
Ġadvertise ment
Eng ine
Ġintermedi ate
ĠKre is
OLOG Y
Ġhousehold s
Round nose
ĠCarm en
Ġther mal
ASE AN
ĠArri i
Ġbab ies
Ens uring
Ġautonom y
ronom y
Orig inal
Consolid ated
Ġpupp ies
Frank ly
Ġgest ure
sight ed
ĠTEL ECOMMUNICATIONS
ĠImper ial
ĠANIM ALS
ĠSOM OGYI
ĠLamber to
Ġdism ant
ĠETI ENNE
Ġinterpre ters
ĠIMPL EMENTATION
Vald or
ĠDON NER
RUL E
ĠSah ara
ĠMargar ita
Ġlingu istic
Arri val
ĠPOT ONIK
Ġgat hered
ĠBAJ UK
ĠOrte ga
ĠWESTER WELLE
orand um
Ġreposit ory
ĠZYPR IES
ĠMONTG OMERY
0 40
8 22
A st
C a
C ast
C riminal
D aily
E Z
F ix
F iles
G ES
H D
H y
M ol
M ag
M ini
M ARY
M ULTI
N GO
O k
P ension
R atification
S l
S low
T or
T echnology
U nc
U IT
W i
b ike
c od
d ec
d ata
p ond
s i
t rade
y our
z emb
Ġt at
Ġt ie
Ġt rib
Ġa pt
Ġa rable
re ux
in j
in ters
on ed
on aut
an ion
Ġs word
Ġc ra
Ġc ad
Ġc ran
Ġf et
Ġp ad
Ġp ec
Ġp ause
Ġo laf
al ah
Ġb onds
Ġb iotechnology
Ġb ovine
ro ke
ro se
Ġm p
le mentary
om i
Ġh alt
ĠC us
ĠC OP
ĠC USTOMS
ĠC rown
ĠC PU
ĠM U
ĠM is
ĠM ond
ĠM OUR
Ġl ens
ĠP OR
ĠP rest
ĠP ensions
ĠA ch
ĠA licante
ĠE AS
ĠS I
ĠS R
ĠS olution
ĠS olutions
id or
id th
Ġe arm
ac s
Th ibault
ĠI E
Ġv ain
Ġg ay
Ġg all
Ġpro st
ĠR ena
ĠR iga
ĠF acts
st aff
ia d
ĠD C
ĠD X
ĠD OUS
ĠD INI
ĠT ul
ĠT rou
ĠT ariff
Ġde i
un st
Ġan gel
ĠG ate
ĠG iorgos
ĠH it
ies el
Ġcom itology
art a
ĠL ew
ĠL aur
ĠL EW
Ġr ush
ect ares
AN ISTAN
ak t
Ġpl ed
Ġch alet
RO YI
Ġres ume
ĠK A
ĠK ron
ĠSt ill
Ġcl inic
IN OM
ere rs
Ġk ms
erm ination
Ġcomp iled
32 4
Ġno ch
are n
Ġj et
ear l
Ġshould er
Ġun ten
Ġoff line
ne z
Ġpoint less
ĠCh ad
Ġper ception
Ġte j
AS Minister
Ġknow ing
ove re
ĠThe resa
Ġsc ulpt
ATE NT
ĠMar sh
Ġmod ific
Ġ19 81
Ġ19 84
Ġ19 78
rit er
Ġsub sequent
red itation
12 9
Ġind ulg
Do ing
Ġdet ention
ik istan
Ġloc ally
ath ies
Ġlast ing
ĠReg istration
Ġnum b
Ġtomorrow s
En forcement
Pro spect
Ex it
ĠEuro zone
ĠIN TO
AM P
AM PP
AM ÃĦKI
ĠAnd rea
ĠCo oper
Ġbo ots
Ġsign atures
ĠPl enary
ĠEx cel
ĠEx po
ĠEx pert
16 9
Ġhand ic
14 3
14 4
14 8
22 6
Ġpass ing
Ġspecial ly
gress ive
ys ical
18 0
Ġmed ieval
Ġactiv ation
Ġmin ib
UN ITED
ĠCl ient
ĠLe aders
Ġexc av
Ġexc ited
Ġlim itation
86 1
AF RICA
45 4
ĠChrist oph
Be yond
ĠIm port
Ã¤ nen
ĠLa unch
Ġsend s
Ġhead er
amb ique
ĠST ORE
Ġconnect ing
Ġproceed s
Ġinde fin
Ġinteg rate
Ġgr ace
pre vious
EK NAS
Ġcomb ines
ĠYou Tube
ĠVal ue
Ġvol cano
che lles
Ġdefin itions
ĠCons umers
Ġmount ed
rec y
ason ic
Ġfreedom s
Ġintro ducing
rop he
Me as
Ġaccommod ations
USS ELS
Ġcomplex ity
lig ible
Ob ama
URE ANU
Ġcontract ual
Ġrepe ating
urch asing
Ġconsequ ently
ĠBR U
Up on
Ġseason al
ĠPartnership s
Ġterr aces
ITI EKNAS
Ġoptim ized
Ġ(âĤ¬ )
ĠCAP ITAL
ĠWar craft
Ġfire wall
Ġdeliver ing
Ġceleb ration
Ġforest ry
ĠMag n
ĠInc re
ĠDemoc rats
Ġuns ub
ICI US
umb ling
ĠAR R
Ġbalcon ies
Ref er
ĠRen ewable
ĠCR IME
ĠPan orama
ĠTri er
ĠOrgan ization
Ġscen ery
List en
Ġlib raries
Ġdecor ation
Ġoccup ancy
ĠArab ia
ĠDR AFT
Ne ighb
Ġresort s
Market ing
Joh annes
ĠAlp ine
ĠWord press
Ġterrit ories
Ġult ra
Mac roeconomic
Ġexclud e
Ġmac ro
Ġprohib ition
OUS EK
ĠVill as
Ġlit ter
Ġrank ing
ĠSE EDER
Ġnut shell
Ġexecut e
ĠConc iliation
ĠSOL VIT
Ġcapt ure
Ġshame ful
Ġod d
Ġbre ast
Ġpremium s
Ġseas ons
Ġreve aled
Bank s
ĠJer zy
ĠMess enger
sole te
Prov ide
ĠEs pa
ĠSIL GUY
ĠSand ra
Ġtag ged
Ġincident s
Cost a
ĠFab re
ĠMÃ¼ nchen
Altern ative
Ġprop ag
Ġdep ression
Ġslo pe
ĠJUN E
ĠKAL OUSEK
ĠGL OS
GH ANISTAN
ĠBu en
Ġapparent ly
Ġprivile ge
Walk ing
Ġdesper ately
Front ex
TEX TE
Russ ian
ĠVA ITIEKNAS
Benef its
ĠMAC EDONIA
ĠPV C
Ġimbal ances
Ġnewsp aper
Ġshel ter
ĠTam pere
Tar ragona
Ġmyster y
Ġemot ions
Ġbare ly
Ġmerg ers
Hen ri
oton ou
ĠSpir it
Ġpla ice
Ġunst able
ĠMAV ROYI
ĠLEV EL
ĠNob el
prs ident
Ġvic inity
Ġelabor ate
Ġgamb ling
ĠFÃľ LE
VIIIab de
ĠCOU GHL
ĠGOOD S
ophob ia
Ġmatt ress
ĠSjÃ¶ stedt
Ġelder ly
GOVERNMENT AL
ĠKune va
BLA ZY
ĠBILL STRÃĸM
ĠUNG UREANU
OCRA TIC
ĠSyd ney
ĠDOUS TE
Ġunten able
ĠMAVROYI ANNIS
ĠCOUGHL AN
) ]
8 10
8 11
9 50
A p
A ge
A ub
C N
C s
C ER
C diz
C ristina
D est
D ue
E ver
E sp
E ffect
G as
G MO
J AR
J apans
K y
L ots
L INE
M Y
M illions
M onthly
N Y
N ig
P oor
T re
X V
Z S
b ound
e ge
g ra
k at
k as
m ain
n ica
s ur
t ax
t rengthening
w orld
y ards
z ed
z ia
Ġt ents
Ġt ricks
Ġa an
Ġa ber
is n
er ne
Ġs in
Ġw ary
Ġc u
al p
ar ina
Ġb rak
ro be
Ġm t
Ġm ur
Ġd A
nd ez
ic os
ic urity
ot as
Ġh o
ĠC ustom
Ġre un
us a
ĠM D
ĠM t
ĠM oon
ĠM att
ĠM otor
Ġy ard
Ġl t
Ġl ays
ĠP ur
ĠP od
ĠP ont
ĠA bs
ĠA ustral
ĠE B
ĠE ssen
ĠS EN
ĠS rl
ol ves
ĠI DE
ly de
ur as
ur ches
00 5
our met
Ġ( ),
ĠR y
ĠR AJ
Ġnot ion
ĠF lem
st op
est ors
ĠB ible
ĠB AC
ĠD AN
ĠT S
ri que
ĠG raph
ĠG arn
ĠG eb
ĠH end
ĠH erm
ĠH ANS
ĠH EG
ĠH abs
art ure
ĠL ost
ĠL AJ
ĠL AKES
Ġli vest
igh ters
ĠN AFO
ĠO VER
ie j
ĠW er
ard ed
all ow
Ġpl acing
Ġpl edge
Ġall ocations
ĠU P
ĠU ro
Ġor g
In g
In side
ĠV ic
ite ment
ĠK om
ĠK EY
ĠSt age
ĠSt orm
Ġcl inical
th ur
Ġcomp atibility
32 0
AR G
land ers
ap es
AL BANIA
ric a
99 0
Ġup hold
ĠIn itiatives
Ġdis able
Ġclos ure
ĠRe quest
Ġout comes
Ġout break
IC O
IS A
de v
to o
Ġtra inees
ib ut
Ġact ress
ound ing
ĠDE V
Ġfin ishing
ĠThe n
Ġsome how
Ġ10 9
Ġsc abb
Minister ial
Ġevery ones
Ġover looking
AT LANTIC
Ġ11 4
Ġdisc overy
Ġdisc rep
Ġloc ate
Ġimp ressed
Ġimp orter
AC ON
plo ad
Ġbu ck
En ough
hes ive
ĠZ one
15 9
ĠEuro stars
ek en
ĠAl pha
PR A
PR ESENT
Ġche st
Ġche que
ĠAnd rew
13 6
iss ible
AG ES
ĠJan usz
Ġequ als
ĠEx cell
16 15
Ġspec ulation
Ġhand ed
ĠTh ink
Ġed itions
Ġbefore hand
Ant onio
22 22
22 24
Ġ24 47
Ġreason ably
aff ected
Est onian
less ly
au f
Ġfil ed
Ġins ured
Ġmed i
ĠCON CILIATION
Ġcity s
omb ard
Ġgen etic
ĠLe o
ĠRE F
part y
Ġkind ly
Ġwater way
Ġfinal ised
45 9
199 0
ĠGu atemala
Ġsl ot
AB ER
ĠCent res
ĠMan aging
ĠGe ographical
Ġnetwork ing
Ar menia
Ġtri umph
Ġtri vial
Euro stat
ĠPh ot
Ġinstall er
34 1
ĠST AGE
be at
OUR CES
ERG ER
ĠFR AN
Ġcompet ences
Ġsum s
Ãĸ LL
ĠAb el
Per form
Ġmark ing
ĠEl isabeth
uck s
Add ed
Trans itional
Mer cedes
FOR EIGN
ĠCH RIS
Ġamb ient
ĠAt las
ole c
Gu ided
Ġcru x
Ġsimilar ly
Ġcover ing
Ġboard ing
ĠMy anmar
Ġauthor ized
ĠPre f
Ġautom otive
Inst itutional
Ġharm ony
Ġcollect ing
.... ....
Ġrestrict ion
Ġdepart ments
Ġabst ention
ĠCal abria
Ġqual ities
ĠTour ist
Pr incip
resp y
ĠConst ant
onik i
ĠAuth or
MA ELBEEK
INVI TE
ĠCast ro
Ġ55 2224
Ġparam ount
ĠMet al
Ġfa ire
ĠMer kel
ĠFA I
CK E
Ġsup ermarket
Ġroll ed
ĠAut umn
Cap elin
Ġseek ers
SH IPPING
Ġcy ber
Ġbi omass
ĠHol y
Ġmaintain ing
Ġtab oo
ĠRos a
Ġpromot es
Deb ates
rif ic
ĠNic ol
tr acking
Ġclaim ed
Organ isation
Ren ault
Ġscore board
ĠSi emens
ĠBelg rade
ĠCL IMATE
ĠLEG ISL
ĠNor wegian
Ġconvention al
Ġelim inate
Ġannex ed
Ġsynt hetic
BO OK
Need less
Ġdisgrace ful
Ġdistort ion
Ġneut r
ĠJew ish
Ġsq m
Ġrough ly
Ġren amed
ĠOpt ions
Ġconsc ious
Ġaer ial
ĠJar oslav
Ġepis odes
Ġgrat itude
ĠCHAR TER
ĠMem ory
urf ing
Ken na
Ġmes es
Ġrac ism
program me
ĠPut ins
ĠSta es
Gener ally
Ġdup lic
Ġdepl ore
ĠChi ang
Ġsacrif ice
Ġmang eng
Norm ally
TEGR ATION
Ġsubt itles
ĠBJ ÃĸR
ĠEICHEL Federal
Ġoverw hel
Anch ovy
Ġerad ication
ĠDOC UMENTS
Ġwer den
ĠVASS ILIOU
Ġbarbec ue
ĠCens u
Ġenviron ments
ĠKRO ES
ĠCommod ore
ĠSVOBOD A
ĠPROPER TY
ĠAlgar ve
INOM ember
Aub respy
ĠHabs burg
ĠLAJ K
Ġscabb ard
ĠLEGISL ATION
4 98
B lo
B ru
B LE
B MW
C ook
C AD
C OURT
D istance
E TS
F eed
F amily
H ash
L ON
L ieu
M c
M AK
N N
P il
P ers
S UB
S ales
S election
T aiwan
U TS
c as
c ot
c rib
c over
c iras
g ion
g las
m il
m ount
p i
r iger
s ace
s essions
t urn
v ell
} {
Ġt ies
Ġt ends
he lp
Ġa ug
in yl
er i
Ġthe atre
an za
Ġs ter
Ġs wit
Ġp am
Ġp av
Ġp essim
Ġo ch
ar as
Ġb ore
Ġb ite
Ġm ining
Ġm entions
Ġto x
Ġd ancing
Ġn urs
Ġh anging
ĠC ord
ĠC ities
ĠC ann
ĠC roat
ĠC ereals
ĠC otonou
Ġre habilitation
us p
ĠM ist
ĠM IER
Ġy en
Ġbe e
ĠP om
ĠP ID
et ra
ĠA er
ĠA ires
ĠA SK
ĠE ure
ol le
ur us
ut o
Ġst ran
Ġst eep
ort e
ce ph
our ge
ĠR oger
ĠF ERN
ate ur
ĠB ran
ĠB ab
ĠD ont
ĠT Z
ĠT on
ĠT ab
ĠT OP
ĠT RIC
un ia
ge ciras
se il
ĠG oll
ĠG unnar
ĠH ope
um bers
ist ency
ON I
ON ES
Ġsh rim
Ġsh irt
Ġex posed
Ġex otic
art in
ĠL if
ĠL UN
ĠL ocation
ĠL ILL
Ġhe ated
Ġr ust
oc he
ĠN ELLI
ĠO m
ĠO x
ĠO PER
ĠW o
ard e
Ġpl ural
ĠU PS
iv i
ost ra
In land
lo yd
Ġ3 17
Ġch lor
RO CI
ĠV ent
ĠV ie
ĠV IC
ĠV Ã¤
ĠV iol
ĠV isual
Ġver ify
Ġthere of
Ġres il
Ġres et
ĠK it
ĠK ri
ĠK ings
ĠK enn
ĠK ARO
ĠSt rong
ok u
Ġcl uster
IN TELL
erm att
Ġun think
ĠIn nsbruck
vel ope
Ġdis pens
av or
IC Z
pl ed
ĠDe bate
Ġar rog
Ġar isen
ob b
cept ions
Qu iet
Ġrec ital
An swer
Ġtrans formation
Ġsome body
Ġsp atial
Ġ10 7
Ġsc rob
iron a
Ġrem it
Ġ19 50
Ġ19 45
OUN TER
ech o
Ġob solete
Ġlong est
PAR D
Ġsim p
OT Z
ik ers
ik ka
Ġconf ort
Ch ar
ract s
Re qu
Ġval ued
Ġ13 3
Ġ13 6
Ġcontin uation
Ġcontin ents
Ġrest s
ĠIN NOV
AM ember
AM MER
Ġche er
ins k
Ġinter ventions
Ġwat ched
Pol itics
Ġtext ure
ĠTh reat
ĠTh ai
Ġspecial ized
Ġest e
Ġmin ors
ĠMay er
33 8
Ġapplic ants
IG ER
Sec ure
ĠCol lection
Ġabs ent
Ġstud ios
After wards
ĠMan agers
ĠFran ais
ANNEX ES
Ar m
Ġtri als
Euro just
Ġbar rier
Ġaff iliate
ĠSch mid
Ġwrit er
sh ort
Ġpop ul
34 4
ĠST AV
IK A
ĠTR AINING
EG ET
EV ER
Ġmil estone
Pre pare
Ġrent ing
ĠBo ot
Ġcapital ism
Ġtem por
Ġpo le
Ġmult ipl
Ġident ifies
Find ing
ĠInst itut
Ġmount ing
ĠOper ation
ĠPer l
ĠPer fect
Ġpurch ases
Ġred irect
48 3
Ġens ured
Ġreact ed
ĠNe v
Appro xim
ĠTr ack
ĠRec ommend
ĠLin z
Ġmag ical
Ġstrengthen s
ĠSy rian
Ġmech anical
Ġabst entions
HO OD
Ġattract s
ĠSol bes
Ġqual ify
andid ates
ĠPar os
Ġload s
ĠPE OPLE
ĠIT AL
ĠSa fe
Ġir regular
Ġsal aries
Ġheav en
Clear ance
Ġrat ings
ĠMer cedes
ĠBur undi
Cor porate
Ġlay ers
Ġglass es
POL AND
LY I
ĠRev olt
Ġannounc es
Reform ing
Tr ace
Afric an
ILD ING
ECH T
FA Q
cy cle
Ġmut ually
ĠDa wn
ĠLeon ardo
Ġant ibiotics
opol itical
Ġlaunch ing
Conc retely
Ġna ive
Ġbreat he
Del iver
Ent ry
---- ----
Ġliter ature
Bo osting
ĠStep s
ĠOver view
ĠENVIRONMENT AL
Sebast es
Ġsoc io
Ġbra ve
cha ft
ĠFE ROCI
Vol ume
Ġrect ify
ĠNig el
ĠKon stant
Ġscreens hots
Ġconsolid ation
Ġfrank ly
Ġchart s
Ġbio fuels
ĠObs ervatory
ĠSche me
Ġincom prehen
state ment
Ġfib res
Ġderog ations
Ġbrows ers
Foot ball
Ġdistingu ish
Ġunderest imated
Poss ible
ĠPhotos hop
ĠBAS F
Ġimbal ance
Ġexplicit ly
Ġnewsp apers
Ġfro zen
ĠPhilipp ines
ĠDeutsch land
Ġmultilingual ism
STRUC TURAL
ĠMul der
Ġverd ict
Histor ical
OVSK IS
EGA ARD
ĠFoot ball
Ġdoss ier
Ġwholes ale
Ġrefurb ished
best os
Ġmano eu
ĠRINGHOLM Minister
Ġtheore tical
proportion ate
ĠAVI ATION
ĠJohns on
ĠRUL ES
HORIZ ONTAL
ĠANOMERITI SMinister
ĠFerdin ando
Ġunsub scribe
Ġlivest ock
Ġscabbard fish
ĠLILL IKAS
Ġunthink able
Ġscrob bled
ĠINNOV ATION
Approxim ation
) *
3 86
B row
C at
C atal
C andidates
D angerous
F ailure
G round
G rant
H addock
J udicial
K OS
L ic
L AT
L ondon
N a
N ap
P our
P age
P ast
P ets
P owered
R ock
S ie
S ERV
S almon
S uddenly
V en
V ir
V AL
V enez
W ild
W ireless
[ ...]
b und
c ore
d ess
f o
f ussl
h s
m onth
p in
s im
t ransport
u ant
u ite
v on
w s
w ind
y nt
Ġt ender
re f
on so
or z
an ch
Ġs ore
Ġw ard
Ġw ool
es us
Ġf t
Ġo s
al am
al oniki
Ġb one
Ġb its
Ġb iking
Ġb anners
ro d
Ġin equality
Ġm io
Ġm ankind
Ġto d
Ġd at
Ġd rought
le in
ing ham
ic he
ent er
ot hing
Ġh ook
ĠC ra
ĠC ress
ĠC hen
Ġre de
ĠM ind
ĠP T
ĠP UR
ĠP orsche
ĠA W
ĠE th
ĠE sp
ĠE rika
ĠS ou
ĠS ales
Ġ2 15
os ph
ay lor
ĠI GC
Ġg aming
ur u
Ġ1 200
ra ke
Ġst ip
Ġst agn
ĠR C
ĠR U
ĠR ac
ĠR AS
ĠR yan
ĠR oland
ĠF S
ĠF r
st ore
est ro
ĠB ret
ĠB Ã¼
ĠB UT
ĠB obby
ĠD j
ĠD est
ĠD ES
ĠD ance
ĠD up
ĠD iff
ĠD ERY
ĠT itle
ĠT IME
un ya
ĠG ale
ĠH P
ĠH EL
ĠH AS
ĠH ÃĦ
ĠH ero
ĠH AVE
Ġse ve
ess en
Ġex empl
ĠL ot
ĠL ub
ĠL age
ĠL uz
ure r
ĠN FS
ĠO LE
TE ND
ĠW W
ĠW og
ĠW OM
ĠW AS
ĠU buntu
Ġlike wise
ĠV ir
ĠV ola
ĠV yt
ĠV INC
Ġle v
Ġ4 000
Ġk ne
Ġk arin
01 2
32 5
int a
ric ing
CI FIC
Ġun ions
Ġun amb
Ġun install
Ġun affected
Ġdeb ts
Ġwork er
Ġoff shore
iz za
Ġreg imes
EC TUAL
Ġadd ict
ĠCh oose
Ġ8 751
Ġ8 559
me asures
Ġpos ter
Ġpos itively
Ġpre dom
App ly
Ġ12 1
RE ACH
Ġcle ver
Ġrec all
Ġrec overed
ĠThe ato
Ġsc rap
ĠComm ittees
Ġsit s
Ġ19 0
Ġ19 69
TR A
Ġdes ires
Ġinst antly
Ġatt ain
Ġatt ending
Ġprov es
we bsite
Ex penditure
CE POL
PR INCI
Ġche f
Ġinvest ing
Ġ16 5
Ġpress ures
Ġforward s
ĠX V
02 9
ĠWe ber
ĠEx port
Ġadv is
Ġoper a
22 3
201 6
Ġselect ive
Ġunt rue
ĠSocial ist
Ġcustom ize
17 6
ĠSc reen
De legation
Ġcrit ics
ĠCol or
ĠSh ould
Ġdesign ated
Ġnews letters
Be ach
Sh ipping
ĠGu ant
AB LES
oh l
Ġve to
ĠMan ual
Ġi T
eu ge
Cl ar
Ġnational ity
ĠRed uc
34 11
ĠQu art
Ġconnect s
Ġcomfort ably
ĠWorld wide
IK SO
QU IN
She ep
ĠSu ccess
38 3
Ġcompet itions
Ġfocus ing
Ġbeautiful ly
Ġcomb ust
Se ven
ĠAir pass
ĠMont real
Ġmult ip
ox ide
nis ch
Ġquot es
Ġindic ative
Ġwond ering
ĠPer formance
comm on
Ġround ed
ĠSk ills
Ġviol ation
ĠVer ona
Ġtou g
urd y
ĠTe odor
ĠEst ate
roll ing
Ġappoint ments
onom ous
ĠRad o
ĠPr inciples
Ass ent
iab etes
ev in
Ġanalys es
IAN I
ĠCal endar
arent ly
Ãľ CK
ĠSal v
Ġconver ter
Ġdon ations
Ġil leg
Ġsell er
ORG AN
Access ibility
Ser ver
Ġcalc ulate
Ġdisappoint ment
Ġsecret s
Ġfruit ful
Ġcas ual
ĠAS YLUM
ĠFA ZEK
ĠPan ama
Ġroll ing
IGN AT
Ġpurs uing
Ġunf ounded
Ġveget arian
Ġhonest y
Ġhonest ly
Ir ish
Ġoccup ational
ĠStud ies
Ġlay ing
Ġassoc iations
ĠDR UG
Ġbug tracking
ANG EMENTS
Stat us
Ġundert ake
Ġconcent rated
Out side
Ġmanual s
AU X
ĠAT M
Ġrock s
ĠFil ter
Ġbattle field
Conf idence
Ġtrou bles
ĠElect ronic
Ġsurv ival
Att ract
Ġillust ration
Ġcop ied
Ġeleg ance
Ġfort une
Ġfab rics
Ġfab ulous
stra ÃŁe
Ġpreced ence
Ġcapt ured
GRE AT
Ġpal ace
ĠEv angel
Ġinj uries
Ġdemonstr ates
ĠFAQ s
Ġcult ivation
Ġmal aria
HT ML
Ins urance
ĠDist ribution
ĠGar ca
ĠiP ool
Ġeth ics
mod ern
ĠPap outs
Ġevalu ate
Ġuna uthor
ĠGE OR
Ġcloud s
Ġmotiv ation
ĠDIREC T
Ġhung ry
Liber ia
Ġhal ibut
Ġconsolid ated
Ġexcur sion
ĠGRASS I
Ġpaint ings
ĠSaf er
Ġdisp atch
secut ed
Ġincom plete
ĠBOD STRÃĸM
Ġfib re
Ġmad ness
IJ N
Ġhyd rogen
Ġassign ment
vet te
ĠVERHEUGEN Member
GER MANY
ĠLud ford
Ġanx iety
quire ments
ĠZALM Minister
Ġtransform ed
00000000 00
Ġpuzz le
Ġoverlook ed
CCCCCCCC CCCCCCC
Ġexplos ion
Ġpus hed
Ġdisturb ing
Ġretrie ve
Discussion s
ĠKOSK INENMinister
Ġepid emic
ĠSTAR K
Ġrecre ation
GAR IA
ĠVEDRINE Minister
ĠDell Alba
ĠTol edo
ĠEmp ire
Ġgras p
indic ative
Enc ouraging
Ġdictators hip
Wel coming
ĠCanad ian
RECOGNIS ES
ĠJane iro
Ġvolt age
Approx imately
ĠBENSCHOP State
Eff orts
ĠCEEC s
ĠLEBR ECHT
ĠGrad in
zemb owski
Ġnumb ered
ĠGLOS ER
Nig eria
INTELL ECTUAL
Ġincomprehen sible
ĠCress on
ĠDERY CKE
IKSO O
ĠFAZEK AS
ĠPapouts is
( ).
2 96
3 18
5 10
5 11
7 20
8 50
A TING
B ush
C op
C hat
D AP
E mb
E thiopia
G ran
G overnments
H it
H AV
I rans
I PE
I ron
K B
K L
L y
O range
P o
P ad
P ick
R ob
R IM
S en
T ib
U nd
V ietnam
V enue
b its
b rid
b etter
b eek
c ycl
g al
g ir
g ame
h ouses
i y
l ining
m ium
s l
s is
v able
w hen
Ġ _
Ġt ar
Ġt ale
Ġt iny
re ich
er ly
an es
an ot
Ġs ons
Ġc i
Ġc ust
ion i
Ġf ol
Ġf oster
Ġp ipe
Ġb rick
Ġin comes
Ġin appropriate
Ġm ile
Ġm eng
ic ion
ent h
Ġn ord
Ġn asty
Ġn aked
ĠC AD
ĠC ARD
ĠC urrency
ĠC airo
Ġre ef
ĠM ort
ĠM arl
ĠM me
ĠM AD
ĠM aps
ĠM AND
ĠM iles
ĠM ASS
ĠM IGRATION
Ġl ying
Ġl ighter
ĠP ES
ĠP ope
ĠP ictures
ĠP ATENT
ĠA iv
ĠE IT
ĠE ST
ĠS ide
ĠS AT
ĠS EK
ow icz
ment e
ay ed
ĠI L
Ġg em
Ġg ast
im ar
ig m
ul sion
ĠR and
ĠF I
ĠF an
ĠF ind
ĠF OT
Ġwe ve
Ġha ul
ch ar
est a
ĠB ak
ĠB EN
ĠD NA
ĠT ag
Ġde ce
Ġde ployed
We bsites
am mer
se ille
ĠG un
ĠG int
ĠG ibraltar
ĠH at
ĠH alf
ĠH ousing
ant es
ist ed
Ġsh ooting
ĠL AND
ĠL OUR
ĠL akes
Ġas c
ĠN ou
ĠN OM
ĠN PP
ĠO st
ĠO HL
ie b
ĠJ azz
if s
if iers
all o
all inn
Ġad here
Ġ3 01
Ġ3 16
Ġ3 70
TI E
Ġch ip
Ġch amber
ree k
ĠV ila
ĠK B
ĠK ill
ĠK UN
ĠK OK
ĠK ALLI
For k
pt ions
ĠSt en
ĠSt rip
ES O
EN CES
Ġen v
ag na
01 3
01 5
32 1
Ġj udiciary
land o
ap a
AL IA
ry ing
og ram
ject ions
Ġun ilateral
ach ograph
av an
av oid
Ġoff ences
anc he
ang a
Ġout fit
EC Spokes
to f
Ġper t
Ġ8 44
ĠDe ad
und s
ug abe
10 47
And rea
icy cles
Ġcomm erce
ĠDE CISION
ans w
Ġinv iting
US E
000 2
ĠMar iano
ESS ION
OUN T
ĠEn joy
Ġdet ection
Ġconf ine
Ġcent ers
Ch inese
Ch alet
ET T
Ex pect
Ġap ologies
mark s
No ise
Ġinf os
ĠZ s
ST UFF
ĠAn alysis
Ã¼ ck
Ġperson ality
UR A
UR D
Ġreal ised
az ione
Ġsec recy
CON VENTION
ĠPl amen
TEN SEN
iti us
Est imated
Ġcap ability
Ġret ained
eng iro
ĠCON GO
Ġrespect ively
33 1
Ġparticip ant
45 6
45 8
ĠChrist ians
Ind ependent
Ġrisk y
gg ed
37 8
ĠAnt wer
24 1
24 9
Ġnational ism
OUT HERN
let t
Ġenjoy ment
sh aring
Ġstat ute
Ġhead ings
ai ver
Ġet ernal
ĠPR ÃĸLL
ĠDef ense
Ġnight life
Ġnight mare
Ġcou pon
Ġdocument ed
Ġquick er
ĠBl ock
ĠBl anca
Ġentire ty
ĠMon aco
pre c
EV ICIUS
Ġbuy er
Per iod
Doc ument
iol o
Trans lation
ha ul
TING ER
Ġsol ving
Ġpo ison
Ġperform ances
che ck
Ġamb ience
Ġbit ter
ĠTra in
nis se
ĠPlan et
ĠSk erl
ĠSCH MID
Ġreact or
Ġgra b
ĠGR AH
Ġrad iation
Ġvill as
ĠMc Kenna
Ġmis ery
Ġbreak ing
Inst ru
Ġexperi mental
Ġconsist ently
Ġcontain ers
book s
Ġguest house
ev o
STR ATEGY
Ġspir al
equ alities
ĠPet ers
ĠSol ar
54 25
Ġcr ater
Ġadm ire
BR ÃľCK
ĠVER ES
ĠPROCED URES
NE ET
Ġcook ed
Ġdeterm ines
Ġinflu enced
ĠSa udi
Ġmotor ways
olk sw
add ed
ĠREG ARD
Ġtack ling
ĠTri al
Ġcell ar
ĠAdd ed
Ġassess es
Ġencourage ment
Mal aysia
ĠDR YS
ĠDI AM
IO TIS
Ġfant asy
Ġsn ack
ĠCamp o
ugh t
year s
Fran ces
Val id
ĠEF TA
ĠEF SA
Ġrecon ciliation
ĠRoad map
Aud iovisual
Ġinsp ire
ĠSim on
ĠSchool s
ĠKar in
Prepar ing
Mult i
Mult iannual
Ver sion
ĠMarc os
Ġbreat htaking
ĠBook s
Att ention
Contin ental
Ġillust rates
Ent repreneurship
Ġtro ika
ĠPO OS
Ġfix es
Ġsurf aces
Ġinj ustice
ĠLiber ia
Ġaccur acy
Improve ments
Ġru ins
Ġje opard
ĠAnders son
Dom estic
Ġglo be
ĠSTEIN BRÃľCK
Ġstim ulus
aug uin
Ġshar ply
Ġbureauc ratic
ĠPiet ro
ĠMÃ¼ ller
SEC URITY
OPOUL OU
Sol ar
ĠLaure ns
Ġirre levant
ĠGRASS ERFederal
Ġvari ants
ĠEb ola
ĠBeat rice
ĠPy rene
ĠJav ascript
Reduc ed
ĠTi it
Step han
Ġlegend ary
Ġdivid end
Chemical s
IOR ITIES
ĠFu engiro
Kat tegat
Ġsear ches
Ġprofound ly
Ġcatast rophe
ĠNIINISTÃĸ Minister
ĠFried rich
ĠASSOCI ATION
ĠMes se
environment al
Ġmanif est
Ġpag ina
Beh ind
Cond itions
Rich ard
Ax is
ĠSTO CK
BET TER
Ġunres olved
Ġtast es
HES ION
lus coni
ĠChemical s
Exact ly
ĠAmaz on
ĠAMER ICA
Camb odia
azard ous
Ġinad missible
ĠHED EGAARD
MULTI ANNUAL
Ġearm arked
ĠTul ip
ĠRAJ AMÃĦKI
LON DON
ĠVola illes
STUFF S
ĠGRAH AMMER
ĠFuengiro la
/ ..
2 30
2 34
3 11
4 40
A le
B et
B ad
B ungalow
C ant
C ount
C ases
C ool
C ards
C ash
E EAS
F UR
H um
H ung
I ch
I AR
J HA
J ournal
L C
L ing
L ind
M EN
O mbudsman
P en
P act
P rim
R IST
S ources
S wedish
T AS
U EL
V ienna
b lo
b oys
c all
d b
f ollow
g rade
h omb
h ole
j ac
j ack
k om
m obile
n ius
p ers
s ant
v d
v it
in ct
in ational
or b
or p
or ce
en o
en land
Ġs kept
Ġw ra
Ġc ot
Ġc yl
it isation
Ġb ail
Ġb ru
Ġb ids
Ġm ud
Ġm ast
Ġto ken
Ġd ent
Ġd rum
om ent
Ġn ave
Ġh orn
Ġh arsh
ĠC u
ĠC RO
ĠC MS
ĠC ath
ĠC app
ĠC AST
ĠC lyde
Ġre novation
ĠM og
ĠM EL
Ġl am
Ġl amp
ĠE nc
ĠE vents
ĠS om
ĠS OUTH
ĠS USTAINABLE
ow ing
ac is
Ġg ig
Ġg un
ra h
ul ent
ore t
ĠR ita
ĠR OC
Ġnot able
ĠF le
ĠF ine
ĠF urther
ch ka
st ones
ĠB U
ĠB il
ĠB ir
ĠB ild
ĠB oh
ĠB ayer
ĠD H
ĠD M
ĠD aily
ĠD AYS
ĠT AJ
Ġde act
and em
Ġan onym
ĠG ed
ĠG il
ĠG ay
ĠG ap
ĠH es
ĠH JEL
ist ans
ies en
ĠL iv
Ġhe ck
ĠN ar
ĠO RES
AN IM
TE CHN
ĠJ ung
ĠJ ury
Ġpl c
Ġall ies
In cluding
RO P
ĠV ocational
ĠV EGET
ĠK L
ĠK yrgyzstan
ank s
ĠSt ream
ĠSt yle
ok o
ES A
EN GEN
ag her
Ġ4 65
IN EM
are rs
te ous
ric ts
Ġ5 000
ry stal
ru p
Ġdis par
Ġdis rupt
OU TS
OU SE
Ġout lines
ens io
Ġacc us
ĠCh ance
ord inator
Ġtra ps
Ġco aches
ĠDe veloping
PE X
Ġdi ver
ĠPro curement
And reja
Ġpropos ition
Ġpr ayer
Ġtrans mit
Ġsc ores
Minister s
ond uras
ĠMar ino
Ġdec oupling
Ġ19 77
Ġ19 73
35 8
Ġgu ild
AT OV
Ġass umed
Ġ14 1
Ġman ages
He y
ria ges
Ġac ademic
Ġimp acts
Ġrel uct
Ġext ens
Ġref usal
Ġref riger
20 3
Ġ15 5
Ch air
ier z
ĠPRO J
Re lease
EX T
Ġplay ground
olog ically
Un it
uxemb urg
15 1
IL LE
uc a
ek ka
ĠAl geciras
Ġpay able
ĠIN ITI
Ad vis
ĠAPP LIC
val ue
Ġinter cultural
ĠRes erve
AG H
Ġsec urities
Al lah
46 0
OS S
EAS T
ĠEx penditure
50 6
Ġspec ification
work ing
men istan
22 5
Im age
Ġspecial ised
ott a
Ġins ight
75 5
17 9
ĠLe hne
De ad
Ġsk etch
isc hen
Ġelect ron
Ġposition ed
Ġterm ination
med ia
Ġgraph ical
Res olutions
Res ervations
ĠMan fred
AND eputy
Ġpat ron
Euro group
sh ine
sh ire
ĠCommunity s
ĠEm irates
pri vate
ĠEN EST
28 3
Ġglobal ization
yl on
GR EN
Ġdocument ary
38 8
ĠCOMM UN
Ġreject s
Ġfront ier
44 2
Ġmodern ization
Ġfair y
ĠBo at
ici encies
TA JAR
Ġsw ing
CO OPERATION
Ġhon oured
ĠVI Z
Ġsens itivity
Gu arantee
Ġround about
Ġrepl aces
Ġviol ent
Ġens uring
Ġsun set
Ġdisplay ing
ĠPROGR ESS
Ġter rain
ĠNe ok
Ġdim in
Mar c
67 6
Inter pretation
ĠEM ETA
Ob amas
Ġstudy ing
Ġbreak down
ĠCOM P
Ġstra w
ĠBR INK
Ġcollect ions
Ġpen et
Ġtrend y
Ġmand ates
Ġcharacter istic
ĠAM ADO
Ġspr attus
urt z
Ġcharg ing
Ġadm inister
ĠInf lation
ĠOb jectives
ĠDel ta
High lights
Ġfire place
Ġcook ie
ĠDub ai
Ġceleb rates
ĠSP ACE
FER Minister
IZ E
Ġuns ustainable
ĠAndor EU
ais er
Ġenorm ously
Ġfa una
ĠAS EM
Ġsqu ee
BA TING
Market s
VIS ION
unction al
Ġharmon ised
Ġcorner stone
ĠGN I
Ġpromot ions
Ġquant ities
Ġquant itative
ĠNic aragua
Ġsuperv isory
Ġfrag mented
Civil ian
ĠAnn emie
Ġpresident ial
Ġremind er
Ġsurv ived
Spr attus
ĠProm oting
Ġpun ish
Ġpun ished
Ġmicro phone
ĠWik ipedia
ĠAngel a
ĠPO ST
Ġfores ee
Ġang ry
Ġcommunic ated
ĠNor bert
IMPL IFICATION
ĠTro pez
prom ote
ĠProv ence
Ġru in
Ġlabor atories
ĠTre nd
ĠGuest house
ĠSuper ior
Ġtank s
Ġrecip es
Ġstim ulate
Leg islative
inic an
ĠSTE F
ĠFEK TER
Ġune ven
ĠDoll ars
Ġsyn chron
HIC P
ĠFont aine
HOR ST
Ġsovere ignty
ĠDiv ision
ĠCanc un
Ġfert il
Ġanx ious
Ġdisadvant age
Ġaqu aculture
ĠGRUB E
Ġconform ity
ĠHALON EN
DEM OCRATIC
Fore casts
KEL SEN
Ġcorrid or
ĠFem ales
Ġgal ax
Ġsympt oms
ĠLIIKANEN Member
Ġfif teen
Ġ737 85
Ġbarg ain
ĠCU TAJAR
ĠBARRO T
Proced ural
ĠREQU IRE
Eur atom
Greet ing
ĠAARTS ENMinister
ĠMIR AMember
ĠSebast ian
ĠSepp Ã¤nen
Ġneglect ed
ĠOsk ars
ĠOH IM
Ġdisarm ament
ĠScott ish
HAR SKI
Ġmisunderstand ings
Ġdia gram
Abbrev iations
Ġslaugh ter
Maur itania
ĠGand ia
Ġprejud ice
ĠFalcon er
ĠPETER SEN
ENGTH ENING
ĠRibe iro
ĠBuen os
Ġneutr ality
OTZ EV
ĠKonstant inos
Ġseve rely
Ġcombust ion
ĠLOUR TIE
ĠOHL SSON
ECSpokes Science
ĠSCHMID T
olksw agen
ĠORES HARSKI
ANIM AL
ĠENEST AM
ĠBRINK HORST
% ),
2 35
2 38
3 45
4 22
4 29
6 20
9 11
9 20
C ert
C ars
C eleb
D rink
D rug
E b
E FF
E quality
F un
F atuzzo
G overnance
H NE
I AS
I CIAL
L ep
L ine
L IB
L ithuanian
M ot
N UCLEAR
P or
P TION
P aper
P urchase
R h
S aint
T ribute
U U
W ER
Y GA
Z EW
b u
c pp
f ac
f ix
g one
i K
i ments
k Ã¤
l ims
m i
m os
m ie
n on
o ir
p ace
r n
t re
t arget
v ign
w eek
y ware
z n
Ġ ik
Ġt ear
he res
he alth
Ġa ux
Ġa usterity
re z
in u
in teg
at an
or in
an ing
Ġs ne
Ġc d
Ġc ig
Ġc ub
Ġf lawed
it ant
Ġp y
Ġp ond
Ġo x
Ġb a
Ġb ury
Ġin herent
Ġd ess
Ġd ose
Ġd read
le ys
as an
ing dorf
om ir
ent rum
il io
Ġn ets
Ġn gel
Ġth y
ot age
Ġh ints
el ho
ĠC in
ĠC ass
ĠC apt
ĠC ourse
Ġre ign
Ġre la
us ters
ĠM ire
ĠM ales
Ġl ends
ĠP ir
ĠP ere
ĠP itt
et ooth
ĠA us
ĠA ce
ĠA pr
ĠE K
ĠE ffect
ĠS ter
ĠS TI
ĠS EP
ĠS YL
ac ov
ac ional
ĠI TS
Ġv intage
Ġg ases
Ġ( *
ĠR ace
Ġal p
Ġal s
ĠF ond
ĠF UN
ĠF rag
ĠF ishing
ĠB B
ĠB right
ĠB USS
ĠB ACK
ĠB uffet
ĠB rowser
ĠD own
ĠD ani
ĠD warf
ĠT F
ĠT ree
ĠT ech
ĠT ours
Ġit al
qu ered
am ins
Ġan ger
se ction
em e
Ġdo ck
ĠG ust
ĠG round
ĠG iorg
ĠH ay
ĠH our
od z
ant ed
ĠL AR
ĠL ope
ĠL ayer
ĠL yd
ack er
Ġhe x
Ġli ps
oc ide
oc uss
ĠN ass
ĠO h
ĠJ HA
Ġpl aus
Ġ3 30
Ġab uses
RO K
RO STOWSKI
ĠV EN
ĠV ita
ĠV oice
ĠK el
ĠK AT
ĠK ees
ĠK aiser
Ġle ver
ĠSt rategies
ue vo
ES AR
EN I
Ġcl oth
Ġcl iff
IN ARY
ab lished
cc up
th on
Ġk an
Ġk ategor
Ġj an
Ġapp les
Ġ5 50
Ġ5 55
HE T
Ġ6 40
pl ification
uch y
IS H
Ġper ceived
Ġper verted
ven ge
AS TRUC
ib re
ib an
Cont ents
ug s
App arently
Ġcomm une
St ream
Ġprogram med
ans a
Ġtrans posed
Ġsp ite
ĠAg encies
OL E
hed uled
000 3
ĠMar rake
Ġ19 83
ĠUN GE
Ġ14 7
Ġloc ked
Ġmain win
Ġ20 30
Ġ20 50
ĠReg eneration
arm aceutical
Ġext ending
omp any
Ġdown ward
Ġinf ected
Ġprotect ive
ĠAl ba
ĠIN STR
Ġ25 6
Ġ25 00
ĠAnd roid
Ġeas iest
Ġbo asts
Ġcor rupt
iss ance
AG RO
CON S
Ġsur charge
Ġbl u
ĠPl ays
46 7
TEN TION
Ġadv ances
Ġrequest ing
ĠTh ors
ah on
ĠJu han
Ġexpl oring
Ġret ro
ĠInter cultural
18 3
18 8
ĠAd apt
Ġmention ing
UN SKI
Ġexc uses
ĠInd ustries
ĠBar oness
ĠBar ingdorf
ex am
25 7
ĠSe y
45 5
af i
Ġallow ing
Ġdra in
ĠAss oc
ĠCent ury
Ġdemoc rats
Ġgl oss
Ġtest im
Ġpat io
Ġpat ches
TRANS ATLANTIC
TO BER
ĠTO BACCO
Ġclean er
Ġclean liness
Com fortable
ĠPR UNSKI
amb a
Pl ot
ĠAG ENCY
be ards
Ġcomplet es
Ġarri ves
ĠMon de
Ġobs c
sp ot
29 3
Ġcateg or
Pre c
Ġgener ator
ĠEl k
Trans l
Ġprec ision
Ġyoung est
Ġtem plates
Ġpo orer
Ġmult imedia
SE AN
ĠRom ans
ĠAC TIONS
Ġaffect ing
Ġamb igu
Man ufact
FR ASTRUC
ason able
ĠPer ry
Ġlate x
ĠSCH Ãľ
AIN EN
Ġgra pe
89 1
ĠPhil osophy
ĠNe il
Inter jection
ĠSlo ven
Ġsubsid y
ĠSO TI
Ġregister s
augh ters
Ġprevent ing
ĠBR ITT
Ġemphas ize
END ING
ĠDan uta
ĠSTR UC
ev ident
ĠMil osevic
ĠPet it
ĠSant arelli
Tele vision
Ġtransl ators
Ġexhib itors
ĠRest ructuring
Ġcolle ge
Ġcheap est
ĠJo an
ĠCarl ton
Ġappeal ing
Ġfeature d
ĠFact ory
SUM MARY
Ġvirt ue
ĠJac ob
ĠPAR TS
ĠSP URD
ĠBr un
ORG IA
Ġstar ters
ANT OPOULOU
Rest ructuring
ĠMON TENEGRO
ĠLuc a
ĠTri este
Ġste pped
ĠBan otti
ĠOl ive
Us ed
Ġlift ing
Program mes
ĠTele vision
itect ure
ĠVinc i
ĠMED A
contin ued
ĠTim merman
Ġattack ed
Ġliberal ised
GA ARD
ĠBut tic
Mult ilateral
anz ania
Ġsight seeing
Ġadequ ately
Ġattempt s
Ġsad ly
Ġmisunder stood
ĠMaj orca
ĠKR IANI
ĠCI AM
Put ting
ĠTreat ment
Ġtend ency
Ġrepeated ly
ĠProv ince
BUR MA
ĠPrem ier
ĠOlymp us
Cal endar
Ed it
tra ining
ĠKOS OVO
ĠSen ior
Ġhypoc ritical
San ctions
Ġcha ired
Cost s
Connect ing
Ġvou chers
Ġpow ered
ĠFour th
ĠInvest or
Ġfool ish
Ġbless ing
ĠKO ROK
Ġirre vers
Author isation
Ġfont s
Install ation
Ġthick ness
Ġvari ant
ĠBol ivia
Sustain ability
ĠPED ERSEN
stream ing
ĠLear n
ĠFri is
Ġresist ant
ĠWood s
ĠRod rig
Ġintermedi aries
ĠImpro ving
Hot els
Ken ya
Ġdiox in
Ġdisadvant ages
ĠPOS ITION
claim ed
Andor ra
Indic ative
Ġsettle ments
ĠFINAN CING
Orig in
BU ILDING
Ġsou p
Ġhur ry
ĠCy pri
ĠGir ls
Ġsear ched
Ach ieving
Ġslides how
ĠBritt an
ĠArn as
Ġcorrid ors
ĠSUPP ORT
Ġincons istent
Ġstrand s
ĠHann over
Ġreiter ate
ĠPARTNERS HIP
Ġaston ishing
ĠCors ica
Sex ual
Ġhug ely
agu ay
Ġrefres hing
ĠPRODI President
CRO ATIA
whe el
roph ic
ĠSic ily
ĠBoy ko
ĠTrib unal
Ġdiction ary
ĠBulg arian
ĠVITOR INOMember
ĠKazim ira
Ġthumbn ail
Ġstead ily
Judg ments
Ġrhy thm
ĠElb ieta
ĠMcM ahon
Ġrecycl ed
Ġpec uli
ĠBRU IJN
ege an
Ġmur der
ĠGoll nisch
ĠWog au
ĠVINC ENT
ĠFOT YGA
ĠKUN EVA
Fork beards
answ ered
ĠDRYS Minister
ĠDIAM ANTOPOULOU
/.. /
homb us
ĠTAJ ANI
ĠREQUIRE MENTS
ĠSYL IK
Ġplaus ible
ĠMarrake ch
ĠUNGE HE
ĠBRITT AN
ĠSPURD ZI
ĠTimmerman s
2 37
3 14
4 18
5 85
6 16
6 24
: -
B s
B ase
B EN
B ang
B EK
B LIS
C M
C ou
C RE
C OD
C openhagen
C uba
D iese
E TE
F ace
F INAN
F riday
G ENT
G raph
G iving
H al
H appy
J UST
K arl
K yrgyzstan
L u
M as
M AL
M IC
S aving
S witch
T l
T AR
T ech
T ask
U t
W ord
Y ES
Y ROM
a ired
b ish
b Ã¼
b ij
b ury
b etween
c ards
d ac
f ted
g ut
h u
i w
j on
l ie
l iferation
p ath
s ign
t reat
w y
w al
w irt
Ġ ÃŁ
he iro
he matics
Ġa k
in ch
or an
Ġs ed
Ġs ud
Ġf ount
Ġf iction
Ġf odder
al g
al op
al so
ar raf
Ġb ou
Ġb ree
Ġb og
Ġb ored
Ġb apt
ro le
Ġin aug
Ġm os
Ġd ental
Ġd olph
Ġd ensity
Ġd aughters
nd rome
om ic
Ġn ach
Ġth rown
Ġh ub
Ġh urd
Ġh alls
ĠC Y
ĠC op
ĠC ain
ĠC RE
ĠC AT
ĠC erc
ĠC ANG
ĠM ons
ĠM org
ĠM oh
ĠM OB
ĠM emo
ĠM Hz
ĠM ÃĦL
Ġl ava
ĠP ag
ĠP ip
ĠA CE
ĠA SEAN
ĠE G
ĠE GF
ĠE ritrea
ĠS HE
ĠS UR
ĠS ize
ĠS AVE
res earch
ol ation
ol ars
ac hen
Th u
ay ann
ĠI ce
ĠI vo
Ġare na
Ġg n
Ġg ang
ur i
ur ate
ig ijus
ra v
ra pe
00 7
Ġst icking
Ġpro pri
Ġpro xy
ĠR oll
ĠR ole
ĠR INK
Ġnot ably
ĠF err
ĠF ield
ĠF lex
ĠF ox
Ġha ird
ĠB ase
ĠB OR
ĠB ren
ĠD ar
ĠD oy
ĠD irk
ĠD iana
ĠD ilemma
ĠT ang
ĠT ACI
We S
qu estion
ommission ing
ri vers
op l
ĠG OL
ĠG PL
ĠH eb
ĠH erc
ĠH IGH
ĠH abit
for ces
Ġse w
Ġsh ield
art ments
ĠL on
ĠL anc
ĠL arge
ĠL iter
ĠL amb
ĠL CD
Ġhe nce
Ġr itual
ĠN T
ĠN ag
ĠN ABER
ĠO asis
AN AKI
ĠJ e
ĠJ z
ĠW ij
iv able
lo b
Ġ3 10
Ġab brev
ran o
Ġch ronic
Ġch urches
Ġsu nd
Ġwor s
lic es
ĠV lad
Ġthere by
ĠK er
ĠK ind
ĠK Ã¼
ĠK AZ
ĠK avvadia
ĠK OTZEV
pt s
ĠSt op
ĠSt ructures
EN SION
Ġ4 31
Ġ4 80
ign ment
ign ano
Ġcomp ress
Ġno ir
Ġj og
ap hne
oll ar
Ġapp et
Ġun ve
Ġun im
Ġun com
Ġun answered
HE IRO
Ġdeb it
av al
av ascript
ink y
OU ND
ov ic
ens en
ĠCh apter
ĠCh annel
ĠUn ix
Ġte en
ĠDe us
ern ess
App le
App lications
ert al
Qu ant
An imals
All ows
Ġ19 60
Ġ19 71
Ġent ail
rib ly
ick ers
AT Z
AT ORY
EM I
Ġ11 3
Ġ14 4
Ġmain tains
Ġref ined
Ġwhen ever
ĠPRO POS
Ġfound ing
ung en
15 6
Ġdef iciencies
ĠAl ta
Ġpay pal
Ġint ent
Ġread ily
Ġback ed
ĠAr ticles
Ġbo om
ĠAPP RO
iss en
Ġanswer ing
az zo
ĠRes ource
arn ess
Ġair space
TEN T
Ġed ited
Ġed ges
98 0
ĠHe art
Ġtechn ically
22 2
Im agine
Ġflo ating
Ġreason ing
Comp rehensive
ĠIs la
18 1
ĠCON CERN
ĠCl iff
Ġexc ise
ex ternal
part ite
ĠFOR EC
Ġsk ins
Ġdevelop s
Ġsupp ose
Ġz ijn
Ġmean while
Sec ret
Ġbuild s
Ġmot ors
Ġparticip ates
ĠSh adow
Ġbenef ited
45 7
Ġgover ning
Ġ27 0
IV A
Ġpriv ately
Ġappe als
ipp er
ĠIm p
Ġgl ue
Ar ms
AND OWSKI
Ġenjoy ing
lin ary
ĠON E
erc ise
Ġvar ieties
26 0
ĠPR INCI
Reg rett
Ġachie vable
Ġport able
ĠBl ak
ĠFR AUD
ps on
Ġart istic
gu ided
Ġdecl ined
Su itable
Sc ope
uck y
Spe ak
VI a
Ġrecord ings
Ġev asion
Ġdefin itive
Ġsubst itute
ĠVI a
ush arraf
ĠTra il
Ġvalid ity
ĠAt l
ĠCar bon
emoc ratic
umer ous
Ġhelpful l
ĠSer ge
ĠOper ations
Ġtravel ing
Mon ika
lu enza
comm erce
ĠEd ith
ĠEd gars
Ġder ived
ĠJoh ann
Ġinform ative
Mar ine
Ġdraw ings
Ġdistribut or
Her zegovina
ĠRec onstruction
Ġrad ically
Work s
ĠPre vious
Ġ[ [
Ġprofession s
Ġ00 00
Ġmeasure ments
Ġimm une
ISSION S
Ġstra in
Ġpen insula
ĠBen ef
END eputy
Ġindepend ently
STR ENGTHENING
Ġcart els
IX EIRA
ĠSol omon
Ġcritic ised
Ġadjust able
ĠWall is
ĠMark o
Ġlength y
ĠSa o
Ġir rit
abil a
ĠAUD IOVISUAL
Ġsem anas
ĠMet hod
ĠRES OURCES
ĠAR T
ĠSA PARD
Ġcoll apsed
Ġmid day
Ġsupple ments
Ã¶r gy
Ġcas inos
appro val
Ġspread ing
ĠOl iv
ĠPAP OUTS
ĠGl acier
ĠBO IS
Ġenh ancing
Ġcod ecision
TUR KEY
ĠMEETING S
Ġque ue
Val encia
ĠPa vel
yt te
Inc ident
DA ILY
iant i
ĠCAR L
Conf lict
ĠGra f
ĠLeon ard
Ġexpression s
198 9
Ġlit res
Min ority
ĠZe it
ĠStat us
Ġcooper ative
ĠNik ola
ĠPalm as
ĠTer re
Ġgradu al
ĠRoman ian
Dan iel
ELS ON
Modern ising
Mic hele
ĠLiber al
Ġrefund ed
Ġaccur ately
ĠTro ika
Ġrig orous
Ġoffic ers
PH P
Ġid le
Ġnom inated
ĠMaur itania
ĠLeg islative
Ġjudg ed
uit en
ĠPIN TO
Ġfacil it
Ġbra ke
Citizens hip
Ġaw ak
Ġaw esome
haus en
ĠText iles
Ġvacc ines
ĠFab io
ĠBra va
Win ning
Win ners
bec ause
Ġsing ing
Ġbrother s
ĠSM ITH
Ġintellig ence
lev ard
Ġvit ally
Leg islation
Ġspons or
ĠSPE CIAL
rep resent
ĠMS N
ĠOpt im
Ġreass ure
ĠLind qvist
Tur keys
Ġgate way
ĠDIM ENSION
ĠTE IXEIRA
ĠJar zembowski
Ġattach ment
ĠCrow ne
ĠSaf ari
Less ons
ĠBOD EN
Cent re
ĠBah rain
Ġcommod ities
Ġmultilateral ism
Ġjack pot
Ġdiox ide
oty ping
ĠCarm elo
ĠVis it
ĠTREMONTI Minister
Saf egu
ĠFig el
Supp lementary
ropol is
Ġautonom ous
COMPETI TION
Phil ippe
Ġcyn ical
lant is
Redfish Sebastes
Ġcycl es
ĠBROWN Chancellor
Mount ain
ĠFrances co
ĠJens en
Includ es
ĠClaud io
Ġpione er
usan ne
Ġcockt ail
ĠDAM ANAKI
Ġecos ystems
Counter fe
ugg ling
Ġinher it
ĠNOTE BOOK
ELOS I
problem a
ĠOC TOBER
STAN TIN
Ġannoy ing
Ġcoun ters
ĠPrepar ation
ĠSOU SA
ĠFIF A
ĠHosp ital
ĠBudd h
Ġincomp atible
ĠNIEL SON
UNG ARY
ĠBRENN ANDeputy
Ġimprison ed
Dub lin
ĠMex ican
Ġprere quisite
Ġinval id
ĠLug ano
Ġunequiv ocal
onaut ics
ĠLEW ANDOWSKI
Esp ces
ĠTRIC HET
ĠKARO BLIS
Ġsimp licity
ĠSTAV R
ĠDup uis
euge ot
ĠGEOR GI
ĠMAND ELSON
ĠKALLI OMÃĦKI
ĠZs olt
ĠPyrene es
sant arelli
ĠLyd ie
ĠCANG ELOSI
ĠMÃĦL K
ayann akis
ĠTACI S
Regrett ably
4 75
8 80
9 40
A er
A lic
B AT
B orn
B eef
C AM
C OUNTR
C OUNTER
D a
D IREC
D ogs
E t
E as
E ss
F LU
F antastic
G er
H om
H air
H OW
H CR
I ATE
J e
K Y
L if
L oph
M us
M ary
M IL
M unich
N EL
O pens
P N
P eugeot
S ar
S ay
S ab
S av
S eed
S OUTH
S ierra
T ue
T ove
T ABLE
U TES
V it
V ar
W IN
W IL
W HO
Z ero
Z ENS
b ly
b our
b one
b ird
c ke
c ely
d ist
f u
f est
f raud
f rame
g ow
g reat
g rim
h ar
j k
m ake
m itt
n an
n as
o bs
o ise
p c
p d
p he
p as
q ing
t est
v ie
Ġt ensions
Ġt ears
Ġt andem
re ck
is l
is ip
Ġthe e
or us
or ries
en ues
Ġw ing
Ġw aiver
Ġc it
Ġc ited
Ġc ush
Ġc ables
Ġc ette
Ġf ra
Ġf les
Ġf itting
Ġf ocuss
Ġp i
Ġin ch
Ġm ic
Ġd ub
Ġd rops
om ach
om berg
ot te
Ġh ott
Ġh orm
el n
ĠC urrent
ĠM est
ĠM illion
ĠM OV
ĠM ORE
Ġl on
Ġl ac
Ġbe ats
ĠP ul
ĠP ain
ĠP ak
ĠP GI
ĠP oz
ĠP oor
ĠP GP
et c
ĠA zeg
ĠA venue
ĠE ric
ĠE MS
ĠE mbass
ĠE ye
ĠE nerg
ĠE BRD
ĠS N
ĠS ot
ĠS ong
ĠS AV
Ġ2 13
ow ed
Ġe uropean
os i
ac re
ac on
Th ailand
ĠI B
ĠI rena
Ġg ently
Ġg ourmet
ut en
ut her
ig ue
Ġst arch
Ġst opping
Ġpro port
ir ations
ul as
Ġ( -
ĠR ect
ĠR OT
ĠF ive
ch apter
st ill
est ablish
ĠB RE
ĠB ahn
ĠB rown
ĠB iodiversity
ĠD OS
ĠD AV
ĠD uis
ĠD rive
ad just
ĠT B
ĠT ub
ĠT ue
ĠT error
ĠT ube
ĠT unis
ĠT itan
and y
and emic
ge on
Ġit iner
am t
am ics
ĠG over
ĠG SM
ĠH j
ĠH ur
od ka
Ġse ab
Ġse ized
Ġse venth
Ġsh out
ĠL l
ĠL om
ĠL ite
ĠL ee
ĠL ID
ĠL Ã¶
ĠL OG
ĠL UND
ĠL OB
ĠL ido
ress o
Ġhe aling
end ant
igh o
ĠN r
ĠN es
ĠN it
ĠN ights
ĠN atal
ĠO ro
ĠJ U
ĠJ r
ĠJ ol
ĠJ OBS
ial e
ĠW ould
ĠW cis
ĠW urtz
all a
Ġpl astics
Ġad ress
Ġad alah
iv atives
Ġor chestra
Ġcont ra
Ġ3 31
Ġ3 80
Ġab ide
ĠV a
ĠV it
ĠV ON
ĠK ER
For get
ĠSt y
ĠSt adt
Ġen force
Ġen forced
ec retary
th ird
Ġk et
Ġcomp ressed
Ġcomp anion
are z
AR US
Ġj azz
Ġj ungle
You ve
AL DE
Ġun lock
ru pp
pos ium
Ġhere by
Ġdis proportionate
av y
ĠRe ference
EL E
IS Deputy
IS BERG
IS tate
ass ium
Ġ8 40
Ġco ff
Ġpos ters
Wh om
ib urg
IT ATION
pr im
Ġ12 4
St ore
St abilisation
30 5
ĠAg ent
Ġinv o
Ġsc anners
Ġover run
ĠMar in
35 9
Ġent ities
Ġra ft
Ġcour tes
Ġind iff
Ġass umption
PAR LIAMENT
Ġmat ure
Ġdet ri
Ġimp at
Ġimp art
Ġvis ibility
Ġconf ined
20 4
ock ets
Re ceive
Ġdel le
Ex clusive
Ex ecutive
Ġrep ay
Ġinf ection
ĠZ AM
ĠZ ero
ĠZ ermatt
ĠAl ert
Ġcar riage
ĠAr igho
Are as
Ġpresent ly
Ġrece iver
cu its
Ġinter operability
Ġreal m
Ġreal ities
Ġexp ed
ĠX AMPP
Comm unications
Ġpack ing
Al as
ĠPOLIC E
UL ATION
Ġdirect ors
Ġtool bar
22 9
Ġpass age
Ġ28 0
ash i
Comp are
ĠAs ensio
Ġlet ting
Ġben e
Ġdist ricts
Ġsocial ly
Ġimpro ves
pro tect
ĠCON DI
par able
AD D
ĠProgram ming
ĠInd ex
ĠRE IN
Ġthird s
Ġsk illed
aur ants
25 3
25 5
25 6
ĠAf ghan
Ġshare holder
ĠSe at
Ġ000 2
45 3
af en
aut as
do ors
Ġconsult ants
ĠFund ing
Ġhot line
ĠEURO POL
ĠGe off
ĠGe opolitical
rad le
ĠEUR ES
24 7
ĠSp ot
Ġtrad ers
34 9
pri ations
Ġhead ed
Ġhead line
Ġperfect ion
26 8
ĠPR AC
ĠPR IMA
ĠST OR
Ġ26 0
ament o
36 9
Ġport ion
ien a
Ġca res
ĠPart ies
Ġhear ings
QU ES
Ġart work
Ġdemand ed
gu y
ĠAug uin
ĠBo el
Trans ition
Ġmor ality
Int ro
Ġdoub led
Ġmar ble
Ġmar vell
Ġvol atile
Ġpot ato
Ġdest iny
Ġbad ge
Ġground water
FR UIT
Acc ommodation
Ġwond ers
idel berg
ĠSer bian
Me al
ĠAN TUN
Ġsil k
Ġdiv isions
Ġgra pes
Ġden ying
ĠGR AN
67 070
Ġcivil isation
ĠEst ablish
fin ance
ĠWork shop
eth ylene
Ġtim ber
Ġbott len
ĠCom ing
ĠApp oint
ĠSy nt
Ġattract ed
Ġanalys ed
ĠPC s
ba o
ĠHel en
ĠHel ene
ITI S
ITI ME
EF TA
Ġsport ing
Clos ing
Tra v
Ġdeliber ations
Commit ment
Ġcast les
Ġcatal ogues
ĠBAL ZS
Ġmer it
ĠSa hel
Ġir r
ĠARE AS
Ġsal utes
ĠUp dated
Ġ08 00
ĠCam isn
ĠUR GENT
ĠRES P
Rep lace
add le
ĠCard iff
ĠLuc as
ĠPan asonic
Cor rect
ĠTod ay
Ġstri p
ĠAc quis
ĠOl isip
List ing
Ġplug ins
Bar roso
ĠPack ages
ĠBas que
Global isation
ĠGl as
hof stadt
ĠConf ederation
Reform s
GL OBAL
Ge orge
OUL OS
ĠLi isa
Ġ79 355
Sy nc
Ġcondem ns
Ġadvent ures
Ġcompli ment
BUDGET ARY
Ġmix es
Play ing
ila os
sper ity
but ton
Stud ents
Spr ing
sen beek
ĠProm ise
Ġ94 889
Ġillust rated
Bas el
Ġmarg inal
Ġfort unately
ĠBORG Minister
Simpl ified
ĠConsult ative
Ġcab inet
SI EU
GRE ENS
Ġtrail ers
ONS CHI
lem agne
ĠOff ers
Ġabol ition
Ġboost s
Ġcoord inate
Ġshock ed
ĠIb is
Ġplain ly
ĠMINIS TERS
Ġproportion ate
Ġimper ial
Ġbes ides
Ġbul let
ĠTre k
Ġchamp ion
Ġdispl aced
Ġinev itably
ĠVel zen
ĠCab inet
Ġorient ed
ĠBON INO
ICK S
ĠVenez ia
ĠRaim onds
Rom a
Ġbroadcast ing
Ġsyn onymous
ĠAdvis er
stant ial
hot els
ĠChar ilaos
ĠHA HN
ĠAppro val
ĠAlb u
Ġlicens ing
Ġfuck ing
Ġfert ile
Autom ated
Ġpubl ishes
ropol itan
ĠMoz illa
Ġinterconnect ion
Merc osur
rÃ¼ ck
ĠExc ellent
oust ine
Ġeru ption
ĠASSOCI ATED
ĠFIN Z
geb nisse
CEL ONA
ĠMUS CA
Ġcosmet ics
Ġcockt ails
Ġsurre nder
ĠDou glas
Mig uel
ĠDise ases
loy ment
Ġlou der
Mur cia
Ġoutrage ous
Calc ulation
Method ology
SLOV ENIA
Lang oustine
ĠCAMPS Minister
ĠEAG F
ĠSard inia
ĠGRYBAUSKA ITE
Ġdepri ved
Ġdevast ating
Ġupgrad ed
Ġneighbor hood
Ġalphab et
ĠThess aloniki
ĠNEIGHBOUR HOOD
Ġgall eries
Prospect s
ĠBAC ONSCHI
ĠPref erences
Ġdispens ed
ĠNev ada
ĠRecommend ations
Ġmanoeu vre
KOS OVO
Ġexempl ary
Ġunamb iguous
ĠCAST RO
ROP OULOS
ĠVEGET ABLES
Ġ465 15
ĠNeok lis
ĠSCHÃľ SSEL
ĠSOTI ROPOULOS
ĠCIAM PI
Ġirrevers ible
Ġpeculi ar
treat ment
ĠRINK VIS
ĠJz sef
ĠPAPOUTS IS
ĠBOIS SIEU
ĠSTAVR AKIS
ĠAzeg lio
ĠWcis lo
ĠANTUN ES
& #
) [
0 86
1 32
3 13
4 13
4 21
4 26
4 23
5 90
6 50
A k
A uth
B ro
B ab
B ACH
B IO
C ore
C OL
C over
C ancer
E th
E fficient
F E
F X
F if
F ear
F ile
F red
H undred
I ce
I FF
J ob
K now
K ET
L iability
M iss
N ord
N IE
N EGOTIATIONS
P SE
S now
S ECON
S ITUATION
S UGAR
T aste
U l
V ill
V ideos
V irtual
W ir
W arm
W onder
Z K
b ad
b au
b usiness
f ill
f iles
g ro
h ad
h alt
i ÃŁ
j et
k op
o il
o os
r ud
t z
t im
t ail
t les
u itive
w ave
z ens
Ġt il
Ġt une
on en
is ational
at u
at os
Ġthe ater
Ġs ul
Ġw ur
Ġw ings
Ġf ru
Ġf ares
Ġf ridge
Ġp out
Ġp ist
Ġp umps
Ġo ct
Ġo der
al c
al one
Ġb iot
Ġin equalities
Ġm s
Ġm old
Ġm iscellaneous
Ġd rast
om r
om ics
om ination
ot he
Ġh ind
ĠC P
ĠC ut
ĠC ake
ĠC LER
ĠC ancer
ĠC BC
ĠC iolo
Ġre vel
ct ure
ĠM ate
ĠM ust
ĠM ec
ĠM io
ĠM ady
ĠM other
ĠM ining
ve illance
Ġy achts
Ġl un
Ġl orries
ĠP am
ĠP PP
ĠP ASS
ĠA ra
Ġyou d
ĠE mb
ĠE OS
ĠE arly
ĠE DL
ĠS IN
ĠS ib
ĠS IR
ĠS ET
ĠS overe
Ġe Twinning
ol en
os ia
pe al
pe ople
Ġv oy
Ġv oid
Ġv ista
Ġg ran
Ġg ram
ur sions
ill i
Ġst amp
Ġst ricter
Ġpro b
Ġpro active
Ġcon gress
Ġ( .
ĠR ap
ĠR FC
ĠR wanda
ĠR afa
Ġal ien
Ġal ike
ĠF ut
ĠF eb
ĠF ron
ĠF ees
ĠF rant
ĠF odder
ch s
ch ildren
ch ytla
ĠB ast
ĠB ond
ĠB ock
ĠB uild
ĠB auer
ĠB iotechnology
ĠB uiten
ia ison
ver ts
ĠD HL
ĠD ATA
ĠT ai
ĠT CP
ĠT ao
ĠT ams
ĠT ropical
Ġne at
qu ent
op ter
ĠG es
ĠG az
ĠH ad
ĠH IR
ĠH Ã¤
ĠH aw
um ing
ON EN
Ġsh ine
Ġex quisite
ĠL ines
ĠL ittle
ĠL iving
ĠL UK
ĠL ama
ĠL ima
ĠL uxury
ĠL IVE
ĠL ago
Ġr ides
Ġr icher
end um
Ġli qu
ub lish
ĠN EC
ĠN AY
ĠN ovo
ie ved
AN MAR
ĠJ AC
ĠJ Ã¼
ĠW S
ĠW ed
ĠW ies
ĠW ynn
ĠW ICKS
ĠU ri
iv el
In come
Ġ3 22
TI VI
ran g
Ġsu icide
lic a
lic ts
ĠV iv
ĠV ideos
ĠV yg
hen burg
ĠK ap
Ġle ap
Ġle verage
Ġqu art
ĠSt ru
ĠSt ocks
Ġcl ips
Ġen velope
ag g
ag ar
Ġk ann
Ġcomp rehen
Ġcomp artment
AR C
AR RO
Ġam az
ric al
la is
Ġun m
ĠIn v
itt en
Ġdis reg
ach ius
ach urus
per ia
ĠRe ally
ens ible
ĠCh ytla
ven ience
ied er
Ġcons erv
Ġview er
And ris
ĠTHE OD
ific ate
ange red
30 7
urre nce
Ġtrans atlantic
Ġsp ark
Ġinv ention
Ġsc ent
ĠComm ercial
ved ra
Ġph ased
Ġhapp ily
urn iture
ĠAND R
11 11
not es
Ġra p
Ġsystem atic
Ġcour teous
Ġtheir s
EM P
EM IP
Ġ11 9
Ġ14 3
Ġmat ched
Ġmat rix
Ġinst itute
AC CESS
Ġbu zz
Ġrel ocation
Ch all
Ch arl
ier a
Ġdel ic
vers a
Ġinf l
ĠZ den
ĠZ immer
Ġdef er
Ġrest oration
uc her
ĠAl ain
ĠAn ita
Ġche ss
Not ice
Ġ16 1
Ġ16 3
Ġ16 7
Ad vertising
Ġcor ners
ING ER
co very
ID ER
Ġwat ches
Comm unic
Comm iss
Pol ish
Al g
Ġide ological
Ġfl air
Ġfl ora
Ġequ ation
ĠEx per
Ġspec ifies
ĠTh om
Con venient
Im mediate
97 0
Ġcap itals
Ġ22 6
ĠInter vention
Ġins ult
Ag reed
rem ely
leg ant
ĠAs ias
ITH U
pro cess
Ġgen otyping
ĠCl ose
Ġcustom ized
ĠLe ad
ĠSc iences
ex pl
33 9
33 10
orn o
Ġcrit ique
Every where
45 1
af ia
27 3
Ġtotal itarian
Ġconsult ant
ĠCent rum
Ġmon itors
Ġmon oxide
19 3
Ġconclud ing
Ã¤ l
ĠPh ase
ĠON LINE
Ġwrit es
ĠSp am
ĠSp encer
34 2
34 7
Ġhead lines
Ġbrief ing
Ġwa ist
be it
Ġcomfort s
Ġbank ers
36 1
36 4
36 8
ĠOr acle
ĠOr lando
gen er
Ġlat itude
Ġcou p
Ġcat hedral
ĠFor mer
ĠBer lusconi
ĠMARK ETING
Ġwalk ed
QU ER
QU AL
QU ALITY
ĠSu vi
ĠCOMM ERCIAL
Ġsent iment
ĠCan al
ĠAb b
ĠAb d
Ġdecl ining
Doc s
Sc heduled
ĠEl iz
Ġclass ical
Spe ed
ĠAir ways
65 4
Ġpo inter
Ġsens ation
Ġrecogn ises
Ġwarm th
Ġtick ing
81 01
Me at
Ġviol ated
ĠJos chka
orest ation
Ġill um
ĠTr uth
Inter ruption
Ġdistribut e
Ġregister ing
ĠEM AS
pol icies
Ġalong side
Ġpotential ly
Ġcontext s
Ġrespond ing
Ġexperi ments
ĠMa estro
Direct ives
ĠPr incip
Ġsuff ers
ĠForest s
UG H
oph istic
ĠSTR ASS
ĠSTR AW
Report ing
ĠBel ize
ĠMi ert
ĠMi hne
fish ing
Ġmail box
Ġdon ate
UDG MENTS
Ġce ment
Ġda wn
sch aft
IZ ED
Ġproud ly
add ress
ĠDep osit
** *
Ġball ot
Ġball oon
Ġexception ally
entral ised
met ic
Ġpret end
Ġbon uses
Ġblock ing
Ġpurs uit
ĠRO AD
Us ers
ĠPAP AD
Ġupg rading
aud as
ĠProf essor
Ġeat en
Ġded uct
ĠSpa ak
Ġinterpret ed
ĠEgypt ian
Tr achurus
Health y
Ġhom eland
ĠPa avo
ĠEF SI
ĠHol lywood
Cre vette
Aud io
Ġinsp iring
Ġfle e
ĠSim ple
Ġmix ing
Ġdialog ues
Ġstick s
Jo bs
MIT TED
Ġpil ots
ĠBre xit
onte vedra
Mult iple
DEN OV
ĠOP EN
Ġdram a
Er gebnisse
Ġalcohol ic
Ġwheel chair
ĠTer rit
Simpl ifying
LU TION
ĠCI ENCI
ĠWi Fi
End ing
Modern isation
Ġstream s
ĠOff ices
ĠMarg us
ĠMarg aret
Ġreve als
EURO POL
ĠStep han
ĠProv isions
Ġintern ally
Ġpg ina
ĠPIN HEIRO
Ġproportion ality
Ġtow ers
Ġreward ing
ĠRUPEL Minister
bod ys
Ġretail ers
Ġsolar ium
Near by
Vol untary
ĠAlm unia
Ġcompar ative
Ġprompt ed
ĠPiet er
ĠCre ate
Ġspons ors
Ġok ay
Ġinspect ors
ĠVIS A
ĠPED ERSENMinister
ĠBER ING
Ġpredict able
Ġped est
ĠEvery thing
ITOR ING
Ġcens enda
ĠBRO AD
ĠSuperv isor
xy gen
ĠOpport unity
Der og
eder land
Ġunderm ines
Old er
Ġscar cely
Bat hing
ĠFINAN CE
ĠNAV ARRO
Ġtranqu il
ĠRim antas
Ġdefect s
Adjust ment
ĠTem ple
ĠBlu etooth
ĠKOSK INEN
ĠComb ating
ĠUkra inian
ĠGy Ã¶rgy
Ġcosmet ic
ĠLabor atory
TIF ICATION
BRO AD
Ġfing ers
ĠRoss a
Ġarom a
ĠNam ib
Ġcand le
ĠSEM ESTER
ĠOB J
Ġbankrupt cy
Ġpregn ant
Ġconstra ints
Ġpup ils
ĠFuerte ventura
educ ation
Initial ly
ĠSCHREYER Member
ĠLI ISBERG
ĠWALSH Minister
Ġforg ive
ĠLAMY Member
Ha iti
Ġinse ct
Ġbrack ets
ĠADMINISTR ATIVE
GÃ¼ nther
ĠScand in
ĠANTON ION
idor hombus
ĠLeaders hip
ĠARR ANGEMENTS
Ġpropag anda
ĠHANS EN
ĠFRAN CO
ĠNicol ai
ĠBJÃĸR LING
Ġoverwhel ming
ĠCroat ian
usp ension
ĠMIER LO
ĠPID LA
ĠWOM EN
ĠReduc ed
Ġtoug her
ĠSalv ador
ĠEvangel os
Ġpert inent
Pact io
Ġdispar ities
Lep idorhombus
Ġambigu ity
FRASTRUC TURE
ĠSYLIK IOTIS
ĠUNGEHE UER
FINAN CING
ĠCerc one
Alic ja
ĠHj ort
ĠPRIMA ROL
Hundred s
SECON D
ĠNAY DENOV
ĠMihne a
1 46
2 15
2 19
3 35
6 40
6 89
7 11
7 80
8 40
A rable
B ow
B UL
B SD
C le
C rit
C AT
D M
D UMP
E arn
E vents
G i
G IN
H EN
H ong
H RES
H azardous
J E
L ag
M K
M ir
M ons
N I
N OS
N umerous
O pp
O zone
O ROU
P arliaments
P icture
P ricing
R WA
S on
S it
S und
S CHO
S ingapore
T ag
T GEN
U kra
V ES
V IST
V acc
V ladim
V ocational
V AUX
X I
a uthor
a Ts
b in
b ling
b ahn
c urrent
c up
d ge
d ie
f re
g as
h d
i ina
i idae
j ord
k es
l ag
l ap
l anges
m ody
o ard
p resident
r c
r il
s ing
t v
t ub
w orth
w aste
Ġt a
Ġa h
in se
is ons
en ame
en ne
ou cher
Ġs ust
Ġs ont
Ġs ang
Ġs ich
Ġw al
Ġc aves
es ity
Ġf ittings
it ures
Ġp ent
Ġp se
Ġp ics
Ġp ants
Ġp ued
Ġp icking
ar ov
Ġb ot
Ġb ak
Ġb ull
Ġb isa
Ġb oring
Ġin exp
Ġm ock
Ġm asters
Ġd ives
Ġd ating
Ġd ull
as ive
om y
ic as
ic ol
ot ions
Ġh ay
Ġh ip
Ġh ath
Ġh ike
Ġh unt
el de
ĠC B
ĠC M
ĠC er
ĠC it
ĠC ed
ĠC ere
ĠC IS
ĠC asc
ĠC ENTRAL
Ġre load
Ġre aff
us k
ĠM ou
ĠM inute
ĠM ILL
ĠM ongolia
Ġl id
Ġl ust
Ġl amps
ĠP ant
ĠP iano
ĠP isa
ĠP ocket
et z
ĠA Z
ĠA UK
ĠA egean
ĠE ll
ĠE ster
ĠS ed
ĠS us
ĠS EL
ĠS pect
ĠS UP
ĠS DK
Ġ2 12
Ġ2 461
ol is
ol ta
os ion
os se
ac ies
ĠI REL
ĠI LO
Ġv inyl
Ġg ates
Ġg yn
im inas
ur ger
ur ias
ut an
ut ed
ut orial
Ġst ere
Ġst air
Ġst airs
Ġst omach
ort ment
ir lp
ul ge
ul lah
ĠR Ã¼
ĠR ISL
ĠF iles
ĠF LY
ĠF itness
ĠB rad
ĠB ALL
ĠB aby
pp i
ver ter
[...]
