{
  "version": "1.0",
  "truncation": null,
  "padding": null,
  "added_tokens": [
    {
      "id": 0,
      "content": "<|end|>",
      "single_word": false,
      "lstrip": false,
      "rstrip": false,
      "normalized": true,
      "special": true
    },
    {
      "id": 1,
      "content": "<|pad|>",
      "single_word": false,
      "lstrip": false,
      "rstrip": false,
      "normalized": false,
      "special": true
    }
  ],
  "normalizer": null,
  "pre_tokenizer": {
    "type": "ByteLevel",
    "add_prefix_space": false,
    "trim_offsets": true,
    "use_regex": true
  },
  "post_processor": {
    "type": "ByteLevel",
    "add_prefix_space": true,
    "trim_offsets": false,
    "use_regex": true
  },
  "decoder": {
    "type": "ByteLevel",
    "add_prefix_space": true,
    "trim_offsets": true,
    "use_regex": true
  },
  "model": {
    "type": "BPE",
    "dropout": null,
    "unk_token": null,
    "continuing_subword_prefix": "",
    "end_of_word_suffix": "",
    "fuse_unk": false,
    "byte_fallback": false,
    "vocab": {
      "<|endoftext|>": 0,
      "<|pad|>": 1,
      "!": 2,
      "\"": 3,
      "#": 4,
      "$": 5,
      "%": 6,
      "&": 7,
      "'": 8,
      "(": 9,
      ")": 10,
      "*": 11,
      "+": 12,
      ",": 13,
      "-": 14,
      ".": 15,
      "/": 16,
      "0": 17,
      "1": 18,
      "2": 19,
      "3": 20,
      "4": 21,
      "5": 22,
      "6": 23,
      "7": 24,
      "8": 25,
      "9": 26,
      ":": 27,
      ";": 28,
      "<": 29,
      "=": 30,
      ">": 31,
      "?": 32,
      "@": 33,
      "A": 34,
      "B": 35,
      "C": 36,
      "D": 37,
      "E": 38,
      "F": 39,
      "G": 40,
      "H": 41,
      "I": 42,
      "J": 43,
      "K": 44,
      "L": 45,
      "M": 46,
      "N": 47,
      "O": 48,
      "P": 49,
      "Q": 50,
      "R": 51,
      "S": 52,
      "T": 53,
      "U": 54,
      "V": 55,
      "W": 56,
      "X": 57,
      "Y": 58,
      "Z": 59,
      "[": 60,
      "\\": 61,
      "]": 62,
      "^": 63,
      "_": 64,
      "`": 65,
      "a": 66,
      "b": 67,
      "c": 68,
      "d": 69,
      "e": 70,
      "f": 71,
      "g": 72,
      "h": 73,
      "i": 74,
      "j": 75,
      "k": 76,
      "l": 77,
      "m": 78,
      "n": 79,
      "o": 80,
      "p": 81,
      "q": 82,
      "r": 83,
      "s": 84,
      "t": 85,
      "u": 86,
      "v": 87,
      "w": 88,
      "x": 89,
      "y": 90,
      "z": 91,
      "{": 92,
      "|": 93,
      "}": 94,
      "~": 95,
      "¡": 96,
      "¢": 97,
      "£": 98,
      "¤": 99,
      "¥": 100,
      "¦": 101,
      "§": 102,
      "¨": 103,
      "©": 104,
      "ª": 105,
      "«": 106,
      "¬": 107,
      "®": 108,
      "¯": 109,
      "°": 110,
      "±": 111,
      "²": 112,
      "³": 113,
      "´": 114,
      "µ": 115,
      "¶": 116,
      "·": 117,
      "¸": 118,
      "¹": 119,
      "º": 120,
      "»": 121,
      "¼": 122,
      "½": 123,
      "¾": 124,
      "¿": 125,
      "À": 126,
      "Á": 127,
      "Â": 128,
      "Ã": 129,
      "Ä": 130,
      "Å": 131,
      "Æ": 132,
      "Ç": 133,
      "È": 134,
      "É": 135,
      "Ê": 136,
      "Ë": 137,
      "Ì": 138,
      "Í": 139,
      "Î": 140,
      "Ï": 141,
      "Ð": 142,
      "Ñ": 143,
      "Ò": 144,
      "Ó": 145,
      "Ô": 146,
      "Õ": 147,
      "Ö": 148,
      "×": 149,
      "Ø": 150,
      "Ù": 151,
      "Ú": 152,
      "Û": 153,
      "Ü": 154,
      "Ý": 155,
      "Þ": 156,
      "ß": 157,
      "à": 158,
      "á": 159,
      "â": 160,
      "ã": 161,
      "ä": 162,
      "å": 163,
      "æ": 164,
      "ç": 165,
      "è": 166,
      "é": 167,
      "ê": 168,
      "ë": 169,
      "ì": 170,
      "í": 171,
      "î": 172,
      "ï": 173,
      "ð": 174,
      "ñ": 175,
      "ò": 176,
      "ó": 177,
      "ô": 178,
      "õ": 179,
      "ö": 180,
      "÷": 181,
      "ø": 182,
      "ù": 183,
      "ú": 184,
      "û": 185,
      "ü": 186,
      "ý": 187,
      "þ": 188,
      "ÿ": 189,
      "Ā": 190,
      "ā": 191,
      "Ă": 192,
      "ă": 193,
      "Ą": 194,
      "ą": 195,
      "Ć": 196,
      "ć": 197,
      "Ĉ": 198,
      "ĉ": 199,
      "Ċ": 200,
      "ċ": 201,
      "Č": 202,
      "č": 203,
      "Ď": 204,
      "ď": 205,
      "Đ": 206,
      "đ": 207,
      "Ē": 208,
      "ē": 209,
      "Ĕ": 210,
      "ĕ": 211,
      "Ė": 212,
      "ė": 213,
      "Ę": 214,
      "ę": 215,
      "Ě": 216,
      "ě": 217,
      "Ĝ": 218,
      "ĝ": 219,
      "Ğ": 220,
      "ğ": 221,
      "Ġ": 222,
      "ġ": 223,
      "Ģ": 224,
      "ģ": 225,
      "Ĥ": 226,
      "ĥ": 227,
      "Ħ": 228,
      "ħ": 229,
      "Ĩ": 230,
      "ĩ": 231,
      "Ī": 232,
      "ī": 233,
      "Ĭ": 234,
      "ĭ": 235,
      "Į": 236,
      "į": 237,
      "İ": 238,
      "ı": 239,
      "Ĳ": 240,
      "ĳ": 241,
      "Ĵ": 242,
      "ĵ": 243,
      "Ķ": 244,
      "ķ": 245,
      "ĸ": 246,
      "Ĺ": 247,
      "ĺ": 248,
      "Ļ": 249,
      "ļ": 250,
      "Ľ": 251,
      "ľ": 252,
      "Ŀ": 253,
      "ŀ": 254,
      "Ł": 255,
      "ł": 256,
      "Ń": 257,
      "Ġt": 258,
      "he": 259,
      "Ġa": 260,
      "re": 261,
      "in": 262,
      "on": 263,
      "is": 264,
      "er": 265,
      "at": 266,
      "Ġthe": 267,
      "or": 268,
      "en": 269,
      "an": 270,
      "ou": 271,
      "Ġs": 272,
      "Ġw": 273,
      "Ġc": 274,
      "ion": 275,
      "es": 276,
      "Ġf": 277,
      "it": 278,
      "Ġp": 279,
      "Ġo": 280,
      "al": 281,
      "ar": 282,
      "ed": 283,
      "Ġb": 284,
      "ro": 285,
      "Ġof": 286,
      "Ġin": 287,
      "Ġm": 288,
      "Ġto": 289,
      "Ġis": 290,
      "Ġd": 291,
      "nd": 292,
      "le": 293,
      "as": 294,
      "ing": 295,
      "om": 296,
      "ic": 297,
      "ent": 298,
      "The": 299,
      "il": 300,
      "Ġn": 301,
      "Ġth": 302,
      "ot": 303,
      "Ġh": 304,
      "el": 305,
      "ĠC": 306,
      "Ġre": 307,
      "us": 308,
      "ct": 309,
      "Ġand": 310,
      "Ġfor": 311,
      "ation": 312,
      "ĠM": 313,
      "ve": 314,
      "Ġy": 315,
      "Ġl": 316,
      "Ġbe": 317,
      "ĠP": 318,
      "et": 319,
      "ĠA": 320,
      "Ġyou": 321,
      "ĠE": 322,
      "ĠS": 323,
      "res": 324,
      "Ġon": 325,
      "Ġ2": 326,
      "id": 327,
      "ow": 328,
      "ment": 329,
      "Ġe": 330,
      "ol": 331,
      "os": 332,
      "pe": 333,
      "ac": 334,
      "Th": 335,
      "ter": 336,
      "ay": 337,
      "ĠI": 338,
      "Ġv": 339,
      "Ġare": 340,
      "Ġg": 341,
      "ly": 342,
      "im": 343,
      "ur": 344,
      "ut": 345,
      "ill": 346,
      "ig": 347,
      "Ġ1": 348,
      "omm": 349,
      "ra": 350,
      "00": 351,
      "Ġst": 352,
      "ort": 353,
      "Ġpro": 354,
      "ce": 355,
      "ir": 356,
      "ul": 357,
      "Ġthis": 358,
      "sion": 359,
      "ore": 360,
      "Ġcon": 361,
      "our": 362,
      "Ġ(": 363,
      "ĠR": 364,
      "ke": 365,
      "Ġal": 366,
      "Ġnot": 367,
      "ĠF": 368,
      "ld": 369,
      "Ġwe": 370,
      "uro": 371,
      "ate": 372,
      "Ġha": 373,
      "ch": 374,
      "st": 375,
      "est": 376,
      "ĠB": 377,
      "ia": 378,
      "ith": 379,
      "pp": 380,
      "ver": 381,
      "ĠD": 382,
      "Ġat": 383,
      "ad": 384,
      "ĠT": 385,
      "Ġde": 386,
      "We": 387,
      "ust": 388,
      "un": 389,
      "ble": 390,
      "Ġthat": 391,
      "ission": 392,
      "Ġwill": 393,
      "urope": 394,
      "Ġwith": 395,
      "and": 396,
      "her": 397,
      "ge": 398,
      "Ġne": 399,
      "Ġit": 400,
      "ould": 401,
      "qu": 402,
      "ommission": 403,
      "am": 404,
      "ri": 405,
      "Ġhave": 406,
      "Ġan": 407,
      "Mr": 408,
      "se": 409,
      "This": 410,
      "..": 411,
      "op": 412,
      "em": 413,
      "ain": 414,
      "Ġdo": 415,
      "ĠG": 416,
      "ff": 417,
      "ive": 418,
      "ĠH": 419,
      "Ġ-": 420,
      "od": 421,
      "out": 422,
      "ers": 423,
      "ant": 424,
      "for": 425,
      "ĠCommission": 426,
      "Ġse": 427,
      "nt": 428,
      "ity": 429,
      "ase": 430,
      "um": 431,
      "hat": 432,
      "uropean": 433,
      "Ġcan": 434,
      "ist": 435,
      "form": 436,
      "port": 437,
      "ess": 438,
      "It": 439,
      "ies": 440,
      "rou": 441,
      "ON": 442,
      "Ġsh": 443,
      "Ġex": 444,
      "Ġcom": 445,
      "art": 446,
      "ĠL": 447,
      "ure": 448,
      "Ġas": 449,
      "ress": 450,
      "ack": 451,
      "Ġby": 452,
      "Ġhe": 453,
      "Ġr": 454,
      "end": 455,
      "Ġli": 456,
      "ub": 457,
      "oc": 458,
      "igh": 459,
      "ĠN": 460,
      "rom": 461,
      "Ġhas": 462,
      "ect": 463,
      "Ġwas": 464,
      "ister": 465,
      "Ġus": 466,
      "formation": 467,
      "ĠO": 468,
      "ie": 469,
      "ions": 470,
      "ice": 471,
      "AN": 472,
      "inister": 473,
      "TE": 474,
      "act": 475,
      "Ġyour": 476,
      "ĠJ": 477,
      "ail": 478,
      "ial": 479,
      "able": 480,
      "ep": 481,
      "ak": 482,
      "ĠW": 483,
      "ard": 484,
      "Ġmore": 485,
      "ber": 486,
      "Ġfrom": 487,
      "Ġinformation": 488,
      "Ġwould": 489,
      "if": 490,
      "ake": 491,
      "ight": 492,
      "That": 493,
      "all": 494,
      "Ġ:": 495,
      "ud": 496,
      "Ġpl": 497,
      "Ġall": 498,
      "so": 499,
      "ĠU": 500,
      "Ġlike": 501,
      "Ġad": 502,
      "iv": 503,
      "lease": 504,
      "Ġor": 505,
      "Ġ200": 506,
      "ost": 507,
      "In": 508,
      "Ġcont": 509,
      "ary": 510,
      "lo": 511,
      "ome": 512,
      "Ġ3": 513,
      "TI": 514,
      "round": 515,
      "age": 516,
      "Ġvot": 517,
      "ther": 518,
      "Ġab": 519,
      "ran": 520,
      "ĠEU": 521,
      "Ġu": 522,
      "Ġch": 523,
      "ree": 524,
      "Ġsu": 525,
      "Ġim": 526,
      "RO": 527,
      "Ġwor": 528,
      "lic": 529,
      "ult": 530,
      "Ġour": 531,
      "ĠV": 532,
      "Ġme": 533,
      "cl": 534,
      "Ġver": 535,
      "ident": 536,
      "ĠMinister": 537,
      "ast": 538,
      "ER": 539,
      "hen": 540,
      "Ġalso": 541,
      "ite": 542,
      "Ġthere": 543,
      "Ġres": 544,
      "ĠK": 545,
      "For": 546,
      "nc": 547,
      "Ġgo": 548,
      "Ġle": 549,
      "Ġag": 550,
      "ell": 551,
      "Ġqu": 552,
      "ments": 553,
      "pt": 554,
      "ank": 555,
      "ĠSt": 556,
      "What": 557,
      "ue": 558,
      "ont": 559,
      "ok": 560,
      "ine": 561,
      "ire": 562,
      "ace": 563,
      "European": 564,
      "ES": 565,
      "one": 566,
      "EN": 567,
      "Ġcl": 568,
      "ations": 569,
      "resident": 570,
      "...": 571,
      "Ġen": 572,
      "ark": 573,
      "els": 574,
      "ag": 575,
      "Ġ4": 576,
      "ground": 577,
      "Ġvery": 578,
      "Ġ.": 579,
      "IN": 580,
      "ab": 581,
      "ec": 582,
      "ackground": 583,
      "ind": 584,
      "There": 585,
      "ere": 586,
      "ance": 587,
      "cc": 588,
      "th": 589,
      "ign": 590,
      "Ġk": 591,
      "01": 592,
      "Ġwh": 593,
      "erm": 594,
      "Background": 595,
      "Ġabout": 596,
      "ip": 597,
      "ĠEuropean": 598,
      "Ġcomp": 599,
      "du": 600,
      "32": 601,
      "Ġno": 602,
      "are": 603,
      "te": 604,
      "AR": 605,
      "Ġmust": 606,
      "Ġneed": 607,
      "air": 608,
      "Ġnew": 609,
      "Ġj": 610,
      "ounc": 611,
      "int": 612,
      "ction": 613,
      "ime": 614,
      "You": 615,
      "land": 616,
      "ap": 617,
      "otel": 618,
      "Ġbeen": 619,
      "AL": 620,
      "ouncil": 621,
      "ount": 622,
      "ear": 623,
      "Ġam": 624,
      "oll": 625,
      "ĠMr": 626,
      "ric": 627,
      "any": 628,
      "Ġapp": 629,
      "How": 630,
      "ally": 631,
      "CI": 632,
      "Ġ5": 633,
      "ry": 634,
      "Ġshould": 635,
      "ous": 636,
      "ong": 637,
      "ated": 638,
      "og": 639,
      "ject": 640,
      "ĠCouncil": 641,
      "ide": 642,
      "ook": 643,
      "la": 644,
      "Ġun": 645,
      "erv": 646,
      "99": 647,
      "Ġpart": 648,
      "con": 649,
      "Ġwhat": 650,
      "Ġsa": 651,
      "ru": 652,
      "Ġvote": 653,
      "Ġup": 654,
      "ĠIn": 655,
      "vel": 656,
      "Ġreport": 657,
      "ition": 658,
      "oint": 659,
      "Ġro": 660,
      "HE": 661,
      "pos": 662,
      "tern": 663,
      "Press": 664,
      "Ġtake": 665,
      "Ġone": 666,
      "fore": 667,
      "ram": 668,
      "ish": 669,
      "ures": 670,
      "OR": 671,
      "ĠPresident": 672,
      "Ġ(+": 673,
      "ely": 674,
      "bs": 675,
      "Ġrelease": 676,
      "airs": 677,
      "ollow": 678,
      "Ġhere": 679,
      "Ġav": 680,
      "Ġnow": 681,
      "itt": 682,
      "Ġ0": 683,
      "Ġdis": 684,
      "Ġdeb": 685,
      "ach": 686,
      "pport": 687,
      "gh": 688,
      "ical": 689,
      "Ġstay": 690,
      "Ġsee": 691,
      "ublic": 692,
      "Ġspe": 693,
      "Ġwork": 694,
      "av": 695,
      "When": 696,
      "uss": 697,
      "Ġclos": 698,
      "Ġoff": 699,
      "ffairs": 700,
      "ame": 701,
      "reat": 702,
      "EU": 703,
      "per": 704,
      "iew": 705,
      "ink": 706,
      "Ġso": 707,
      "ĠRe": 708,
      "ays": 709,
      "Ġmy": 710,
      "use": 711,
      "ailable": 712,
      "ĠAffairs": 713,
      "OU": 714,
      "resent": 715,
      "ll": 716,
      "rans": 717,
      "ates": 718,
      "anc": 719,
      "But": 720,
      "ember": 721,
      "TION": 722,
      "ang": 723,
      "Ġout": 724,
      "ative": 725,
      "ew": 726,
      "Ġ7": 727,
      "iz": 728,
      "Ġ29": 729,
      "Ġdebate": 730,
      "Thank": 731,
      "eral": 732,
      "ons": 733,
      "ov": 734,
      "ence": 735,
      "IC": 736,
      "EL": 737,
      "Ġplace": 738,
      "Ġ6": 739,
      "pl": 740,
      "Ġtime": 741,
      "Ġreg": 742,
      "Ġavailable": 743,
      "irst": 744,
      "ever": 745,
      "xt": 746,
      "estion": 747,
      "Ġpol": 748,
      "Ġany": 749,
      "ich": 750,
      "ian": 751,
      "uch": 752,
      "IS": 753,
      "ings": 754,
      "ution": 755,
      "ens": 756,
      "Ġits": 757,
      "EC": 758,
      "de": 759,
      "row": 760,
      "Ġacc": 761,
      "ass": 762,
      "urther": 763,
      "very": 764,
      "ne": 765,
      "ED": 766,
      "now": 767,
      "OM": 768,
      "Ġpoint": 769,
      "Ġright": 770,
      "ret": 771,
      "gram": 772,
      "Ġadd": 773,
      "wo": 774,
      "ĠĠ": 775,
      "TS": 776,
      "ĠCommissioner": 777,
      "ĠOF": 778,
      "ĠRep": 779,
      "Ġfollow": 780,
      "Ġthese": 781,
      "ĠCh": 782,
      "to": 783,
      "Ġyear": 784,
      "ord": 785,
      "Ġper": 786,
      "Ġonly": 787,
      "ĠEurope": 788,
      "Ġtra": 789,
      "ven": 790,
      "Ġclosed": 791,
      "Ġ8": 792,
      "ĠUn": 793,
      "arl": 794,
      "Ġ9": 795,
      "Ġimport": 796,
      "ple": 797,
      "irect": 798,
      "Ġte": 799,
      "Ġsaid": 800,
      "Ġ...": 801,
      "Ġdoes": 802,
      "ied": 803,
      "Ġco": 804,
      "Ġ201": 805,
      "ise": 806,
      "Ġwant": 807,
      "me": 808,
      "Ġpos": 809,
      "velop": 810,
      "Ġ|": 811,
      "Ġgood": 812,
      "Wh": 813,
      "day": 814,
      "ible": 815,
      "AS": 816,
      "oreign": 817,
      "Ġprodu": 818,
      "ĠDe": 819,
      "ile": 820,
      "Ġpre": 821,
      "acts": 822,
      "ors": 823,
      "come": 824,
      "ities": 825,
      "ted": 826,
      "bsite": 827,
      "ern": 828,
      "Ġagain": 829,
      "PE": 830,
      "pect": 831,
      "ib": 832,
      "Ġknow": 833,
      "200": 834,
      "Ġmuch": 835,
      "ATION": 836,
      "Ġother": 837,
      "Ġproc": 838,
      "Ġhow": 839,
      "ational": 840,
      "und": 841,
      "Cont": 842,
      "Ġtwo": 843,
      "Ġpe": 844,
      "Ġdi": 845,
      "Ġcons": 846,
      "ION": 847,
      "ious": 848,
      "ug": 849,
      "Ġar": 850,
      "Ġwere": 851,
      "enc": 852,
      "Ġview": 853,
      "App": 854,
      "gy": 855,
      "ĠPro": 856,
      "conom": 857,
      "ĠForeign": 858,
      "10": 859,
      "get": 860,
      "IT": 861,
      "eneral": 862,
      "Ġthem": 863,
      "Ġcount": 864,
      "pr": 865,
      "And": 866,
      "They": 867,
      "ob": 868,
      "Ġjust": 869,
      "ĠHotel": 870,
      "here": 871,
      "MS": 872,
      "Ġact": 873,
      "Ġpropos": 874,
      "nder": 875,
      "icy": 876,
      "clus": 877,
      "Ġimportant": 878,
      "Ġsupport": 879,
      "blem": 880,
      "Ms": 881,
      "hing": 882,
      "Ġ12": 883,
      "arket": 884,
      "Ġcomm": 885,
      "erman": 886,
      "ND": 887,
      "Ġfirst": 888,
      "RE": 889,
      "lect": 890,
      "cept": 891,
      "lause": 892,
      "ound": 893,
      "russ": 894,
      "Ġthey": 895,
      "ility": 896,
      "ild": 897,
      "ph": 898,
      "russels": 899,
      "Commission": 900,
      "clud": 901,
      "ention": 902,
      "emb": 903,
      "arlia": 904,
      "ĠSec": 905,
      "ful": 906,
      "Ġiss": 907,
      "ĠTHE": 908,
      "ĠDE": 909,
      "Ġproblem": 910,
      "ert": 911,
      "ove": 912,
      "ific": 913,
      "Ġpr": 914,
      "ople": 915,
      "ange": 916,
      "ROPE": 917,
      "Ġroom": 918,
      "Qu": 919,
      "Ġfin": 920,
      "ory": 921,
      "Ġcle": 922,
      "Ġop": 923,
      "St": 924,
      "ft": 925,
      "Ġprogram": 926,
      "ose": 927,
      "own": 928,
      "30": 929,
      "ans": 930,
      "Ġrec": 931,
      "urre": 932,
      "ĠThe": 933,
      "ner": 934,
      "inut": 935,
      "Ġfind": 936,
      "An": 937,
      "Ġrequ": 938,
      "yst": 939,
      "arliament": 940,
      "Ġtrans": 941,
      "ROPEAN": 942,
      "Ġmake": 943,
      "ax": 944,
      "Ġsome": 945,
      "Ġsp": 946,
      "ĠPress": 947,
      "TEMS": 948,
      "ĠAg": 949,
      "Ġtherefore": 950,
      "So": 951,
      "Ġ10": 952,
      "Ġserv": 953,
      ").": 954,
      "Ġinv": 955,
      "Ġsc": 956,
      "Applause": 957,
      "ystem": 958,
      "Ġem": 959,
      "Ġdiff": 960,
      "ren": 961,
      "iron": 962,
      "Ġappro": 963,
      "OL": 964,
      "Ġuse": 965,
      "ward": 966,
      "Ġtoo": 967,
      "ĠComm": 968,
      "US": 969,
      "Minister": 970,
      "ual": 971,
      "Ġevery": 972,
      "Ġwebsite": 973,
      "Ġunder": 974,
      "ork": 975,
      "All": 976,
      "Ġrem": 977,
      "Ġpeople": 978,
      "Ġover": 979,
      "ved": 980,
      "uation": 981,
      "ATE": 982,
      "ck": 983,
      "Ġfollowing": 984,
      "Ġthink": 985,
      "Ġsit": 986,
      "Ġcase": 987,
      "ade": 988,
      "ater": 989,
      "hed": 990,
      "velopment": 991,
      "ond": 992,
      "000": 993,
      "On": 994,
      "These": 995,
      "ium": 996,
      "ĠUnion": 997,
      "ĠFin": 998,
      "Ġconc": 999,
      "More": 1000,
      "Ġlook": 1001,
      "io": 1002,
      "wn": 1003,
      "les": 1004,
      "eg": 1005,
      "ĠMar": 1006,
      "Ġcontact": 1007,
      "II": 1008,
      "ESS": 1009,
      "ough": 1010,
      "ina": 1011,
      "Ġbet": 1012,
      "Ġquestion": 1013,
      "ee": 1014,
      "Ġhotel": 1015,
      "ss": 1016,
      "Ġph": 1017,
      "Ġmod": 1018,
      "Contacts": 1019,
      "Ġhapp": 1020,
      "Ġfurther": 1021,
      "Ġproduct": 1022,
      "Ġthan": 1023,
      "Ġdec": 1024,
      "viron": 1025,
      "Ġ19": 1026,
      "35": 1027,
      "Ġbut": 1028,
      "ĠMember": 1029,
      "inutes": 1030,
      "Ġwell": 1031,
      "Fin": 1032,
      "ified": 1033,
      "rit": 1034,
      "Ġgu": 1035,
      "ues": 1036,
      "OUN": 1037,
      "als": 1038,
      "vironment": 1039,
      "ech": 1040,
      "ux": 1041,
      "urn": 1042,
      "old": 1043,
      "Ġget": 1044,
      "ĠAND": 1045,
      "Ġsub": 1046,
      "aly": 1047,
      "Ġ+": 1048,
      "ulture": 1049,
      "TR": 1050,
      "ics": 1051,
      "TER": 1052,
      "olution": 1053,
      "Ġob": 1054,
      "urrent": 1055,
      "Ġway": 1056,
      "Ġinto": 1057,
      "Ġpublic": 1058,
      "Ġent": 1059,
      "ries": 1060,
      "rib": 1061,
      "red": 1062,
      "ĠRepresent": 1063,
      "11": 1064,
      "ĠState": 1065,
      "Ġagree": 1066,
      "Ġadop": 1067,
      "ick": 1068,
      "not": 1069,
      "President": 1070,
      "ĠNo": 1071,
      "Ġra": 1072,
      "ady": 1073,
      "CIL": 1074,
      "Ġlong": 1075,
      "Ġbest": 1076,
      "Ġdes": 1077,
      "ood": 1078,
      "eration": 1079,
      "cial": 1080,
      "Ġbel": 1081,
      "ustice": 1082,
      "Ġsystem": 1083,
      "Ġcour": 1084,
      "ĠUN": 1085,
      "AT": 1086,
      "ĠEn": 1087,
      "Ġtheir": 1088,
      "Ġpri": 1089,
      "OUNCIL": 1090,
      "ermanent": 1091,
      "ĠSecret": 1092,
      "omet": 1093,
      "12": 1094,
      "roup": 1095,
      "Brussels": 1096,
      "Ġend": 1097,
      "EM": 1098,
      "Ġind": 1099,
      "ural": 1100,
      "HER": 1101,
      "clusions": 1102,
      "conomic": 1103,
      "Ġla": 1104,
      "Ġstart": 1105,
      "Ġass": 1106,
      "Ġmarket": 1107,
      "ision": 1108,
      "ism": 1109,
      "ages": 1110,
      "Ġ11": 1111,
      "Ġpolicy": 1112,
      "com": 1113,
      "ania": 1114,
      "PAR": 1115,
      "ality": 1116,
      "Ġ14": 1117,
      "Ġtr": 1118,
      "ĠRepresentative": 1119,
      "ocial": 1120,
      "ives": 1121,
      "Ġclear": 1122,
      "tect": 1123,
      "arge": 1124,
      "Ġmany": 1125,
      "rest": 1126,
      "ef": 1127,
      "Ġeff": 1128,
      "elcome": 1129,
      "Ġman": 1130,
      "Ġworld": 1131,
      "Ġwhich": 1132,
      "PP": 1133,
      "Ġsim": 1134,
      "He": 1135,
      "ĠPermanent": 1136,
      "Ġsay": 1137,
      "ited": 1138,
      "alk": 1139,
      "illion": 1140,
      "Do": 1141,
      "Ġmat": 1142,
      "Ġwho": 1143,
      "Ġinst": 1144,
      "lp": 1145,
      "ular": 1146,
      "fter": 1147,
      "elf": 1148,
      "ria": 1149,
      "Ġgreat": 1150,
      "Ġdisc": 1151,
      "ĠSecretary": 1152,
      "Ġdet": 1153,
      "ĠJustice": 1154,
      "Ġplease": 1155,
      "OT": 1156,
      "Ġcannot": 1157,
      "Ġpartic": 1158,
      "Ġke": 1159,
      "Ġagainst": 1160,
      "Ġtak": 1161,
      "Ġyears": 1162,
      "ann": 1163,
      "ik": 1164,
      "ostels": 1165,
      "Ġspeak": 1166,
      "Ġac": 1167,
      "ices": 1168,
      "Ġposs": 1169,
      "Ġpers": 1170,
      "However": 1171,
      "Ġ199": 1172,
      "Ġinte": 1173,
      "Ġloc": 1174,
      "Ġimp": 1175,
      "rate": 1176,
      "way": 1177,
      "ency": 1178,
      "estions": 1179,
      "ermany": 1180,
      "Ġvis": 1181,
      "pain": 1182,
      "ieve": 1183,
      "Our": 1184,
      "Ġadopted": 1185,
      "Ġmain": 1186,
      "AC": 1187,
      "Please": 1188,
      "ĠY": 1189,
      "plo": 1190,
      "mer": 1191,
      "Ġmade": 1192,
      "Ġmeas": 1193,
      "Ġatt": 1194,
      "Ġstill": 1195,
      "Ġconcern": 1196,
      "ict": 1197,
      "ath": 1198,
      "lick": 1199,
      "Ġbu": 1200,
      "Ġconf": 1201,
      "Ġopen": 1202,
      "Ġrel": 1203,
      "ient": 1204,
      "Ġmost": 1205,
      "ased": 1206,
      "Ġproject": 1207,
      "Ġlast": 1208,
      "Is": 1209,
      "line": 1210,
      "Ġ20": 1211,
      "sw": 1212,
      "ENT": 1213,
      "Ġinclud": 1214,
      "Ġresult": 1215,
      "ĠEUROPEAN": 1216,
      "uty": 1217,
      "Ġprov": 1218,
      "âĤ": 1219,
      "âĤ¬": 1220,
      "ĠReg": 1221,
      "arm": 1222,
      "Ġfe": 1223,
      "Ġconclusions": 1224,
      "orrow": 1225,
      "Ġresp": 1226,
      "IR": 1227,
      "THE": 1228,
      "we": 1229,
      "Why": 1230,
      "Ġext": 1231,
      "oy": 1232,
      "over": 1233,
      "Ġsituation": 1234,
      "Ġtoday": 1235,
      "Ġset": 1236,
      "ĠUNION": 1237,
      "ourg": 1238,
      "General": 1239,
      "Ġcent": 1240,
      "Ġwhy": 1241,
      "der": 1242,
      "ata": 1243,
      "Ġnum": 1244,
      "lands": 1245,
      "Ġsame": 1246,
      "Ġcourse": 1247,
      "Ġref": 1248,
      "ĠCon": 1249,
      "Ġlist": 1250,
      "Ġhelp": 1251,
      "Ġdiffere": 1252,
      "Ġthen": 1253,
      "20": 1254,
      "oth": 1255,
      "nce": 1256,
      "Ġexam": 1257,
      "Ġ15": 1258,
      "Ch": 1259,
      "ier": 1260,
      "Ġthree": 1261,
      "To": 1262,
      "ority": 1263,
      "Ġtom": 1264,
      "ock": 1265,
      "Ġ295": 1266,
      "operation": 1267,
      "Ġproced": 1268,
      "omp": 1269,
      "ines": 1270,
      "elg": 1271,
      "ITEMS": 1272,
      "ploy": 1273,
      "ruct": 1274,
      "Ġwhen": 1275,
      "ating": 1276,
      "If": 1277,
      "ĠPRO": 1278,
      "Ġcurrent": 1279,
      "Ġfree": 1280,
      "Ġform": 1281,
      "ract": 1282,
      "Ġviews": 1283,
      "wit": 1284,
      "Ġfound": 1285,
      "Ġtomorrow": 1286,
      "ope": 1287,
      "ancial": 1288,
      "ouse": 1289,
      "Ġissue": 1290,
      "Ġdone": 1291,
      "Ġcall": 1292,
      "ĠREL": 1293,
      "Ġprogramme": 1294,
      "Ġpage": 1295,
      "hip": 1296,
      "Ġ,": 1297,
      "Ġthank": 1298,
      "En": 1299,
      "irective": 1300,
      "Re": 1301,
      "Ġval": 1302,
      "EX": 1303,
      "Ġplay": 1304,
      "ession": 1305,
      "Ġcountries": 1306,
      "Ġmay": 1307,
      "Ġarea": 1308,
      "ung": 1309,
      "Ġhis": 1310,
      "Ġchange": 1311,
      "Ġstate": 1312,
      "Ġ2009": 1313,
      "ĠFinance": 1314,
      "Ġshall": 1315,
      "ET": 1316,
      "its": 1317,
      "Ġleg": 1318,
      "vent": 1319,
      "itte": 1320,
      "Ġdel": 1321,
      "uture": 1322,
      "ready": 1323,
      "ĠPol": 1324,
      "ull": 1325,
      "fe": 1326,
      "ether": 1327,
      "Ġcomple": 1328,
      "Ġdid": 1329,
      "Ġdown": 1330,
      "Ġask": 1331,
      "Ġreas": 1332,
      "olog": 1333,
      "Ġansw": 1334,
      "ring": 1335,
      "ars": 1336,
      "vers": 1337,
      "Let": 1338,
      "wed": 1339,
      "Ġsomet": 1340,
      "mail": 1341,
      "ration": 1342,
      "ĠDEB": 1343,
      "Ġproducts": 1344,
      "ĠDEBATE": 1345,
      "Ġnext": 1346,
      "Ġday": 1347,
      "cond": 1348,
      "Ġ13": 1349,
      "ways": 1350,
      "Pro": 1351,
      "Ex": 1352,
      "Slo": 1353,
      "ning": 1354,
      "elgium": 1355,
      "DE": 1356,
      "Ġcould": 1357,
      "ustria": 1358,
      "Un": 1359,
      "Ġap": 1360,
      "reland": 1361,
      "ĠMinutes": 1362,
      "uxemb": 1363,
      "Ġmatter": 1364,
      "Ġmillion": 1365,
      "Ġsm": 1366,
      "mark": 1367,
      "raph": 1368,
      "Ġdem": 1369,
      "Ġrep": 1370,
      "Ġown": 1371,
      "ption": 1372,
      "Ġpossible": 1373,
      "Den": 1374,
      "Ġalready": 1375,
      "ale": 1376,
      "ĠStates": 1377,
      "PAN": 1378,
      "No": 1379,
      "Ġhad": 1380,
      "uxembourg": 1381,
      "Question": 1382,
      "rough": 1383,
      "hes": 1384,
      "Ġser": 1385,
      "itting": 1386,
      "Ġif": 1387,
      "Ġcontin": 1388,
      "ris": 1389,
      "Ġmeasures": 1390,
      "Ġdetail": 1391,
      "ves": 1392,
      "Ġinc": 1393,
      "Ġinf": 1394,
      "Ġstand": 1395,
      "ules": 1396,
      "unic": 1397,
      "Ġhowever": 1398,
      "Ġbus": 1399,
      "ternal": 1400,
      "Ġfav": 1401,
      "ases": 1402,
      "Ġsecond": 1403,
      "the": 1404,
      "unity": 1405,
      "Further": 1406,
      "Ġprotect": 1407,
      "Ġhappen": 1408,
      "Ġhigh": 1409,
      "ĠZ": 1410,
      "ourt": 1411,
      "etherlands": 1412,
      "15": 1413,
      "ately": 1414,
      "iness": 1415,
      "eputy": 1416,
      "TICI": 1417,
      "ST": 1418,
      "OP": 1419,
      "ulation": 1420,
      "riculture": 1421,
      "Italy": 1422,
      "Ġdef": 1423,
      "ered": 1424,
      "ave": 1425,
      "reak": 1426,
      "ix": 1427,
      "rat": 1428,
      "Ġcol": 1429,
      "aria": 1430,
      "PANTS": 1431,
      "Ġsomething": 1432,
      "TICIPANTS": 1433,
      "Ġsuch": 1434,
      "Ġaction": 1435,
      "IL": 1436,
      "Ġrest": 1437,
      "uc": 1438,
      "PARTICIPANTS": 1439,
      "As": 1440,
      "Spain": 1441,
      "ĠEuro": 1442,
      "ittee": 1443,
      "weden": 1444,
      "40": 1445,
      "At": 1446,
      "inc": 1447,
      "Ġ30": 1448,
      "ccess": 1449,
      "alth": 1450,
      "olid": 1451,
      "Ġsitting": 1452,
      "Ġcome": 1453,
      "urity": 1454,
      "Ġaccess": 1455,
      "Ġ2007": 1456,
      "ertain": 1457,
      "ital": 1458,
      "Ġquestions": 1459,
      "rol": 1460,
      "Ġnumber": 1461,
      "iet": 1462,
      "uman": 1463,
      "ek": 1464,
      "uth": 1465,
      "Ġreally": 1466,
      "Ġ18": 1467,
      "CE": 1468,
      "ĠAl": 1469,
      "Ġfuture": 1470,
      "Ġpay": 1471,
      "Ġprocess": 1472,
      "Ġproposal": 1473,
      "ower": 1474,
      "gan": 1475,
      "ĠIN": 1476,
      "ily": 1477,
      "quir": 1478,
      "ĠAn": 1479,
      "ĠRepublic": 1480,
      "Ġint": 1481,
      "ts": 1482,
      "rance": 1483,
      "ird": 1484,
      "Ġcar": 1485,
      "Ġeven": 1486,
      "AM": 1487,
      "ty": 1488,
      "Ġvoted": 1489,
      "rong": 1490,
      "Ġvotes": 1491,
      "iel": 1492,
      "ised": 1493,
      "fort": 1494,
      "PR": 1495,
      "mb": 1496,
      "Ġ25": 1497,
      "Ġche": 1498,
      "ains": 1499,
      "Ġcost": 1500,
      "Ã¼": 1501,
      "ĠAnd": 1502,
      "Not": 1503,
      "ger": 1504,
      "tic": 1505,
      "Ġalways": 1506,
      "ool": 1507,
      "Ġmet": 1508,
      "Ġinvest": 1509,
      "Ġdifferent": 1510,
      "aj": 1511,
      "Belgium": 1512,
      "Ġread": 1513,
      "ces": 1514,
      "Ġback": 1515,
      "Lat": 1516,
      "ince": 1517,
      "angu": 1518,
      "Ġvisit": 1519,
      "Ġdata": 1520,
      "ĠParliament": 1521,
      "ows": 1522,
      "Ġ16": 1523,
      "ĠAr": 1524,
      "CH": 1525,
      "Ġobject": 1526,
      "up": 1527,
      "ule": 1528,
      "inist": 1529,
      "TERN": 1530,
      "Ġword": 1531,
      "Ġfavour": 1532,
      "bal": 1533,
      "Ġeas": 1534,
      "other": 1535,
      "Are": 1536,
      "ternational": 1537,
      "Ġpress": 1538,
      "Ġhope": 1539,
      "Ġbeing": 1540,
      "ving": 1541,
      "Ad": 1542,
      "ral": 1543,
      "Ġfund": 1544,
      "):": 1545,
      "Luxembourg": 1546,
      "ĠCo": 1547,
      "Austria": 1548,
      "Ġbo": 1549,
      "ĠâĤ¬": 1550,
      "ROV": 1551,
      "Ġcor": 1552,
      "Book": 1553,
      "cess": 1554,
      "ING": 1555,
      "ience": 1556,
      "Ġwithout": 1557,
      "Ireland": 1558,
      "ests": 1559,
      "Ġpresent": 1560,
      "Ġforward": 1561,
      "udget": 1562,
      "lish": 1563,
      "ĠPOL": 1564,
      "rist": 1565,
      "Ġperson": 1566,
      "Sub": 1567,
      "ĠAPP": 1568,
      "co": 1569,
      "Ġorder": 1570,
      "Ġ2010": 1571,
      "ins": 1572,
      "ards": 1573,
      "Ġrece": 1574,
      "val": 1575,
      "arch": 1576,
      "cu": 1577,
      "Ġneeds": 1578,
      "Ġdevelopment": 1579,
      "Parliament": 1580,
      "Ġpoints": 1581,
      "See": 1582,
      "quiries": 1583,
      "Ġinter": 1584,
      "Ġrooms": 1585,
      "rade": 1586,
      "thing": 1587,
      "Ġfact": 1588,
      "Ġ17": 1589,
      "13": 1590,
      "ten": 1591,
      "UR": 1592,
      "Ġ2008": 1593,
      "Denmark": 1594,
      "ID": 1595,
      "Ġaccept": 1596,
      "OTHER": 1597,
      "Ġreal": 1598,
      "Ġexp": 1599,
      "ners": 1600,
      "Ġwat": 1601,
      "Ġmeet": 1602,
      "ware": 1603,
      "iss": 1604,
      "Ġanswer": 1605,
      "az": 1606,
      "Ġgroup": 1607,
      "ĠRes": 1608,
      "load": 1609,
      "Ġbelieve": 1610,
      "ployment": 1611,
      "Ġpolit": 1612,
      "Finland": 1613,
      "Here": 1614,
      "Ġfew": 1615,
      "witter": 1616,
      "AG": 1617,
      "Sweden": 1618,
      "led": 1619,
      "ĠX": 1620,
      "Germany": 1621,
      "Ġsec": 1622,
      "istance": 1623,
      "Ġfar": 1624,
      "Ġused": 1625,
      "ATIONS": 1626,
      "Comm": 1627,
      "Ġwhere": 1628,
      "Ġ!": 1629,
      "oney": 1630,
      "Ġoffer": 1631,
      "ĠAPPROV": 1632,
      "ĠAPPROVED": 1633,
      "Pol": 1634,
      "ĠDEBATED": 1635,
      "ĠDeputy": 1636,
      "CON": 1637,
      "view": 1638,
      "Ġpack": 1639,
      "uring": 1640,
      "ĠĠĠĠ": 1641,
      "Ġsur": 1642,
      "arn": 1643,
      "02": 1644,
      "ustom": 1645,
      "err": 1646,
      "Ġstep": 1647,
      "ional": 1648,
      "urs": 1649,
      "mber": 1650,
      "ior": 1651,
      "ĠInformation": 1652,
      "Ġsign": 1653,
      "Ġbl": 1654,
      "Netherlands": 1655,
      "ants": 1656,
      "Ġthings": 1657,
      "Ġrequire": 1658,
      "Al": 1659,
      "arg": 1660,
      "Ġide": 1661,
      "Ġamend": 1662,
      "Ġfl": 1663,
      "chn": 1664,
      "Ġparticular": 1665,
      "igures": 1666,
      "Ġagreement": 1667,
      "ĠPl": 1668,
      "Ġgive": 1669,
      "duc": 1670,
      "eb": 1671,
      "Ġach": 1672,
      "My": 1673,
      "une": 1674,
      "Ġtext": 1675,
      "Ġchild": 1676,
      "Ġrights": 1677,
      "ining": 1678,
      "pa": 1679,
      "ting": 1680,
      "Ġcut": 1681,
      "iven": 1682,
      "46": 1683,
      "ĠJan": 1684,
      "ished": 1685,
      "embers": 1686,
      "Ġupd": 1687,
      "Ġequ": 1688,
      "Ġwelcome": 1689,
      "ĠTwitter": 1690,
      "Ġeffect": 1691,
      "Now": 1692,
      "Ġresolution": 1693,
      "ĠPOLIC": 1694,
      "ritt": 1695,
      "OS": 1696,
      "ĠWe": 1697,
      "09": 1698,
      "ween": 1699,
      "ibility": 1700,
      "Ġbetter": 1701,
      "imes": 1702,
      "Ġthrough": 1703,
      "Ġcertain": 1704,
      "UL": 1705,
      "Ġair": 1706,
      "Ġrules": 1707,
      "Ġaddress": 1708,
      "acy": 1709,
      "Ġgoing": 1710,
      "ĠPOLICY": 1711,
      "Ġinquiries": 1712,
      "Ġtaken": 1713,
      "erence": 1714,
      "olut": 1715,
      "plement": 1716,
      "EAS": 1717,
      "ĠEx": 1718,
      "ause": 1719,
      "ANS": 1720,
      "TEN": 1721,
      "Ġadv": 1722,
      "Ġcre": 1723,
      "16": 1724,
      "50": 1725,
      "ield": 1726,
      "FF": 1727,
      "Ġsuccess": 1728,
      "Commissioner": 1729,
      "COUNCIL": 1730,
      "Ġspec": 1731,
      "nov": 1732,
      "Ġoper": 1733,
      "Ġdirect": 1734,
      "Ġhand": 1735,
      "Ġ/": 1736,
      "onia": 1737,
      "Ġcountry": 1738,
      "work": 1739,
      "14": 1740,
      "Ġafter": 1741,
      "ĠCOUNCIL": 1742,
      "Ġrequest": 1743,
      "Ġservice": 1744,
      "Ġonline": 1745,
      "TERNAL": 1746,
      "IP": 1747,
      "outh": 1748,
      "ritten": 1749,
      "isation": 1750,
      "etition": 1751,
      "Ġkey": 1752,
      "ĠTh": 1753,
      "riend": 1754,
      "Con": 1755,
      "Ġexample": 1756,
      "Ġchang": 1757,
      "Ġinterest": 1758,
      "Ġput": 1759,
      "Ã¶": 1760,
      "Ġdocu": 1761,
      "Ġed": 1762,
      "ather": 1763,
      "98": 1764,
      "ah": 1765,
      "vention": 1766,
      "Ġresults": 1767,
      "Ġsmall": 1768,
      "reen": 1769,
      "Ġty": 1770,
      "ĠHe": 1771,
      "Ġdetails": 1772,
      "Ġfun": 1773,
      "Ġbetween": 1774,
      "OMM": 1775,
      "Ġbefore": 1776,
      "men": 1777,
      "IA": 1778,
      "Ġnoon": 1779,
      "reed": 1780,
      "Ġtechn": 1781,
      "Ġmoney": 1782,
      "Ġenough": 1783,
      "Ġtool": 1784,
      "ĠJu": 1785,
      "Ġprocedure": 1786,
      "Ġwish": 1787,
      "ĠAm": 1788,
      "Ant": 1789,
      "22": 1790,
      "Ġservices": 1791,
      "Ġexper": 1792,
      "vious": 1793,
      "Ġ24": 1794,
      "Ġbusiness": 1795,
      "iti": 1796,
      "Ġissues": 1797,
      "Ġmak": 1798,
      "eel": 1799,
      "Ġpass": 1800,
      "ided": 1801,
      "umm": 1802,
      "orth": 1803,
      "Ġtalk": 1804,
      "Ġsite": 1805,
      "ours": 1806,
      "ĠMrs": 1807,
      "Other": 1808,
      "uff": 1809,
      "ungary": 1810,
      "ternet": 1811,
      "ommend": 1812,
      "Im": 1813,
      "Ġfam": 1814,
      "Ġspecial": 1815,
      "Ġname": 1816,
      "ME": 1817,
      "ĠDevelopment": 1818,
      "MENT": 1819,
      "03": 1820,
      "Follow": 1821,
      "Ġgrow": 1822,
      "Ġsect": 1823,
      "Ġshort": 1824,
      "Ġaid": 1825,
      "Ġcho": 1826,
      "ness": 1827,
      "Can": 1828,
      "tal": 1829,
      "rategy": 1830,
      "Ġrespons": 1831,
      "Ġlot": 1832,
      "ĠAgriculture": 1833,
      "via": 1834,
      "Ġflo": 1835,
      "ypr": 1836,
      "Ġincre": 1837,
      "urg": 1838,
      "Ġdays": 1839,
      "Ġher": 1840,
      "yprus": 1841,
      "ergy": 1842,
      "pare": 1843,
      "ination": 1844,
      "Ġturn": 1845,
      "ize": 1846,
      "Ġreason": 1847,
      "aff": 1848,
      "DF": 1849,
      "First": 1850,
      "stand": 1851,
      ".:": 1852,
      "LE": 1853,
      "gress": 1854,
      "zech": 1855,
      "na": 1856,
      "Ġversion": 1857,
      "Ġprice": 1858,
      "EASE": 1859,
      "Ġcontrol": 1860,
      "Est": 1861,
      "isk": 1862,
      "Ġ28": 1863,
      "ĠII": 1864,
      "97": 1865,
      "Ġspeaker": 1866,
      "Ġhostels": 1867,
      "352": 1868,
      "ually": 1869,
      "ash": 1870,
      "Ġboth": 1871,
      "OV": 1872,
      "TU": 1873,
      "Ġpur": 1874,
      "ĠCourt": 1875,
      "Ġprotection": 1876,
      "Comp": 1877,
      "lobal": 1878,
      "ists": 1879,
      "ĠPROC": 1880,
      "less": 1881,
      "itions": 1882,
      "ery": 1883,
      "Ġfull": 1884,
      "que": 1885,
      "orities": 1886,
      "ature": 1887,
      "Ġpar": 1888,
      "Ġproblems": 1889,
      "ides": 1890,
      "Ġ45": 1891,
      "Ġquite": 1892,
      "ott": 1893,
      "Ġeach": 1894,
      "Ġcap": 1895,
      "Ġexpl": 1896,
      "Ġenergy": 1897,
      "Ġest": 1898,
      "Ġlaw": 1899,
      "Ġ22": 1900,
      "96": 1901,
      "Get": 1902,
      "ension": 1903,
      "club": 1904,
      "ĠRELEASE": 1905,
      "Ġthose": 1906,
      "Ġconsid": 1907,
      "itiz": 1908,
      "ĠIs": 1909,
      "ability": 1910,
      "au": 1911,
      "Ġlink": 1912,
      "rices": 1913,
      "Ġret": 1914,
      "Ġreform": 1915,
      "ĠMAR": 1916,
      "ANN": 1917,
      "Ġenvironment": 1918,
      "201": 1919,
      "Ġprojects": 1920,
      "org": 1921,
      "ĠInter": 1922,
      "venia": 1923,
      "ithu": 1924,
      "anguage": 1925,
      "Ġbr": 1926,
      "ĠHostels": 1927,
      "ĠBe": 1928,
      "ĠNew": 1929,
      "Ġfil": 1930,
      "Ġins": 1931,
      "Ag": 1932,
      "lation": 1933,
      "Ġbook": 1934,
      "Ġphone": 1935,
      "joy": 1936,
      "Ġclick": 1937,
      "AIR": 1938,
      "Ġel": 1939,
      "Ġdecision": 1940,
      "ights": 1941,
      "ĠHostelsclub": 1942,
      "Ġless": 1943,
      "ffice": 1944,
      "Ġbas": 1945,
      "Ġexpect": 1946,
      "dom": 1947,
      "enda": 1948,
      "Ġselect": 1949,
      "ters": 1950,
      "eng": 1951,
      "onth": 1952,
      "ys": 1953,
      "itted": 1954,
      "Ġbudget": 1955,
      "ervice": 1956,
      "nment": 1957,
      "Ġapproach": 1958,
      "ĠCommittee": 1959,
      "18": 1960,
      "vak": 1961,
      "Ġmed": 1962,
      "rem": 1963,
      "leg": 1964,
      "ulg": 1965,
      "nex": 1966,
      "Ġ&": 1967,
      "ingle": 1968,
      "ĠAs": 1969,
      "Ġhuman": 1970,
      "etwork": 1971,
      "Ġlet": 1972,
      "Ġwaters": 1973,
      "75": 1974,
      "Ġ?": 1975,
      "Ġbeg": 1976,
      "incip": 1977,
      "Ġpolitical": 1978,
      "Tel": 1979,
      "iation": 1980,
      "ĠEconomic": 1981,
      "Ġtrue": 1982,
      "ceed": 1983,
      "Ġactiv": 1984,
      "Ġunt": 1985,
      "One": 1986,
      "fast": 1987,
      "Ġmin": 1988,
      "Ġben": 1989,
      "Ġdist": 1990,
      "of": 1991,
      "ĠMay": 1992,
      "Ġlife": 1993,
      "IB": 1994,
      "Some": 1995,
      "Ġsocial": 1996,
      "ĠAd": 1997,
      "ithuania": 1998,
      "ets": 1999,
      "ĠITEMS": 2000,
      "imate": 2001,
      "Ġtrade": 2002,
      "Ġimpro": 2003,
      "Ġmention": 2004,
      "Ġdeal": 2005,
      "cri": 2006,
      "itional": 2007,
      "ITH": 2008,
      "pes": 2009,
      "ĠSocial": 2010,
      "ias": 2011,
      "Ġareas": 2012,
      "Ġlevel": 2013,
      "ĠUS": 2014,
      "obile": 2015,
      "reakfast": 2016,
      "pro": 2017,
      "ĠCON": 2018,
      "ply": 2019,
      "Ġfriend": 2020,
      "Ġcity": 2021,
      "ross": 2022,
      "omb": 2023,
      "CIAL": 2024,
      "Ġaccount": 2025,
      "ents": 2026,
      "Ġeuro": 2027,
      "Ġrun": 2028,
      "Ġgen": 2029,
      "Ġmeans": 2030,
      "UN": 2031,
      "Ġaround": 2032,
      "ote": 2033,
      "agement": 2034,
      "ification": 2035,
      "Who": 2036,
      "ĠJuly": 2037,
      "ittle": 2038,
      "EUROPEAN": 2039,
      "orm": 2040,
      "par": 2041,
      "ĠCl": 2042,
      "Ġweek": 2043,
      "omania": 2044,
      "Your": 2045,
      "Ġcustom": 2046,
      "17": 2047,
      "95": 2048,
      "ense": 2049,
      "amp": 2050,
      "PRESS": 2051,
      "Poland": 2052,
      "Ġyet": 2053,
      "ĠLe": 2054,
      "ĠEnvironment": 2055,
      "Ġeasy": 2056,
      "Where": 2057,
      "itive": 2058,
      "ential": 2059,
      "),": 2060,
      "ĠJune": 2061,
      "ribution": 2062,
      "Ġbeh": 2063,
      "AD": 2064,
      "With": 2065,
      "Ġold": 2066,
      "ĠAFF": 2067,
      "Ġcooperation": 2068,
      "ĠSc": 2069,
      "ĠProgram": 2070,
      "Ġmonth": 2071,
      "ortug": 2072,
      "Ġexc": 2073,
      "Ġsince": 2074,
      "Ġthing": 2075,
      "Ġcurrently": 2076,
      "omen": 2077,
      "Ġcond": 2078,
      "AIRS": 2079,
      "ĠAFFAIRS": 2080,
      "ĠInd": 2081,
      "ĠRE": 2082,
      "ĠBar": 2083,
      "Its": 2084,
      "ica": 2085,
      "Ġhim": 2086,
      "ransport": 2087,
      "ij": 2088,
      "ources": 2089,
      "ex": 2090,
      "udg": 2091,
      "Ġrespect": 2092,
      "Ġnothing": 2093,
      "part": 2094,
      "Ġfour": 2095,
      "ody": 2096,
      "risis": 2097,
      "Ġprom": 2098,
      "Ġbecome": 2099,
      "Ġfinancial": 2100,
      "Ġbed": 2101,
      "ined": 2102,
      "ultural": 2103,
      "ext": 2104,
      "Ġthird": 2105,
      "De": 2106,
      "Ġnever": 2107,
      "itizens": 2108,
      "Ġ21": 2109,
      "Ġcomments": 2110,
      "ulgaria": 2111,
      "Europe": 2112,
      "got": 2113,
      "Hungary": 2114,
      "IM": 2115,
      "Ġappl": 2116,
      "ĠFOR": 2117,
      "Ġ296": 2118,
      "Ġrecommend": 2119,
      "Ġtransport": 2120,
      "Ġsk": 2121,
      "Ġchildren": 2122,
      "ĠWOR": 2123,
      "33": 2124,
      "echn": 2125,
      "aur": 2126,
      "Ġtax": 2127,
      "Ġfield": 2128,
      "isc": 2129,
      "orn": 2130,
      "nergy": 2131,
      "Ġuntil": 2132,
      "Ġanother": 2133,
      "Ġcontinue": 2134,
      "glish": 2135,
      "ari": 2136,
      "ean": 2137,
      "Ġnecess": 2138,
      "Ġdevelop": 2139,
      "conomy": 2140,
      "Ġelect": 2141,
      "ĠDirective": 2142,
      "ĠWITH": 2143,
      "Ġcompany": 2144,
      "ribut": 2145,
      "Ġlead": 2146,
      "Ġprincip": 2147,
      "ology": 2148,
      "Ġlittle": 2149,
      "Ġsupp": 2150,
      "Ġquality": 2151,
      "Welcome": 2152,
      "Ġ299": 2153,
      "Ġaim": 2154,
      "25": 2155,
      "Ġz": 2156,
      "Ġbig": 2157,
      "Ġsector": 2158,
      "vakia": 2159,
      "AP": 2160,
      "ode": 2161,
      "ron": 2162,
      "ustry": 2163,
      "Member": 2164,
      "isher": 2165,
      "Ġgeneral": 2166,
      "Ġele": 2167,
      "Ġevent": 2168,
      "Ġkind": 2169,
      "Slovenia": 2170,
      "Ġmean": 2171,
      "rid": 2172,
      "ustain": 2173,
      "Ġwhole": 2174,
      "Ġfloor": 2175,
      "Ġlegis": 2176,
      "04": 2177,
      "Written": 2178,
      "Ġposition": 2179,
      "Ġwin": 2180,
      "Ġwater": 2181,
      "Ġcrit": 2182,
      "itor": 2183,
      "room": 2184,
      "ĠAf": 2185,
      "Ġmom": 2186,
      "Ġdou": 2187,
      "ically": 2188,
      "Ġoffers": 2189,
      "Ġpract": 2190,
      "Ġterm": 2191,
      "Ġdoing": 2192,
      "Ġshare": 2193,
      "Ġapplic": 2194,
      "Tod": 2195,
      "oura": 2196,
      "Ġtools": 2197,
      "IG": 2198,
      "Ġlim": 2199,
      "Ġminutes": 2200,
      "Every": 2201,
      "med": 2202,
      "ĠSe": 2203,
      "Ġorgan": 2204,
      "isions": 2205,
      "ingdom": 2206,
      "Lithuania": 2207,
      "Sec": 2208,
      "Ġmaj": 2209,
      "ĠCol": 2210,
      "Ġaway": 2211,
      "ently": 2212,
      "sel": 2213,
      "86": 2214,
      "ĠPDF": 2215,
      "Estonia": 2216,
      "Ġbuild": 2217,
      "Ġmove": 2218,
      "AF": 2219,
      "New": 2220,
      "Ġconcerns": 2221,
      "Ġcomment": 2222,
      "Latvia": 2223,
      "Cyprus": 2224,
      "Click": 2225,
      "Ġtop": 2226,
      "ems": 2227,
      "State": 2228,
      "Ġpict": 2229,
      "ober": 2230,
      "self": 2231,
      "Ġ000": 2232,
      "Ġgraph": 2233,
      "Ġmot": 2234,
      "Ġparticip": 2235,
      "icult": 2236,
      "Ġphot": 2237,
      "nect": 2238,
      "Ġcare": 2239,
      "Then": 2240,
      "Ġconst": 2241,
      "Ġabs": 2242,
      "ask": 2243,
      "ĠSh": 2244,
      "Ġ@": 2245,
      "iting": 2246,
      "Ġple": 2247,
      "aps": 2248,
      "Ġdesign": 2249,
      "Czech": 2250,
      "Ġprices": 2251,
      "Ġdate": 2252,
      "lex": 2253,
      "Ġ2000": 2254,
      "otal": 2255,
      "Ġbenef": 2256,
      "ced": 2257,
      "ogue": 2258,
      "05": 2259,
      "ront": 2260,
      "unication": 2261,
      "Ġ*": 2262,
      "ortugal": 2263,
      "Ġfinal": 2264,
      "Pri": 2265,
      "aris": 2266,
      "Ġfac": 2267,
      "Ġdownload": 2268,
      "iod": 2269,
      "45": 2270,
      "af": 2271,
      "Ġprogress": 2272,
      "Ġnews": 2273,
      "ORT": 2274,
      "ĠChrist": 2275,
      "ĠPROCESS": 2276,
      "mes": 2277,
      "ras": 2278,
      "Ġgover": 2279,
      "Ġdifficult": 2280,
      "Ġ27": 2281,
      "Be": 2282,
      "ocus": 2283,
      "Ġallow": 2284,
      "IV": 2285,
      "man": 2286,
      "199": 2287,
      "ivers": 2288,
      "ederal": 2289,
      "Ġdra": 2290,
      "Ġpriv": 2291,
      "ĠMEM": 2292,
      "alf": 2293,
      "Ġremain": 2294,
      "Ġwords": 2295,
      "reement": 2296,
      "27": 2297,
      "Sh": 2298,
      "aut": 2299,
      "ITY": 2300,
      "Ġtotal": 2301,
      "inistry": 2302,
      "Ind": 2303,
      "ource": 2304,
      "ĠGu": 2305,
      "do": 2306,
      "Res": 2307,
      "Ġsl": 2308,
      "ĠPolicy": 2309,
      "Ġprof": 2310,
      "sc": 2311,
      "AB": 2312,
      "France": 2313,
      "ele": 2314,
      "rect": 2315,
      "Ġrele": 2316,
      "Ġworking": 2317,
      "raq": 2318,
      "303": 2319,
      "ĠAss": 2320,
      "Ġleft": 2321,
      "Ġrepresent": 2322,
      "Ġtimes": 2323,
      "Ġsolution": 2324,
      "Ġconsult": 2325,
      "TENTS": 2326,
      "oh": 2327,
      "Ġappe": 2328,
      "key": 2329,
      "ĠReport": 2330,
      "Ġsimply": 2331,
      "Ġsubject": 2332,
      "Ġ2006": 2333,
      "ĠTrade": 2334,
      "Ġ50": 2335,
      "Ġrole": 2336,
      "Ġstud": 2337,
      "CONTENTS": 2338,
      "ĠCent": 2339,
      "Website": 2340,
      "Ġauth": 2341,
      "Ġlooking": 2342,
      "fect": 2343,
      "After": 2344,
      "ising": 2345,
      "Ġrisk": 2346,
      "Ġsecurity": 2347,
      "inion": 2348,
      "Ġassistance": 2349,
      "Ġve": 2350,
      "Ġjo": 2351,
      "aper": 2352,
      "Ġdemoc": 2353,
      "ĠMarch": 2354,
      "Of": 2355,
      "Rule": 2356,
      "unately": 2357,
      "ffic": 2358,
      "Ġinclude": 2359,
      "novation": 2360,
      "Ġmoment": 2361,
      "Or": 2362,
      "ĠMan": 2363,
      "Ġshe": 2364,
      "Subject": 2365,
      "Ġmon": 2366,
      "pecial": 2367,
      "ĠBrussels": 2368,
      "Ġlo": 2369,
      "SION": 2370,
      "Ġstaff": 2371,
      "Ġimplement": 2372,
      "Ġcheck": 2373,
      "ator": 2374,
      "Ġeconomic": 2375,
      "ĠRELATIONS": 2376,
      "ĠProgramme": 2377,
      "pen": 2378,
      "entle": 2379,
      "Ġstuff": 2380,
      "wards": 2381,
      "Ġmodified": 2382,
      "Slovakia": 2383,
      "Ġgiven": 2384,
      "ĠFran": 2385,
      "ĠFund": 2386,
      "Ġcosts": 2387,
      "19": 2388,
      "gg": 2389,
      "Ġvalue": 2390,
      "ipp": 2391,
      "nes": 2392,
      "ĠIt": 2393,
      "Ġnecessary": 2394,
      "eter": 2395,
      "Ġcommon": 2396,
      "udgment": 2397,
      "Ġthough": 2398,
      "Ġnotified": 2399,
      "Ġguests": 2400,
      "earch": 2401,
      "ructure": 2402,
      "DP": 2403,
      "Ġi": 2404,
      "Ġweb": 2405,
      "Annex": 2406,
      "IES": 2407,
      "orld": 2408,
      "Ġhot": 2409,
      "Ġunderstand": 2410,
      "37": 2411,
      "Ġopport": 2412,
      "elations": 2413,
      "Ġconclud": 2414,
      "duct": 2415,
      "UM": 2416,
      "arity": 2417,
      "Ġ%": 2418,
      "resid": 2419,
      "ĠEURO": 2420,
      "Ġ4303": 2421,
      "Ġapart": 2422,
      "ĠCO": 2423,
      "imum": 2424,
      ".)": 2425,
      "Today": 2426,
      "ticle": 2427,
      "ĠInterior": 2428,
      "ĠHouse": 2429,
      "ANNEX": 2430,
      "ĠAnt": 2431,
      "ats": 2432,
      "Ġpower": 2433,
      "ances": 2434,
      "Ġstatements": 2435,
      "bo": 2436,
      "Ġgraphics": 2437,
      "adies": 2438,
      "Ġplan": 2439,
      "vest": 2440,
      "Ġcrisis": 2441,
      "pril": 2442,
      "AV": 2443,
      "ducation": 2444,
      "Ġann": 2445,
      "ĠGe": 2446,
      "Ġserious": 2447,
      "Ġpackage": 2448,
      "eu": 2449,
      "ino": 2450,
      "ises": 2451,
      "Main": 2452,
      "SS": 2453,
      "Ġdri": 2454,
      "ussia": 2455,
      "Ġproposals": 2456,
      "app": 2457,
      "racy": 2458,
      "rad": 2459,
      "large": 2460,
      "Ġnetwork": 2461,
      "residency": 2462,
      "Ġadds": 2463,
      "ĠMad": 2464,
      "Ġmess": 2465,
      "Ġ100": 2466,
      "Ġrelations": 2467,
      "Ġspecific": 2468,
      "Service": 2469,
      "Ġiniti": 2470,
      "ĠIm": 2471,
      "Ġmeeting": 2472,
      "error": 2473,
      "ncy": 2474,
      "Ġsaf": 2475,
      "ĠMinistry": 2476,
      "ĠGermany": 2477,
      "06": 2478,
      "ton": 2479,
      "inal": 2480,
      "Ġwithin": 2481,
      "Ġneeded": 2482,
      "Ġconsum": 2483,
      "Ġgl": 2484,
      "ĠEUR": 2485,
      "ĠGroup": 2486,
      "ump": 2487,
      "Ġadded": 2488,
      "oine": 2489,
      "Ġrese": 2490,
      "Cl": 2491,
      "itut": 2492,
      "Ġlog": 2493,
      "Ġchall": 2494,
      "reng": 2495,
      "entlemen": 2496,
      "ms": 2497,
      "Ġtest": 2498,
      "Ġrate": 2499,
      "Ġlocated": 2500,
      "24": 2501,
      "Ar": 2502,
      "Ġfile": 2503,
      "AND": 2504,
      "rim": 2505,
      "uary": 2506,
      "Ġbal": 2507,
      "Ġline": 2508,
      "Ġ23": 2509,
      "Ġtri": 2510,
      "Ġpat": 2511,
      "Ġ75": 2512,
      "iety": 2513,
      "Ã¤": 2514,
      "ESC": 2515,
      "ĠChina": 2516,
      "Euro": 2517,
      "Ġstrategy": 2518,
      "Ġitself": 2519,
      "Ġtour": 2520,
      "Ġstrong": 2521,
      "rict": 2522,
      "isheries": 2523,
      "Ġshow": 2524,
      "Ġhealth": 2525,
      "ify": 2526,
      "ĠKingdom": 2527,
      "Ġnational": 2528,
      "From": 2529,
      "ived": 2530,
      "selves": 2531,
      "07": 2532,
      "Ġhome": 2533,
      "Ġprocedures": 2534,
      "Ġbar": 2535,
      "ports": 2536,
      "Many": 2537,
      "Ġopt": 2538,
      "ĠEC": 2539,
      "OUT": 2540,
      "Ġenter": 2541,
      "Ġaff": 2542,
      "TURE": 2543,
      "ilities": 2544,
      "ĠPh": 2545,
      "ĠLa": 2546,
      "RIC": 2547,
      "Ġcitizens": 2548,
      "eelie": 2549,
      "ĠSch": 2550,
      "ene": 2551,
      "ury": 2552,
      "urkey": 2553,
      "ames": 2554,
      "EXTERNAL": 2555,
      "Antoine": 2556,
      "ĠWORD": 2557,
      "lished": 2558,
      "Ġhard": 2559,
      "ework": 2560,
      "ramework": 2561,
      "Ġregard": 2562,
      "31": 2563,
      "Ġpost": 2564,
      "ĠPROCESSED": 2565,
      "ĠCont": 2566,
      "TIN": 2567,
      "Ġsend": 2568,
      "Ġmen": 2569,
      "Ġmakes": 2570,
      "cel": 2571,
      "rand": 2572,
      "Ġsimple": 2573,
      "Romania": 2574,
      "arant": 2575,
      "Ġgame": 2576,
      "ĠRed": 2577,
      "ique": 2578,
      "PL": 2579,
      "Ġattention": 2580,
      "ety": 2581,
      "Ġfeel": 2582,
      "UD": 2583,
      "lection": 2584,
      "Total": 2585,
      "let": 2586,
      "lear": 2587,
      "Ġreasons": 2588,
      "Bulgaria": 2589,
      "ling": 2590,
      "ĠMarket": 2591,
      "ĠApril": 2592,
      "Ġenjoy": 2593,
      "roes": 2594,
      "cember": 2595,
      "Ġlonger": 2596,
      "lin": 2597,
      "Ġ2005": 2598,
      "ized": 2599,
      "anies": 2600,
      "arget": 2601,
      "Ġ2001": 2602,
      "TRANS": 2603,
      "Ġinternational": 2604,
      "Ġbegin": 2605,
      "ĠAfric": 2606,
      "pend": 2607,
      "ĠON": 2608,
      "Ġsingle": 2609,
      "gether": 2610,
      "Ġwrit": 2611,
      "Ġmembers": 2612,
      "Ġtogether": 2613,
      "PORT": 2614,
      "by": 2615,
      "Therefore": 2616,
      "Ġinvol": 2617,
      "Ġpriority": 2618,
      "ng": 2619,
      "sh": 2620,
      "Ġperiod": 2621,
      "ussion": 2622,
      "ateg": 2623,
      "08": 2624,
      "fortunately": 2625,
      "Ġcorrect": 2626,
      "Ġholid": 2627,
      "Ġsoft": 2628,
      "ĠVice": 2629,
      "Ġpop": 2630,
      "erc": 2631,
      "Ġsever": 2632,
      "Ġfo": 2633,
      "Ġnon": 2634,
      "ĠCommissions": 2635,
      "endment": 2636,
      "Ġlive": 2637,
      "Ġexist": 2638,
      "ĠCommunity": 2639,
      "AK": 2640,
      "ani": 2641,
      "Ġstat": 2642,
      "Ġinvestment": 2643,
      "Co": 2644,
      "ĠSp": 2645,
      "reaty": 2646,
      "fer": 2647,
      "atives": 2648,
      "Ġgrowth": 2649,
      "Judgment": 2650,
      "Ġopp": 2651,
      "ĠAmer": 2652,
      "rief": 2653,
      "Ġusers": 2654,
      "Ġmanagement": 2655,
      "!!": 2656,
      "ĠBank": 2657,
      "Ġinstall": 2658,
      "arian": 2659,
      "Ġvar": 2660,
      "Ġkeep": 2661,
      "CC": 2662,
      "Ġful": 2663,
      "idd": 2664,
      "Ġ297": 2665,
      "Ġtrad": 2666,
      "largement": 2667,
      "34": 2668,
      "Ġwrong": 2669,
      "ples": 2670,
      "Ġconsider": 2671,
      "Ġbro": 2672,
      "Ġbreakfast": 2673,
      "most": 2674,
      "iter": 2675,
      "pporte": 2676,
      "ustainable": 2677,
      "21": 2678,
      "Will": 2679,
      "Ġ35": 2680,
      "pose": 2681,
      "TO": 2682,
      "Ġlarge": 2683,
      "Ġbec": 2684,
      "Ġdial": 2685,
      "Ġsoon": 2686,
      "gs": 2687,
      "oom": 2688,
      "ĠEm": 2689,
      "pri": 2690,
      "ĠQu": 2691,
      "Ġreserv": 2692,
      "ENTS": 2693,
      "ĠFigures": 2694,
      "ivid": 2695,
      "Des": 2696,
      "ites": 2697,
      "alm": 2698,
      "355": 2699,
      "ĠMEMO": 2700,
      "mitted": 2701,
      "ĠKroes": 2702,
      "Ġextrem": 2703,
      "Ġnear": 2704,
      "Ġachieve": 2705,
      "idence": 2706,
      "Ġstop": 2707,
      "Ġ]": 2708,
      "Ġsession": 2709,
      "Ġhead": 2710,
      "ĠTO": 2711,
      "Ġclean": 2712,
      "ringe": 2713,
      "Ġable": 2714,
      "ros": 2715,
      "Ġseveral": 2716,
      "Ġpark": 2717,
      "Ġperfect": 2718,
      "Ab": 2719,
      "ler": 2720,
      "Ġwar": 2721,
      "Ġlocation": 2722,
      "ither": 2723,
      "Ġhist": 2724,
      "ellent": 2725,
      "Ġusing": 2726,
      "abour": 2727,
      "Ġremains": 2728,
      "Ġreturn": 2729,
      "Com": 2730,
      "Ġresearch": 2731,
      "Ġfood": 2732,
      "ai": 2733,
      "Ġpartners": 2734,
      "ĠAgreement": 2735,
      "Ġbelow": 2736,
      "STAT": 2737,
      "Ġocc": 2738,
      "ĠCase": 2739,
      "Ġ2015": 2740,
      "Ġopinion": 2741,
      "ADE": 2742,
      "Ġduring": 2743,
      "eed": 2744,
      "Use": 2745,
      "Want": 2746,
      "Ġ2003": 2747,
      "ideo": 2748,
      "ze": 2749,
      "Ġ..": 2750,
      "Ġ2004": 2751,
      "Ġdiscuss": 2752,
      "26": 2753,
      "Ġet": 2754,
      "Ġtry": 2755,
      "ĠPR": 2756,
      "ĠEN": 2757,
      "ained": 2758,
      "Ġroad": 2759,
      "amb": 2760,
      "ream": 2761,
      "Pl": 2762,
      "rast": 2763,
      "ĠTransport": 2764,
      "28": 2765,
      "Ġnegot": 2766,
      "Ġ93": 2767,
      "Reg": 2768,
      "ano": 2769,
      "Ġaspect": 2770,
      "Ġapplies": 2771,
      "Ġonce": 2772,
      "Ġlearn": 2773,
      "Ġdeli": 2774,
      "ĠJanuary": 2775,
      "aster": 2776,
      "Ġbrief": 2777,
      "Ġwriting": 2778,
      "Ġtraining": 2779,
      "United": 2780,
      "Ġmov": 2781,
      "ctober": 2782,
      "Ġorig": 2783,
      "ĠRegions": 2784,
      "Ġcertainly": 2785,
      "uel": 2786,
      "Ġrefer": 2787,
      "Ġwa": 2788,
      "ĠAG": 2789,
      "Only": 2790,
      "Ġsure": 2791,
      "ĠST": 2792,
      "ili": 2793,
      "ached": 2794,
      "ences": 2795,
      "Ġfamily": 2796,
      "Ġglobal": 2797,
      "Ġconnect": 2798,
      "duction": 2799,
      "Ġeverything": 2800,
      "Ġobjectives": 2801,
      "Ġ26": 2802,
      "Ġproceed": 2803,
      "Ġupdates": 2804,
      "Ġoften": 2805,
      "Ġclose": 2806,
      "ament": 2807,
      "onse": 2808,
      "Ġdirective": 2809,
      "Ġcentre": 2810,
      "za": 2811,
      "quis": 2812,
      "OMIC": 2813,
      "2001": 2814,
      "Ġhouse": 2815,
      "Ġtype": 2816,
      "icies": 2817,
      "Ġresources": 2818,
      "Ġamount": 2819,
      "Ġdiscussion": 2820,
      "ĠDecember": 2821,
      "Ġ3355": 2822,
      "Current": 2823,
      "be": 2824,
      "ĠThank": 2825,
      "ratul": 2826,
      "ĠOffice": 2827,
      "Ġachie": 2828,
      "itors": 2829,
      "igation": 2830,
      "Ġcomfort": 2831,
      "Ġ32": 2832,
      "Ġcomplet": 2833,
      "Ġabsolut": 2834,
      "ĠEnglish": 2835,
      "Ġbank": 2836,
      "ĠMed": 2837,
      "INAN": 2838,
      "Ġsat": 2839,
      "Ġside": 2840,
      "usic": 2841,
      "clusion": 2842,
      "Ġess": 2843,
      "Ġproper": 2844,
      "ept": 2845,
      "Ġapply": 2846,
      "ULTURE": 2847,
      "Ġfollows": 2848,
      "ĠDef": 2849,
      "yl": 2850,
      "Ġtre": 2851,
      "Ġcomes": 2852,
      "ception": 2853,
      "Ġmajor": 2854,
      "ta": 2855,
      "OUR": 2856,
      "36": 2857,
      "ĠEducation": 2858,
      "ĠWorld": 2859,
      "Ġextremely": 2860,
      "Ġport": 2861,
      "ĠOr": 2862,
      "ancing": 2863,
      "mar": 2864,
      "Ġdont": 2865,
      "Ġland": 2866,
      "ERG": 2867,
      "gen": 2868,
      "ana": 2869,
      "Ġkm": 2870,
      "Ġlegal": 2871,
      "Ġnight": 2872,
      "Ġhours": 2873,
      "opy": 2874,
      "Ġinfringe": 2875,
      "Ġdocuments": 2876,
      "Ġlater": 2877,
      "Ġ2002": 2878,
      "Ġrequired": 2879,
      "ires": 2880,
      "Ġlat": 2881,
      "Ġimprove": 2882,
      "GR": 2883,
      "Ġtask": 2884,
      "Ġexperience": 2885,
      "Ġmonths": 2886,
      "ively": 2887,
      "INT": 2888,
      "ĠSecurity": 2889,
      "ĠEUROSTAT": 2890,
      "fact": 2891,
      "ien": 2892,
      "well": 2893,
      "Ġaut": 2894,
      "Ġcou": 2895,
      "iful": 2896,
      "Ġdocument": 2897,
      "IF": 2898,
      "iations": 2899,
      "Ġregion": 2900,
      "ĠHealth": 2901,
      "IK": 2902,
      "euro": 2903,
      "Ġquick": 2904,
      "Am": 2905,
      "tle": 2906,
      "Ġes": 2907,
      "Ġcat": 2908,
      "Ġinde": 2909,
      "ĠFederal": 2910,
      "ĠGeneral": 2911,
      "ĠInternet": 2912,
      "minist": 2913,
      "ones": 2914,
      "essment": 2915,
      "Ġreceived": 2916,
      "pporteur": 2917,
      "UC": 2918,
      "then": 2919,
      "ĠFor": 2920,
      "ĠBer": 2921,
      "reedom": 2922,
      "Ġwind": 2923,
      "Ġ546": 2924,
      "Ġincluded": 2925,
      "Ġreceive": 2926,
      "ivil": 2927,
      "ĠMARK": 2928,
      "Ġca": 2929,
      "Ġfish": 2930,
      "ĠPart": 2931,
      "Cons": 2932,
      "ĠWhat": 2933,
      "Ġprovide": 2934,
      "Environment": 2935,
      "ki": 2936,
      "va": 2937,
      "Ġhear": 2938,
      "Portugal": 2939,
      "hod": 2940,
      "Ġpositive": 2941,
      "ĠBl": 2942,
      "Ġ02": 2943,
      "OD": 2944,
      "Ġwalk": 2945,
      "ĠFR": 2946,
      "Ġinteg": 2947,
      "Ġhappened": 2948,
      "Economic": 2949,
      "side": 2950,
      "Which": 2951,
      "Ġpersonal": 2952,
      "ĠAll": 2953,
      "ĠTR": 2954,
      "Ġvoting": 2955,
      "Ġwomen": 2956,
      "ots": 2957,
      "ĠNeelie": 2958,
      "aking": 2959,
      "Ġworks": 2960,
      "Ġprinciple": 2961,
      "Second": 2962,
      "Ġcred": 2963,
      "Ġamendment": 2964,
      "Ġestab": 2965,
      "III": 2966,
      "olf": 2967,
      "Ġnote": 2968,
      "Ġexact": 2969,
      "Ġapproved": 2970,
      "Yes": 2971,
      "Ġproposed": 2972,
      "Ġyes": 2973,
      "Ġleast": 2974,
      "Ġmentioned": 2975,
      "QU": 2976,
      "She": 2977,
      "zer": 2978,
      "ĠSu": 2979,
      "ĠAmendment": 2980,
      "bon": 2981,
      "ERS": 2982,
      "ĠWh": 2983,
      "COM": 2984,
      "icial": 2985,
      "Ġheart": 2986,
      "Ġcalled": 2987,
      "itution": 2988,
      "Ġlanguage": 2989,
      "%.": 2990,
      "38": 2991,
      "Ġprivate": 2992,
      "Ġcam": 2993,
      "Ġcases": 2994,
      "Ġcontent": 2995,
      "Ġcontacts": 2996,
      "Ġsystems": 2997,
      "autiful": 2998,
      "ara": 2999,
      "Ġresponse": 3000,
      "ĠGerman": 3001,
      "ĠOctober": 3002,
      "Ġprevious": 3003,
      "Ġrestaur": 3004,
      "atory": 3005,
      "ĠTreaty": 3006,
      "Mrs": 3007,
      "Ġentire": 3008,
      "ees": 3009,
      "igration": 3010,
      "Ġclearly": 3011,
      "Ġbased": 3012,
      "Ġfunction": 3013,
      "ĠColomb": 3014,
      "ĠCOMM": 3015,
      "Ġlight": 3016,
      "ĠEUs": 3017,
      "ĠEnergy": 3018,
      "CY": 3019,
      "ĠFrance": 3020,
      "Ġ298": 3021,
      "ovember": 3022,
      "eptember": 3023,
      "Court": 3024,
      "Ġimage": 3025,
      "ording": 3026,
      "Ġreject": 3027,
      "unities": 3028,
      "ĠWITHOUT": 3029,
      "ps": 3030,
      "Ġnice": 3031,
      "ĠHome": 3032,
      "irm": 3033,
      "ĠHow": 3034,
      "Ġenc": 3035,
      "Ġcompet": 3036,
      "Ġarri": 3037,
      "ĠComp": 3038,
      "ĠFl": 3039,
      "ably": 3040,
      "Ġhappy": 3041,
      "Ġmessage": 3042,
      "hel": 3043,
      "ĠMon": 3044,
      "Ġart": 3045,
      "rime": 3046,
      "Ġgr": 3047,
      "Ġguarant": 3048,
      "Unfortunately": 3049,
      "Ġresponsibility": 3050,
      "Ġcompletely": 3051,
      "Ġpriorities": 3052,
      "Ġsum": 3053,
      "oss": 3054,
      "opher": 3055,
      "hold": 3056,
      "Ġsent": 3057,
      "unications": 3058,
      "Ġconcludes": 3059,
      "ĠCan": 3060,
      "ĠPresidency": 3061,
      "rag": 3062,
      "Ãĸ": 3063,
      "ĠAb": 3064,
      "UB": 3065,
      "Ġurg": 3066,
      "enn": 3067,
      "Ġcompetition": 3068,
      "Ġ)": 3069,
      "Ġfront": 3070,
      "Ġtakes": 3071,
      "EG": 3072,
      "Ġtown": 3073,
      "ividual": 3074,
      "pre": 3075,
      "word": 3076,
      "Ġfocus": 3077,
      "Ġgentlemen": 3078,
      "ustri": 3079,
      "medi": 3080,
      "INANCIAL": 3081,
      "Public": 3082,
      "aid": 3083,
      "Ġsy": 3084,
      "Ġfail": 3085,
      "ĠBug": 3086,
      "reece": 3087,
      "Ġexcellent": 3088,
      "Ġdemand": 3089,
      "Ġtarget": 3090,
      "Ġidea": 3091,
      "TRADE": 3092,
      "Ġoppos": 3093,
      "europa": 3094,
      "EV": 3095,
      "Ġcreat": 3096,
      "Ġitem": 3097,
      "Latest": 3098,
      "Ġtell": 3099,
      "Ph": 3100,
      "Ġmil": 3101,
      "anced": 3102,
      "head": 3103,
      "ĠAfrica": 3104,
      "ĠMARKET": 3105,
      "Ġbath": 3106,
      "istics": 3107,
      "gu": 3108,
      "Ġjob": 3109,
      "ISHER": 3110,
      "aterial": 3111,
      "tection": 3112,
      "Ġsch": 3113,
      "Ġund": 3114,
      "olutions": 3115,
      "Ġbasis": 3116,
      "Ġsoftware": 3117,
      "39": 3118,
      "Ġregist": 3119,
      "OME": 3120,
      "por": 3121,
      "uge": 3122,
      "erg": 3123,
      "Ġbuy": 3124,
      "Ġanim": 3125,
      "ka": 3126,
      "Ġprogrammes": 3127,
      "Ġreply": 3128,
      "put": 3129,
      "Ġfiles": 3130,
      "Per": 3131,
      "Ġmind": 3132,
      "ĠAug": 3133,
      "accept": 3134,
      "Ġcharge": 3135,
      "Ġteam": 3136,
      "Ġlegislation": 3137,
      "Ġbeach": 3138,
      "sequ": 3139,
      "ĠNovember": 3140,
      "Ġindustry": 3141,
      "ISHERIES": 3142,
      "44": 3143,
      "TH": 3144,
      "Ġobs": 3145,
      "Ġdecl": 3146,
      "ruary": 3147,
      "Ġmodern": 3148,
      "Ġeffort": 3149,
      "Ġchanges": 3150,
      "den": 3151,
      "ony": 3152,
      "igital": 3153,
      "Ġcong": 3154,
      "coming": 3155,
      "ada": 3156,
      "atic": 3157,
      "Ġreview": 3158,
      "ricultural": 3159,
      "Ġmark": 3160,
      "elli": 3161,
      "Ġconditions": 3162,
      "li": 3163,
      "Ġfair": 3164,
      "ogn": 3165,
      "order": 3166,
      "Ġsteps": 3167,
      "cript": 3168,
      "Ġpolicies": 3169,
      "sp": 3170,
      "eria": 3171,
      "illa": 3172,
      "ociety": 3173,
      "Ġunaccept": 3174,
      "Ġcreate": 3175,
      "29": 3176,
      "Doc": 3177,
      "haps": 3178,
      "iol": 3179,
      "Ġtreat": 3180,
      "ales": 3181,
      "ĠCost": 3182,
      "Ġgot": 3183,
      "ebruary": 3184,
      "Ġdire": 3185,
      "ĠGDP": 3186,
      "ALL": 3187,
      "Ġ07": 3188,
      "Ġelse": 3189,
      "Ġachieved": 3190,
      "ey": 3191,
      "change": 3192,
      "Ġhotels": 3193,
      "OINT": 3194,
      "Su": 3195,
      "Ġcateg": 3196,
      "Ġadditional": 3197,
      "Ġrue": 3198,
      "Ġcontribution": 3199,
      "Ġemployment": 3200,
      "oo": 3201,
      "Ġfive": 3202,
      "echnical": 3203,
      "Ġdemocracy": 3204,
      "Pre": 3205,
      "Ġtable": 3206,
      "Ġfigures": 3207,
      "ĠIII": 3208,
      "Priority": 3209,
      "ĠRussia": 3210,
      "55": 3211,
      "Ġrent": 3212,
      "Ġcomplete": 3213,
      "Ġasked": 3214,
      "Ġgener": 3215,
      "rengthen": 3216,
      "Ġunacceptable": 3217,
      "TICE": 3218,
      "aces": 3219,
      "Ġactivities": 3220,
      "Ġvia": 3221,
      "Sc": 3222,
      "Ġpub": 3223,
      "Ġnat": 3224,
      "ĠMobile": 3225,
      "ended": 3226,
      "CL": 3227,
      "ctions": 3228,
      "ĠSEC": 3229,
      "ĠSpain": 3230,
      "Ġabove": 3231,
      "ization": 3232,
      "Ġchanged": 3233,
      "ma": 3234,
      "Ġcard": 3235,
      "ova": 3236,
      "Ġgroups": 3237,
      "2007": 3238,
      "Ġdialogue": 3239,
      "Ġessential": 3240,
      "Each": 3241,
      "ww": 3242,
      "ĠEl": 3243,
      "Ġsea": 3244,
      "Ġfully": 3245,
      "ĠPal": 3246,
      "ĠAD": 3247,
      "Ġsearch": 3248,
      "Ġimpact": 3249,
      "ĠBo": 3250,
      "USTICE": 3251,
      "Ġchoice": 3252,
      "SO": 3253,
      "ĠSeptember": 3254,
      "Ġamendments": 3255,
      "Ġpurpose": 3256,
      "Ġapplication": 3257,
      "80": 3258,
      "EW": 3259,
      "Ġmethod": 3260,
      "ories": 3261,
      "Ġbeautiful": 3262,
      "Ġeconomy": 3263,
      "EK": 3264,
      "uck": 3265,
      "Ġseems": 3266,
      "ruction": 3267,
      "Ġ04": 3268,
      "ference": 3269,
      "orway": 3270,
      "Ġseen": 3271,
      "ENCY": 3272,
      "Ladies": 3273,
      "Ġsumm": 3274,
      "ĠDim": 3275,
      "Ġdev": 3276,
      "Ġanything": 3277,
      "ĠItaly": 3278,
      "ape": 3279,
      "hib": 3280,
      "ĠSumm": 3281,
      "aced": 3282,
      "str": 3283,
      "aging": 3284,
      "Add": 3285,
      "RICULTURE": 3286,
      "ursday": 3287,
      "parency": 3288,
      "Ġsafety": 3289,
      "ĠColombani": 3290,
      "Trans": 3291,
      "Ġactions": 3292,
      "Ġcongratul": 3293,
      "asing": 3294,
      "Ġlove": 3295,
      "log": 3296,
      "VEL": 3297,
      "ued": 3298,
      "Ġcomb": 3299,
      "Ġdirection": 3300,
      "Ġever": 3301,
      "Ġholiday": 3302,
      "ĠFret": 3303,
      "ISC": 3304,
      "ona": 3305,
      "ĠCor": 3306,
      "ĠMic": 3307,
      "ĠTime": 3308,
      "ried": 3309,
      "ĠYou": 3310,
      "ians": 3311,
      "Ġeveryone": 3312,
      "Mer": 3313,
      "go": 3314,
      "Ġframework": 3315,
      "Ġoil": 3316,
      "Ġhig": 3317,
      "Ġothers": 3318,
      "ĠFretwell": 3319,
      "ici": 3320,
      "ĠDirect": 3321,
      "Ġthanks": 3322,
      "ĠCooperation": 3323,
      "ĠCulture": 3324,
      "ĠIV": 3325,
      "Ġlinks": 3326,
      "istan": 3327,
      "ĠVal": 3328,
      "Ġeng": 3329,
      "ĠRegulation": 3330,
      "Ġeduc": 3331,
      "VELOP": 3332,
      "60": 3333,
      "Se": 3334,
      "Ġworth": 3335,
      "Ġpool": 3336,
      "Ġclass": 3337,
      "Competition": 3338,
      "roat": 3339,
      "atab": 3340,
      "Ġpeace": 3341,
      "Financial": 3342,
      "Ġtalking": 3343,
      "Ġmusic": 3344,
      "ĠWind": 3345,
      "ude": 3346,
      "Ġ40": 3347,
      "ared": 3348,
      "Spe": 3349,
      "ha": 3350,
      "Ġsize": 3351,
      "Ġforce": 3352,
      "rench": 3353,
      "Ġindividual": 3354,
      "Does": 3355,
      "Ġchoose": 3356,
      "erve": 3357,
      "Ġchar": 3358,
      "ograph": 3359,
      "play": 3360,
      "Ġproduction": 3361,
      "Ġexplan": 3362,
      "SP": 3363,
      "ators": 3364,
      "Ġmor": 3365,
      "Ġprec": 3366,
      "49": 3367,
      "oul": 3368,
      "vestment": 3369,
      "Ġbecause": 3370,
      "anger": 3371,
      "EMENT": 3372,
      "Ġconference": 3373,
      "Ġabsolutely": 3374,
      "23": 3375,
      "Over": 3376,
      "kra": 3377,
      "ired": 3378,
      "icha": 3379,
      "ĠDefence": 3380,
      "Ġwel": 3381,
      "ĠAir": 3382,
      "Open": 3383,
      "VI": 3384,
      "Ġpicture": 3385,
      "Int": 3386,
      "Ġready": 3387,
      "Ġyoung": 3388,
      "Ġgoes": 3389,
      "ĠUnited": 3390,
      "Ġmarkets": 3391,
      "By": 3392,
      "ENCE": 3393,
      "TING": 3394,
      "Ġhold": 3395,
      "ĠMont": 3396,
      "Ġdoub": 3397,
      "hesion": 3398,
      "ini": 3399,
      "Ġmaterial": 3400,
      "ĠTurkey": 3401,
      "Ġdirectly": 3402,
      "Ġsale": 3403,
      "ĠIP": 3404,
      "ĠFebruary": 3405,
      "istic": 3406,
      "Ġleave": 3407,
      "Ġ2011": 3408,
      "TA": 3409,
      "Ġsw": 3410,
      "Ġwhe": 3411,
      "roso": 3412,
      "iveness": 3413,
      "Ġincrease": 3414,
      "Ġexactly": 3415,
      "Ġreality": 3416,
      "ĠPublic": 3417,
      "Ġstatement": 3418,
      "Ġcapital": 3419,
      "Ġvideo": 3420,
      "Contact": 3421,
      "Ġlocal": 3422,
      "Ġwaste": 3423,
      "Ġmatters": 3424,
      "ĠBelli": 3425,
      "olidarity": 3426,
      "Note": 3427,
      "ĠBefore": 3428,
      "ĠBelliard": 3429,
      "Ġsound": 3430,
      "ita": 3431,
      "ĠHOME": 3432,
      "Ġopportunity": 3433,
      "88": 3434,
      "Would": 3435,
      "Ġ2013": 3436,
      "Ġgovernment": 3437,
      "FOR": 3438,
      "ged": 3439,
      "nter": 3440,
      "sid": 3441,
      "VELOPMENT": 3442,
      "65": 3443,
      "ti": 3444,
      "Ġsol": 3445,
      "AGRICULTURE": 3446,
      "cription": 3447,
      "Ġelements": 3448,
      "iddle": 3449,
      "unch": 3450,
      "FISHERIES": 3451,
      "ĠCH": 3452,
      "hern": 3453,
      "Ġsugg": 3454,
      "fully": 3455,
      "ĠFinancial": 3456,
      "comes": 3457,
      "--": 3458,
      "Ġcompanies": 3459,
      "ches": 3460,
      "hic": 3461,
      "era": 3462,
      "Ġregulation": 3463,
      "47": 3464,
      "Vis": 3465,
      "Ġtem": 3466,
      "Ġpo": 3467,
      "ledge": 3468,
      "Ġallowed": 3469,
      "Ġcode": 3470,
      "ĠEast": 3471,
      "Ġalone": 3472,
      "Ġagenda": 3473,
      "Ġbuilding": 3474,
      "ÃĦ": 3475,
      "enge": 3476,
      "Ġmar": 3477,
      "Ġmult": 3478,
      "Ġvol": 3479,
      "vert": 3480,
      "Ġrapporteur": 3481,
      "Ġconcerned": 3482,
      "Ġ31": 3483,
      "SE": 3484,
      "Ġfight": 3485,
      "Ġpot": 3486,
      "Ġdest": 3487,
      "Ġhost": 3488,
      "ĠRom": 3489,
      "Ġperform": 3490,
      "Ġrecord": 3491,
      "Ġbad": 3492,
      "ĠEIB": 3493,
      "Ġinitiative": 3494,
      "CO": 3495,
      "Ġhon": 3496,
      "range": 3497,
      "Ġstandards": 3498,
      "Ġinfringement": 3499,
      "oe": 3500,
      "ype": 3501,
      "ilt": 3502,
      "ĠAC": 3503,
      "Ġsche": 3504,
      "Ġaffect": 3505,
      "Ġaware": 3506,
      "Ġev": 3507,
      "iving": 3508,
      "ĠThursday": 3509,
      "MENTS": 3510,
      "Take": 3511,
      "Ġinternet": 3512,
      "Ġdatab": 3513,
      "ilar": 3514,
      "ĠEESC": 3515,
      "Ġactually": 3516,
      "Ġindeed": 3517,
      "Have": 3518,
      "Well": 3519,
      "ched": 3520,
      "JUSTICE": 3521,
      "Mad": 3522,
      "Yet": 3523,
      "ault": 3524,
      "Ġtel": 3525,
      "ims": 3526,
      "ife": 3527,
      "Ġimmedi": 3528,
      "SK": 3529,
      "reet": 3530,
      "Ġstarted": 3531,
      "Ġexamples": 3532,
      "che": 3533,
      "Ġfarm": 3534,
      "Ġmiss": 3535,
      "amental": 3536,
      "ban": 3537,
      "ĠAction": 3538,
      "rested": 3539,
      "Ġdepend": 3540,
      "2000": 3541,
      "aul": 3542,
      "yn": 3543,
      "Ġident": 3544,
      "Ġreports": 3545,
      ");": 3546,
      "just": 3547,
      "ering": 3548,
      "Ġamb": 3549,
      "Ġapartment": 3550,
      "APP": 3551,
      "DO": 3552,
      "opp": 3553,
      "Ġage": 3554,
      "apan": 3555,
      "Both": 3556,
      "Che": 3557,
      "oud": 3558,
      "itarian": 3559,
      "ensive": 3560,
      "Ġ1999": 3561,
      "ĠGeorg": 3562,
      "Ġpast": 3563,
      "Ġmax": 3564,
      "Ġnature": 3565,
      "1040": 3566,
      "Ġdefin": 3567,
      "where": 3568,
      "ĠVass": 3569,
      "Ġprovided": 3570,
      "Ġenlargement": 3571,
      "Ġemail": 3572,
      "ructural": 3573,
      "Ġupdate": 3574,
      "ĠRef": 3575,
      "Ġknown": 3576,
      "Ġsubst": 3577,
      "Ġschool": 3578,
      "roatia": 3579,
      "aw": 3580,
      "Ġfill": 3581,
      "Ġbring": 3582,
      "Ġtook": 3583,
      "ĠCons": 3584,
      "elling": 3585,
      "Ġterms": 3586,
      "Ġbit": 3587,
      "irt": 3588,
      "ored": 3589,
      "ĠVI": 3590,
      "right": 3591,
      "Ġyourself": 3592,
      "Ġsatis": 3593,
      "Language": 3594,
      "Ġmember": 3595,
      "Ġparticularly": 3596,
      "Ġexpected": 3597,
      "Such": 3598,
      "spect": 3599,
      "Ġwww": 3600,
      "iture": 3601,
      "Ġoption": 3602,
      "Ġtowards": 3603,
      "Ġclimate": 3604,
      "Just": 3605,
      "ya": 3606,
      "Ġstation": 3607,
      "anguages": 3608,
      "ush": 3609,
      "Ġinnovation": 3610,
      "Ġrates": 3611,
      "AY": 3612,
      "Ġrev": 3613,
      "Ġalmost": 3614,
      "Ġheld": 3615,
      "Ġ2014": 3616,
      "ĠRegional": 3617,
      "ichael": 3618,
      "70": 3619,
      "oting": 3620,
      "ola": 3621,
      "ociation": 3622,
      "Ġpayment": 3623,
      "rastructure": 3624,
      "Ġsummer": 3625,
      "COMM": 3626,
      "ein": 3627,
      "ĠTra": 3628,
      "ipment": 3629,
      "Man": 3630,
      "Ġfall": 3631,
      "Ġparts": 3632,
      "Ġcommit": 3633,
      "inary": 3634,
      "Ġreach": 3635,
      "Ġ70": 3636,
      "Ġtele": 3637,
      "Ġappropri": 3638,
      "Ġlatest": 3639,
      "ĠAugust": 3640,
      "ox": 3641,
      "Ġground": 3642,
      "Ġ80": 3643,
      "Ġdecisions": 3644,
      "Ġnegotiations": 3645,
      "nis": 3646,
      "Ġinstru": 3647,
      "Find": 3648,
      "Part": 3649,
      "wise": 3650,
      "ald": 3651,
      "ĠInst": 3652,
      "ECON": 3653,
      "Ġcreated": 3654,
      "Relations": 3655,
      "Ġsens": 3656,
      "ĠIg": 3657,
      "Ġfriendly": 3658,
      "EA": 3659,
      "atures": 3660,
      "Ġspace": 3661,
      "Finally": 3662,
      "Ġpractice": 3663,
      "ĠFINANCIAL": 3664,
      "Ġoffice": 3665,
      "uclear": 3666,
      "Ġdouble": 3667,
      "ommod": 3668,
      "overnment": 3669,
      "Ġsignific": 3670,
      "itable": 3671,
      "irc": 3672,
      "Ġregul": 3673,
      "Ġdatabase": 3674,
      "vant": 3675,
      "Ġsolutions": 3676,
      "iles": 3677,
      "Ġquot": 3678,
      "Ġmodel": 3679,
      "Ġ142": 3680,
      "Ġvalid": 3681,
      "Ġpleased": 3682,
      "Secondly": 3683,
      "May": 3684,
      "ns": 3685,
      "Ġx": 3686,
      "Ġmach": 3687,
      "ĠEconomy": 3688,
      "acity": 3689,
      "Ġobjective": 3690,
      "Ġfunding": 3691,
      "uter": 3692,
      "Ġsense": 3693,
      "ĠMembers": 3694,
      "85": 3695,
      "oon": 3696,
      "Ġmount": 3697,
      "lav": 3698,
      "Ġregional": 3699,
      "ĠWindows": 3700,
      "Ġcharact": 3701,
      "Two": 3702,
      "ira": 3703,
      "rec": 3704,
      "Ġrecogn": 3705,
      "umping": 3706,
      "Ġeducation": 3707,
      "FR": 3708,
      "ley": 3709,
      "ĠSea": 3710,
      "Acc": 3711,
      "bate": 3712,
      "rary": 3713,
      "Ġagreed": 3714,
      "Ġincludes": 3715,
      "ustrial": 3716,
      "Sim": 3717,
      "ser": 3718,
      "Ġwarm": 3719,
      "ĠAt": 3720,
      "ĠAud": 3721,
      "ured": 3722,
      "Ġprepare": 3723,
      "Ġhappens": 3724,
      "Ġindic": 3725,
      "Ġmaking": 3726,
      "rated": 3727,
      "ĠCar": 3728,
      "Ġreached": 3729,
      "emoc": 3730,
      "umer": 3731,
      "Ġuser": 3732,
      "iterran": 3733,
      "Very": 3734,
      "ason": 3735,
      "Ġvalues": 3736,
      "Ġbehind": 3737,
      "kraine": 3738,
      "Ġtick": 3739,
      "Ġupon": 3740,
      "Ġextra": 3741,
      "Ġadvant": 3742,
      "Ġtechnical": 3743,
      "Ġ9396": 3744,
      "Ġwond": 3745,
      "Ġfreedom": 3746,
      "Ġpath": 3747,
      "acks": 3748,
      "Ġcontribut": 3749,
      "reg": 3750,
      "issions": 3751,
      "Ġintro": 3752,
      "Ġmist": 3753,
      "Ġmight": 3754,
      "Ġrather": 3755,
      "Ġvehic": 3756,
      "Free": 3757,
      "ĠMal": 3758,
      "Ġopened": 3759,
      "Ġstandard": 3760,
      "URITY": 3761,
      "Ġfriends": 3762,
      "iversity": 3763,
      "UK": 3764,
      "light": 3765,
      "Ġhelpful": 3766,
      "aration": 3767,
      "Ġlisten": 3768,
      "read": 3769,
      "onz": 3770,
      "ĠWest": 3771,
      "Ġ09": 3772,
      "Ġselector": 3773,
      "ĠPlan": 3774,
      "Ġrestaurant": 3775,
      "Ġplann": 3776,
      "Ġ2012": 3777,
      "Ġsitu": 3778,
      "idel": 3779,
      "Ġactive": 3780,
      "Room": 3781,
      "ole": 3782,
      "ĠAv": 3783,
      "ĠSer": 3784,
      "ĠOper": 3785,
      "epend": 3786,
      "Ġcontains": 3787,
      "ike": 3788,
      "ja": 3789,
      "Ġdanger": 3790,
      "asc": 3791,
      "ĠPri": 3792,
      "ĠSan": 3793,
      "Ġapprox": 3794,
      "Ġpictures": 3795,
      "ming": 3796,
      "Ġlarg": 3797,
      "okes": 3798,
      "INTERNAL": 3799,
      "ĠInternational": 3800,
      "Ġ65": 3801,
      "APPOINT": 3802,
      "Ġ99": 3803,
      "uses": 3804,
      "Ġtravel": 3805,
      "ĠConvention": 3806,
      "Ġcomfortable": 3807,
      "Gu": 3808,
      "arly": 3809,
      "Ġinternal": 3810,
      "Ġdam": 3811,
      "ĠResearch": 3812,
      "Ġquickly": 3813,
      "iterranean": 3814,
      "lla": 3815,
      "rs": 3816,
      "rop": 3817,
      "Ġhalf": 3818,
      "ĠLis": 3819,
      "Ġimportance": 3820,
      "ratic": 3821,
      "Ġinvolved": 3822,
      "81": 3823,
      "Me": 3824,
      "Rec": 3825,
      "ging": 3826,
      "ĠPer": 3827,
      "ĠDG": 3828,
      "ables": 3829,
      "IONS": 3830,
      "Ġaspects": 3831,
      "Ġnatural": 3832,
      "OW": 3833,
      "lative": 3834,
      "Ġfre": 3835,
      "Ġdead": 3836,
      "Ġ64": 3837,
      "ĠOn": 3838,
      "Ġourselves": 3839,
      "ECONOMIC": 3840,
      "Mon": 3841,
      "Most": 3842,
      "Ġfan": 3843,
      "Ġgoods": 3844,
      "Any": 3845,
      "lu": 3846,
      "oice": 3847,
      "lax": 3848,
      "Ġchallenge": 3849,
      "LAR": 3850,
      "ĠAN": 3851,
      "ĠGo": 3852,
      "Ġsepar": 3853,
      "Ġwanted": 3854,
      "Ġcustomers": 3855,
      "itutions": 3856,
      "Ġlate": 3857,
      "ighb": 3858,
      "Ġago": 3859,
      "Ġremark": 3860,
      "osp": 3861,
      "ums": 3862,
      "Ġ149": 3863,
      "Ġtaking": 3864,
      "comm": 3865,
      "rink": 3866,
      "estern": 3867,
      "nces": 3868,
      "ĠInvestment": 3869,
      "ixed": 3870,
      "Med": 3871,
      "body": 3872,
      "Ġcal": 3873,
      "TRANSPORT": 3874,
      "Em": 3875,
      "Le": 3876,
      "itle": 3877,
      "Ġbillion": 3878,
      "ĠEd": 3879,
      "ĠNot": 3880,
      "avid": 3881,
      "ĠGreen": 3882,
      "itoring": 3883,
      "Ġflex": 3884,
      "Ġcomprom": 3885,
      "Ġjoint": 3886,
      "Ġaud": 3887,
      "Ġaccepted": 3888,
      "cast": 3889,
      "Ġsil": 3890,
      "ival": 3891,
      "Ġeither": 3892,
      "Ġvict": 3893,
      "prise": 3894,
      "Ġpersons": 3895,
      "Also": 3896,
      "Ġpurch": 3897,
      "bar": 3898,
      "sz": 3899,
      "duced": 3900,
      "Ġmenu": 3901,
      "ĠSouth": 3902,
      "Ġofficial": 3903,
      "ought": 3904,
      "marquis": 3905,
      "CLUS": 3906,
      "Madam": 3907,
      "ena": 3908,
      "ednes": 3909,
      "Ġlab": 3910,
      "raz": 3911,
      "Ġhistory": 3912,
      "ks": 3913,
      "Information": 3914,
      "ovo": 3915,
      "Ġprint": 3916,
      "inute": 3917,
      "Ġeffective": 3918,
      "Ġenvironmental": 3919,
      "ĠSECURITY": 3920,
      "OJ": 3921,
      "ares": 3922,
      "ĠGonz": 3923,
      "days": 3924,
      "Ġbat": 3925,
      "otion": 3926,
      "see": 3927,
      "ift": 3928,
      "rateg": 3929,
      "OY": 3930,
      "Ġround": 3931,
      "Ġfore": 3932,
      "Ġder": 3933,
      "Ġred": 3934,
      "Ġaddition": 3935,
      "Ġcentral": 3936,
      "Hotel": 3937,
      "ane": 3938,
      "TED": 3939,
      "Ġencoura": 3940,
      "anish": 3941,
      "ĠSk": 3942,
      "Ġsupported": 3943,
      "Merger": 3944,
      "ednesday": 3945,
      "more": 3946,
      "Ġfacts": 3947,
      "ĠBerlin": 3948,
      "ĠStrategy": 3949,
      "Ġpartner": 3950,
      "Ġ67": 3951,
      "Ġaccommod": 3952,
      "OPER": 3953,
      "Ġpleas": 3954,
      "Ġimplementation": 3955,
      "Office": 3956,
      "Ġur": 3957,
      "ĠEr": 3958,
      "ĠSCH": 3959,
      "ayer": 3960,
      "ĠRelations": 3961,
      "ĠTel": 3962,
      "ecision": 3963,
      "Ġoutside": 3964,
      "Ġreading": 3965,
      "42": 3966,
      "Ġdiv": 3967,
      "ĠCas": 3968,
      "Ġrepl": 3969,
      "Ġevents": 3970,
      "48": 3971,
      "Red": 3972,
      "new": 3973,
      "Ġpages": 3974,
      "Ġbrow": 3975,
      "Ġvac": 3976,
      "Ġshows": 3977,
      "Ġ58": 3978,
      "Ġarch": 3979,
      "Ġrange": 3980,
      "aily": 3981,
      "ĠChristopher": 3982,
      "41": 3983,
      "ĠCap": 3984,
      "Ġviol": 3985,
      "ĠJos": 3986,
      "yle": 3987,
      "ero": 3988,
      "ĠMart": 3989,
      "ĠFisheries": 3990,
      "Ġens": 3991,
      "obility": 3992,
      "9586": 3993,
      "Ġgovern": 3994,
      "Pe": 3995,
      "ufact": 3996,
      "ĠThis": 3997,
      "Ġterror": 3998,
      "Ġcru": 3999,
      "Those": 4000,
      "ador": 4001,
      "aged": 4002,
      "Ġsimilar": 4003,
      "Ġideal": 4004,
      "Ġbalance": 4005,
      "OG": 4006,
      "ands": 4007,
      "ecut": 4008,
      "Ġfeed": 4009,
      "Ġahead": 4010,
      "Ġequipment": 4011,
      "Ġchalleng": 4012,
      "Ġfran": 4013,
      "Ġfast": 4014,
      "ĠInt": 4015,
      "International": 4016,
      "Ġconsultation": 4017,
      "Ġsignificant": 4018,
      "CLUSIONS": 4019,
      "Pay": 4020,
      "Ġsun": 4021,
      "Ġlic": 4022,
      "ĠID": 4023,
      "TIC": 4024,
      "ults": 4025,
      "43": 4026,
      "Ġsociety": 4027,
      "ression": 4028,
      "ĠFrench": 4029,
      "ocation": 4030,
      "aste": 4031,
      "Ġclient": 4032,
      "Ġcover": 4033,
      "Ġagreements": 4034,
      "Ġprovides": 4035,
      "Ġbenefit": 4036,
      "AIN": 4037,
      "PO": 4038,
      "Ġsix": 4039,
      "Ġcame": 4040,
      "Ġlies": 4041,
      "ĠPat": 4042,
      "agraph": 4043,
      "USS": 4044,
      "Ġcriteria": 4045,
      "ĠEmployment": 4046,
      "usiness": 4047,
      "Ġboard": 4048,
      "ĠMy": 4049,
      "ocal": 4050,
      "ruit": 4051,
      "witzer": 4052,
      "uild": 4053,
      "ĠAL": 4054,
      "debate": 4055,
      "Firstly": 4056,
      "cent": 4057,
      "phone": 4058,
      "Submitted": 4059,
      "oid": 4060,
      "Ġreact": 4061,
      "Ġgas": 4062,
      "Ġgra": 4063,
      "ney": 4064,
      "89": 4065,
      "Energy": 4066,
      "Ġshop": 4067,
      "Ġrout": 4068,
      "ending": 4069,
      "Ġmotion": 4070,
      "Ġobserv": 4071,
      "PS": 4072,
      "Ġdisplay": 4073,
      "2005": 4074,
      "Ġdifference": 4075,
      "ĠPhil": 4076,
      "Email": 4077,
      "Since": 4078,
      "ills": 4079,
      "ĠCONCLUSIONS": 4080,
      "Ġjobs": 4081,
      "Ġtechnology": 4082,
      "Before": 4083,
      "iliou": 4084,
      "ERGY": 4085,
      "ĠPe": 4086,
      "ĠJoh": 4087,
      "ĠDeb": 4088,
      "ĠAgency": 4089,
      "Ġauthor": 4090,
      "77": 4091,
      "Ġsustainable": 4092,
      "Ġsection": 4093,
      "Ġamong": 4094,
      "ocks": 4095,
      "ĠPROGR": 4096,
      "orest": 4097,
      "wide": 4098,
      "Ġcross": 4099,
      "Ġborn": 4100,
      "Ġey": 4101,
      "TIV": 4102,
      "Ġrequirements": 4103,
      "Technical": 4104,
      "Ġculture": 4105,
      "Ġlow": 4106,
      "ĠNetherlands": 4107,
      "Ġ48": 4108,
      "Ġtrain": 4109,
      "Ġbenefits": 4110,
      "APPOINTMENTS": 4111,
      "OPERATION": 4112,
      "Ġdom": 4113,
      "ĠPL": 4114,
      "ĠRights": 4115,
      "Ġ33": 4116,
      "Ġparties": 4117,
      "Ġobvious": 4118,
      "Ġcomplex": 4119,
      "Ġfundamental": 4120,
      "Ġbeginning": 4121,
      "Ġ).": 4122,
      "imb": 4123,
      "ological": 4124,
      "Ġfunds": 4125,
      "Ġairport": 4126,
      "tain": 4127,
      "Ġter": 4128,
      "Ġlanguages": 4129,
      "ĠTV": 4130,
      "Ġliving": 4131,
      "ĠNe": 4132,
      "valuation": 4133,
      "Ġcongratulate": 4134,
      "Ġwonder": 4135,
      "witzerland": 4136,
      "Bec": 4137,
      "Council": 4138,
      "tion": 4139,
      "Ġrelax": 4140,
      "ĠIreland": 4141,
      "igure": 4142,
      "Ġheard": 4143,
      "abled": 4144,
      "Committee": 4145,
      "ĠWeb": 4146,
      "Ġmedia": 4147,
      "Ġill": 4148,
      "Ġinform": 4149,
      "Ġden": 4150,
      "Ġdim": 4151,
      "Ġseem": 4152,
      "Mar": 4153,
      "Ġmobile": 4154,
      "ĠMe": 4155,
      "iam": 4156,
      "ĠVer": 4157,
      "Ġaccording": 4158,
      "Ġtransparency": 4159,
      "Ġserved": 4160,
      "Ġrail": 4161,
      "Ġparking": 4162,
      "Visit": 4163,
      "ius": 4164,
      "ASS": 4165,
      "Ġresponsible": 4166,
      "ipped": 4167,
      "ĠAmeric": 4168,
      "Maria": 4169,
      "ĠGR": 4170,
      "Ġsafe": 4171,
      "2002": 4172,
      "Appro": 4173,
      "strÃ¶": 4174,
      "ĠLisbon": 4175,
      "szl": 4176,
      "67": 4177,
      "Ġthus": 4178,
      "ĠTr": 4179,
      "Ġemploy": 4180,
      "Ġphotos": 4181,
      "Ġaltern": 4182,
      "Ġ34": 4183,
      "Ġimpos": 4184,
      "INS": 4185,
      "alez": 4186,
      "Ġdraw": 4187,
      "lig": 4188,
      "Ġtou": 4189,
      "Ġstated": 4190,
      "ĠLabour": 4191,
      "Inter": 4192,
      "Ġagricultural": 4193,
      "ĠEuropes": 4194,
      "ĠIgles": 4195,
      "ĠSME": 4196,
      "Ġstage": 4197,
      "TEL": 4198,
      "Ġdistribut": 4199,
      "arisa": 4200,
      "Her": 4201,
      "ios": 4202,
      "ĠRec": 4203,
      "Ġrad": 4204,
      "theless": 4205,
      "Ġlimited": 4206,
      "ĠAmerica": 4207,
      "Ġbathroom": 4208,
      "ĠGonzalez": 4209,
      "Work": 4210,
      "ĠCD": 4211,
      "Ġadminist": 4212,
      "alys": 4213,
      "Ġtruth": 4214,
      "Ġpassword": 4215,
      "2010": 4216,
      "Ġbehalf": 4217,
      "ĠPaper": 4218,
      "ĠSlo": 4219,
      "Ġsubsid": 4220,
      "pecially": 4221,
      "Ġbroad": 4222,
      "Ġdoubt": 4223,
      "ĠIglesias": 4224,
      "Marisa": 4225,
      "Ġcivil": 4226,
      "ĠPre": 4227,
      "rael": 4228,
      "arth": 4229,
      "Ġoutcome": 4230,
      "ĠProtection": 4231,
      "About": 4232,
      "Ġcompromise": 4233,
      "Their": 4234,
      "Ġinstitutions": 4235,
      "Ġlegislative": 4236,
      "ĠMadrid": 4237,
      "Ġautom": 4238,
      "ca": 4239,
      "ico": 4240,
      "Ġvill": 4241,
      "Ġdeleg": 4242,
      "Ġrule": 4243,
      "Ġunique": 4244,
      "board": 4245,
      "Ġoptions": 4246,
      "EAR": 4247,
      "LER": 4248,
      "wa": 4249,
      "Ġ[": 4250,
      "Ġways": 4251,
      "Ġface": 4252,
      "ĠSO": 4253,
      "ama": 4254,
      "Ġregister": 4255,
      "Ġpublished": 4256,
      "akes": 4257,
      "ĠConference": 4258,
      "Ġcredit": 4259,
      "Directive": 4260,
      "Ġsays": 4261,
      "itiveness": 4262,
      "ĠEM": 4263,
      "urd": 4264,
      "rab": 4265,
      "ume": 4266,
      "Ġ500": 4267,
      "ĠBarroso": 4268,
      "nual": 4269,
      "Ġjour": 4270,
      "Ġinterested": 4271,
      "Ġthought": 4272,
      "idelines": 4273,
      "Ġsus": 4274,
      "aint": 4275,
      "arden": 4276,
      "Ġargu": 4277,
      "plementation": 4278,
      "Ġbasic": 4279,
      "Ġorigin": 4280,
      "Ġestablished": 4281,
      "68": 4282,
      "UND": 4283,
      "ese": 4284,
      "omep": 4285,
      "ĠTe": 4286,
      "umber": 4287,
      "Never": 4288,
      "ĠMc": 4289,
      "ĠNorth": 4290,
      "Ġprofession": 4291,
      "ĠPROGRAM": 4292,
      "%)": 4293,
      "apt": 4294,
      "Ġpres": 4295,
      "ĠParis": 4296,
      "ĠSystem": 4297,
      "term": 4298,
      "Ġbuilt": 4299,
      "ĠPoland": 4300,
      "atur": 4301,
      "Ġlik": 4302,
      "ĠAgenda": 4303,
      "ĠMadam": 4304,
      "pol": 4305,
      "Ġ$": 4306,
      "itical": 4307,
      "ĠEst": 4308,
      "Ġalong": 4309,
      "ques": 4310,
      "Ġexchange": 4311,
      "Ġ1998": 4312,
      "overty": 4313,
      "Ġhappening": 4314,
      "Ob": 4315,
      "Trade": 4316,
      "Ġcopy": 4317,
      "Ġdeep": 4318,
      "Ġcommunication": 4319,
      "ĠConclusions": 4320,
      "Ġstudy": 4321,
      "Ġpotential": 4322,
      "ishes": 4323,
      "Ġearly": 4324,
      "roulla": 4325,
      "Ġimages": 4326,
      "Ġregions": 4327,
      "AST": 4328,
      "Ġfeatures": 4329,
      "Ġserver": 4330,
      "ĠMichel": 4331,
      "100": 4332,
      "oke": 4333,
      "Ġfishing": 4334,
      "Hel": 4335,
      "Ġmis": 4336,
      "icient": 4337,
      "ownload": 4338,
      "Ġrequires": 4339,
      "Ġinteresting": 4340,
      "omepage": 4341,
      "roll": 4342,
      "Ġcontext": 4343,
      "CISION": 4344,
      "augh": 4345,
      "zo": 4346,
      "Ġlack": 4347,
      "ORK": 4348,
      "Ġtypes": 4349,
      "nership": 4350,
      "FORM": 4351,
      "EIB": 4352,
      "rd": 4353,
      "Ġ00": 4354,
      "anism": 4355,
      "Ġnorm": 4356,
      "ĠMac": 4357,
      "ĠAustria": 4358,
      "ĠRo": 4359,
      "employment": 4360,
      "ĠLin": 4361,
      "Ġ60": 4362,
      "Ġknowledge": 4363,
      "Ġmeasure": 4364,
      "Ġbox": 4365,
      "itary": 4366,
      "ĠRelease": 4367,
      "Sp": 4368,
      "orry": 4369,
      "ĠBal": 4370,
      "ĠPark": 4371,
      "ĠDISC": 4372,
      "Ġimm": 4373,
      "ĠCentral": 4374,
      "OC": 4375,
      "URE": 4376,
      "Ġbreak": 4377,
      "etter": 4378,
      "ĠApart": 4379,
      "Ġgoal": 4380,
      "Ġcomputer": 4381,
      "Ġthemselves": 4382,
      "ribe": 4383,
      "Perhaps": 4384,
      "ez": 4385,
      "Ġcirc": 4386,
      "Ġdaily": 4387,
      "ĠTH": 4388,
      "ocol": 4389,
      "lines": 4390,
      "Ġparagraph": 4391,
      "Ġfields": 4392,
      "Ġtreatment": 4393,
      "Good": 4394,
      "Sm": 4395,
      "Ġmag": 4396,
      "Ġdream": 4397,
      "ĠAre": 4398,
      "ider": 4399,
      "aches": 4400,
      "Ġclar": 4401,
      "Ġideas": 4402,
      "ĠIndustry": 4403,
      "Ġprepared": 4404,
      "87": 4405,
      "93": 4406,
      "vels": 4407,
      "Ġfine": 4408,
      "road": 4409,
      "ead": 4410,
      "Ġpan": 4411,
      "Ġstory": 4412,
      "Ġselection": 4413,
      "Ġcontract": 4414,
      "ips": 4415,
      "Ġsave": 4416,
      "Ġopportunities": 4417,
      "Ġvarious": 4418,
      "Ġrejected": 4419,
      "66": 4420,
      "GI": 4421,
      "Ġri": 4422,
      "Ġcause": 4423,
      "Ġrespond": 4424,
      "Even": 4425,
      "PRE": 4426,
      "ĠCOM": 4427,
      "Ġdeath": 4428,
      "ĠHans": 4429,
      "Ã¼r": 4430,
      "fin": 4431,
      "Ġton": 4432,
      "resh": 4433,
      "raft": 4434,
      "ĠJapan": 4435,
      "ĠWork": 4436,
      "Inst": 4437,
      "ISSION": 4438,
      "Ġhigher": 4439,
      "Ġpaper": 4440,
      "Ġlost": 4441,
      "ĠGreece": 4442,
      "Ġcoming": 4443,
      "Ġfounded": 4444,
      "ĠArt": 4445,
      "Ġexplanations": 4446,
      "Ġdimension": 4447,
      "GE": 4448,
      "bott": 4449,
      "position": 4450,
      "Ġ06": 4451,
      "DEVELOPMENT": 4452,
      "Ġexperi": 4453,
      "Ġcustomer": 4454,
      "His": 4455,
      "itation": 4456,
      "Ġrepe": 4457,
      "ĠMa": 4458,
      "eth": 4459,
      "osovo": 4460,
      "ĠDEF": 4461,
      "Enjoy": 4462,
      "Ġurgent": 4463,
      "Home": 4464,
      "ato": 4465,
      "Ġthreat": 4466,
      "semb": 4467,
      "Ġcapacity": 4468,
      "Disc": 4469,
      "Ġwritten": 4470,
      "ĠTor": 4471,
      "Ġlives": 4472,
      "ager": 4473,
      "ARD": 4474,
      "Ġanswers": 4475,
      "Ġparticipants": 4476,
      "Check": 4477,
      "Ġchallenges": 4478,
      "bers": 4479,
      "hol": 4480,
      "Ġ46": 4481,
      "Read": 4482,
      "ĠDirector": 4483,
      "90": 4484,
      "iff": 4485,
      "Ġdu": 4486,
      "ĠIM": 4487,
      "berg": 4488,
      "Ġord": 4489,
      "Ġ37": 4490,
      "Ġapplause": 4491,
      "IST": 4492,
      "Ġefforts": 4493,
      "down": 4494,
      "Ġstrengthen": 4495,
      "Ġitems": 4496,
      "ĠGrand": 4497,
      "Ġappear": 4498,
      "mas": 4499,
      "ster": 4500,
      "Ġtim": 4501,
      "ervices": 4502,
      "encies": 4503,
      "Dennis": 4504,
      "Ġsuccessful": 4505,
      "Ġimmediately": 4506,
      "Ġlargest": 4507,
      "Aid": 4508,
      "Direct": 4509,
      "oz": 4510,
      "rete": 4511,
      "Ġbott": 4512,
      "ĠCom": 4513,
      "etary": 4514,
      "urch": 4515,
      "raud": 4516,
      "erson": 4517,
      "posal": 4518,
      "Ġ92": 4519,
      "Ġbrings": 4520,
      "Agriculture": 4521,
      "Ġaf": 4522,
      "ĠIraq": 4523,
      "phas": 4524,
      "ĠCommunication": 4525,
      "92": 4526,
      "Ġsolidarity": 4527,
      "Ġbody": 4528,
      "Ġconsequ": 4529,
      "ails": 4530,
      "Ġcategory": 4531,
      "imately": 4532,
      "Ġ74": 4533,
      "Ġconsist": 4534,
      "Impro": 4535,
      "2013": 4536,
      "Ġmaximum": 4537,
      "Because": 4538,
      "Vice": 4539,
      "Ġban": 4540,
      "ĠTrans": 4541,
      "Ġharm": 4542,
      "Ġgives": 4543,
      "ĠLuxembourg": 4544,
      "ava": 4545,
      "Ġprevent": 4546,
      "Ġelectric": 4547,
      "Ġmap": 4548,
      "Ġdrink": 4549,
      "Ġstra": 4550,
      "ĠBR": 4551,
      "dam": 4552,
      "Ġblog": 4553,
      "ĠApp": 4554,
      "ĠSy": 4555,
      "ĠWednesday": 4556,
      "Ġstarting": 4557,
      "Ġphoto": 4558,
      "Ġproperty": 4559,
      "RES": 4560,
      "Ġperm": 4561,
      "arter": 4562,
      "unt": 4563,
      "ENMinister": 4564,
      "Ġ1997": 4565,
      "Ġcollect": 4566,
      "Ġguarantee": 4567,
      "ĠBY": 4568,
      "....": 4569,
      "mbass": 4570,
      "Ġselected": 4571,
      "Ġwaiting": 4572,
      "iate": 4573,
      "Ġsource": 4574,
      "Ġcards": 4575,
      "ĠPort": 4576,
      "Ġappoint": 4577,
      "Ġcalls": 4578,
      "Ġwatch": 4579,
      "Ġdiscussed": 4580,
      "Key": 4581,
      "onom": 4582,
      "una": 4583,
      "Ġexternal": 4584,
      "Ġcontain": 4585,
      "Ġparty": 4586,
      "ĠInn": 4587,
      "Ġcove": 4588,
      "Ġseries": 4589,
      "ĠPeter": 4590,
      "Ġgreen": 4591,
      "ĠWTO": 4592,
      "Ġlear": 4593,
      "52": 4594,
      "book": 4595,
      "vis": 4596,
      "ĠMor": 4597,
      "Ġweeks": 4598,
      "Ġmovement": 4599,
      "Av": 4600,
      "hood": 4601,
      "rite": 4602,
      "ĠQ": 4603,
      "Third": 4604,
      "verage": 4605,
      "ORS": 4606,
      "Ġassessment": 4607,
      "Ġcenter": 4608,
      "Ġpopular": 4609,
      "Useful": 4610,
      "ETING": 4611,
      "Source": 4612,
      "ĠQuestion": 4613,
      "Ġreception": 4614,
      "Ġski": 4615,
      "vote": 4616,
      "orse": 4617,
      "Ġtot": 4618,
      "Ġdue": 4619,
      "astic": 4620,
      "Ġcompl": 4621,
      "Ġdise": 4622,
      "paign": 4623,
      "Ġsituated": 4624,
      "Bl": 4625,
      "Ġsort": 4626,
      "Ġpen": 4627,
      "Ġpaid": 4628,
      "Ġoral": 4629,
      "Ġguest": 4630,
      "strÃ¶m": 4631,
      "face": 4632,
      "ĠAct": 4633,
      "ula": 4634,
      "ĠRad": 4635,
      "ĠJean": 4636,
      "Ġplans": 4637,
      "Ġuseful": 4638,
      "Ġtrack": 4639,
      "Ġmanufact": 4640,
      "Christ": 4641,
      "Ġincreased": 4642,
      "Ġstatistics": 4643,
      "VII": 4644,
      "Ġwine": 4645,
      "Ġmass": 4646,
      "0000": 4647,
      "ĠUkraine": 4648,
      "Ġemphas": 4649,
      "Ġminimum": 4650,
      "Ġcovered": 4651,
      "ĠPr": 4652,
      "ĠBen": 4653,
      "force": 4654,
      "ĠLat": 4655,
      "Ġmyself": 4656,
      "Common": 4657,
      "Ġglad": 4658,
      "Ġconnection": 4659,
      "Ġopposite": 4660,
      "61": 4661,
      "MO": 4662,
      "cont": 4663,
      "aries": 4664,
      "Ġshown": 4665,
      "ĠCOOPERATION": 4666,
      "Ġsuff": 4667,
      "Ġquiet": 4668,
      "ESID": 4669,
      "Ġtrust": 4670,
      "Ġcommented": 4671,
      "Ġhistor": 4672,
      "ylum": 4673,
      "57": 4674,
      "uis": 4675,
      "Ġself": 4676,
      "Ġpie": 4677,
      "alt": 4678,
      "END": 4679,
      "arel": 4680,
      "Ġconcerning": 4681,
      "Ġsurve": 4682,
      "Transport": 4683,
      "Up": 4684,
      "ordination": 4685,
      "Article": 4686,
      "antic": 4687,
      "aving": 4688,
      "ACK": 4689,
      "Ġrestrict": 4690,
      "Ġconsumer": 4691,
      "letter": 4692,
      "Ġtrend": 4693,
      "Support": 4694,
      "Human": 4695,
      "cor": 4696,
      "chen": 4697,
      "ii": 4698,
      "uz": 4699,
      "used": 4700,
      "Ġgames": 4701,
      "Ġoriginal": 4702,
      "Ġyester": 4703,
      "BER": 4704,
      "Social": 4705,
      "Ġtw": 4706,
      "ison": 4707,
      "Ġconcept": 4708,
      "ĠForest": 4709,
      "ivity": 4710,
      "Internal": 4711,
      "IND": 4712,
      "Ġ96": 4713,
      "Ġfinancing": 4714,
      "PARENCY": 4715,
      "fficient": 4716,
      "94": 4717,
      "Ass": 4718,
      "UG": 4719,
      "UP": 4720,
      "burg": 4721,
      "Ġtru": 4722,
      "ĠCity": 4723,
      "ĠShe": 4724,
      "iding": 4725,
      "Ġdepart": 4726,
      "oph": 4727,
      "Ġworkers": 4728,
      "dumping": 4729,
      "Ġten": 4730,
      "Ġhy": 4731,
      "ĠME": 4732,
      "ĠDan": 4733,
      "ressed": 4734,
      "Ġwhile": 4735,
      "Ġemerg": 4736,
      "ourable": 4737,
      "Ġconsumers": 4738,
      "Ġwindow": 4739,
      "Ġmorning": 4740,
      "Look": 4741,
      "ĠPot": 4742,
      "ĠSTR": 4743,
      "ĠGod": 4744,
      "ĠHer": 4745,
      "TES": 4746,
      "Ġmech": 4747,
      "rought": 4748,
      "Ġeasily": 4749,
      "Ġaddressed": 4750,
      "spokes": 4751,
      "ĠOperational": 4752,
      "Nor": 4753,
      "asur": 4754,
      "Ġ--": 4755,
      "ECspokes": 4756,
      "Ġ90": 4757,
      "Ġwants": 4758,
      "Ġknows": 4759,
      "Ġthinking": 4760,
      "Report": 4761,
      "Ġcolor": 4762,
      "mbH": 4763,
      "Adop": 4764,
      "Ġespecially": 4765,
      "iver": 4766,
      "mentary": 4767,
      "ĠBel": 4768,
      "ĠBelgium": 4769,
      "claration": 4770,
      "Ġdecided": 4771,
      "Ġpartnership": 4772,
      "Action": 4773,
      "bia": 4774,
      "uments": 4775,
      "ercial": 4776,
      "Ġwent": 4777,
      "urance": 4778,
      "iab": 4779,
      "Ġseason": 4780,
      "Ġ2020": 4781,
      "Ġformat": 4782,
      "Ġfoot": 4783,
      "ev": 4784,
      "lim": 4785,
      "mus": 4786,
      "ĠGlobal": 4787,
      "Ġadvert": 4788,
      "ĠĠĠ": 4789,
      "Ġindepend": 4790,
      "Ġrunning": 4791,
      "Ġrelevant": 4792,
      "Ġtrip": 4793,
      "National": 4794,
      "STR": 4795,
      "ĠMi": 4796,
      "ĠSw": 4797,
      "ildren": 4798,
      "Ġspir": 4799,
      "Ġapproval": 4800,
      "Ġdraft": 4801,
      "Ġreleases": 4802,
      "Ġintegration": 4803,
      "house": 4804,
      "Ġlabour": 4805,
      "Ġabst": 4806,
      "Ġcla": 4807,
      "ibilities": 4808,
      "Ġtransfer": 4809,
      "Ġhumanitarian": 4810,
      "Ġbedroom": 4811,
      "Ġdrive": 4812,
      "ĠPartnership": 4813,
      "ĠPROGRAMME": 4814,
      "dra": 4815,
      "Ġcamp": 4816,
      "ĠAcc": 4817,
      "Ġvan": 4818,
      "rowth": 4819,
      "Ġarrange": 4820,
      "Ġinterests": 4821,
      "Ġentirely": 4822,
      "VD": 4823,
      "iber": 4824,
      "ĠDo": 4825,
      "Ġprepar": 4826,
      "Ġdetailed": 4827,
      "Ġapartments": 4828,
      "Ġcrucial": 4829,
      "64": 4830,
      "HO": 4831,
      "sible": 4832,
      "yr": 4833,
      "Ġut": 4834,
      "ĠMil": 4835,
      "rik": 4836,
      "iev": 4837,
      "oved": 4838,
      "Ġgrant": 4839,
      "CISIONS": 4840,
      "ls": 4841,
      "Ġhuge": 4842,
      "EUR": 4843,
      "Another": 4844,
      "Anti": 4845,
      "cher": 4846,
      "equ": 4847,
      "Ġmand": 4848,
      "ĠPaul": 4849,
      "ĠGmbH": 4850,
      "Ġprinciples": 4851,
      "Ġfacilities": 4852,
      "celona": 4853,
      "Ġpopulation": 4854,
      "LAND": 4855,
      "Special": 4856,
      "rative": 4857,
      "Ġterr": 4858,
      "arb": 4859,
      "ĠPortugal": 4860,
      "alls": 4861,
      "clusive": 4862,
      "Ġattract": 4863,
      "iction": 4864,
      "Ġsupply": 4865,
      "uilding": 4866,
      "Ġdistributed": 4867,
      "LA": 4868,
      "aring": 4869,
      "illed": 4870,
      "Ġanalys": 4871,
      "uds": 4872,
      "duce": 4873,
      "ologies": 4874,
      "Ġlimit": 4875,
      "TRANSPARENCY": 4876,
      "EEC": 4877,
      "iers": 4878,
      "Ġwide": 4879,
      "Ġdesc": 4880,
      "ĠYear": 4881,
      "Ġapplied": 4882,
      "ĠAssessment": 4883,
      "IAN": 4884,
      "uy": 4885,
      "Ġcart": 4886,
      "ĠPet": 4887,
      "ĠSant": 4888,
      "Inf": 4889,
      "Ġ85": 4890,
      "Ġacross": 4891,
      "China": 4892,
      "ĠNews": 4893,
      "ĠScience": 4894,
      "Ġregistered": 4895,
      "Ġcharacter": 4896,
      "People": 4897,
      "IX": 4898,
      "rey": 4899,
      "inas": 4900,
      "att": 4901,
      "ĠCal": 4902,
      "ĠBrit": 4903,
      "Ġlevels": 4904,
      "Ġsites": 4905,
      "Conclusion": 4906,
      "Ġimproved": 4907,
      "Ġpractical": 4908,
      "Nevertheless": 4909,
      "fish": 4910,
      "Ġforeign": 4911,
      "ĠPC": 4912,
      "ĠFree": 4913,
      "ĠBUS": 4914,
      "ĠDes": 4915,
      "2003": 4916,
      "English": 4917,
      "Ġstands": 4918,
      "Ġequipped": 4919,
      "ronic": 4920,
      "Ġappropriate": 4921,
      "Ġdangerous": 4922,
      "91": 4923,
      "IER": 4924,
      "ba": 4925,
      "inated": 4926,
      "ituation": 4927,
      "ĠFood": 4928,
      "Ġresol": 4929,
      "ippe": 4930,
      "arent": 4931,
      "orders": 4932,
      "Ġprem": 4933,
      "2009": 4934,
      "mbassador": 4935,
      "DUC": 4936,
      "Ġforget": 4937,
      "ĠMichael": 4938,
      "ĠAM": 4939,
      "ĠSol": 4940,
      "Ġsupports": 4941,
      "ges": 4942,
      "rely": 4943,
      "ĠPH": 4944,
      "rap": 4945,
      "ĠHel": 4946,
      "erences": 4947,
      "Ġkit": 4948,
      "urrency": 4949,
      "Ġbeds": 4950,
      "opping": 4951,
      "sembly": 4952,
      "Somet": 4953,
      "ĠSwitzerland": 4954,
      "uration": 4955,
      "Ġprot": 4956,
      "Ġrelated": 4957,
      "Ġincluding": 4958,
      "ticles": 4959,
      "Ġoperation": 4960,
      "Ġanimals": 4961,
      "Tele": 4962,
      "Turkey": 4963,
      "enh": 4964,
      "Ġdru": 4965,
      "Ġstructure": 4966,
      "ĠTechn": 4967,
      "Ġspeed": 4968,
      "Ġspeech": 4969,
      "lexand": 4970,
      "eleb": 4971,
      "Ġmonitoring": 4972,
      "Ġstatus": 4973,
      "Ġcampaign": 4974,
      "Ãľ": 4975,
      "Ġspr": 4976,
      "ĠExternal": 4977,
      "IGH": 4978,
      "Ġwait": 4979,
      "ighbour": 4980,
      "vision": 4981,
      "Ġ#": 4982,
      "itime": 4983,
      "Ġqual": 4984,
      "egal": 4985,
      "Ġacceptable": 4986,
      "Ġcritic": 4987,
      "Ġinitiatives": 4988,
      "itutional": 4989,
      "orge": 4990,
      "Ġcert": 4991,
      "ĠSal": 4992,
      "urt": 4993,
      "ĠFax": 4994,
      "Ġ89": 4995,
      "Ġinfrastructure": 4996,
      "Ġincreasing": 4997,
      "ariat": 4998,
      "Ġreleased": 4999,
      "Ġwhether": 5000,
      "Ġtotally": 5001,
      "ITI": 5002,
      "La": 5003,
      "gar": 5004,
      "atically": 5005,
      "Ġmail": 5006,
      "Ġweak": 5007,
      "ĠTour": 5008,
      "ĠWestern": 5009,
      "ĠVan": 5010,
      "Ġ44": 5011,
      "ipping": 5012,
      "Ġoptim": 5013,
      "ĠCostasur": 5014,
      "Ġvehicles": 5015,
      "reas": 5016,
      "ateral": 5017,
      "Ġstability": 5018,
      "ĠDen": 5019,
      "Ġcharg": 5020,
      "ENERGY": 5021,
      "Ġnetworks": 5022,
      "ĠSMEs": 5023,
      "Russia": 5024,
      "rew": 5025,
      "ĠPie": 5026,
      "Ġstrateg": 5027,
      "ĠRomania": 5028,
      "oking": 5029,
      "Ġ475": 5030,
      "Ġapprec": 5031,
      "Ġregret": 5032,
      "ifications": 5033,
      "Ġevening": 5034,
      "ĠArticle": 5035,
      "ength": 5036,
      "Ġelections": 5037,
      "51": 5038,
      "54": 5039,
      "Car": 5040,
      "Pr": 5041,
      "itude": 5042,
      "Ġbackground": 5043,
      "ille": 5044,
      "ilia": 5045,
      "resp": 5046,
      "acco": 5047,
      "00352": 5048,
      "chise": 5049,
      "INESS": 5050,
      "ĠProcess": 5051,
      "Ġgetting": 5052,
      "Ġsaying": 5053,
      "Ġadvance": 5054,
      "Ġinstruments": 5055,
      "Fl": 5056,
      "Justice": 5057,
      "Peter": 5058,
      "back": 5059,
      "wh": 5060,
      "Ġcr": 5061,
      "Ġones": 5062,
      "Ġconver": 5063,
      "andid": 5064,
      "ĠOpen": 5065,
      "Ġadm": 5066,
      "ERV": 5067,
      "Ġbuff": 5068,
      "ĠCentre": 5069,
      "Ġscheme": 5070,
      "Ġsatisf": 5071,
      "LIC": 5072,
      "kt": 5073,
      "nia": 5074,
      "Ġ(âĤ¬": 5075,
      "Ġarticle": 5076,
      "Ġreforms": 5077,
      "ĠSTATE": 5078,
      "83": 5079,
      "EF": 5080,
      "Ġexerc": 5081,
      "ĠInf": 5082,
      "Ġtransl": 5083,
      "Ġpresented": 5084,
      "Ġcondition": 5085,
      "osen": 5086,
      "Thus": 5087,
      "Ġconv": 5088,
      "Ġsimpl": 5089,
      "Ġexpend": 5090,
      "Ġeuros": 5091,
      "Ġslow": 5092,
      "ĠDimas": 5093,
      "ĠSummit": 5094,
      "Number": 5095,
      "enty": 5096,
      "ĠChe": 5097,
      "Ġ41": 5098,
      "aby": 5099,
      "Ġgreater": 5100,
      "Ġplayer": 5101,
      "ĠĠĠĠĠĠĠĠ": 5102,
      "Cooperation": 5103,
      "Opening": 5104,
      "Focus": 5105,
      "Ġerror": 5106,
      "rel": 5107,
      "ĠPar": 5108,
      "ĠAp": 5109,
      "ĠSo": 5110,
      "ĠBest": 5111,
      "ĠTur": 5112,
      "ĠHuman": 5113,
      "umn": 5114,
      "ends": 5115,
      "Ġchance": 5116,
      "ountry": 5117,
      "Expl": 5118,
      "ĠIsrael": 5119,
      "Ġfranchise": 5120,
      "Ġtouch": 5121,
      "ĠCyprus": 5122,
      "ids": 5123,
      "ĠDom": 5124,
      "Ġexhib": 5125,
      "ĠVII": 5126,
      "ARY": 5127,
      "Ġ03": 5128,
      "Ġraised": 5129,
      "Croatia": 5130,
      "LI": 5131,
      "ycl": 5132,
      "Ġmem": 5133,
      "estic": 5134,
      "amber": 5135,
      "ĠNational": 5136,
      "Ġ300": 5137,
      "avros": 5138,
      "ĠProspect": 5139,
      "Ġcommittee": 5140,
      "Ġ285": 5141,
      "Ġpoor": 5142,
      "Ġvillage": 5143,
      "ua": 5144,
      "isely": 5145,
      "Ġfisheries": 5146,
      "Ġbase": 5147,
      "Ġisland": 5148,
      "Ġladies": 5149,
      "ĠECON": 5150,
      "ĠRuss": 5151,
      "ĠOb": 5152,
      "hengen": 5153,
      "Ġavoid": 5154,
      "Ġsole": 5155,
      "iano": 5156,
      "ĠProduct": 5157,
      "uesday": 5158,
      "Ġhands": 5159,
      "Otherwise": 5160,
      "Ġload": 5161,
      "Ġreserved": 5162,
      "Ġreservation": 5163,
      "ĠADOP": 5164,
      "mical": 5165,
      "ĠGU": 5166,
      "ague": 5167,
      "Ġregular": 5168,
      "rateful": 5169,
      "Ġpressure": 5170,
      "Ġaims": 5171,
      "ĠAssociation": 5172,
      "Ġviolence": 5173,
      "82": 5174,
      "cle": 5175,
      "Ġfurn": 5176,
      "Ġfigure": 5177,
      "ĠCzech": 5178,
      "ĠRest": 5179,
      "Ġadjust": 5180,
      "Ġconflic": 5181,
      "Indeed": 5182,
      "ĠTRANS": 5183,
      "iciency": 5184,
      "iated": 5185,
      "ĠService": 5186,
      "ĠDel": 5187,
      "ĠDay": 5188,
      "rasmus": 5189,
      "Ġannual": 5190,
      "Ġaccommodation": 5191,
      "62": 5192,
      "Ext": 5193,
      "TC": 5194,
      "overy": 5195,
      "Ġfear": 5196,
      "ĠSweden": 5197,
      "Ġgrateful": 5198,
      "Ġrecent": 5199,
      "Ġefficient": 5200,
      "Ġmajority": 5201,
      "PLOY": 5202,
      "ĠQU": 5203,
      "inner": 5204,
      "Ġsport": 5205,
      "Ġsales": 5206,
      "Ġgarden": 5207,
      "Ġstyle": 5208,
      "umption": 5209,
      "agen": 5210,
      "Ġentry": 5211,
      "ika": 5212,
      "ĠConst": 5213,
      "Ġcarried": 5214,
      "Nothing": 5215,
      "Ġmedic": 5216,
      "Ġdeveloped": 5217,
      "rant": 5218,
      "uk": 5219,
      "ilateral": 5220,
      "ĠCAP": 5221,
      "oper": 5222,
      "ĠUr": 5223,
      "Ġbutton": 5224,
      "Ġactivity": 5225,
      "Ġtrading": 5226,
      "Ġterrorism": 5227,
      "ĠPhilippe": 5228,
      "Ġax": 5229,
      "ora": 5230,
      "rian": 5231,
      "Ġsuitable": 5232,
      "oker": 5233,
      "ancy": 5234,
      "TIONS": 5235,
      "gypt": 5236,
      "Ġinvestigation": 5237,
      "ĠForum": 5238,
      "Greece": 5239,
      "Ġmm": 5240,
      "oto": 5241,
      "ĠNov": 5242,
      "ĠWall": 5243,
      "EST": 5244,
      "Ġindustrial": 5245,
      "Ġcompleted": 5246,
      "External": 5247,
      "Ġperformance": 5248,
      "ĠLinux": 5249,
      "ĠDEFENCE": 5250,
      "ĠBUSINESS": 5251,
      "Ġexpenditure": 5252,
      "Dec": 5253,
      "sk": 5254,
      "ĠMs": 5255,
      "ĠItal": 5256,
      "ĠBAR": 5257,
      "Ġhighlight": 5258,
      "Ġseparate": 5259,
      "PREPAR": 5260,
      "Ġmechanism": 5261,
      "ĠPiebal": 5262,
      "bably": 5263,
      "oriz": 5264,
      "Ġminute": 5265,
      "Ġduty": 5266,
      "Ġnuclear": 5267,
      "ube": 5268,
      "ghan": 5269,
      "ĠCommunications": 5270,
      "Review": 5271,
      "Ġcarry": 5272,
      "oot": 5273,
      "alia": 5274,
      "Ġstake": 5275,
      "Ġhaving": 5276,
      "ĠKosovo": 5277,
      "Ġconfirm": 5278,
      "criptive": 5279,
      "Documents": 5280,
      "ĠECONOMIC": 5281,
      "ĠPiebalgs": 5282,
      "Download": 5283,
      "ĠPA": 5284,
      "ĠWar": 5285,
      "udge": 5286,
      "avigation": 5287,
      "Final": 5288,
      "Ġpayments": 5289,
      "Ġthroughout": 5290,
      "Ġexisting": 5291,
      "Ġsummit": 5292,
      "Ġbrowser": 5293,
      "Ġensure": 5294,
      "ECspokesAntoine": 5295,
      "Last": 5296,
      "bourg": 5297,
      "Ġbrought": 5298,
      "Ġalb": 5299,
      "Ġexcept": 5300,
      "Ġ36": 5301,
      "ĠVAT": 5302,
      "Ġgets": 5303,
      "Ġdiscount": 5304,
      "Ġconfidence": 5305,
      "Ġpackages": 5306,
      "ĠSummary": 5307,
      "Ġalternative": 5308,
      "BR": 5309,
      "PDO": 5310,
      "atch": 5311,
      "Ġsle": 5312,
      "Ġpoll": 5313,
      "Ġdon": 5314,
      "ffee": 5315,
      "Ġcommunity": 5316,
      "Ġprotected": 5317,
      "Ġcolle": 5318,
      "Ġjoin": 5319,
      "Ġmarked": 5320,
      "razil": 5321,
      "OB": 5322,
      "elt": 5323,
      "eting": 5324,
      "Three": 5325,
      "appoint": 5326,
      "celand": 5327,
      "ĠMediterranean": 5328,
      "High": 5329,
      "pid": 5330,
      "yond": 5331,
      "inter": 5332,
      "ĠMiddle": 5333,
      "Ġluck": 5334,
      "ĠES": 5335,
      "useum": 5336,
      "UST": 5337,
      "Ġnumbers": 5338,
      "Ġfilm": 5339,
      "UDG": 5340,
      "Ġestablish": 5341,
      "Ġvictims": 5342,
      "56": 5343,
      "vo": 5344,
      "ute": 5345,
      "ĠHot": 5346,
      "ĠStavros": 5347,
      "Ġemissions": 5348,
      "ondon": 5349,
      "ĠProspective": 5350,
      "PLOYMENT": 5351,
      "Af": 5352,
      "Go": 5353,
      "traq": 5354,
      "onik": 5355,
      "owers": 5356,
      "amed": 5357,
      "Ġefficiency": 5358,
      "Ġcheap": 5359,
      "Ġwinter": 5360,
      "ĠManuel": 5361,
      "ĠBugtraq": 5362,
      "Ġengine": 5363,
      "Ġmistake": 5364,
      "RIS": 5365,
      "uer": 5366,
      "Ġ1000": 5367,
      "ĠGovernment": 5368,
      "ĠVER": 5369,
      "Once": 5370,
      "ĠYouth": 5371,
      "Ġhighly": 5372,
      "prene": 5373,
      "Ġregistration": 5374,
      "Ġcommitment": 5375,
      "Traq": 5376,
      "Under": 5377,
      "cer": 5378,
      "Ġil": 5379,
      "reprene": 5380,
      "Ġce": 5381,
      "Ġpain": 5382,
      "Ġinnov": 5383,
      "ĠAuth": 5384,
      "Ġstates": 5385,
      "stein": 5386,
      "ĠRele": 5387,
      "ĠPROCED": 5388,
      "Ġrecommendations": 5389,
      "Ġdevelopments": 5390,
      "Ġauthorities": 5391,
      "Clos": 5392,
      "ĠSecurityFocus": 5393,
      "ĠBugTraq": 5394,
      "Approval": 5395,
      "Could": 5396,
      "lad": 5397,
      "ny": 5398,
      "Ġdie": 5399,
      "ĠBusiness": 5400,
      "iable": 5401,
      "Ġneg": 5402,
      "ĠJo": 5403,
      "ags": 5404,
      "Ġprefer": 5405,
      "mbuds": 5406,
      "Ġswim": 5407,
      "oose": 5408,
      "Ġsan": 5409,
      "ĠCarl": 5410,
      "Ġlines": 5411,
      "ĠBulgaria": 5412,
      "Questions": 5413,
      "Ġemb": 5414,
      "Ġvisitors": 5415,
      "ĠAsia": 5416,
      "Ġappeal": 5417,
      "Ġpurchase": 5418,
      "Ġconsequences": 5419,
      "ĠADOPTED": 5420,
      "Prom": 5421,
      "mp": 5422,
      "isch": 5423,
      "Ġsong": 5424,
      "Ġfire": 5425,
      "Ġfirm": 5426,
      "Ġmobility": 5427,
      "ĠServices": 5428,
      "Ġsuper": 5429,
      "Ġ52": 5430,
      "ously": 5431,
      "aves": 5432,
      "Ġjustice": 5433,
      "Ġscreen": 5434,
      "Moreover": 5435,
      "Ġconsidered": 5436,
      "Ġparticipation": 5437,
      "rasbourg": 5438,
      "Phone": 5439,
      "Ġsides": 5440,
      "Ġcultural": 5441,
      "Ġdoll": 5442,
      "ĠFer": 5443,
      "ief": 5444,
      "Ġfeature": 5445,
      "Ġinside": 5446,
      "cedure": 5447,
      "Ġrisks": 5448,
      "Ġterrace": 5449,
      "Air": 5450,
      "Tra": 5451,
      "mann": 5452,
      "arily": 5453,
      "ĠPE": 5454,
      "ĠIran": 5455,
      "Ġoblig": 5456,
      "Ġplayers": 5457,
      "mbol": 5458,
      "Ġmeters": 5459,
      "Ġimplemented": 5460,
      "Ġlearning": 5461,
      "NE": 5462,
      "Rel": 5463,
      "Ġbear": 5464,
      "Ġstock": 5465,
      "roud": 5466,
      "Ġfinally": 5467,
      "standing": 5468,
      "Ġexplain": 5469,
      "ĠReleases": 5470,
      "DG": 5471,
      "di": 5472,
      "press": 5473,
      "Ġcook": 5474,
      "Ġpoverty": 5475,
      "ĠMark": 5476,
      "rich": 5477,
      "Ġconsists": 5478,
      "Ġdefault": 5479,
      "Ġrepresented": 5480,
      "Descriptive": 5481,
      "73": 5482,
      "gel": 5483,
      "Ġer": 5484,
      "ĠMod": 5485,
      "resse": 5486,
      "ĠFact": 5487,
      "ĠDub": 5488,
      "Ġdoor": 5489,
      "ENS": 5490,
      "ogle": 5491,
      "Ġanyone": 5492,
      "Ġproduced": 5493,
      "Ġprim": 5494,
      "Ġforms": 5495,
      "ĠBarcelona": 5496,
      "Ġapplications": 5497,
      "Ġetc": 5498,
      "Spec": 5499,
      "72": 5500,
      "84": 5501,
      "EO": 5502,
      "jour": 5503,
      "Ġsell": 5504,
      "ĠPrime": 5505,
      "ĠBudget": 5506,
      "ella": 5507,
      "airman": 5508,
      "1999": 5509,
      "itute": 5510,
      "Ġdeliber": 5511,
      "Ġreferred": 5512,
      "ecutive": 5513,
      "Non": 5514,
      "Ġ01": 5515,
      "Ġwood": 5516,
      "orthern": 5517,
      "Ġplaces": 5518,
      "ĠKore": 5519,
      "Ġ43": 5520,
      "ĠEuropeans": 5521,
      "Ġdoesnt": 5522,
      "ĠMaria": 5523,
      "Commit": 5524,
      "Ġadvice": 5525,
      "Should": 5526,
      "ĠFrank": 5527,
      "Ġdeliver": 5528,
      "ĠWhite": 5529,
      "53": 5530,
      "71": 5531,
      "Det": 5532,
      "nal": 5533,
      "Ġcurrency": 5534,
      "Ġda": 5535,
      "Ġdistance": 5536,
      "Ġvoice": 5537,
      "anda": 5538,
      "ĠUK": 5539,
      "ĠUnit": 5540,
      "Ġstarts": 5541,
      "UNIC": 5542,
      "Ġseriously": 5543,
      "ĠAirport": 5544,
      "LARG": 5545,
      "MA": 5546,
      "SUM": 5547,
      "tes": 5548,
      "itial": 5549,
      "ĠIT": 5550,
      "Ġcompon": 5551,
      "Ġ1996": 5552,
      "Ġmachine": 5553,
      "59": 5554,
      "ois": 5555,
      "rehen": 5556,
      "Ġwishes": 5557,
      "Ġceleb": 5558,
      "arus": 5559,
      "Ġnames": 5560,
      "available": 5561,
      "prises": 5562,
      "Ġplaying": 5563,
      "ĠCoR": 5564,
      "ustoms": 5565,
      "Ġadvantage": 5566,
      "EARCH": 5567,
      "Ġtonnes": 5568,
      "Bel": 5569,
      "Breakfast": 5570,
      "Ġwrite": 5571,
      "Ġcast": 5572,
      "Ġrenew": 5573,
      "ĠSil": 5574,
      "Ġexport": 5575,
      "ĠLou": 5576,
      "...?": 5577,
      "Ġprecisely": 5578,
      "Did": 5579,
      "Ġvess": 5580,
      "Ġvirt": 5581,
      "occo": 5582,
      "Ġplat": 5583,
      "Ġdeterm": 5584,
      "Ġplayed": 5585,
      "Ġrepresents": 5586,
      "Ġfrequ": 5587,
      "Ġimpossible": 5588,
      "TAC": 5589,
      "iance": 5590,
      "onio": 5591,
      "itely": 5592,
      "ĠGi": 5593,
      "Ġmatch": 5594,
      "Ġcarefully": 5595,
      "Ġcatal": 5596,
      "SKI": 5597,
      "PREPARATION": 5598,
      "eturn": 5599,
      "osed": 5600,
      "allery": 5601,
      "Ġsufficient": 5602,
      "ĠCommon": 5603,
      "Ġurban": 5604,
      "Ġnormal": 5605,
      "Apart": 5606,
      "Time": 5607,
      "pret": 5608,
      "inn": 5609,
      "orial": 5610,
      "Ġpure": 5611,
      "Ġdates": 5612,
      "Ġnights": 5613,
      "Ġthous": 5614,
      "ĠBAL": 5615,
      "antly": 5616,
      "ection": 5617,
      "ĠJac": 5618,
      "Ġworked": 5619,
      "ĠSecretariat": 5620,
      "Ġ1995": 5621,
      "Ġinflu": 5622,
      "Ġleaders": 5623,
      "Federal": 5624,
      "Link": 5625,
      "Loud": 5626,
      "Ġmer": 5627,
      "Ġlength": 5628,
      "ĠPAR": 5629,
      "ĠSP": 5630,
      "ĠBon": 5631,
      "amic": 5632,
      "ĠHungary": 5633,
      "Ġplant": 5634,
      "Ġagriculture": 5635,
      "Ġwhite": 5636,
      "Ġ84": 5637,
      "Ġbelong": 5638,
      "Ġlaun": 5639,
      "Ġconfig": 5640,
      "Ġeffects": 5641,
      "ĠECU": 5642,
      "Ġaffected": 5643,
      "bit": 5644,
      "sch": 5645,
      "ĠPina": 5646,
      "empt": 5647,
      "Ġsuc": 5648,
      "INVI": 5649,
      "ACH": 5650,
      "Europes": 5651,
      "Ġcounter": 5652,
      "communications": 5653,
      "Ġroute": 5654,
      "Ġanalysis": 5655,
      "LARGEMENT": 5656,
      "ML": 5657,
      "date": 5658,
      "net": 5659,
      "ĠMalm": 5660,
      "ĠSa": 5661,
      "ĠSport": 5662,
      "ĠBr": 5663,
      "TEC": 5664,
      "ĠCouncils": 5665,
      "Ġlooks": 5666,
      "Ġraise": 5667,
      "Ġsets": 5668,
      "Ġconstruction": 5669,
      "TIVE": 5670,
      "500": 5671,
      "79": 5672,
      "Tax": 5673,
      "Ġir": 5674,
      "Ġfit": 5675,
      "itious": 5676,
      "Ġreduction": 5677,
      "ĠDVD": 5678,
      "Ġclub": 5679,
      "abil": 5680,
      "Ġoffered": 5681,
      "Ġsubmitted": 5682,
      "Ġappears": 5683,
      "ĠSpanish": 5684,
      "Ġdepends": 5685,
      "Act": 5686,
      "Cod": 5687,
      "Green": 5688,
      "ses": 5689,
      "Ġdigital": 5690,
      "ental": 5691,
      "Ġhour": 5692,
      "ĠARE": 5693,
      "ops": 5694,
      "INE": 5695,
      "ORG": 5696,
      "Ġ88": 5697,
      "2006": 5698,
      "2008": 5699,
      "ĠDECISIONS": 5700,
      "Ġblack": 5701,
      "atherine": 5702,
      "Ġforest": 5703,
      "ĠVassiliou": 5704,
      "Ġspirit": 5705,
      "Ġsucceed": 5706,
      "76": 5707,
      "Ġsal": 5708,
      "ĠCast": 5709,
      "usion": 5710,
      "ĠSm": 5711,
      "ĠBalk": 5712,
      "sec": 5713,
      "ANCE": 5714,
      "ĠUp": 5715,
      "INK": 5716,
      "Ġarticles": 5717,
      "Ġoverall": 5718,
      "Ġlisted": 5719,
      "ructures": 5720,
      "Ġseconds": 5721,
      "Companies": 5722,
      "scribe": 5723,
      "riminal": 5724,
      "Ġdelivery": 5725,
      "Ġbriefly": 5726,
      "ĠAuditors": 5727,
      "Ġremarks": 5728,
      "Ġprofessional": 5729,
      "FER": 5730,
      "Great": 5731,
      "Make": 5732,
      "eep": 5733,
      "ken": 5734,
      "hest": 5735,
      "Ġfresh": 5736,
      "Ġmission": 5737,
      "ĠMag": 5738,
      "ĠAUD": 5739,
      "Ġstreet": 5740,
      "ishing": 5741,
      "lli": 5742,
      "Ġ73": 5743,
      "pected": 5744,
      "Ġreflect": 5745,
      "ĠJanez": 5746,
      "Ġdesigned": 5747,
      "Ġdemocratic": 5748,
      "OURT": 5749,
      "ĠCOMMISSION": 5750,
      "Ġarrival": 5751,
      "Ġplanned": 5752,
      "ĠMartin": 5753,
      "Payments": 5754,
      "Ġdelegation": 5755,
      "ghanistan": 5756,
      "74": 5757,
      "Access": 5758,
      "BE": 5759,
      "IZ": 5760,
      "MID": 5761,
      "UE": 5762,
      "no": 5763,
      "Ġaffairs": 5764,
      "Ġbecomes": 5765,
      "ĠInc": 5766,
      "Ġstore": 5767,
      "Ġ08": 5768,
      "Ġcommercial": 5769,
      "Ġreference": 5770,
      "Ġcontinues": 5771,
      "Ġoperations": 5772,
      "Ġeditors": 5773,
      "Ġgrowing": 5774,
      "ĠClimate": 5775,
      "Everyone": 5776,
      "Ġdamage": 5777,
      "Ġjourney": 5778,
      "Ġstraight": 5779,
      "Ġborder": 5780,
      "ĠDemoc": 5781,
      "Ġplus": 5782,
      "Ġremember": 5783,
      "Agenda": 5784,
      "Ġbooking": 5785,
      "ariff": 5786,
      "Ġcouple": 5787,
      "ĠForestry": 5788,
      "Group": 5789,
      "ĠHa": 5790,
      "ĠLE": 5791,
      "ĠLondon": 5792,
      "Ġcontrary": 5793,
      "Ġ55": 5794,
      "Ġuns": 5795,
      "Ġequal": 5796,
      "Ġcontrols": 5797,
      "Ġparam": 5798,
      "Ġaccounts": 5799,
      "Select": 5800,
      "ĠAmerican": 5801,
      "ICI": 5802,
      "Ġproud": 5803,
      "Ġstring": 5804,
      "ĠGentlemen": 5805,
      "umb": 5806,
      "2004": 5807,
      "Ġsetting": 5808,
      "Ġsurround": 5809,
      "ĠIndia": 5810,
      "Ġholidays": 5811,
      "ĠPROCEDURE": 5812,
      "UT": 5813,
      "roduction": 5814,
      "ĠCam": 5815,
      "Ġreduced": 5816,
      "ĠER": 5817,
      "ECAF": 5818,
      "Ġaccession": 5819,
      "Ġtraffic": 5820,
      "Exam": 5821,
      "Ġfamous": 5822,
      "Ġnewsletter": 5823,
      "Ġsubsidi": 5824,
      "YS": 5825,
      "Ġsem": 5826,
      "Ġcur": 5827,
      "Ġcrime": 5828,
      "ĠIr": 5829,
      "ĠLszl": 5830,
      "Ġheav": 5831,
      "ĠUR": 5832,
      "Ġprevention": 5833,
      "Ġworldwide": 5834,
      "Ġprovisions": 5835,
      "afety": 5836,
      "Ġbecame": 5837,
      "COMMON": 5838,
      "Lear": 5839,
      "Norway": 5840,
      "PRO": 5841,
      "Ser": 5842,
      "ĠMet": 5843,
      "Ġconven": 5844,
      "Ġconduct": 5845,
      "estival": 5846,
      "Ġwithdra": 5847,
      "ender": 5848,
      "eck": 5849,
      "apter": 5850,
      "Ġ51": 5851,
      "Ġ56": 5852,
      "Ġfollowed": 5853,
      "Ġproposes": 5854,
      "icking": 5855,
      "Ġspeaking": 5856,
      "Ġ282": 5857,
      "ĠAssembly": 5858,
      "Ġsuppl": 5859,
      "Description": 5860,
      "Regional": 5861,
      "Ġsymbol": 5862,
      "Ġcalc": 5863,
      "Ġwonderful": 5864,
      "gest": 5865,
      "iot": 5866,
      "ened": 5867,
      "iling": 5868,
      "imal": 5869,
      "ĠRES": 5870,
      "Ġ76": 5871,
      "ICES": 5872,
      "Ġconcrete": 5873,
      "Statement": 5874,
      "Ġmotor": 5875,
      "Ġtargets": 5876,
      "Ġanimal": 5877,
      "Adopted": 5878,
      "CD": 5879,
      "HN": 5880,
      "ĠAR": 5881,
      "Ġprobably": 5882,
      "Ġdisappoint": 5883,
      "ĠFinland": 5884,
      "Ġcontinued": 5885,
      "Ġsecret": 5886,
      "Ġlimits": 5887,
      "IFE": 5888,
      "78": 5889,
      "Clear": 5890,
      "Four": 5891,
      "eib": 5892,
      "Ġfruit": 5893,
      "ĠSA": 5894,
      "Ġstar": 5895,
      "verse": 5896,
      "Ġshopping": 5897,
      "Ġchosen": 5898,
      "aga": 5899,
      "ipl": 5900,
      "Ġcoast": 5901,
      "Development": 5902,
      "Ġoccas": 5903,
      "ĠVassil": 5904,
      "UDGET": 5905,
      "Commitments": 5906,
      "atal": 5907,
      "orage": 5908,
      "enary": 5909,
      "Ġcoll": 5910,
      "olk": 5911,
      "ĠGÃ¼": 5912,
      "ĠGrowth": 5913,
      "ELL": 5914,
      "inese": 5915,
      "Ġspecies": 5916,
      "Ġwinners": 5917,
      "Additional": 5918,
      "Ġambitious": 5919,
      "Mod": 5920,
      "ĠThat": 5921,
      "Ġsold": 5922,
      "Ġcars": 5923,
      "icit": 5924,
      "Ġlose": 5925,
      "Ġworlds": 5926,
      "ĠAndor": 5927,
      "Managing": 5928,
      "Deputy": 5929,
      "SA": 5930,
      "ais": 5931,
      "Ġaward": 5932,
      "Ġborders": 5933,
      "Ġmid": 5934,
      "Ġnet": 5935,
      "ache": 5936,
      "utin": 5937,
      "ĠFramework": 5938,
      "Ġanti": 5939,
      "ĠHigh": 5940,
      "Ġmeant": 5941,
      "ĠKarel": 5942,
      "Ġcovers": 5943,
      "Ġcentury": 5944,
      "Ġcontinu": 5945,
      "Ġcollection": 5946,
      "Ġsecure": 5947,
      "Community": 5948,
      "Ġbrand": 5949,
      "Ġsupple": 5950,
      "ĠCosta": 5951,
      "Ġfarmers": 5952,
      "ĠPotonik": 5953,
      "63": 5954,
      "NER": 5955,
      "Rep": 5956,
      "rum": 5957,
      "ening": 5958,
      "Ġcant": 5959,
      "itate": 5960,
      "add": 5961,
      "Ġrat": 5962,
      "Ġliber": 5963,
      "ĠOmbuds": 5964,
      "Ġ39": 5965,
      "Ġdecide": 5966,
      "Ġguidelines": 5967,
      "ĠEng": 5968,
      "ĠYour": 5969,
      "Ġblue": 5970,
      "Ġupdated": 5971,
      "Ġdeveloping": 5972,
      "Ġtourism": 5973,
      "iability": 5974,
      "KI": 5975,
      "VIII": 5976,
      "page": 5977,
      "ener": 5978,
      "omas": 5979,
      "ĠPos": 5980,
      "Ġgone": 5981,
      "rain": 5982,
      "Ġsteel": 5983,
      "ĠVilla": 5984,
      "ĠEnter": 5985,
      "Ġsatisfied": 5986,
      "Break": 5987,
      "Digital": 5988,
      "iro": 5989,
      "Ġtodays": 5990,
      "ĠMore": 5991,
      "ĠEX": 5992,
      "0027": 5993,
      "obby": 5994,
      "ILL": 5995,
      "ĠREG": 5996,
      "rimination": 5997,
      "ĠPHP": 5998,
      "58": 5999,
      "David": 6000,
      "Ġsorry": 6001,
      "Ġcore": 6002,
      "Ġfixed": 6003,
      "acc": 6004,
      "ector": 6005,
      "ĠOL": 6006,
      "ANT": 6007,
      "Ġunemployment": 6008,
      "aching": 6009,
      "Ã¶r": 6010,
      "ĠClub": 6011,
      "ĠPRESS": 6012,
      "ĠConsumer": 6013,
      "Ġkitchen": 6014,
      "DI": 6015,
      "weg": 6016,
      "Ġcas": 6017,
      "Ġpension": 6018,
      "Ġbur": 6019,
      "Ġnor": 6020,
      "Ġlos": 6021,
      "ĠSingle": 6022,
      "ĠDep": 6023,
      "Ġship": 6024,
      "Ġenorm": 6025,
      "Ġperhaps": 6026,
      "ĠUniversity": 6027,
      "ometer": 6028,
      "Ġopening": 6029,
      "Ġdemon": 6030,
      "Everything": 6031,
      "Ġtrying": 6032,
      "Ġsouth": 6033,
      "Ġfa": 6034,
      "roy": 6035,
      "Ġgave": 6036,
      "ĠOR": 6037,
      "ruption": 6038,
      "ĠInternal": 6039,
      "Ġcohesion": 6040,
      "Ġphase": 6041,
      "ientific": 6042,
      "Ġasking": 6043,
      "ĠMARG": 6044,
      "Ġmilk": 6045,
      "Ġmilitary": 6046,
      "ighbourhood": 6047,
      "rust": 6048,
      "ĠEAST": 6049,
      "ĠRules": 6050,
      "Ġshower": 6051,
      "ĠOther": 6052,
      "Ã¼b": 6053,
      "Ġmeetings": 6054,
      "Ġpromote": 6055,
      "Ġcritical": 6056,
      "Ġparticipate": 6057,
      "box": 6058,
      "Ġbalcon": 6059,
      "**": 6060,
      "During": 6061,
      "PER": 6062,
      "mission": 6063,
      "Ġwid": 6064,
      "ils": 6065,
      "ĠCroatia": 6066,
      "ĠAS": 6067,
      "irth": 6068,
      "Ġdele": 6069,
      "ĠNetwork": 6070,
      "abor": 6071,
      "Ġclosely": 6072,
      "ĠHead": 6073,
      "ĠAsh": 6074,
      "Ġprofile": 6075,
      "appro": 6076,
      "ĠLaw": 6077,
      "ĠFlash": 6078,
      "Small": 6079,
      "Ġbuffet": 6080,
      "Post": 6081,
      "uction": 6082,
      "Ġawa": 6083,
      "atively": 6084,
      "Ġball": 6085,
      "Ġbaby": 6086,
      "Ġbeyond": 6087,
      "ĠGal": 6088,
      "Ġexception": 6089,
      "ĠNorway": 6090,
      "ecilia": 6091,
      "ĠPlay": 6092,
      "Ġlessons": 6093,
      "ĠUSA": 6094,
      "Ġrecommendation": 6095,
      "Ġmaterials": 6096,
      "Ġdivided": 6097,
      "Discover": 6098,
      "ĠSheet": 6099,
      "Copy": 6100,
      "None": 6101,
      "Rest": 6102,
      "td": 6103,
      "tained": 6104,
      "zeg": 6105,
      "Ġ;": 6106,
      "ounce": 6107,
      "Ġfold": 6108,
      "entral": 6109,
      "osc": 6110,
      "acious": 6111,
      "ivered": 6112,
      "Ġsex": 6113,
      "Ġadapt": 6114,
      "Ġdebt": 6115,
      "izes": 6116,
      "egu": 6117,
      "ACE": 6118,
      "Ġsett": 6119,
      "Ġ150": 6120,
      "Ġintended": 6121,
      "legal": 6122,
      "ienna": 6123,
      "Ġmethods": 6124,
      "Ġwelcomes": 6125,
      "Ġmountain": 6126,
      "Ġadvantages": 6127,
      "Ġexercise": 6128,
      "Explan": 6129,
      "Rem": 6130,
      "Ref": 6131,
      "lantic": 6132,
      "met": 6133,
      "ĠMer": 6134,
      "ĠFA": 6135,
      "Ġdeg": 6136,
      "ĠOS": 6137,
      "rick": 6138,
      "Ġ05": 6139,
      "OTAL": 6140,
      "Choose": 6141,
      "Ġvariety": 6142,
      "going": 6143,
      "ĠMARGINS": 6144,
      "CK": 6145,
      "Ġtack": 6146,
      "Ġaverage": 6147,
      "isations": 6148,
      "Ġsqu": 6149,
      "Ġpret": 6150,
      "asures": 6151,
      "Ġevaluation": 6152,
      "Ġge": 6153,
      "Ġnotice": 6154,
      "ĠLocal": 6155,
      "Ġ202": 6156,
      "Ġdelay": 6157,
      "Furthermore": 6158,
      "Ġintervention": 6159,
      "Ġletter": 6160,
      "Ġtickets": 6161,
      "mosp": 6162,
      "sive": 6163,
      "van": 6164,
      "Ġign": 6165,
      "eds": 6166,
      "Ġblo": 6167,
      "Ġvision": 6168,
      "ĠInnovation": 6169,
      "vely": 6170,
      "Ġpercent": 6171,
      "Ġplanning": 6172,
      "ĠAuthority": 6173,
      "INVITES": 6174,
      "AJ": 6175,
      "Ġcm": 6176,
      "ĠMON": 6177,
      "ĠOp": 6178,
      "Ġregime": 6179,
      "ĠCharl": 6180,
      "under": 6181,
      "Ġcommitted": 6182,
      "Ġkept": 6183,
      "Ġimprovement": 6184,
      "ĠJohn": 6185,
      "Ġcriticism": 6186,
      "ĠItalian": 6187,
      "DLE": 6188,
      "Joint": 6189,
      "hn": 6190,
      "enger": 6191,
      "alle": 6192,
      "ĠFirst": 6193,
      "ĠDavid": 6194,
      "ĠTo": 6195,
      "ĠTuesday": 6196,
      "ĠLink": 6197,
      "Ġrural": 6198,
      "Thats": 6199,
      "Ġimports": 6200,
      "pective": 6201,
      "Allow": 6202,
      "Ġdelivered": 6203,
      "Protection": 6204,
      "Ġfactor": 6205,
      "Political": 6206,
      "Implementation": 6207,
      "ĠFunds": 6208,
      "hr": 6209,
      "mit": 6210,
      "ray": 6211,
      "Ġsources": 6212,
      "Ġbegan": 6213,
      "ĠBern": 6214,
      "Ġsup": 6215,
      "Ġspoke": 6216,
      "Ġpolitics": 6217,
      "exico": 6218,
      "Ġtopic": 6219,
      "ĠFranz": 6220,
      "Ġvessels": 6221,
      "Fax": 6222,
      "Ġbon": 6223,
      "ĠCard": 6224,
      "Ġforum": 6225,
      "ĠPad": 6226,
      "ĠSpecial": 6227,
      "ĠRen": 6228,
      "ĠLuc": 6229,
      "ĠStand": 6230,
      "Ġtyp": 6231,
      "Ġauthority": 6232,
      "ĠContribution": 6233,
      "Ġintegrated": 6234,
      "Ġapproximately": 6235,
      "Herring": 6236,
      "Ġautomatically": 6237,
      "ĠSOCIAL": 6238,
      "Ġswimming": 6239,
      "free": 6240,
      "kki": 6241,
      "ilies": 6242,
      "Ġhous": 6243,
      "ĠCR": 6244,
      "ĠPan": 6245,
      "ĠBur": 6246,
      "ĠTri": 6247,
      "artment": 6248,
      "Ġusually": 6249,
      "ervation": 6250,
      "Ġroll": 6251,
      "anges": 6252,
      "onds": 6253,
      "Children": 6254,
      "Ġblock": 6255,
      "Ġparad": 6256,
      "Ġinstallation": 6257,
      "Ġbanks": 6258,
      "ĠAbbott": 6259,
      "Ġcategories": 6260,
      "ĠKorea": 6261,
      "(%": 6262,
      "Cor": 6263,
      "bania": 6264,
      "oor": 6265,
      "ores": 6266,
      "ĠCOURT": 6267,
      "Ġlake": 6268,
      "acher": 6269,
      "ĠTod": 6270,
      "bsites": 6271,
      "OMS": 6272,
      "Ġspread": 6273,
      "Ġrelates": 6274,
      "Enter": 6275,
      "Ġtechnologies": 6276,
      "IGN": 6277,
      "ĠOrgan": 6278,
      "Employment": 6279,
      "Has": 6280,
      "nel": 6281,
      "yd": 6282,
      "Ġcities": 6283,
      "Ġpurs": 6284,
      "Ġlower": 6285,
      "etitiveness": 6286,
      "Ġearl": 6287,
      "ĠIX": 6288,
      "Ġste": 6289,
      "ĠRO": 6290,
      "charge": 6291,
      "rupt": 6292,
      "ATEG": 6293,
      "Ġbusinesses": 6294,
      "iscal": 6295,
      "Resumption": 6296,
      "Ġmoving": 6297,
      "Ġhostel": 6298,
      "Ġsatisfact": 6299,
      "Ġtelephone": 6300,
      "Ġpiece": 6301,
      "BAN": 6302,
      "ball": 6303,
      "based": 6304,
      "atible": 6305,
      "Ġfraud": 6306,
      "astern": 6307,
      "ĠSam": 6308,
      "Ġstri": 6309,
      "ĠBan": 6310,
      "ENLARGEMENT": 6311,
      "inding": 6312,
      "enced": 6313,
      "Ġinvestments": 6314,
      "Ġfacing": 6315,
      "Research": 6316,
      "Ġcamera": 6317,
      "Ġdefinitely": 6318,
      "ĠArea": 6319,
      "Ġadvertising": 6320,
      "Sustainable": 6321,
      "osnia": 6322,
      "Ġ38": 6323,
      "TIS": 6324,
      "Ġcomplic": 6325,
      "Ġunf": 6326,
      "Ġveget": 6327,
      "379": 6328,
      "Ġproceedings": 6329,
      "Ġhonest": 6330,
      "ĠDebian": 6331,
      "Ġtruly": 6332,
      "ĠSwiss": 6333,
      "Ġaxis": 6334,
      "Next": 6335,
      "Ġcell": 6336,
      "ala": 6337,
      "Ġloss": 6338,
      "ĠAc": 6339,
      "ĠRober": 6340,
      "ading": 6341,
      "Ġuses": 6342,
      "ĠOl": 6343,
      "ĠJava": 6344,
      "Ġscen": 6345,
      "annes": 6346,
      "STA": 6347,
      "Ġintend": 6348,
      "Booking": 6349,
      "Ġmedium": 6350,
      "ĠAssistance": 6351,
      "Ġfulf": 6352,
      "ÃĸM": 6353,
      "Ġfailed": 6354,
      "Ġhighest": 6355,
      "Ġcontribute": 6356,
      "Ġclients": 6357,
      "Closure": 6358,
      "CS": 6359,
      "Dis": 6360,
      "EESC": 6361,
      "HA": 6362,
      "Us": 6363,
      "min": 6364,
      "Ġpick": 6365,
      "Ġinitial": 6366,
      "oman": 6367,
      "ette": 6368,
      "ĠAut": 6369,
      "Ġatmosp": 6370,
      "ocated": 6371,
      "look": 6372,
      "erves": 6373,
      "Ġ83": 6374,
      "Ġextension": 6375,
      "ĠAdd": 6376,
      "Ġzone": 6377,
      "Ġelement": 6378,
      "porary": 6379,
      "ĠGoogle": 6380,
      "EP": 6381,
      "List": 6382,
      "Ġtitle": 6383,
      "Ġsam": 6384,
      "ett": 6385,
      "Ġyouth": 6386,
      "Ġvon": 6387,
      "ĠTax": 6388,
      "ECOMM": 6389,
      "ĠEuropeAid": 6390,
      "ĠProdi": 6391,
      "Ġmetres": 6392,
      "Ġexpensive": 6393,
      "Declaration": 6394,
      "Ġticket": 6395,
      "rehensive": 6396,
      "Dont": 6397,
      "Ir": 6398,
      "time": 6399,
      "Ġfell": 6400,
      "Ġtob": 6401,
      "ĠFRE": 6402,
      "Ġplug": 6403,
      "elson": 6404,
      "iane": 6405,
      "Ġcool": 6406,
      "Ġguide": 6407,
      "Ġ1994": 6408,
      "Ġdefined": 6409,
      "ĠResults": 6410,
      "ahn": 6411,
      "ourage": 6412,
      "Ġperfectly": 6413,
      "ĠCapital": 6414,
      "Ġinformed": 6415,
      "Ġsleep": 6416,
      "ĠBalkans": 6417,
      "Bar": 6418,
      "Democ": 6419,
      "Legal": 6420,
      "hab": 6421,
      "ym": 6422,
      "Ġstress": 6423,
      "Ġconclusion": 6424,
      "oples": 6425,
      "outhern": 6426,
      "Ġchann": 6427,
      "Ġdisput": 6428,
      "Ġcoffee": 6429,
      "Ġassess": 6430,
      "comp": 6431,
      "Ġoperational": 6432,
      "Without": 6433,
      "Ġregarding": 6434,
      "ĠAvra": 6435,
      "Ġencourage": 6436,
      "Ġpleasure": 6437,
      "ĠAUDIT": 6438,
      "69": 6439,
      "Budget": 6440,
      "CCI": 6441,
      "Maj": 6442,
      "table": 6443,
      "Ġcandid": 6444,
      "ĠCong": 6445,
      "ĠPAP": 6446,
      "ĠLam": 6447,
      "Ġlib": 6448,
      "Ġlift": 6449,
      "ROW": 6450,
      "poses": 6451,
      "Ġdecor": 6452,
      "Program": 6453,
      "Ġserve": 6454,
      "Ġrecommended": 6455,
      "rength": 6456,
      "Place": 6457,
      "Ġmissing": 6458,
      "forcement": 6459,
      "ĠTRANSPORT": 6460,
      "ĠAvraam": 6461,
      "Amer": 6462,
      "win": 6463,
      "icip": 6464,
      "ĠPack": 6465,
      "ĠSund": 6466,
      "uled": 6467,
      "Ġhes": 6468,
      "Thanks": 6469,
      "Ġ97": 6470,
      "ĠAndroulla": 6471,
      "Ġbiggest": 6472,
      "Ġinvolve": 6473,
      "Ġoccup": 6474,
      "Ġflexibility": 6475,
      "ĠVassilious": 6476,
      "Breakdown": 6477,
      "tel": 6478,
      "ione": 6479,
      "Ġmir": 6480,
      "001": 6481,
      "stan": 6482,
      "ĠBru": 6483,
      "pper": 6484,
      "Ġrich": 6485,
      "Ġworse": 6486,
      "Ġrefuge": 6487,
      "Communication": 6488,
      "Ġchanging": 6489,
      "ĠIslands": 6490,
      "ĠPRESID": 6491,
      "ĠNotes": 6492,
      "Ġflexible": 6493,
      "onomic": 6494,
      "Thirdly": 6495,
      "Ġappreciate": 6496,
      "Ġconflict": 6497,
      "Better": 6498,
      "Mal": 6499,
      "Ġminister": 6500,
      "ĠPed": 6501,
      "lying": 6502,
      "Ġweap": 6503,
      "ĠBas": 6504,
      "ĠBarn": 6505,
      "ĠStud": 6506,
      "ideos": 6507,
      "Ġtranslation": 6508,
      "Ġspend": 6509,
      "Ġreasonable": 6510,
      "Ġhearing": 6511,
      "UBLIC": 6512,
      "barometer": 6513,
      "USSED": 6514,
      "ĠDISCUSSED": 6515,
      "repreneurs": 6516,
      "DR": 6517,
      "Dina": 6518,
      "QL": 6519,
      "Ġrein": 6520,
      "Ġlay": 6521,
      "ĠArab": 6522,
      "ĠTele": 6523,
      "ROM": 6524,
      "Ġupg": 6525,
      "Ġaccident": 6526,
      "Ġrecently": 6527,
      "Ġscope": 6528,
      "ĠGeorge": 6529,
      "Ġ753": 6530,
      "Ġquotas": 6531,
      "Ġforecast": 6532,
      "Ġindependent": 6533,
      "USTOMS": 6534,
      "Ġenormous": 6535,
      "Cap": 6536,
      "GO": 6537,
      "Joe": 6538,
      "Ġtests": 6539,
      "Ġformer": 6540,
      "ĠPost": 6541,
      "ffect": 6542,
      "Ġfindings": 6543,
      "Ġrequests": 6544,
      "Ġassoc": 6545,
      "Ġruns": 6546,
      "ĠWORK": 6547,
      "Ġmeaning": 6548,
      "SSON": 6549,
      "Ġgovernance": 6550,
      "UNICATIONS": 6551,
      "MIDDLE": 6552,
      "BA": 6553,
      "isa": 6554,
      "Ġsnow": 6555,
      "ĠIS": 6556,
      "Ġstrength": 6557,
      "ĠDR": 6558,
      "ript": 6559,
      "Ġdisposal": 6560,
      "cluding": 6561,
      "Ġsometimes": 6562,
      "argin": 6563,
      "eban": 6564,
      "parent": 6565,
      "CCCC": 6566,
      "holders": 6567,
      "ĠDimit": 6568,
      "Ġregulations": 6569,
      "Ġeyes": 6570,
      "ĠMcC": 6571,
      "ĠDenmark": 6572,
      "Ġdeliberation": 6573,
      "Global": 6574,
      "Hence": 6575,
      "aud": 6576,
      "Ġtours": 6577,
      "itect": 6578,
      "Ġbug": 6579,
      "Ġtold": 6580,
      "ima": 6581,
      "ĠDI": 6582,
      "ista": 6583,
      "ĠLtd": 6584,
      "Ġseek": 6585,
      "ĠProf": 6586,
      "itiative": 6587,
      "Ġskin": 6588,
      "Ġwalking": 6589,
      "Ġ0475": 6590,
      "Ġdisplayed": 6591,
      "Ġemployees": 6592,
      "Ġargument": 6593,
      "enhagen": 6594,
      "Ġalbum": 6595,
      "Ġsanctions": 6596,
      "ĠIrish": 6597,
      "ĠAUDITORS": 6598,
      "NL": 6599,
      "Presse": 6600,
      "Vb": 6601,
      "gent": 6602,
      "with": 6603,
      "ouble": 6604,
      "Ġsports": 6605,
      "rak": 6606,
      "ĠFIS": 6607,
      "ĠGl": 6608,
      "ĠGold": 6609,
      "ĠHen": 6610,
      "Ġrise": 6611,
      "Ġcontrad": 6612,
      "posit": 6613,
      "ĠChamber": 6614,
      "Ġadoption": 6615,
      "Ġsurpr": 6616,
      "Ġtasks": 6617,
      "Ġinstrument": 6618,
      "aughter": 6619,
      "Ġdisease": 6620,
      "ĠHotels": 6621,
      "Col": 6622,
      "MER": 6623,
      "vate": 6624,
      "rock": 6625,
      "Ġeat": 6626,
      "Ġexists": 6627,
      "ANG": 6628,
      "ĠVAN": 6629,
      "ĠVinc": 6630,
      "Ġ49": 6631,
      "ountries": 6632,
      "Stat": 6633,
      "Ġrapid": 6634,
      "Ġleads": 6635,
      "Come": 6636,
      "Members": 6637,
      "SC": 6638,
      "eld": 6639,
      "Ġgir": 6640,
      "urb": 6641,
      "ĠBO": 6642,
      "ĠBrazil": 6643,
      "ĠTechnical": 6644,
      "Ġ400": 6645,
      "arliaments": 6646,
      "Ġscript": 6647,
      "comed": 6648,
      "Ġcolour": 6649,
      "Agreement": 6650,
      "Ġrelationship": 6651,
      "Ġrestaurants": 6652,
      "sequently": 6653,
      "ĠACP": 6654,
      "Christopher": 6655,
      "TECTION": 6656,
      "Ġearlier": 6657,
      "Michael": 6658,
      "REL": 6659,
      "TON": 6660,
      "border": 6661,
      "uf": 6662,
      "vi": 6663,
      "itage": 6664,
      "Ġded": 6665,
      "Ġbecoming": 6666,
      "ĠSpa": 6667,
      "reshold": 6668,
      "ulated": 6669,
      "Ġweather": 6670,
      "ĠDial": 6671,
      "Ġplaced": 6672,
      "Ġagencies": 6673,
      "eren": 6674,
      "Ġproduce": 6675,
      "ĠProject": 6676,
      "Ġpropose": 6677,
      "uxury": 6678,
      "elfare": 6679,
      "Ġeasier": 6680,
      "Ġshortly": 6681,
      "Ġshared": 6682,
      "Ġglass": 6683,
      "Ġinstalled": 6684,
      "Ġamounts": 6685,
      "Ġsuggest": 6686,
      "ĠErkki": 6687,
      ".(": 6688,
      "Ne": 6689,
      "POL": 6690,
      "SEN": 6691,
      "ipe": 6692,
      "Ġfee": 6693,
      "ĠCla": 6694,
      "ĠMED": 6695,
      "iger": 6696,
      "ĠBro": 6697,
      "ĠLo": 6698,
      "urement": 6699,
      "Ġworry": 6700,
      "Ġenh": 6701,
      "ugos": 6702,
      "Ġmodels": 6703,
      "Ġentries": 6704,
      "ients": 6705,
      "Ġdistribution": 6706,
      "Ġleading": 6707,
      "Ġmessages": 6708,
      "eesc": 6709,
      "Ġyesterday": 6710,
      "()": 6711,
      "Education": 6712,
      "LY": 6713,
      "Text": 6714,
      "oring": 6715,
      "asy": 6716,
      "Ġstorage": 6717,
      "Ġweight": 6718,
      "riers": 6719,
      "ĠHenn": 6720,
      "ĠChinese": 6721,
      "Ġinvite": 6722,
      "Ġcourses": 6723,
      "rengthening": 6724,
      "Ġsolve": 6725,
      "Ġsilence": 6726,
      "contin": 6727,
      "Ġmandate": 6728,
      "Ġatmosphere": 6729,
      "SH": 6730,
      "WE": 6731,
      "Ġshipping": 6732,
      "Ġrace": 6733,
      "ĠVienna": 6734,
      "Ġdebates": 6735,
      "Real": 6736,
      "Ġcustoms": 6737,
      "ĠAnti": 6738,
      "Ġdevice": 6739,
      "Ġpleasant": 6740,
      "ĠCasino": 6741,
      "Ġrailway": 6742,
      "Ġelectricity": 6743,
      "RESEARCH": 6744,
      "Ġbalcony": 6745,
      "Elect": 6746,
      "IO": 6747,
      "RIT": 6748,
      "cell": 6749,
      "off": 6750,
      "Ġfant": 6751,
      "Ġdied": 6752,
      "icro": 6753,
      "ethe": 6754,
      "stat": 6755,
      "ĠOffic": 6756,
      "Ġresort": 6757,
      "ĠKy": 6758,
      "iple": 6759,
      "Ġunion": 6760,
      "ĠRev": 6761,
      "EMPLOYMENT": 6762,
      "Ġinterpret": 6763,
      "Ġrequested": 6764,
      "Ġversions": 6765,
      "riday": 6766,
      "Ġfailure": 6767,
      "sterdam": 6768,
      "Ġdescrib": 6769,
      "Ġinnovative": 6770,
      "Sch": 6771,
      "Ġthreshold": 6772,
      "Ġunivers": 6773,
      "Start": 6774,
      "ittees": 6775,
      "ĠCohesion": 6776,
      "ĠResort": 6777,
      "ĠQuestions": 6778,
      "Ġwelcomed": 6779,
      "ATEGY": 6780,
      "Market": 6781,
      "MEM": 6782,
      "Title": 6783,
      "nos": 6784,
      "night": 6785,
      "Ġsn": 6786,
      "Ġwall": 6787,
      "ĠCamp": 6788,
      "ĠEgypt": 6789,
      "ĠTom": 6790,
      "openhagen": 6791,
      "elles": 6792,
      "Ġwhom": 6793,
      "Ġ71": 6794,
      "IIa": 6795,
      "Ġprize": 6796,
      "ierre": 6797,
      "ĠAmsterdam": 6798,
      "Ġannounc": 6799,
      "Ġstrongly": 6800,
      "Ġexplanation": 6801,
      "ĠGeorgiev": 6802,
      "Ġcommitments": 6803,
      "Ġsurvey": 6804,
      "ĠSTATES": 6805,
      "ĠHennon": 6806,
      "Type": 6807,
      "VEN": 6808,
      "han": 6809,
      "hof": 6810,
      "orf": 6811,
      "Ġspl": 6812,
      "Ġcod": 6813,
      "ĠJoint": 6814,
      "nown": 6815,
      "Ġcoordination": 6816,
      "Ġspacious": 6817,
      "Ġundert": 6818,
      "Ġmode": 6819,
      "ĠRepresentatives": 6820,
      "ĠConf": 6821,
      "ĠXIV": 6822,
      "Ġflat": 6823,
      "Ġbegins": 6824,
      "ĠMedia": 6825,
      "ĠPalest": 6826,
      "HU": 6827,
      "Rue": 6828,
      "fers": 6829,
      "Ġsand": 6830,
      "ĠDecision": 6831,
      "Ġlif": 6832,
      "TEIN": 6833,
      "economic": 6834,
      "Ġsomeone": 6835,
      "Reform": 6836,
      "Again": 6837,
      "onym": 6838,
      "Ġeye": 6839,
      "ĠGeorgievas": 6840,
      "GL": 6841,
      "Joh": 6842,
      "Situation": 6843,
      "ÃŁ": 6844,
      "Ġtill": 6845,
      "ĠAlp": 6846,
      "Ġvital": 6847,
      "forums": 6848,
      "bert": 6849,
      "ogether": 6850,
      "Ġproduc": 6851,
      "ibly": 6852,
      "Ġformal": 6853,
      "oliday": 6854,
      "Ġcreation": 6855,
      "Ġfamilies": 6856,
      "Ġconstruct": 6857,
      "ĠShar": 6858,
      "CA": 6859,
      "fl": 6860,
      "ugh": 6861,
      "year": 6862,
      "Ġwon": 6863,
      "aru": 6864,
      "Ġband": 6865,
      "ĠIceland": 6866,
      "ĠRoom": 6867,
      "ader": 6868,
      "ĠGr": 6869,
      "active": 6870,
      "ĠWord": 6871,
      "agues": 6872,
      "Ġunc": 6873,
      "ancell": 6874,
      "Ġconcent": 6875,
      "oyal": 6876,
      "Enlargement": 6877,
      "ĠAnna": 6878,
      "azza": 6879,
      "Ġsigned": 6880,
      "Ġflight": 6881,
      "UNITY": 6882,
      "Ġpromotion": 6883,
      "Ġslight": 6884,
      "ĠManagement": 6885,
      "Ġinfringements": 6886,
      "Ġsuggestions": 6887,
      "journment": 6888,
      "ĠCoRs": 6889,
      "ĠAshton": 6890,
      "BERG": 6891,
      "Data": 6892,
      "Fran": 6893,
      "ko": 6894,
      "Ġic": 6895,
      "Ġmigration": 6896,
      "Ġgain": 6897,
      "Ġ66": 6898,
      "Ġinstruct": 6899,
      "ĠYugos": 6900,
      "Ġextent": 6901,
      "rises": 6902,
      "ĠAnnual": 6903,
      "Adjournment": 6904,
      "Ġfactors": 6905,
      "Ġpurposes": 6906,
      "Ġconsumption": 6907,
      "tlement": 6908,
      "porate": 6909,
      "Ġvacation": 6910,
      "Sometimes": 6911,
      "ĠRussian": 6912,
      "Ġplatform": 6913,
      "Ġtobacco": 6914,
      "El": 6915,
      "Mil": 6916,
      "Neelie": 6917,
      "TUR": 6918,
      "Ġhop": 6919,
      "ĠData": 6920,
      "Ġrub": 6921,
      "ANE": 6922,
      "akistan": 6923,
      "ifth": 6924,
      "Ġsugar": 6925,
      "ellite": 6926,
      "ESTERN": 6927,
      "Ġaccomp": 6928,
      "ĠDEVELOPMENT": 6929,
      "Ġrecovery": 6930,
      "Ġmanage": 6931,
      "ĠChristian": 6932,
      "Ġmoved": 6933,
      "Ġdefinition": 6934,
      "Ġlicense": 6935,
      "Ġterrit": 6936,
      "Ġdrugs": 6937,
      "Ġlaunched": 6938,
      "Def": 6939,
      "MAR": 6940,
      "nor": 6941,
      "Ġcy": 6942,
      "Ġyoure": 6943,
      "amily": 6944,
      "Ġasylum": 6945,
      "TEM": 6946,
      "iviane": 6947,
      "Ġadopt": 6948,
      "Ġdescription": 6949,
      "Ġcourt": 6950,
      "IRA": 6951,
      "Currently": 6952,
      "Mediterranean": 6953,
      "ĠSlovenia": 6954,
      "AX": 6955,
      "Ge": 6956,
      "Jon": 6957,
      "ĠAID": 6958,
      "illing": 6959,
      "Ġstructural": 6960,
      "ĠRome": 6961,
      "stood": 6962,
      "unis": 6963,
      "endar": 6964,
      "Ġsaw": 6965,
      "Ġarms": 6966,
      "Ġboot": 6967,
      "AGE": 6968,
      "Ġgenu": 6969,
      "ABLE": 6970,
      "Ġstudents": 6971,
      "rictive": 6972,
      "ĠBoard": 6973,
      "Ġsubsidiarity": 6974,
      "Return": 6975,
      "TOTAL": 6976,
      "what": 6977,
      "zone": 6978,
      "rej": 6979,
      "Ġtheme": 6980,
      "Ġforgot": 6981,
      "ĠML": 6982,
      "Ġyoull": 6983,
      "ĠOne": 6984,
      "Ġcontroll": 6985,
      "ĠKat": 6986,
      "OUL": 6987,
      "retary": 6988,
      "Androulla": 6989,
      "Ġphys": 6990,
      "Ġinfo": 6991,
      "ĠReding": 6992,
      "Ġcompetitiveness": 6993,
      "Ġsubstances": 6994,
      "ĠMalta": 6995,
      "OJA": 6996,
      "ĠMEETING": 6997,
      "ĠTechnology": 6998,
      "Ġstrategic": 6999,
      "RITTEN": 7000,
      "Anc": 7001,
      "OK": 7002,
      "Out": 7003,
      "VIS": 7004,
      "ying": 7005,
      "rees": 7006,
      "Ġbirth": 7007,
      "ĠMand": 7008,
      "Ġearn": 7009,
      "Ġgiving": 7010,
      "ĠRa": 7011,
      "unction": 7012,
      "ĠGood": 7013,
      "Ġseven": 7014,
      "uba": 7015,
      "Ġgoals": 7016,
      "INIS": 7017,
      "Ġcommand": 7018,
      "Ġmanual": 7019,
      "Ġpossibility": 7020,
      "Ġconfir": 7021,
      "Notes": 7022,
      "Ġpresentation": 7023,
      "Ġexpand": 7024,
      "ĠAfghanistan": 7025,
      "Ġurgently": 7026,
      "Ġdemands": 7027,
      "Ġdestroy": 7028,
      "MW": 7029,
      "anas": 7030,
      "Ġpas": 7031,
      "ĠPower": 7032,
      "ĠSpe": 7033,
      "acing": 7034,
      "ĠLib": 7035,
      "udan": 7036,
      "Ġque": 7037,
      "everal": 7038,
      "athan": 7039,
      "viously": 7040,
      "ABIL": 7041,
      "Consumer": 7042,
      "Ġguaranteed": 7043,
      "ĠOnline": 7044,
      "Ġemergency": 7045,
      "ĠOmbudsman": 7046,
      "wegian": 7047,
      "AU": 7048,
      "Tr": 7049,
      "Val": 7050,
      "World": 7051,
      "zen": 7052,
      "Ġson": 7053,
      "etable": 7054,
      "ĠEnd": 7055,
      "ĠSociety": 7056,
      "ĠSERV": 7057,
      "ado": 7058,
      "ĠTim": 7059,
      "ustral": 7060,
      "ĠGran": 7061,
      "ĠLi": 7062,
      "Ġcomprehensive": 7063,
      "Ġ77": 7064,
      "Ġspot": 7065,
      "Health": 7066,
      "Ġmainly": 7067,
      "Ġexpress": 7068,
      "Ġorganised": 7069,
      "Ġ2731": 7070,
      "Ġarrived": 7071,
      "Ġrental": 7072,
      "Ġobviously": 7073,
      "Ġbottom": 7074,
      "Afric": 7075,
      "Learn": 7076,
      "Dr": 7077,
      "Nat": 7078,
      "from": 7079,
      "how": 7080,
      "hotel": 7081,
      "reens": 7082,
      "Ġpill": 7083,
      "Ġhom": 7084,
      "ĠPa": 7085,
      "Ġwebsites": 7086,
      "Ġcontents": 7087,
      "pty": 7088,
      "Ġfinished": 7089,
      "Ann": 7090,
      "ĠYork": 7091,
      "ĠRegion": 7092,
      "Ġinvestig": 7093,
      "ĠResolution": 7094,
      "Ġestate": 7095,
      "Ġcauses": 7096,
      "Ġcharacters": 7097,
      "Ġvehicle": 7098,
      "FORMATION": 7099,
      "Ġrepeat": 7100,
      "Improving": 7101,
      "ĠBritish": 7102,
      "ECOMMUNICATIONS": 7103,
      "hez": 7104,
      "ĠAlexand": 7105,
      "Ġec": 7106,
      "Ġearth": 7107,
      "Ġgold": 7108,
      "Ġgolf": 7109,
      "ĠFre": 7110,
      "ĠFuture": 7111,
      "ĠDis": 7112,
      "ĠVAL": 7113,
      "Ġdelight": 7114,
      "quiry": 7115,
      "Ġsectors": 7116,
      "Ġfourth": 7117,
      "Ġtopics": 7118,
      "ifying": 7119,
      "Ġdiscussions": 7120,
      "imbab": 7121,
      "Ġsuspend": 7122,
      "ĠBaltic": 7123,
      "Ġcircum": 7124,
      "Ġharmon": 7125,
      "Looking": 7126,
      "Ġpreparation": 7127,
      "Ġgranted": 7128,
      "SUMER": 7129,
      "ĠJacques": 7130,
      "ebanon": 7131,
      "etheless": 7132,
      "Nob": 7133,
      "Sk": 7134,
      "ih": 7135,
      "Ġsustain": 7136,
      "Ġbi": 7137,
      "ĠAT": 7138,
      "ĠEF": 7139,
      "ido": 7140,
      "ĠIND": 7141,
      "ĠHol": 7142,
      "Ġseat": 7143,
      "ĠNi": 7144,
      "action": 7145,
      "Ġimag": 7146,
      "Ġ59": 7147,
      "Ġoutput": 7148,
      "ĠProcedure": 7149,
      "Ġtransparent": 7150,
      "Ġinstead": 7151,
      "ĠIsland": 7152,
      "ĠControl": 7153,
      "Ġmembership": 7154,
      "ĠPalace": 7155,
      "Ġdevices": 7156,
      "Ġarrangements": 7157,
      "Copyright": 7158,
      "Explanations": 7159,
      "Set": 7160,
      "oes": 7161,
      "set": 7162,
      "Ġult": 7163,
      "Ġcash": 7164,
      "Ġfram": 7165,
      "Ġpresidency": 7166,
      "ario": 7167,
      "Ġboy": 7168,
      "lean": 7169,
      "Ġhomepage": 7170,
      "Ġrecon": 7171,
      "ĠErasmus": 7172,
      "ulations": 7173,
      "pped": 7174,
      "ĠDEL": 7175,
      "unk": 7176,
      "ocate": 7177,
      "oken": 7178,
      "Ġdivers": 7179,
      "ĠProt": 7180,
      "USTR": 7181,
      "ILD": 7182,
      "Ġintention": 7183,
      "aza": 7184,
      "Priorities": 7185,
      "Ġlogo": 7186,
      "Ġpattern": 7187,
      "Ġmovie": 7188,
      "Overview": 7189,
      "According": 7190,
      "Ġradio": 7191,
      "ĠRoad": 7192,
      "Ġresolved": 7193,
      "Ġcomponents": 7194,
      "Several": 7195,
      "wer": 7196,
      "yt": 7197,
      "ĠASS": 7198,
      "oles": 7199,
      "ĠTU": 7200,
      "ĠHar": 7201,
      "Ġallows": 7202,
      "lications": 7203,
      "oldova": 7204,
      "Ġmaintain": 7205,
      "Ġattack": 7206,
      "Ġchemical": 7207,
      "Ġpersonally": 7208,
      "ĠXII": 7209,
      "Ġbalanced": 7210,
      "Ġafford": 7211,
      "Ġopposed": 7212,
      "Ġtemper": 7213,
      "ĠPrize": 7214,
      "ĠPeace": 7215,
      "ĠFerre": 7216,
      "Ġcomplicated": 7217,
      "Cre": 7218,
      "Mac": 7219,
      "SL": 7220,
      "Vass": 7221,
      "zy": 7222,
      "Ġcold": 7223,
      "Ġparliament": 7224,
      "Ġnavigation": 7225,
      "ĠCECAF": 7226,
      "Ġforth": 7227,
      "ĠMin": 7228,
      "ĠFull": 7229,
      "struction": 7230,
      "ĠGreat": 7231,
      "Ġexports": 7232,
      "ĠLA": 7233,
      "inea": 7234,
      "abel": 7235,
      "Ġcompatible": 7236,
      "Ġ79": 7237,
      "Ġ600": 7238,
      "ECU": 7239,
      "ĠChange": 7240,
      "Ġ800": 7241,
      "Ġfinance": 7242,
      "Structural": 7243,
      "Ġdiscover": 7244,
      "Ġacquis": 7245,
      "ĠExecutive": 7246,
      "Ġoperating": 7247,
      "Ġeditor": 7248,
      "Ġphotograph": 7249,
      "Ġesc": 7250,
      "Ġintroduced": 7251,
      "Ġlikely": 7252,
      "Ġconvinc": 7253,
      "zegov": 7254,
      "CUSTOMS": 7255,
      "LAV": 7256,
      "mm": 7257,
      "icious": 7258,
      "eta": 7259,
      "stances": 7260,
      "Ġdog": 7261,
      "ĠLand": 7262,
      "Inc": 7263,
      "Ġtrav": 7264,
      "undred": 7265,
      "Ġfunded": 7266,
      "Ġboat": 7267,
      "Ġpassed": 7268,
      "2012": 7269,
      "Ġtesting": 7270,
      "Composition": 7271,
      "ĠBlack": 7272,
      "Ġreplace": 7273,
      "Ġdeparture": 7274,
      "Ġpretty": 7275,
      "imbabwe": 7276,
      "zegovina": 7277,
      "Homepage": 7278,
      "KA": 7279,
      "PUBLIC": 7280,
      "South": 7281,
      "bl": 7282,
      "Ġtab": 7283,
      "inos": 7284,
      "itz": 7285,
      "ĠCa": 7286,
      "ida": 7287,
      "Ġeight": 7288,
      "Ġnoted": 7289,
      "ĠBud": 7290,
      "ando": 7291,
      "fficking": 7292,
      "Ġplenty": 7293,
      "ĠVIII": 7294,
      "Ġ53": 7295,
      "Ġdischarge": 7296,
      "Ġmanaged": 7297,
      "Ġprovision": 7298,
      "Ġnumer": 7299,
      "Ġtaxation": 7300,
      "Ġcombat": 7301,
      "Ġmanufacture": 7302,
      "Ġhistoric": 7303,
      "Aud": 7304,
      "Ra": 7305,
      "son": 7306,
      "Ġtaste": 7307,
      "het": 7308,
      "inions": 7309,
      "Ġpermanent": 7310,
      "Ġnone": 7311,
      "ĠCode": 7312,
      "raid": 7313,
      "unich": 7314,
      "ĠOut": 7315,
      "alled": 7316,
      "Ġ42": 7317,
      "Ġupload": 7318,
      "ĠReform": 7319,
      "ĠCommunities": 7320,
      "IRON": 7321,
      "Ġdeficit": 7322,
      "Ġsigns": 7323,
      "Ġinsp": 7324,
      "engers": 7325,
      "Ġhealthy": 7326,
      "Ġevidence": 7327,
      "Ġappropriations": 7328,
      "ĠBALK": 7329,
      "EY": 7330,
      "Pla": 7331,
      "Prices": 7332,
      "Sy": 7333,
      "lt": 7334,
      "rent": 7335,
      "eneg": 7336,
      "Ġswe": 7337,
      "Ġpm": 7338,
      "Ġparent": 7339,
      "Ġnorth": 7340,
      "Ġreduce": 7341,
      "ĠBay": 7342,
      "ema": 7343,
      "ĠGer": 7344,
      "Ġusual": 7345,
      "Innovation": 7346,
      "Ġcontest": 7347,
      "reements": 7348,
      "igned": 7349,
      "Ġrock": 7350,
      "Ġprej": 7351,
      "Ġscale": 7352,
      "Ġremoved": 7353,
      "Ġattend": 7354,
      "Ġcorner": 7355,
      "Ġexpert": 7356,
      "Ġenterprises": 7357,
      "Ġhardly": 7358,
      "ĠCompetition": 7359,
      "Ġimmediate": 7360,
      "iliouEU": 7361,
      "Apartment": 7362,
      "ĠAREA": 7363,
      "Lszl": 7364,
      "Much": 7365,
      "MED": 7366,
      "View": 7367,
      "VIRON": 7368,
      "Ġhit": 7369,
      "ige": 7370,
      "Ġmeat": 7371,
      "ORD": 7372,
      "Ġseeing": 7373,
      "ATO": 7374,
      "Ġcents": 7375,
      "witch": 7376,
      "Exc": 7377,
      "ĠAndris": 7378,
      "ashion": 7379,
      "Ġlaws": 7380,
      "ĠAdminist": 7381,
      "Ġcondem": 7382,
      "SOCIAL": 7383,
      "Ġexhibition": 7384,
      "ĠMalmstrÃ¶m": 7385,
      "ĠLinks": 7386,
      "VassiliouEU": 7387,
      "VIRONMENT": 7388,
      "Cong": 7389,
      "EB": 7390,
      "Full": 7391,
      "RA": 7392,
      "jo": 7393,
      "xelles": 7394,
      "Ġcriminal": 7395,
      "Ġbag": 7396,
      "Ġhall": 7397,
      "ĠPay": 7398,
      "ĠPER": 7399,
      "Ġnotes": 7400,
      "ĠDiam": 7401,
      "aming": 7402,
      "Ġplants": 7403,
      "Ġadvent": 7404,
      "Ġagency": 7405,
      "ECH": 7406,
      "ECLAR": 7407,
      "Ġspeakers": 7408,
      "Ġextended": 7409,
      "Progress": 7410,
      "Ġfavor": 7411,
      "ĠAnnex": 7412,
      "Ġrealistic": 7413,
      "Ġpatent": 7414,
      "Consult": 7415,
      "Ġpenal": 7416,
      "Ġoccasion": 7417,
      "Emer": 7418,
      "FIN": 7419,
      "ga": 7420,
      "lam": 7421,
      "arger": 7422,
      "elia": 7423,
      "ĠMann": 7424,
      "ĠPla": 7425,
      "Ġgallery": 7426,
      "uraru": 7427,
      "Ġprospect": 7428,
      "ĠFil": 7429,
      "ades": 7430,
      "Ġrid": 7431,
      "udicial": 7432,
      "Ġenquiries": 7433,
      "appe": 7434,
      "Ġunfortunately": 7435,
      "Ġscand": 7436,
      "Ġsched": 7437,
      "Ġentered": 7438,
      "Ġperspective": 7439,
      "Ġanswered": 7440,
      "Expected": 7441,
      "cohol": 7442,
      "Ġlots": 7443,
      "Ġbooks": 7444,
      "Ġdealing": 7445,
      "Ġtradition": 7446,
      "Ġabsolute": 7447,
      "Ġadministration": 7448,
      "Ġcourage": 7449,
      "olo": 7450,
      "ĠRos": 7451,
      "Ġalt": 7452,
      "ĠFire": 7453,
      "ĠTAC": 7454,
      "quality": 7455,
      "ĠGN": 7456,
      "ĠLas": 7457,
      "ĠNice": 7458,
      "ĠVen": 7459,
      "ĠStar": 7460,
      "Ġcompli": 7461,
      "ternoon": 7462,
      "ensus": 7463,
      "ĠCharter": 7464,
      "Ġtaxes": 7465,
      "Introduction": 7466,
      "Available": 7467,
      "Ġliberal": 7468,
      "Nobody": 7469,
      "300": 7470,
      "DA": 7471,
      "FA": 7472,
      "Food": 7473,
      "gence": 7474,
      "Ġfle": 7475,
      "Ġdark": 7476,
      "Ġdyn": 7477,
      "ĠPact": 7478,
      "Ġneither": 7479,
      "ĠHost": 7480,
      "Ġplenary": 7481,
      "Ġcloser": 7482,
      "Ġfinish": 7483,
      "Ġpossibilities": 7484,
      "arming": 7485,
      "Ġaccessible": 7486,
      "Adv": 7487,
      "Ġamended": 7488,
      "ĠBeach": 7489,
      "Ġdealt": 7490,
      "Ġpromot": 7491,
      "aurant": 7492,
      "Ġsafegu": 7493,
      "Ġarguments": 7494,
      "ĠSTRATEGY": 7495,
      "ĠTourism": 7496,
      "Ġcolleagues": 7497,
      "ĠPaduraru": 7498,
      "Jonathan": 7499,
      "WESTERN": 7500,
      "iant": 7501,
      "ĠCopenhagen": 7502,
      "ĠMat": 7503,
      "ĠSim": 7504,
      "cean": 7505,
      "Ġexit": 7506,
      "Ġexclud": 7507,
      "ifies": 7508,
      "Ġreserve": 7509,
      "Ġrose": 7510,
      "posed": 7511,
      "Ġ61": 7512,
      "EDUC": 7513,
      "Ġ95": 7514,
      "Ġopens": 7515,
      "Ġeverybody": 7516,
      "Ġguard": 7517,
      "Ġ250": 7518,
      "ĠSchool": 7519,
      "Ġsummary": 7520,
      "TAX": 7521,
      "Ġgovernments": 7522,
      "Ġafraid": 7523,
      "Ġcharges": 7524,
      "Ġnegative": 7525,
      "ĠOpinion": 7526,
      "Anca": 7527,
      "ĠBALKANS": 7528,
      "BUDGET": 7529,
      "Deb": 7530,
      "GA": 7531,
      "OOD": 7532,
      "craft": 7533,
      "Ġfat": 7534,
      "Ġmix": 7535,
      "inger": 7536,
      "ĠCAR": 7537,
      "ctor": 7538,
      "Ġhair": 7539,
      "ĠBut": 7540,
      "Ġdeposit": 7541,
      "ĠStability": 7542,
      "aret": 7543,
      "Ġpolice": 7544,
      "Ġdiscrimination": 7545,
      "Exper": 7546,
      "unicip": 7547,
      "AMEW": 7548,
      "Ġsignal": 7549,
      "Ġlearned": 7550,
      "ĠWhy": 7551,
      "AMEWORK": 7552,
      "doc": 7553,
      "je": 7554,
      "mal": 7555,
      "Ġought": 7556,
      "inations": 7557,
      "Ġmother": 7558,
      "ĠSur": 7559,
      "emy": 7560,
      "ĠNO": 7561,
      "ĠStano": 7562,
      "Ġsaved": 7563,
      "Ġeverywhere": 7564,
      "Ġdeserves": 7565,
      "Ġ1993": 7566,
      "Ġaccessed": 7567,
      "Ġturned": 7568,
      "Ġconsideration": 7569,
      "Ġlesson": 7570,
      "ĠSchengen": 7571,
      "Ġwarning": 7572,
      "ĠACTION": 7573,
      "Simply": 7574,
      "while": 7575,
      "ĠFISCH": 7576,
      "Il": 7577,
      "Year": 7578,
      "ror": 7579,
      "Ġtariff": 7580,
      "reme": 7581,
      "anim": 7582,
      "ito": 7583,
      "Ġinhab": 7584,
      "Ġmac": 7585,
      "vere": 7586,
      "ĠSee": 7587,
      "ĠSatur": 7588,
      "ura": 7589,
      "Ġstrict": 7590,
      "Ġprohib": 7591,
      "ulate": 7592,
      "rif": 7593,
      "endments": 7594,
      "ially": 7595,
      "ROL": 7596,
      "ERN": 7597,
      "Ġquant": 7598,
      "jective": 7599,
      "ĠChairman": 7600,
      "ĠPlayer": 7601,
      "Ġcareful": 7602,
      "ĠWesteren": 7603,
      "Monica": 7604,
      "ĠSoft": 7605,
      "ĠPedro": 7606,
      "CZ": 7607,
      "PT": 7608,
      "Search": 7609,
      "cy": 7610,
      "gr": 7611,
      "ht": 7612,
      "Ġmut": 7613,
      "ĠAward": 7614,
      "oster": 7615,
      "uties": 7616,
      "ĠRSS": 7617,
      "ĠTar": 7618,
      "Ġexclusive": 7619,
      "ĠOld": 7620,
      "ĠWater": 7621,
      "ĠKar": 7622,
      "Ġdisabled": 7623,
      "Ġactual": 7624,
      "Ġspoken": 7625,
      "Ġoverview": 7626,
      "overn": 7627,
      "Ġdialog": 7628,
      "ĠTorres": 7629,
      "Clearly": 7630,
      "RELATIONS": 7631,
      "ITER": 7632,
      "Table": 7633,
      "km": 7634,
      "Ġcott": 7635,
      "ĠCrisis": 7636,
      "Ġongoing": 7637,
      "ĠNic": 7638,
      "Ġ62": 7639,
      "place": 7640,
      "nowledge": 7641,
      "Ġprograms": 7642,
      "Ġbudgetary": 7643,
      "ĠMEMBER": 7644,
      "idden": 7645,
      "ĠSupport": 7646,
      "ĠSkype": 7647,
      "Ġadministrative": 7648,
      "Ġweapons": 7649,
      "Ben": 7650,
      "FINANCIAL": 7651,
      "Jan": 7652,
      "Kingdom": 7653,
      "MAN": 7654,
      "Oper": 7655,
      "miss": 7656,
      "Ġchat": 7657,
      "Ġtoler": 7658,
      "Ġdinner": 7659,
      "ĠEL": 7660,
      "imated": 7661,
      "Ġ47": 7662,
      "INA": 7663,
      "OUS": 7664,
      "ĠUnions": 7665,
      "Ġmarketing": 7666,
      "Ġvisible": 7667,
      "Ġattached": 7668,
      "Ġelectronic": 7669,
      "Ġdriving": 7670,
      "Ġarrive": 7671,
      "ĠCanada": 7672,
      "Ġaccordingly": 7673,
      "Ġafternoon": 7674,
      "Ġhesitate": 7675,
      "GEN": 7676,
      "Long": 7677,
      "Par": 7678,
      "Youth": 7679,
      "my": 7680,
      "nam": 7681,
      "oj": 7682,
      "erce": 7683,
      "oun": 7684,
      "Ġmiddle": 7685,
      "icated": 7686,
      "ĠCecilia": 7687,
      "Ġgift": 7688,
      "ĠDa": 7689,
      "portion": 7690,
      "aken": 7691,
      "allas": 7692,
      "ESTIONS": 7693,
      "Ġsav": 7694,
      "ileo": 7695,
      "Ġdeserve": 7696,
      "ĠEurobarometer": 7697,
      "Ġbuildings": 7698,
      "ĠFranc": 7699,
      "Play": 7700,
      "ratulations": 7701,
      "Ġvolume": 7702,
      "Ġbattle": 7703,
      "Obviously": 7704,
      "Ġspring": 7705,
      "Ġmemory": 7706,
      "Fi": 7707,
      "ties": 7708,
      "Ġfax": 7709,
      "ĠAid": 7710,
      "Ġvideos": 7711,
      "Ġstick": 7712,
      "ĠFriday": 7713,
      "lication": 7714,
      "Ġresource": 7715,
      "rown": 7716,
      "Ġpred": 7717,
      "Quite": 7718,
      "Ġempty": 7719,
      "ĠMarian": 7720,
      "Ġassist": 7721,
      "Ġincor": 7722,
      "Conf": 7723,
      "Ġ229": 7724,
      "Climate": 7725,
      "ĠAfrican": 7726,
      "Ġconnected": 7727,
      "Ġcatch": 7728,
      "Ġdomain": 7729,
      "ĠTeam": 7730,
      "ĠEstonia": 7731,
      "Ġriver": 7732,
      "ĠTodd": 7733,
      "Plaice": 7734,
      "Jo": 7735,
      "MIT": 7736,
      "Wald": 7737,
      "gage": 7738,
      "Ġpil": 7739,
      "Ġdry": 7740,
      "ila": 7741,
      "Ġhum": 7742,
      "ĠMove": 7743,
      "ĠIC": 7744,
      "ĠTerm": 7745,
      "ĠGra": 7746,
      "ĠGree": 7747,
      "Ġrul": 7748,
      "Ġlie": 7749,
      "Ġmerely": 7750,
      "Ġunderstood": 7751,
      "egot": 7752,
      "Ġrelation": 7753,
      "ĠLeon": 7754,
      "1998": 7755,
      "scape": 7756,
      "ĠAntonio": 7757,
      "Ġpowerful": 7758,
      "Ġtourist": 7759,
      "ĠMonetary": 7760,
      "ascal": 7761,
      "Intervention": 7762,
      "ĠWallstrÃ¶m": 7763,
      "Ġsuperv": 7764,
      "ĠDimitri": 7765,
      "101": 7766,
      "IEL": 7767,
      "laga": 7768,
      "making": 7769,
      "migration": 7770,
      "site": 7771,
      "sper": 7772,
      "ĠMill": 7773,
      "irk": 7774,
      "ĠBrian": 7775,
      "ĠLithuania": 7776,
      "ARE": 7777,
      "Ġrow": 7778,
      "Ġavail": 7779,
      "Ġfinances": 7780,
      "USSION": 7781,
      "Ġdesired": 7782,
      "Ġ1992": 7783,
      "Ġcorresp": 7784,
      "Ġbehav": 7785,
      "Ġolder": 7786,
      "Ġorganisations": 7787,
      "Ġlatter": 7788,
      "Prepar": 7789,
      "Ġdestination": 7790,
      "Ġmountains": 7791,
      "Accession": 7792,
      "ĠBelarus": 7793,
      "ĠNovak": 7794,
      "ischler": 7795,
      "continuation": 7796,
      "Ġproducers": 7797,
      ")?": 7798,
      "410": 7799,
      "Fisheries": 7800,
      "Ġerr": 7801,
      "ester": 7802,
      "Ġfrag": 7803,
      "Ġpowers": 7804,
      "rops": 7805,
      "ctic": 7806,
      "ĠMult": 7807,
      "ĠSC": 7808,
      "Ġonto": 7809,
      "emark": 7810,
      "ĠLife": 7811,
      "ĠVill": 7812,
      "Ġobst": 7813,
      "Ġfunctions": 7814,
      "Ġskills": 7815,
      "Ġelection": 7816,
      "Ġdiscussing": 7817,
      "acedonia": 7818,
      "Ġidentified": 7819,
      "Ġarchitect": 7820,
      "Ġobserved": 7821,
      "ĠDISCUSSION": 7822,
      "Ġcatalogue": 7823,
      "Ġthousand": 7824,
      "Ġwithdraw": 7825,
      "iplom": 7826,
      "Ġdescribed": 7827,
      "Keep": 7828,
      "TY": 7829,
      "__": 7830,
      "but": 7831,
      "hne": 7832,
      "Ġsoul": 7833,
      "Ġcos": 7834,
      "edd": 7835,
      "Ġduties": 7836,
      "ingu": 7837,
      "ĠRich": 7838,
      "ĠBre": 7839,
      "Ġant": 7840,
      "opol": 7841,
      "ĠGMO": 7842,
      "ĠHub": 7843,
      "TEE": 7844,
      "ĠWith": 7845,
      "Ġverified": 7846,
      "ellig": 7847,
      "ĠStructural": 7848,
      "onte": 7849,
      "lah": 7850,
      "Ġunit": 7851,
      "Ġspect": 7852,
      "izing": 7853,
      "Ġlaunch": 7854,
      "Conc": 7855,
      "Ġconsiderable": 7856,
      "Ġ....": 7857,
      "Ġmultiple": 7858,
      "Americ": 7859,
      "MEMO": 7860,
      "unisia": 7861,
      "Civil": 7862,
      "Laughter": 7863,
      "Mult": 7864,
      "mon": 7865,
      "tr": 7866,
      "ument": 7867,
      "Ġcere": 7868,
      "rob": 7869,
      "Ġvary": 7870,
      "ĠBus": 7871,
      "ĠDu": 7872,
      "ĠKarl": 7873,
      "Ġnoise": 7874,
      "Ġ63": 7875,
      "Ġregards": 7876,
      "Project": 7877,
      "Ġprocesses": 7878,
      "Ġkinds": 7879,
      "shop": 7880,
      "Ġimprovements": 7881,
      "Ġsubstant": 7882,
      "Ġschools": 7883,
      "Ġdeadlines": 7884,
      "Ġimmigration": 7885,
      "Ġrestrictive": 7886,
      "ĠQUESTIONS": 7887,
      "uerto": 7888,
      "Ġsettings": 7889,
      "ĠBruxelles": 7890,
      "Ġannounced": 7891,
      "ĠFerrero": 7892,
      "ECLARATION": 7893,
      "*)": 7894,
      "Day": 7895,
      "GRO": 7896,
      "HL": 7897,
      "Script": 7898,
      "Ver": 7899,
      "auty": 7900,
      "can": 7901,
      "ooth": 7902,
      "pm": 7903,
      "rates": 7904,
      "Ġtrou": 7905,
      "eni": 7906,
      "anz": 7907,
      "asters": 7908,
      "Ġlarger": 7909,
      "Ġstocks": 7910,
      "ĠFed": 7911,
      "abilities": 7912,
      "ecess": 7913,
      "Ġkg": 7914,
      "ALS": 7915,
      "anged": 7916,
      "Ġgreatest": 7917,
      "Ġrelatively": 7918,
      "ĠPROTECTION": 7919,
      "Ġexpression": 7920,
      "ommendation": 7921,
      "Ġresponsibilities": 7922,
      "IVE": 7923,
      "Ġsheet": 7924,
      "Ġtried": 7925,
      "ategory": 7926,
      "iliar": 7927,
      "rague": 7928,
      "Ġmaritime": 7929,
      "Ġfilled": 7930,
      "Norwegian": 7931,
      "Ġattractive": 7932,
      "ĠConstitution": 7933,
      "Ġsupplementary": 7934,
      "ĠSunday": 7935,
      "enegro": 7936,
      "DS": 7937,
      "SQL": 7938,
      "band": 7939,
      "spe": 7940,
      "uable": 7941,
      "Ġice": 7942,
      "ĠCivil": 7943,
      "ĠHER": 7944,
      "ĠLim": 7945,
      "ĠJa": 7946,
      "ĠJun": 7947,
      "ĠUTC": 7948,
      "INTER": 7949,
      "Ġacts": 7950,
      "Ġcommittees": 7951,
      "Quality": 7952,
      "Annual": 7953,
      "OLAF": 7954,
      "ĠWeek": 7955,
      "legation": 7956,
      "Ġpractices": 7957,
      "Ġunderstanding": 7958,
      "Ġreturned": 7959,
      "Ġhonourable": 7960,
      "Ġsensitive": 7961,
      "ĠIMF": 7962,
      "ycling": 7963,
      "ĠProtocol": 7964,
      "198": 7965,
      "Comb": 7966,
      "NET": 7967,
      "Pal": 7968,
      "water": 7969,
      "Ġtabled": 7970,
      "Ġfather": 7971,
      "icians": 7972,
      "Ġgar": 7973,
      "Ġstable": 7974,
      "Ġthats": 7975,
      "Ġshares": 7976,
      "ĠLU": 7977,
      "ĠWill": 7978,
      "ĠWolf": 7979,
      "ĠVol": 7980,
      "ĠStock": 7981,
      "Ġdisaster": 7982,
      "Stud": 7983,
      "Ġsomewhat": 7984,
      "ĠMarc": 7985,
      "ĠAnn": 7986,
      "ĠĠĠĠĠ": 7987,
      "Ġoperate": 7988,
      "Ġexplained": 7989,
      "Ġbright": 7990,
      "Ġprivacy": 7991,
      "Ġreservations": 7992,
      "Abbott": 7993,
      "Ġsounds": 7994,
      "ĠRoma": 7995,
      "DennisAbbott": 7996,
      "Specific": 7997,
      "Ġscandal": 7998,
      "ĠNovakova": 7999,
      "TOR": 8000,
      "iest": 8001,
      "minute": 8002,
      "inate": 8003,
      "ounter": 8004,
      "aro": 8005,
      "ĠMexico": 8006,
      "ĠExt": 8007,
      "ĠElect": 8008,
      "ĠHÃ¼b": 8009,
      "ante": 8010,
      "istory": 8011,
      "Ġexcess": 8012,
      "Ġleaves": 8013,
      "Ġaviation": 8014,
      "ITAL": 8015,
      "ĠAgricultural": 8016,
      "iking": 8017,
      "azing": 8018,
      "ebast": 8019,
      "Ġinsurance": 8020,
      "Ġstudies": 8021,
      "amburg": 8022,
      "Ġsurely": 8023,
      "ĠFRAMEWORK": 8024,
      "Overall": 8025,
      "ĠInteg": 8026,
      "ĠHerzegovina": 8027,
      "Ġclaim": 8028,
      "Irina": 8029,
      "Ġfantastic": 8030,
      "ĠSharrock": 8031,
      "Congratulations": 8032,
      "Waldner": 8033,
      "PGI": 8034,
      "cile": 8035,
      "ham": 8036,
      "Ġwont": 8037,
      "Ġpet": 8038,
      "Ġpresident": 8039,
      "Ġna": 8040,
      "Ġlit": 8041,
      "Ġrank": 8042,
      "ĠKing": 8043,
      "erved": 8044,
      "HEL": 8045,
      "Ġopinions": 8046,
      "Ġremind": 8047,
      "Ġconfident": 8048,
      "ructuring": 8049,
      "ĠCOMMIT": 8050,
      "Ġcongratulations": 8051,
      "TELECOMMUNICATIONS": 8052,
      "Ġillegal": 8053,
      "ĠLouis": 8054,
      "Ġheavy": 8055,
      "ĠEnterprise": 8056,
      "ĠCharlie": 8057,
      "Ġlibrary": 8058,
      "repreneurship": 8059,
      "Ġupgrade": 8060,
      "ĠHÃ¼bner": 8061,
      "Certain": 8062,
      "Country": 8063,
      "DEN": 8064,
      "IAL": 8065,
      "Min": 8066,
      "Margin": 8067,
      "cam": 8068,
      "pot": 8069,
      "Ġbreat": 8070,
      "Ġhundred": 8071,
      "Ġrenov": 8072,
      "ĠAB": 8073,
      "ĠAfter": 8074,
      "ĠRural": 8075,
      "ĠBook": 8076,
      "ĠDec": 8077,
      "ĠDigital": 8078,
      "Were": 8079,
      "qual": 8080,
      "Ġjustified": 8081,
      "Ġentrance": 8082,
      "Ġvisited": 8083,
      "Ġdifferences": 8084,
      "ĠZe": 8085,
      "ĠAlc": 8086,
      "tenance": 8087,
      "Ġsurv": 8088,
      "Ġsurprise": 8089,
      "orny": 8090,
      "Ġconclude": 8091,
      "Ġposts": 8092,
      "ĠQuality": 8093,
      "Ġtreated": 8094,
      "Ġgenerally": 8095,
      "ĠGeorgia": 8096,
      "Ġpermitted": 8097,
      "Ġhistorical": 8098,
      "Ġpollution": 8099,
      "Ġcircumstances": 8100,
      "ĠFISCHLER": 8101,
      "ĠSaturday": 8102,
      "Bal": 8103,
      "Location": 8104,
      "Spr": 8105,
      "Single": 8106,
      "Ukraine": 8107,
      "sy": 8108,
      "sen": 8109,
      "Ġpra": 8110,
      "Ġow": 8111,
      "ĠMax": 8112,
      "ĠMuseum": 8113,
      "Ġled": 8114,
      "ĠProm": 8115,
      "ĠSE": 8116,
      "illions": 8117,
      "ulf": 8118,
      "ĠFischler": 8119,
      "emo": 8120,
      "ĠOlli": 8121,
      "ĠWin": 8122,
      "ICE": 8123,
      "Ġteacher": 8124,
      "Ġprocurement": 8125,
      "obil": 8126,
      "Ġproposing": 8127,
      "Ġfees": 8128,
      "Ġhelps": 8129,
      "Ġprocessing": 8130,
      "Ġtexts": 8131,
      "Ġhimself": 8132,
      "Environmental": 8133,
      "ĠMonday": 8134,
      "Particip": 8135,
      "Ġmachines": 8136,
      "Ġarchive": 8137,
      "Ġabstained": 8138,
      "Ġconvenient": 8139,
      "Cla": 8140,
      "EIGN": 8141,
      "HAS": 8142,
      "Sa": 8143,
      "UES": 8144,
      "nio": 8145,
      "Ġfaster": 8146,
      "itants": 8147,
      "eless": 8148,
      "ĠMunich": 8149,
      "Ġproved": 8150,
      "ĠRub": 8151,
      "ĠBSE": 8152,
      "Ġdeals": 8153,
      "ĠGen": 8154,
      "ĠLake": 8155,
      "ĠOP": 8156,
      "akh": 8157,
      "ĠStat": 8158,
      "ĠStard": 8159,
      "TIONAL": 8160,
      "Ġaccom": 8161,
      "Ġpeoples": 8162,
      "ugar": 8163,
      "Ġspent": 8164,
      "Ġlooked": 8165,
      "Lets": 8166,
      "Att": 8167,
      "Ġpassengers": 8168,
      "Others": 8169,
      "ĠInstitute": 8170,
      "Ġappointed": 8171,
      "Ġdiseases": 8172,
      "Taxation": 8173,
      "ĠLamy": 8174,
      "Based": 8175,
      "Water": 8176,
      "erest": 8177,
      "Ġsight": 8178,
      "Ġpun": 8179,
      "Ġbought": 8180,
      "Ġnut": 8181,
      "otos": 8182,
      "Ġkil": 8183,
      "ensation": 8184,
      "ĠStatement": 8185,
      "Ġ1990": 8186,
      "Ġimpression": 8187,
      "Ġcolors": 8188,
      "Ġvisiting": 8189,
      "Ġbrid": 8190,
      "ĠCenter": 8191,
      "Ġproperly": 8192,
      "Ġportal": 8193,
      "Rooms": 8194,
      "ĠMeeting": 8195,
      "Examples": 8196,
      "ĠGÃ¼nter": 8197,
      "Ġburden": 8198,
      "Programme": 8199,
      "Ġrefugees": 8200,
      "Ġforgotten": 8201,
      "IED": 8202,
      "tate": 8203,
      "Ġwoman": 8204,
      "Ġbound": 8205,
      "Ġmicro": 8206,
      "Ġdram": 8207,
      "ĠMig": 8208,
      "ĠEastern": 8209,
      "ulner": 8210,
      "ĠFamily": 8211,
      "ĠBa": 8212,
      "Ġwilling": 8213,
      "aine": 8214,
      "ummer": 8215,
      "iech": 8216,
      "ardo": 8217,
      "oger": 8218,
      "Contin": 8219,
      "102": 8220,
      "Ġsupporting": 8221,
      "Strasbourg": 8222,
      "Ġobtain": 8223,
      "anning": 8224,
      "Ġattitude": 8225,
      "Ġexciting": 8226,
      "Organ": 8227,
      "Ġfeeling": 8228,
      "Ġbanking": 8229,
      "Amelia": 8230,
      "opped": 8231,
      "aught": 8232,
      "Ġorders": 8233,
      "Blue": 8234,
      "Serbia": 8235,
      "ĠStardoll": 8236,
      "CR": 8237,
      "Fort": 8238,
      "Figures": 8239,
      "IATION": 8240,
      "Japan": 8241,
      "Was": 8242,
      "pons": 8243,
      "pens": 8244,
      "wan": 8245,
      "eding": 8246,
      "Ġincome": 8247,
      "entions": 8248,
      "ĠCF": 8249,
      "Ġliability": 8250,
      "ĠAF": 8251,
      "ĠEdu": 8252,
      "acle": 8253,
      "Ġgrand": 8254,
      "ĠBMW": 8255,
      "rie": 8256,
      "Ġexecut": 8257,
      "Ġ94": 8258,
      "erts": 8259,
      "ikan": 8260,
      "Ġvisits": 8261,
      "Ġlists": 8262,
      "ulled": 8263,
      "Ġexpectations": 8264,
      "OUTH": 8265,
      "Ġcorrected": 8266,
      "Ġdeclaration": 8267,
      "rosoft": 8268,
      "Ġillust": 8269,
      "Director": 8270,
      "Ġprimary": 8271,
      "Ġtackle": 8272,
      "Ġconfirmed": 8273,
      "Ġscheduled": 8274,
      "Bas": 8275,
      "Max": 8276,
      "Person": 8277,
      "Ren": 8278,
      "Te": 8279,
      "Women": 8280,
      "building": 8281,
      "said": 8282,
      "vy": 8283,
      "orca": 8284,
      "ĠfÃ¼r": 8285,
      "arf": 8286,
      "Ġmarg": 8287,
      "ĠMik": 8288,
      "ĠMacedonia": 8289,
      "Ġlobby": 8290,
      "ĠPakistan": 8291,
      "tery": 8292,
      "ĠBE": 8293,
      "aints": 8294,
      "ĠHE": 8295,
      "Ġshut": 8296,
      "Ġshape": 8297,
      "ĠWik": 8298,
      "Ġplays": 8299,
      "ittings": 8300,
      "Ġprison": 8301,
      "Ġscore": 8302,
      "Ġscientific": 8303,
      "Ġremove": 8304,
      "ployed": 8305,
      "Ġdidnt": 8306,
      "wedish": 8307,
      "Consequently": 8308,
      "Ġdriver": 8309,
      "ĠTraining": 8310,
      "ĠPatten": 8311,
      "Instead": 8312,
      "ĠLatin": 8313,
      "uzz": 8314,
      "ĠBARN": 8315,
      "Ġinfluence": 8316,
      "ĠBarnier": 8317,
      "VENTION": 8318,
      "Ġcondemn": 8319,
      "Ġpenalty": 8320,
      "Aut": 8321,
      "BACK": 8322,
      "Del": 8323,
      "rection": 8324,
      "Ġcop": 8325,
      "alter": 8326,
      "arations": 8327,
      "uster": 8328,
      "ĠMAT": 8329,
      "Ġeleg": 8330,
      "utch": 8331,
      "ĠBy": 8332,
      "ĠLord": 8333,
      "Ġallocation": 8334,
      "Ġadequ": 8335,
      "rics": 8336,
      "Ġdisappe": 8337,
      "OMI": 8338,
      "redit": 8339,
      "ACT": 8340,
      "Ġrelig": 8341,
      "ĠAndors": 8342,
      "ĠAndreas": 8343,
      "Ġexpressed": 8344,
      "Ġ!!": 8345,
      "Ġrequirement": 8346,
      "Ġflights": 8347,
      "Secretary": 8348,
      "Ġdownloaded": 8349,
      "Ġtraditional": 8350,
      "Comment": 8351,
      "Ġoccur": 8352,
      "ĠSerbia": 8353,
      "Ġfeedback": 8354,
      "Ġclarification": 8355,
      "ĠMorocco": 8356,
      "Ġyesterdays": 8357,
      "Carlo": 8358,
      "ĠUrmas": 8359,
      "Ġvirtual": 8360,
      "Ġfolder": 8361,
      "Ġgenuine": 8362,
      "Case": 8363,
      "Ccile": 8364,
      "MON": 8365,
      "hand": 8366,
      "inst": 8367,
      "iliation": 8368,
      "Ġfort": 8369,
      "Ġye": 8370,
      "ĠSub": 8371,
      "Ġeconom": 8372,
      "Ġproof": 8373,
      "ĠBad": 8374,
      "adt": 8375,
      "ĠHoliday": 8376,
      "odies": 8377,
      "ĠNow": 8378,
      "ĠNations": 8379,
      "ĠJoe": 8380,
      "TITU": 8381,
      "Ġsuite": 8382,
      "ĠMinisters": 8383,
      "apers": 8384,
      "Ġserves": 8385,
      "Ġdecis": 8386,
      "Head": 8387,
      "Ġinstance": 8388,
      "Ġacqu": 8389,
      "Product": 8390,
      "Ġinflation": 8391,
      "ĠINFORMATION": 8392,
      "ĠAngel": 8393,
      "itizen": 8394,
      "Ġsupposed": 8395,
      "Ġwinner": 8396,
      "ĠOrder": 8397,
      "Amendment": 8398,
      "ĠCompany": 8399,
      "Ġcreating": 8400,
      "iciary": 8401,
      "Ġobservations": 8402,
      "untary": 8403,
      "Ġbedrooms": 8404,
      "ĠPAET": 8405,
      "FERENCE": 8406,
      "Ġbonus": 8407,
      "Ġcandidate": 8408,
      "Ġphysical": 8409,
      "ustralia": 8410,
      "ĠCOMMITTEE": 8411,
      "ĠBARNIER": 8412,
      "Business": 8413,
      "Er": 8414,
      "Ent": 8415,
      "TP": 8416,
      "THER": 8417,
      "Target": 8418,
      "VAT": 8419,
      "las": 8420,
      "mat": 8421,
      "Ġfab": 8422,
      "ĠCitizens": 8423,
      "ĠMerc": 8424,
      "ĠEP": 8425,
      "acles": 8426,
      "Ġstru": 8427,
      "Ġrob": 8428,
      "ĠReal": 8429,
      "Ġ700": 8430,
      "Ġ82": 8431,
      "Ġcooper": 8432,
      "OUNTR": 8433,
      "Ġrain": 8434,
      "Ġexamine": 8435,
      "Ġvaluable": 8436,
      "ĠEurostat": 8437,
      "Ġobjects": 8438,
      "tenstein": 8439,
      "Ġdirectory": 8440,
      "ĠClass": 8441,
      "Ġdifficulties": 8442,
      "Ġbarriers": 8443,
      "Ġcorrectly": 8444,
      "Integ": 8445,
      "Ġquota": 8446,
      "ĠTHIS": 8447,
      "ĠDaniel": 8448,
      "ĠSERVICES": 8449,
      "400": 8450,
      "??": 8451,
      "Es": 8452,
      "uters": 8453,
      "Ġfem": 8454,
      "itness": 8455,
      "eler": 8456,
      "ĠCustoms": 8457,
      "ĠSYS": 8458,
      "Ġalcohol": 8459,
      "ĠFront": 8460,
      "ĠBORG": 8461,
      "amas": 8462,
      "ĠGas": 8463,
      "ĠNos": 8464,
      "ĠNik": 8465,
      "Ġ72": 8466,
      "Ġ120": 8467,
      "Ġattempt": 8468,
      "Ġcolours": 8469,
      "ĠThomas": 8470,
      "Ġexperts": 8471,
      "MEETING": 8472,
      "Ġabsurd": 8473,
      "onesia": 8474,
      "Ġliked": 8475,
      "uisine": 8476,
      "Ġleadership": 8477,
      "Ġtypical": 8478,
      "Ġdispute": 8479,
      "John": 8480,
      "Africa": 8481,
      "Ġsuspended": 8482,
      "Mlaga": 8483,
      "Turn": 8484,
      "known": 8485,
      "live": 8486,
      "pon": 8487,
      "inian": 8488,
      "Ġwild": 8489,
      "ĠPlease": 8490,
      "ĠPoker": 8491,
      "Ġstars": 8492,
      "Ġstopped": 8493,
      "ĠDon": 8494,
      "Ġseg": 8495,
      "Ġexceed": 8496,
      "ĠWhere": 8497,
      "Ġchurch": 8498,
      "eller": 8499,
      "Ġunanim": 8500,
      "obe": 8501,
      "overed": 8502,
      "OLL": 8503,
      "Ġdesk": 8504,
      "Ġends": 8505,
      "Ġdefence": 8506,
      "ĠChristmas": 8507,
      "Ġdrivers": 8508,
      "Ġspecifically": 8509,
      "Ġstronger": 8510,
      "Cohesion": 8511,
      "Ġsensible": 8512,
      "Ġlabelling": 8513,
      "Ġshops": 8514,
      "chers": 8515,
      "Nonetheless": 8516,
      "Details": 8517,
      "ĠTUOMI": 8518,
      "egotiations": 8519,
      "GROUND": 8520,
      "ĠTUOMIOJA": 8521,
      "Alexand": 8522,
      "Mor": 8523,
      "Sign": 8524,
      "Tour": 8525,
      "Ġtro": 8526,
      "Ġsad": 8527,
      "Ġswitch": 8528,
      "Ġfelt": 8529,
      "asa": 8530,
      "ĠMel": 8531,
      "ĠPO": 8532,
      "ĠPascal": 8533,
      "lymp": 8534,
      "ĠFound": 8535,
      "rive": 8536,
      "opoul": 8537,
      "ĠGolf": 8538,
      "ĠHall": 8539,
      "ĠKallas": 8540,
      "cons": 8541,
      "Ġ91": 8542,
      "ugen": 8543,
      "Ġcalling": 8544,
      "Ġincred": 8545,
      "Ġpackaging": 8546,
      "ĠWebsite": 8547,
      "Ġweekend": 8548,
      "Schengen": 8549,
      "Transparency": 8550,
      "Ġholds": 8551,
      "Ġwheel": 8552,
      "Ġpresence": 8553,
      "ĠLatvia": 8554,
      "STRÃĸM": 8555,
      "ladim": 8556,
      "Ġcastle": 8557,
      "approx": 8558,
      "ĠBernard": 8559,
      "ABILITY": 8560,
      "Ġdelighted": 8561,
      "ĠPlaza": 8562,
      "EDUCATION": 8563,
      ".,": 8564,
      "Central": 8565,
      "HOL": 8566,
      "Having": 8567,
      "Mobile": 8568,
      "Ste": 8569,
      "Section": 8570,
      "yan": 8571,
      "inen": 8572,
      "aling": 8573,
      "Ġbike": 8574,
      "Ġbinding": 8575,
      "elle": 8576,
      "ĠMich": 8577,
      "Ġles": 8578,
      "ĠPalm": 8579,
      "ĠSi": 8580,
      "ĠSpr": 8581,
      "ĠSolidarity": 8582,
      "irms": 8583,
      "ĠFrit": 8584,
      "ĠFÃ¼": 8585,
      "ĠTRE": 8586,
      "ĠTreas": 8587,
      "veloping": 8588,
      "ĠDeut": 8589,
      "Ġconsensus": 8590,
      "Sole": 8591,
      "Ġmodule": 8592,
      "Ġended": 8593,
      "Ġendorse": 8594,
      "Ġsurface": 8595,
      "Ġfamiliar": 8596,
      "Ġmedical": 8597,
      "Ġapplicable": 8598,
      "Ġorganisation": 8599,
      "!!!": 8600,
      "Ġnearly": 8601,
      "Ġcompetitive": 8602,
      "ĠCorazza": 8603,
      "Ġrecorded": 8604,
      "Ġmisunder": 8605,
      "ĠInfrastructure": 8606,
      "Ġerrors": 8607,
      "Bur": 8608,
      "CP": 8609,
      "Government": 8610,
      "Park": 8611,
      "arest": 8612,
      "point": 8613,
      "rig": 8614,
      "sa": 8615,
      "Ġisol": 8616,
      "Ġforces": 8617,
      "ĠPAL": 8618,
      "ĠPrague": 8619,
      "ĠRot": 8620,
      "ĠBelg": 8621,
      "ĠTer": 8622,
      "Ġanc": 8623,
      "ĠHO": 8624,
      "ĠWa": 8625,
      "ĠStrasbourg": 8626,
      "Ġunto": 8627,
      "Ġthemes": 8628,
      "Ġsubscribe": 8629,
      "ĠPRODUC": 8630,
      "ĠPolish": 8631,
      "Ġdrawn": 8632,
      "Share": 8633,
      "ĠFranco": 8634,
      "ĠiPhone": 8635,
      "Ġsatellite": 8636,
      "Simpl": 8637,
      "Ġgradu": 8638,
      "Ġtimetable": 8639,
      "Ġrestrictions": 8640,
      "Maja": 8641,
      "Ġslightly": 8642,
      "Incre": 8643,
      "Ġsavings": 8644,
      "CES": 8645,
      "Freedom": 8646,
      "Ro": 8647,
      "SV": 8648,
      "bel": 8649,
      "des": 8650,
      "lor": 8651,
      "uly": 8652,
      "upp": 8653,
      "zb": 8654,
      "ĠThere": 8655,
      "Ġtreaty": 8656,
      "rea": 8657,
      "orne": 8658,
      "Ġcuisine": 8659,
      "Ġist": 8660,
      "Ġisnt": 8661,
      "Ġnamed": 8662,
      "ellect": 8663,
      "ĠMain": 8664,
      "ĠMaj": 8665,
      "ĠPierre": 8666,
      "Ġdefe": 8667,
      "Ġ54": 8668,
      "annis": 8669,
      "uthor": 8670,
      "Ġflow": 8671,
      "Ġelig": 8672,
      "Ġmonitor": 8673,
      "Ġenjoyed": 8674,
      "ennis": 8675,
      "ĠNeighbourhood": 8676,
      "Ġclarify": 8677,
      "ĠDesign": 8678,
      "Promoting": 8679,
      "Ġobligations": 8680,
      "Ġavailability": 8681,
      ".-": 8682,
      "Making": 8683,
      "Right": 8684,
      "WTO": 8685,
      "YI": 8686,
      "furt": 8687,
      "run": 8688,
      "rants": 8689,
      "ĠParliaments": 8690,
      "eters": 8691,
      "ĠSH": 8692,
      "Ġep": 8693,
      "olt": 8694,
      "stra": 8695,
      "Ġdoors": 8696,
      "ENN": 8697,
      "Ġunn": 8698,
      "Ġpreced": 8699,
      "Ġsubmit": 8700,
      "Ġ1991": 8701,
      "ĠConc": 8702,
      "ĠĠĠĠĠĠ": 8703,
      "Ġdistin": 8704,
      "Ġtrial": 8705,
      "arantee": 8706,
      "Ġfores": 8707,
      "Ġcreature": 8708,
      "Ġdeclarations": 8709,
      "ĠConsult": 8710,
      "Ġcontributions": 8711,
      "ĠSlovakia": 8712,
      "ktop": 8713,
      "Ġdollpage": 8714,
      "Ġfrequently": 8715,
      "ĠDepartment": 8716,
      "Ġconvinced": 8717,
      "Ġnumerous": 8718,
      "Ġinhabitants": 8719,
      "iechtenstein": 8720,
      "Diff": 8721,
      "LU": 8722,
      "VA": 8723,
      "ao": 8724,
      "list": 8725,
      "orah": 8726,
      "Ġwelfare": 8727,
      "Ġphen": 8728,
      "Ġdig": 8729,
      "ĠCountries": 8730,
      "ĠMB": 8731,
      "Ġlunch": 8732,
      "Ġgap": 8733,
      "urally": 8734,
      "ĠFace": 8735,
      "ĠFern": 8736,
      "ĠDr": 8737,
      "ĠHamburg": 8738,
      "law": 8739,
      "Ġtrafficking": 8740,
      "ernel": 8741,
      "Strengthening": 8742,
      "TERS": 8743,
      "Ġowners": 8744,
      "Ġpassenger": 8745,
      "Ġtalks": 8746,
      "Ġnearby": 8747,
      "Ġcreates": 8748,
      "Speaking": 8749,
      "ĠMonti": 8750,
      "Ġurge": 8751,
      "ĠMiros": 8752,
      "Ġfurnished": 8753,
      "ĠDemocracy": 8754,
      "Nice": 8755,
      "sm": 8756,
      "zz": 8757,
      "oros": 8758,
      "enz": 8759,
      "Ġsizes": 8760,
      "Ġfix": 8761,
      "ĠCL": 8762,
      "vey": 8763,
      "ĠPo": 8764,
      "ĠPass": 8765,
      "etting": 8766,
      "Ġvulner": 8767,
      "ĠForm": 8768,
      "estein": 8769,
      "iag": 8770,
      "ĠTick": 8771,
      "Ġang": 8772,
      "ĠHT": 8773,
      "Ġseats": 8774,
      "ĠOK": 8775,
      "ĠUnder": 8776,
      "ĠKong": 8777,
      "Ġclock": 8778,
      "ĠMrPresident": 8779,
      "ĠInitiative": 8780,
      "Ġroot": 8781,
      "Ġ98": 8782,
      "Ġpositions": 8783,
      "Ġotherwise": 8784,
      "ĠMargot": 8785,
      "Ġspecified": 8786,
      "ĠUSD": 8787,
      "Ġgeneration": 8788,
      "Ġloan": 8789,
      "Ġinvolves": 8790,
      "Ġcleaning": 8791,
      "Ġdocumentation": 8792,
      "ĠRoman": 8793,
      "Ġdeadline": 8794,
      "Ġaudit": 8795,
      "Ġreaction": 8796,
      "Telephone": 8797,
      "olkestein": 8798,
      "Ġcasino": 8799,
      "Ġprejudge": 8800,
      "Ġadventure": 8801,
      "ĠGMOs": 8802,
      "Ġrenovated": 8803,
      "Ġphenomen": 8804,
      "Ambassador": 8805,
      "LIS": 8806,
      "Ġcab": 8807,
      "Ġcry": 8808,
      "ĠMoldova": 8809,
      "Ġluxury": 8810,
      "ĠEvaluation": 8811,
      "ĠSOL": 8812,
      "ĠSaint": 8813,
      "Ġvaria": 8814,
      "ournal": 8815,
      "ĠBolkestein": 8816,
      "ĠTop": 8817,
      "ĠLEG": 8818,
      "dule": 8819,
      "Ġjudgment": 8820,
      "ancic": 8821,
      "oves": 8822,
      "Ġvisa": 8823,
      "IREC": 8824,
      "Change": 8825,
      "PRESID": 8826,
      "Import": 8827,
      "AFO": 8828,
      "Ġconstantly": 8829,
      "India": 8830,
      "Ġtrademark": 8831,
      "Ġcapt": 8832,
      "Ġguarantees": 8833,
      "Ġsuggestion": 8834,
      "----": 8835,
      "Maybe": 8836,
      "Ġencouraging": 8837,
      "ĠDeborah": 8838,
      "ĠSyria": 8839,
      "ĠRadio": 8840,
      "ĠSanta": 8841,
      "Ġmedicine": 8842,
      "orizon": 8843,
      "Ġvegetables": 8844,
      "Ġrubber": 8845,
      "Ġparents": 8846,
      "Lo": 8847,
      "SI": 8848,
      "Summ": 8849,
      "inating": 8850,
      "oria": 8851,
      "itch": 8852,
      "roc": 8853,
      "Ġmerc": 8854,
      "ĠPRE": 8855,
      "atever": 8856,
      "ĠTib": 8857,
      "ams": 8858,
      "rier": 8859,
      "istration": 8860,
      "Ġshame": 8861,
      "ocij": 8862,
      "Invest": 8863,
      "ĠView": 8864,
      "ĠKR": 8865,
      "ATIONAL": 8866,
      "Ġscience": 8867,
      "ETY": 8868,
      "Administ": 8869,
      "Ġequally": 8870,
      "Ġimproving": 8871,
      "Ġports": 8872,
      "ĠWho": 8873,
      "Ġlabel": 8874,
      "Ġsusp": 8875,
      "holm": 8876,
      "Ġclaims": 8877,
      "Ġcertific": 8878,
      "Ġsquare": 8879,
      "ĠDialogue": 8880,
      "Experience": 8881,
      "ocijancic": 8882,
      "Catherine": 8883,
      "Future": 8884,
      "GF": 8885,
      "GRE": 8886,
      "Name": 8887,
      "Natur": 8888,
      "Sorry": 8889,
      "YPR": 8890,
      "ho": 8891,
      "ui": 8892,
      "Ġack": 8893,
      "Ġpip": 8894,
      "Ġmouse": 8895,
      "omalia": 8896,
      "ĠCI": 8897,
      "ĠCOR": 8898,
      "using": 8899,
      "Ġlayer": 8900,
      "owards": 8901,
      "ĠISO": 8902,
      "Ġstructures": 8903,
      "ĠTy": 8904,
      "ANGE": 8905,
      "ĠEUROPE": 8906,
      "ĠKocijancic": 8907,
      "Ġclot": 8908,
      "erent": 8909,
      "Ġkilled": 8910,
      "ango": 8911,
      "Ġtrail": 8912,
      "Ġimplications": 8913,
      "Ġmaintained": 8914,
      "ĠPolitical": 8915,
      "Ġlinked": 8916,
      "echnology": 8917,
      "ĠECB": 8918,
      "ĠSuites": 8919,
      "Ġconsistent": 8920,
      "Below": 8921,
      "ĠOthers": 8922,
      "Ġdegree": 8923,
      "TAXATION": 8924,
      "ĠGreek": 8925,
      "BACKGROUND": 8926,
      "ellectual": 8927,
      "Decision": 8928,
      "Put": 8929,
      "bles": 8930,
      "cia": 8931,
      "gang": 8932,
      "po": 8933,
      "pite": 8934,
      "real": 8935,
      "Ġpal": 8936,
      "edia": 8937,
      "ĠCatherine": 8938,
      "ĠMA": 8939,
      "ĠMAL": 8940,
      "Ġbeaches": 8941,
      "ĠPM": 8942,
      "ĠAh": 8943,
      "ĠEv": 8944,
      "ĠEarth": 8945,
      "ĠSun": 8946,
      "illance": 8947,
      "igaret": 8948,
      "Ġstored": 8949,
      "ĠBrand": 8950,
      "pping": 8951,
      "istical": 8952,
      "ONS": 8953,
      "ĠNOT": 8954,
      "ĠWi": 8955,
      "ablish": 8956,
      "erend": 8957,
      "bster": 8958,
      "Ġpref": 8959,
      "REG": 8960,
      "Ġtransition": 8961,
      "Ġdecre": 8962,
      "Ġrare": 8963,
      "Ġprior": 8964,
      "anned": 8965,
      "Ġsurf": 8966,
      "Ġhandle": 8967,
      "Ġsmaller": 8968,
      "ĠCONFERENCE": 8969,
      "Todays": 8970,
      "Ġlogin": 8971,
      "Ġperiods": 8972,
      "Ġrevolution": 8973,
      "Media": 8974,
      "Ġcalendar": 8975,
      "Ġaudio": 8976,
      "Help": 8977,
      "Ġpanel": 8978,
      "Ġordered": 8979,
      "Ġdrinks": 8980,
      "IGHT": 8981,
      "Decisions": 8982,
      "Ġmechanisms": 8983,
      "Ġblood": 8984,
      "Ġhouses": 8985,
      "Ġunfair": 8986,
      "onymous": 8987,
      "ancellor": 8988,
      "Ġinstructions": 8989,
      "Returns": 8990,
      "ĠTreasury": 8991,
      "DK": 8992,
      "Dan": 8993,
      "End": 8994,
      "Hon": 8995,
      "Send": 8996,
      "een": 8997,
      "field": 8998,
      "inz": 8999,
      "Ġcitizen": 9000,
      "Ġfer": 9001,
      "Ġod": 9002,
      "lem": 9003,
      "ela": 9004,
      "ĠMAN": 9005,
      "ĠDie": 9006,
      "ĠTreat": 9007,
      "Internet": 9008,
      "Ġsuit": 9009,
      "Youll": 9010,
      "HERN": 9011,
      "Ġfeet": 9012,
      "Prof": 9013,
      "Ġblame": 9014,
      "ridge": 9015,
      "Security": 9016,
      "ĠGuinea": 9017,
      "Comple": 9018,
      "Among": 9019,
      "Ġmistakes": 9020,
      "Something": 9021,
      "Ġincreasingly": 9022,
      "Price": 9023,
      "ĠPEACE": 9024,
      "Ġfaith": 9025,
      "Ġdelete": 9026,
      "Ġdiversity": 9027,
      "Creat": 9028,
      "Ide": 9029,
      "Try": 9030,
      "UAL": 9031,
      "fred": 9032,
      "you": 9033,
      "Ġtun": 9034,
      "Ġspp": 9035,
      "Ġcalm": 9036,
      "Ġbre": 9037,
      "ĠSituation": 9038,
      "Ġprove": 9039,
      "quently": 9040,
      "odes": 9041,
      "ĠLive": 9042,
      "ĠLIFE": 9043,
      "Ġheat": 9044,
      "ailand": 9045,
      "apest": 9046,
      "ALTH": 9047,
      "Ġdisag": 9048,
      "ELS": 9049,
      "Ġfines": 9050,
      "Ġimpress": 9051,
      "hips": 9052,
      "Ġaddresses": 9053,
      "riendly": 9054,
      "Ġtaxi": 9055,
      "Ġjoined": 9056,
      "errorism": 9057,
      "Ã¤r": 9058,
      "enez": 9059,
      "Ġwindows": 9060,
      "Ġdeclared": 9061,
      "ÃĦKI": 9062,
      "Ġrecognition": 9063,
      "Ġexperienced": 9064,
      "Ġfurniture": 9065,
      "Modern": 9066,
      "ffective": 9067,
      "Ġdedicated": 9068,
      "Ġforthcoming": 9069,
      "Ġsafeguard": 9070,
      "BB": 9071,
      "Customs": 9072,
      "Mic": 9073,
      "Port": 9074,
      "Safety": 9075,
      "WORK": 9076,
      "poc": 9077,
      "uels": 9078,
      "iner": 9079,
      "itu": 9080,
      "Ġinj": 9081,
      "Ġmaster": 9082,
      "Ġduration": 9083,
      "Ġhosp": 9084,
      "ĠMigration": 9085,
      "Ġliter": 9086,
      "ĠAccess": 9087,
      "ĠRule": 9088,
      "ĠLiber": 9089,
      "ĠNick": 9090,
      "Ġadults": 9091,
      "ireless": 9092,
      "Ġoutstanding": 9093,
      "iana": 9094,
      "enses": 9095,
      "Ġcommunic": 9096,
      "urred": 9097,
      "Ġ1989": 9098,
      "Ġinstitutional": 9099,
      "Ġrefund": 9100,
      "essions": 9101,
      "ĠEuropol": 9102,
      "Ġannounce": 9103,
      "ĠContact": 9104,
      "Ġachievement": 9105,
      "Ġindex": 9106,
      "Ġgenerated": 9107,
      "Ġschemes": 9108,
      "Ġsubstance": 9109,
      "Ġrevised": 9110,
      "Ġtrends": 9111,
      "Ġpremium": 9112,
      "Ġparameter": 9113,
      "Ġdemonstr": 9114,
      "ĠFAQ": 9115,
      "ĠStandard": 9116,
      "ĠFREE": 9117,
      "ROWTH": 9118,
      "Malta": 9119,
      "GAL": 9120,
      "LIFE": 9121,
      "Sara": 9122,
      "Top": 9123,
      "iov": 9124,
      "Ġtend": 9125,
      "Ġtables": 9126,
      "isual": 9127,
      "Ġwarn": 9128,
      "Ġfly": 9129,
      "Ġdies": 9130,
      "Ġlas": 9131,
      "Ġbeauty": 9132,
      "ĠEur": 9133,
      "ĠSafety": 9134,
      "ĠIl": 9135,
      "Ġstream": 9136,
      "ulous": 9137,
      "chmark": 9138,
      "Ġcancell": 9139,
      "ĠNor": 9140,
      "ĠNord": 9141,
      "ĠOff": 9142,
      "ailway": 9143,
      "ĠKaz": 9144,
      "Ġjudge": 9145,
      "ORE": 9146,
      "peri": 9147,
      "ĠChamp": 9148,
      "ordan": 9149,
      "ĠDeclaration": 9150,
      "ounds": 9151,
      "Staff": 9152,
      "cks": 9153,
      "Ġassociation": 9154,
      "Ġextend": 9155,
      "Ġsettlement": 9156,
      "ietnam": 9157,
      "geria": 9158,
      "Ġcorrection": 9159,
      "Ġinterface": 9160,
      "Ġincreases": 9161,
      "Ġpromise": 9162,
      "Ġelected": 9163,
      "Ġfacility": 9164,
      "Ġremained": 9165,
      "Ġannulled": 9166,
      "AKIS": 9167,
      "ĠApartment": 9168,
      "ĠMilan": 9169,
      "Ġprotocol": 9170,
      "ĠRestaurant": 9171,
      "orizont": 9172,
      "ĠBanner": 9173,
      "ĠCongo": 9174,
      "TURAL": 9175,
      "ĠSoftware": 9176,
      "Ġowner": 9177,
      "ĠFrits": 9178,
      "Naturally": 9179,
      "GAN": 9180,
      "NEW": 9181,
      "Unt": 9182,
      "VIT": 9183,
      "da": 9184,
      "map": 9185,
      "rac": 9186,
      "atz": 9187,
      "anmar": 9188,
      "esh": 9189,
      "Ġpric": 9190,
      "alse": 9191,
      "Ġhorse": 9192,
      "ĠMus": 9193,
      "ĠSon": 9194,
      "osis": 9195,
      "ĠList": 9196,
      "urea": 9197,
      "Ġride": 9198,
      "ĠNEW": 9199,
      "ivities": 9200,
      "Ġabol": 9201,
      "Ġchair": 9202,
      "Ġ292": 9203,
      "venue": 9204,
      "Ġcommend": 9205,
      "Ġissued": 9206,
      "ĠMarg": 9207,
      "Ġsubs": 9208,
      "Ġboost": 9209,
      "Ġcorruption": 9210,
      "valu": 9211,
      "azine": 9212,
      "Albania": 9213,
      "uffs": 9214,
      "Ġheritage": 9215,
      "IMPL": 9216,
      "Ġshareholders": 9217,
      "1997": 9218,
      "Industrial": 9219,
      "Ġbroch": 9220,
      "Ġcredibility": 9221,
      "ivalent": 9222,
      "Working": 9223,
      "Ġdelegations": 9224,
      "Ġcopyright": 9225,
      "liminary": 9226,
      "TACs": 9227,
      "Ġuniversal": 9228,
      "Ġexcluded": 9229,
      "PRESIDENCY": 9230,
      "Fight": 9231,
      "French": 9232,
      "IE": 9233,
      "ITE": 9234,
      "Like": 9235,
      "POR": 9236,
      "RD": 9237,
      "Sure": 9238,
      "lights": 9239,
      "Ġtree": 9240,
      "Ġcult": 9241,
      "Ġpor": 9242,
      "Ġinput": 9243,
      "Ġmuseum": 9244,
      "Theres": 9245,
      "Ġhar": 9246,
      "ĠCAM": 9247,
      "Ġreverse": 9248,
      "ĠSustainable": 9249,
      "ĠTiron": 9250,
      "quate": 9251,
      "quest": 9252,
      "ĠLiechtenstein": 9253,
      "ĠWars": 9254,
      "ĠVia": 9255,
      "connect": 9256,
      "anging": 9257,
      "Ġaccur": 9258,
      "Whiting": 9259,
      "Ġcounts": 9260,
      "Stand": 9261,
      "Ġspa": 9262,
      "Ġemp": 9263,
      "Ġmodules": 9264,
      "Chinas": 9265,
      "Ġmetro": 9266,
      "Ġmeets": 9267,
      "selt": 9268,
      "sche": 9269,
      "Ġlovely": 9270,
      "Measures": 9271,
      "Ġrepeated": 9272,
      "Ġrenewable": 9273,
      "Posted": 9274,
      "ĠTironi": 9275,
      "Erasmus": 9276,
      "hus": 9277,
      "ixt": 9278,
      "pact": 9279,
      "Ġ{": 9280,
      "enza": 9281,
      "Ġfestival": 9282,
      "itled": 9283,
      "Ġpoker": 9284,
      "Ġdrop": 9285,
      "ĠEEA": 9286,
      "ĠSector": 9287,
      "impro": 9288,
      "ĠRiver": 9289,
      "ĠFlo": 9290,
      "ĠFestival": 9291,
      "ĠDet": 9292,
      "ĠTro": 9293,
      "ĠTool": 9294,
      "Ġseas": 9295,
      "ĠNorthern": 9296,
      "ivier": 9297,
      "ERAL": 9298,
      "agn": 9299,
      "Ġanywhere": 9300,
      "Ġcoord": 9301,
      "Ġ2016": 9302,
      "Ġobl": 9303,
      "Ġentertain": 9304,
      "Ġspeaks": 9305,
      "ducing": 9306,
      "ija": 9307,
      "Ġlobster": 9308,
      "Ġconcluded": 9309,
      "Ġtested": 9310,
      "ĠRomano": 9311,
      "ĠVerhe": 9312,
      "Ġstrengthened": 9313,
      "Flat": 9314,
      "Ġconfigur": 9315,
      "Ġunnecess": 9316,
      "Bi": 9317,
      "NO": 9318,
      "North": 9319,
      "Option": 9320,
      "WEL": 9321,
      "cs": 9322,
      "fa": 9323,
      "hi": 9324,
      "Ġ),": 9325,
      "Ġtut": 9326,
      "Ġbran": 9327,
      "Ġmal": 9328,
      "Ġnons": 9329,
      "Ġreve": 9330,
      "etween": 9331,
      "ĠEDP": 9332,
      "ĠRoyal": 9333,
      "Ġwear": 9334,
      "quer": 9335,
      "Ġshock": 9336,
      "Ġrig": 9337,
      "actions": 9338,
      "Whats": 9339,
      "Ġenforcement": 9340,
      "eches": 9341,
      "Ġoffic": 9342,
[...]
