{"<|endoftext|>":0,"!":1,"\"":2,"#":3,"$":4,"%":5,"&":6,"'":7,"(":8,")":9,"*":10,"+":11,",":12,"-":13,".":14,"/":15,"0":16,"1":17,"2":18,"3":19,"4":20,"5":21,"6":22,"7":23,"8":24,"9":25,":":26,";":27,"<":28,"=":29,">":30,"?":31,"@":32,"A":33,"B":34,"C":35,"D":36,"E":37,"F":38,"G":39,"H":40,"I":41,"J":42,"K":43,"L":44,"M":45,"N":46,"O":47,"P":48,"Q":49,"R":50,"S":51,"T":52,"U":53,"V":54,"W":55,"X":56,"Y":57,"Z":58,"[":59,"\\":60,"]":61,"^":62,"_":63,"`":64,"a":65,"b":66,"c":67,"d":68,"e":69,"f":70,"g":71,"h":72,"i":73,"j":74,"k":75,"l":76,"m":77,"n":78,"o":79,"p":80,"q":81,"r":82,"s":83,"t":84,"u":85,"v":86,"w":87,"x":88,"y":89,"z":90,"{":91,"|":92,"}":93,"~":94,"¡":95,"¢":96,"£":97,"¤":98,"¥":99,"¦":100,"§":101,"¨":102,"©":103,"ª":104,"«":105,"¬":106,"®":107,"¯":108,"°":109,"±":110,"²":111,"³":112,"´":113,"µ":114,"¶":115,"·":116,"¸":117,"¹":118,"º":119,"»":120,"¼":121,"½":122,"¾":123,"¿":124,"À":125,"Á":126,"Â":127,"Ã":128,"Ä":129,"Å":130,"Æ":131,"Ç":132,"È":133,"É":134,"Ê":135,"Ë":136,"Ì":137,"Í":138,"Î":139,"Ï":140,"Ð":141,"Ñ":142,"Ò":143,"Ó":144,"Ô":145,"Õ":146,"Ö":147,"×":148,"Ø":149,"Ù":150,"Ú":151,"Û":152,"Ü":153,"Ý":154,"Þ":155,"ß":156,"à":157,"á":158,"â":159,"ã":160,"ä":161,"å":162,"æ":163,"ç":164,"è":165,"é":166,"ê":167,"ë":168,"ì":169,"í":170,"î":171,"ï":172,"ð":173,"ñ":174,"ò":175,"ó":176,"ô":177,"õ":178,"ö":179,"÷":180,"ø":181,"ù":182,"ú":183,"û":184,"ü":185,"ý":186,"þ":187,"ÿ":188,"Ā":189,"ā":190,"Ă":191,"ă":192,"Ą":193,"ą":194,"Ć":195,"ć":196,"Ĉ":197,"ĉ":198,"Ċ":199,"ċ":200,"Č":201,"č":202,"Ď":203,"ď":204,"Đ":205,"đ":206,"Ē":207,"ē":208,"Ĕ":209,"ĕ":210,"Ė":211,"ė":212,"Ę":213,"ę":214,"Ě":215,"ě":216,"Ĝ":217,"ĝ":218,"Ğ":219,"ğ":220,"Ġ":221,"ġ":222,"Ģ":223,"ģ":224,"Ĥ":225,"ĥ":226,"Ħ":227,"ħ":228,"Ĩ":229,"ĩ":230,"Ī":231,"ī":232,"Ĭ":233,"ĭ":234,"Į":235,"į":236,"İ":237,"ı":238,"Ĳ":239,"ĳ":240,"Ĵ":241,"ĵ":242,"Ķ":243,"ķ":244,"ĸ":245,"Ĺ":246,"ĺ":247,"Ļ":248,"ļ":249,"Ľ":250,"ľ":251,"Ŀ":252,"ŀ":253,"Ł":254,"ł":255,"Ń":256,"Ġt":257,"he":258,"Ġa":259,"re":260,"in":261,"on":262,"is":263,"er":264,"at":265,"Ġthe":266,"or":267,"en":268,"an":269,"ou":270,"Ġs":271,"Ġw":272,"Ġc":273,"ion":274,"es":275,"Ġf":276,"it":277,"Ġp":278,"Ġo":279,"al":280,"ar":281,"ed":282,"Ġb":283,"ro":284,"Ġof":285,"Ġin":286,"Ġm":287,"Ġto":288,"Ġis":289,"Ġd":290,"nd":291,"le":292,"as":293,"ing":294,"om":295,"ic":296,"ent":297,"The":298,"il":299,"Ġn":300,"Ġth":301,"ot":302,"Ġh":303,"el":304,"ĠC":305,"Ġre":306,"us":307,"ct":308,"Ġand":309,"Ġfor":310,"ation":311,"ĠM":312,"ve":313,"Ġy":314,"Ġl":315,"Ġbe":316,"ĠP":317,"et":318,"ĠA":319,"Ġyou":320,"ĠE":321,"ĠS":322,"res":323,"Ġon":324,"Ġ2":325,"id":326,"ow":327,"ment":328,"Ġe":329,"ol":330,"os":331,"pe":332,"ac":333,"Th":334,"ter":335,"ay":336,"ĠI":337,"Ġv":338,"Ġare":339,"Ġg":340,"ly":341,"im":342,"ur":343,"ut":344,"ill":345,"ig":346,"Ġ1":347,"omm":348,"ra":349,"00":350,"Ġst":351,"ort":352,"Ġpro":353,"ce":354,"ir":355,"ul":356,"Ġthis":357,"sion":358,"ore":359,"Ġcon":360,"our":361,"Ġ(":362,"ĠR":363,"ke":364,"Ġal":365,"Ġnot":366,"ĠF":367,"ld":368,"Ġwe":369,"uro":370,"ate":371,"Ġha":372,"ch":373,"st":374,"est":375,"ĠB":376,"ia":377,"ith":378,"pp":379,"ver":380,"ĠD":381,"Ġat":382,"ad":383,"ĠT":384,"Ġde":385,"We":386,"ust":387,"un":388,"ble":389,"Ġthat":390,"ission":391,"Ġwill":392,"urope":393,"Ġwith":394,"and":395,"her":396,"ge":397,"Ġne":398,"Ġit":399,"ould":400,"qu":401,"ommission":402,"am":403,"ri":404,"Ġhave":405,"Ġan":406,"Mr":407,"se":408,"This":409,"..":410,"op":411,"em":412,"ain":413,"Ġdo":414,"ĠG":415,"ff":416,"ive":417,"ĠH":418,"Ġ-":419,"od":420,"out":421,"ers":422,"ant":423,"for":424,"ĠCommission":425,"Ġse":426,"nt":427,"ity":428,"ase":429,"um":430,"hat":431,"uropean":432,"Ġcan":433,"ist":434,"form":435,"port":436,"ess":437,"It":438,"ies":439,"rou":440,"ON":441,"Ġsh":442,"Ġex":443,"Ġcom":444,"art":445,"ĠL":446,"ure":447,"Ġas":448,"ress":449,"ack":450,"Ġby":451,"Ġhe":452,"Ġr":453,"end":454,"Ġli":455,"ub":456,"oc":457,"igh":458,"ĠN":459,"rom":460,"Ġhas":461,"ect":462,"Ġwas":463,"ister":464,"Ġus":465,"formation":466,"ĠO":467,"ie":468,"ions":469,"ice":470,"AN":471,"inister":472,"TE":473,"act":474,"Ġyour":475,"ĠJ":476,"ail":477,"ial":478,"able":479,"ep":480,"ak":481,"ĠW":482,"ard":483,"Ġmore":484,"ber":485,"Ġfrom":486,"Ġinformation":487,"Ġwould":488,"if":489,"ake":490,"ight":491,"That":492,"all":493,"Ġ:":494,"ud":495,"Ġpl":496,"Ġall":497,"so":498,"ĠU":499,"Ġlike":500,"Ġad":501,"iv":502,"lease":503,"Ġor":504,"Ġ200":505,"ost":506,"In":507,"Ġcont":508,"ary":509,"lo":510,"ome":511,"Ġ3":512,"TI":513,"round":514,"age":515,"Ġvot":516,"ther":517,"Ġab":518,"ran":519,"ĠEU":520,"Ġu":521,"Ġch":522,"ree":523,"Ġsu":524,"Ġim":525,"RO":526,"Ġwor":527,"lic":528,"ult":529,"Ġour":530,"ĠV":531,"Ġme":532,"cl":533,"Ġver":534,"ident":535,"ĠMinister":536,"ast":537,"ER":538,"hen":539,"Ġalso":540,"ite":541,"Ġthere":542,"Ġres":543,"ĠK":544,"For":545,"nc":546,"Ġgo":547,"Ġle":548,"Ġag":549,"ell":550,"Ġqu":551,"ments":552,"pt":553,"ank":554,"ĠSt":555,"What":556,"ue":557,"ont":558,"ok":559,"ine":560,"ire":561,"ace":562,"European":563,"ES":564,"one":565,"EN":566,"Ġcl":567,"ations":568,"resident":569,"...":570,"Ġen":571,"ark":572,"els":573,"ag":574,"Ġ4":575,"ground":576,"Ġvery":577,"Ġ.":578,"IN":579,"ab":580,"ec":581,"ackground":582,"ind":583,"There":584,"ere":585,"ance":586,"cc":587,"th":588,"ign":589,"Ġk":590,"01":591,"Ġwh":592,"erm":593,"Background":594,"Ġabout":595,"ip":596,"ĠEuropean":597,"Ġcomp":598,"du":599,"32":600,"Ġno":601,"are":602,"te":603,"AR":604,"Ġmust":605,"Ġneed":606,"air":607,"Ġnew":608,"Ġj":609,"ounc":610,"int":611,"ction":612,"ime":613,"You":614,"land":615,"ap":616,"otel":617,"Ġbeen":618,"AL":619,"ouncil":620,"ount":621,"ear":622,"Ġam":623,"oll":624,"ĠMr":625,"ric":626,"any":627,"Ġapp":628,"How":629,"ally":630,"CI":631,"Ġ5":632,"ry":633,"Ġshould":634,"ous":635,"ong":636,"ated":637,"og":638,"ject":639,"ĠCouncil":640,"ide":641,"ook":642,"la":643,"Ġun":644,"erv":645,"99":646,"Ġpart":647,"con":648,"Ġwhat":649,"Ġsa":650,"ru":651,"Ġvote":652,"Ġup":653,"ĠIn":654,"vel":655,"Ġreport":656,"ition":657,"oint":658,"Ġro":659,"HE":660,"pos":661,"tern":662,"Press":663,"Ġtake":664,"Ġone":665,"fore":666,"ram":667,"ish":668,"ures":669,"OR":670,"ĠPresident":671,"Ġ(+":672,"ely":673,"bs":674,"Ġrelease":675,"airs":676,"ollow":677,"Ġhere":678,"Ġav":679,"Ġnow":680,"itt":681,"Ġ0":682,"Ġdis":683,"Ġdeb":684,"ach":685,"pport":686,"gh":687,"ical":688,"Ġstay":689,"Ġsee":690,"ublic":691,"Ġspe":692,"Ġwork":693,"av":694,"When":695,"uss":696,"Ġclos":697,"Ġoff":698,"ffairs":699,"ame":700,"reat":701,"EU":702,"per":703,"iew":704,"ink":705,"Ġso":706,"ĠRe":707,"ays":708,"Ġmy":709,"use":710,"ailable":711,"ĠAffairs":712,"OU":713,"resent":714,"ll":715,"rans":716,"ates":717,"anc":718,"But":719,"ember":720,"TION":721,"ang":722,"Ġout":723,"ative":724,"ew":725,"Ġ7":726,"iz":727,"Ġ29":728,"Ġdebate":729,"Thank":730,"eral":731,"ons":732,"ov":733,"ence":734,"IC":735,"EL":736,"Ġplace":737,"Ġ6":738,"pl":739,"Ġtime":740,"Ġreg":741,"Ġavailable":742,"irst":743,"ever":744,"xt":745,"estion":746,"Ġpol":747,"Ġany":748,"ich":749,"ian":750,"uch":751,"IS":752,"ings":753,"ution":754,"ens":755,"Ġits":756,"EC":757,"de":758,"row":759,"Ġacc":760,"ass":761,"urther":762,"very":763,"ne":764,"ED":765,"now":766,"OM":767,"Ġpoint":768,"Ġright":769,"ret":770,"gram":771,"Ġadd":772,"wo":773,"ĠĠ":774,"TS":775,"ĠCommissioner":776,"ĠOF":777,"ĠRep":778,"Ġfollow":779,"Ġthese":780,"ĠCh":781,"to":782,"Ġyear":783,"ord":784,"Ġper":785,"Ġonly":786,"ĠEurope":787,"Ġtra":788,"ven":789,"Ġclosed":790,"Ġ8":791,"ĠUn":792,"arl":793,"Ġ9":794,"Ġimport":795,"ple":796,"irect":797,"Ġte":798,"Ġsaid":799,"Ġ...":800,"Ġdoes":801,"ied":802,"Ġco":803,"Ġ201":804,"ise":805,"Ġwant":806,"me":807,"Ġpos":808,"velop":809,"Ġ|":810,"Ġgood":811,"Wh":812,"day":813,"ible":814,"AS":815,"oreign":816,"Ġprodu":817,"ĠDe":818,"ile":819,"Ġpre":820,"acts":821,"ors":822,"come":823,"ities":824,"ted":825,"bsite":826,"ern":827,"Ġagain":828,"PE":829,"pect":830,"ib":831,"Ġknow":832,"200":833,"Ġmuch":834,"ATION":835,"Ġother":836,"Ġproc":837,"Ġhow":838,"ational":839,"und":840,"Cont":841,"Ġtwo":842,"Ġpe":843,"Ġdi":844,"Ġcons":845,"ION":846,"ious":847,"ug":848,"Ġar":849,"Ġwere":850,"enc":851,"Ġview":852,"App":853,"gy":854,"ĠPro":855,"conom":856,"ĠForeign":857,"10":858,"get":859,"IT":860,"eneral":861,"Ġthem":862,"Ġcount":863,"pr":864,"And":865,"They":866,"ob":867,"Ġjust":868,"ĠHotel":869,"here":870,"MS":871,"Ġact":872,"Ġpropos":873,"nder":874,"icy":875,"clus":876,"Ġimportant":877,"Ġsupport":878,"blem":879,"Ms":880,"hing":881,"Ġ12":882,"arket":883,"Ġcomm":884,"erman":885,"ND":886,"Ġfirst":887,"RE":888,"lect":889,"cept":890,"lause":891,"ound":892,"russ":893,"Ġthey":894,"ility":895,"ild":896,"ph":897,"russels":898,"Commission":899,"clud":900,"ention":901,"emb":902,"arlia":903,"ĠSec":904,"ful":905,"Ġiss":906,"ĠTHE":907,"ĠDE":908,"Ġproblem":909,"ert":910,"ove":911,"ific":912,"Ġpr":913,"ople":914,"ange":915,"ROPE":916,"Ġroom":917,"Qu":918,"Ġfin":919,"ory":920,"Ġcle":921,"Ġop":922,"St":923,"ft":924,"Ġprogram":925,"ose":926,"own":927,"30":928,"ans":929,"Ġrec":930,"urre":931,"ĠThe":932,"ner":933,"inut":934,"Ġfind":935,"An":936,"Ġrequ":937,"yst":938,"arliament":939,"Ġtrans":940,"ROPEAN":941,"Ġmake":942,"ax":943,"Ġsome":944,"Ġsp":945,"ĠPress":946,"TEMS":947,"ĠAg":948,"Ġtherefore":949,"So":950,"Ġ10":951,"Ġserv":952,").":953,"Ġinv":954,"Ġsc":955,"Applause":956,"ystem":957,"Ġem":958,"Ġdiff":959,"ren":960,"iron":961,"Ġappro":962,"OL":963,"Ġuse":964,"ward":965,"Ġtoo":966,"ĠComm":967,"US":968,"Minister":969,"ual":970,"Ġevery":971,"Ġwebsite":972,"Ġunder":973,"ork":974,"All":975,"Ġrem":976,"Ġpeople":977,"Ġover":978,"ved":979,"uation":980,"ATE":981,"ck":982,"Ġfollowing":983,"Ġthink":984,"Ġsit":985,"Ġcase":986,"ade":987,"ater":988,"hed":989,"velopment":990,"ond":991,"000":992,"On":993,"These":994,"ium":995,"ĠUnion":996,"ĠFin":997,"Ġconc":998,"More":999,"Ġlook":1000,"io":1001,"wn":1002,"les":1003,"eg":1004,"ĠMar":1005,"Ġcontact":1006,"II":1007,"ESS":1008,"ough":1009,"ina":1010,"Ġbet":1011,"Ġquestion":1012,"ee":1013,"Ġhotel":1014,"ss":1015,"Ġph":1016,"Ġmod":1017,"Contacts":1018,"Ġhapp":1019,"Ġfurther":1020,"Ġproduct":1021,"Ġthan":1022,"Ġdec":1023,"viron":1024,"Ġ19":1025,"35":1026,"Ġbut":1027,"ĠMember":1028,"inutes":1029,"Ġwell":1030,"Fin":1031,"ified":1032,"rit":1033,"Ġgu":1034,"ues":1035,"OUN":1036,"als":1037,"vironment":1038,"ech":1039,"ux":1040,"urn":1041,"old":1042,"Ġget":1043,"ĠAND":1044,"Ġsub":1045,"aly":1046,"Ġ+":1047,"ulture":1048,"TR":1049,"ics":1050,"TER":1051,"olution":1052,"Ġob":1053,"urrent":1054,"Ġway":1055,"Ġinto":1056,"Ġpublic":1057,"Ġent":1058,"ries":1059,"rib":1060,"red":1061,"ĠRepresent":1062,"11":1063,"ĠState":1064,"Ġagree":1065,"Ġadop":1066,"ick":1067,"not":1068,"President":1069,"ĠNo":1070,"Ġra":1071,"ady":1072,"CIL":1073,"Ġlong":1074,"Ġbest":1075,"Ġdes":1076,"ood":1077,"eration":1078,"cial":1079,"Ġbel":1080,"ustice":1081,"Ġsystem":1082,"Ġcour":1083,"ĠUN":1084,"AT":1085,"ĠEn":1086,"Ġtheir":1087,"Ġpri":1088,"OUNCIL":1089,"ermanent":1090,"ĠSecret":1091,"omet":1092,"12":1093,"roup":1094,"Brussels":1095,"Ġend":1096,"EM":1097,"Ġind":1098,"ural":1099,"HER":1100,"clusions":1101,"conomic":1102,"Ġla":1103,"Ġstart":1104,"Ġass":1105,"Ġmarket":1106,"ision":1107,"ism":1108,"ages":1109,"Ġ11":1110,"Ġpolicy":1111,"com":1112,"ania":1113,"PAR":1114,"ality":1115,"Ġ14":1116,"Ġtr":1117,"ĠRepresentative":1118,"ocial":1119,"ives":1120,"Ġclear":1121,"tect":1122,"arge":1123,"Ġmany":1124,"rest":1125,"ef":1126,"Ġeff":1127,"elcome":1128,"Ġman":1129,"Ġworld":1130,"Ġwhich":1131,"PP":1132,"Ġsim":1133,"He":1134,"ĠPermanent":1135,"Ġsay":1136,"ited":1137,"alk":1138,"illion":1139,"Do":1140,"Ġmat":1141,"Ġwho":1142,"Ġinst":1143,"lp":1144,"ular":1145,"fter":1146,"elf":1147,"ria":1148,"Ġgreat":1149,"Ġdisc":1150,"ĠSecretary":1151,"Ġdet":1152,"ĠJustice":1153,"Ġplease":1154,"OT":1155,"Ġcannot":1156,"Ġpartic":1157,"Ġke":1158,"Ġagainst":1159,"Ġtak":1160,"Ġyears":1161,"ann":1162,"ik":1163,"ostels":1164,"Ġspeak":1165,"Ġac":1166,"ices":1167,"Ġposs":1168,"Ġpers":1169,"However":1170,"Ġ199":1171,"Ġinte":1172,"Ġloc":1173,"Ġimp":1174,"rate":1175,"way":1176,"ency":1177,"estions":1178,"ermany":1179,"Ġvis":1180,"pain":1181,"ieve":1182,"Our":1183,"Ġadopted":1184,"Ġmain":1185,"AC":1186,"Please":1187,"ĠY":1188,"plo":1189,"mer":1190,"Ġmade":1191,"Ġmeas":1192,"Ġatt":1193,"Ġstill":1194,"Ġconcern":1195,"ict":1196,"ath":1197,"lick":1198,"Ġbu":1199,"Ġconf":1200,"Ġopen":1201,"Ġrel":1202,"ient":1203,"Ġmost":1204,"ased":1205,"Ġproject":1206,"Ġlast":1207,"Is":1208,"line":1209,"Ġ20":1210,"sw":1211,"ENT":1212,"Ġinclud":1213,"Ġresult":1214,"ĠEUROPEAN":1215,"uty":1216,"Ġprov":1217,"âĤ":1218,"âĤ¬":1219,"ĠReg":1220,"arm":1221,"Ġfe":1222,"Ġconclusions":1223,"orrow":1224,"Ġresp":1225,"IR":1226,"THE":1227,"we":1228,"Why":1229,"Ġext":1230,"oy":1231,"over":1232,"Ġsituation":1233,"Ġtoday":1234,"Ġset":1235,"ĠUNION":1236,"ourg":1237,"General":1238,"Ġcent":1239,"Ġwhy":1240,"der":1241,"ata":1242,"Ġnum":1243,"lands":1244,"Ġsame":1245,"Ġcourse":1246,"Ġref":1247,"ĠCon":1248,"Ġlist":1249,"Ġhelp":1250,"Ġdiffere":1251,"Ġthen":1252,"20":1253,"oth":1254,"nce":1255,"Ġexam":1256,"Ġ15":1257,"Ch":1258,"ier":1259,"Ġthree":1260,"To":1261,"ority":1262,"Ġtom":1263,"ock":1264,"Ġ295":1265,"operation":1266,"Ġproced":1267,"omp":1268,"ines":1269,"elg":1270,"ITEMS":1271,"ploy":1272,"ruct":1273,"Ġwhen":1274,"ating":1275,"If":1276,"ĠPRO":1277,"Ġcurrent":1278,"Ġfree":1279,"Ġform":1280,"ract":1281,"Ġviews":1282,"wit":1283,"Ġfound":1284,"Ġtomorrow":1285,"ope":1286,"ancial":1287,"ouse":1288,"Ġissue":1289,"Ġdone":1290,"Ġcall":1291,"ĠREL":1292,"Ġprogramme":1293,"Ġpage":1294,"hip":1295,"Ġ,":1296,"Ġthank":1297,"En":1298,"irective":1299,"Re":1300,"Ġval":1301,"EX":1302,"Ġplay":1303,"ession":1304,"Ġcountries":1305,"Ġmay":1306,"Ġarea":1307,"ung":1308,"Ġhis":1309,"Ġchange":1310,"Ġstate":1311,"Ġ2009":1312,"ĠFinance":1313,"Ġshall":1314,"ET":1315,"its":1316,"Ġleg":1317,"vent":1318,"itte":1319,"Ġdel":1320,"uture":1321,"ready":1322,"ĠPol":1323,"ull":1324,"fe":1325,"ether":1326,"Ġcomple":1327,"Ġdid":1328,"Ġdown":1329,"Ġask":1330,"Ġreas":1331,"olog":1332,"Ġansw":1333,"ring":1334,"ars":1335,"vers":1336,"Let":1337,"wed":1338,"Ġsomet":1339,"mail":1340,"ration":1341,"ĠDEB":1342,"Ġproducts":1343,"ĠDEBATE":1344,"Ġnext":1345,"Ġday":1346,"cond":1347,"Ġ13":1348,"ways":1349,"Pro":1350,"Ex":1351,"Slo":1352,"ning":1353,"elgium":1354,"DE":1355,"Ġcould":1356,"ustria":1357,"Un":1358,"Ġap":1359,"reland":1360,"ĠMinutes":1361,"uxemb":1362,"Ġmatter":1363,"Ġmillion":1364,"Ġsm":1365,"mark":1366,"raph":1367,"Ġdem":1368,"Ġrep":1369,"Ġown":1370,"ption":1371,"Ġpossible":1372,"Den":1373,"Ġalready":1374,"ale":1375,"ĠStates":1376,"PAN":1377,"No":1378,"Ġhad":1379,"uxembourg":1380,"Question":1381,"rough":1382,"hes":1383,"Ġser":1384,"itting":1385,"Ġif":1386,"Ġcontin":1387,"ris":1388,"Ġmeasures":1389,"Ġdetail":1390,"ves":1391,"Ġinc":1392,"Ġinf":1393,"Ġstand":1394,"ules":1395,"unic":1396,"Ġhowever":1397,"Ġbus":1398,"ternal":1399,"Ġfav":1400,"ases":1401,"Ġsecond":1402,"the":1403,"unity":1404,"Further":1405,"Ġprotect":1406,"Ġhappen":1407,"Ġhigh":1408,"ĠZ":1409,"ourt":1410,"etherlands":1411,"15":1412,"ately":1413,"iness":1414,"eputy":1415,"TICI":1416,"ST":1417,"OP":1418,"ulation":1419,"riculture":1420,"Italy":1421,"Ġdef":1422,"ered":1423,"ave":1424,"reak":1425,"ix":1426,"rat":1427,"Ġcol":1428,"aria":1429,"PANTS":1430,"Ġsomething":1431,"TICIPANTS":1432,"Ġsuch":1433,"Ġaction":1434,"IL":1435,"Ġrest":1436,"uc":1437,"PARTICIPANTS":1438,"As":1439,"Spain":1440,"ĠEuro":1441,"ittee":1442,"weden":1443,"40":1444,"At":1445,"inc":1446,"Ġ30":1447,"ccess":1448,"alth":1449,"olid":1450,"Ġsitting":1451,"Ġcome":1452,"urity":1453,"Ġaccess":1454,"Ġ2007":1455,"ertain":1456,"ital":1457,"Ġquestions":1458,"rol":1459,"Ġnumber":1460,"iet":1461,"uman":1462,"ek":1463,"uth":1464,"Ġreally":1465,"Ġ18":1466,"CE":1467,"ĠAl":1468,"Ġfuture":1469,"Ġpay":1470,"Ġprocess":1471,"Ġproposal":1472,"ower":1473,"gan":1474,"ĠIN":1475,"ily":1476,"quir":1477,"ĠAn":1478,"ĠRepublic":1479,"Ġint":1480,"ts":1481,"rance":1482,"ird":1483,"Ġcar":1484,"Ġeven":1485,"AM":1486,"ty":1487,"Ġvoted":1488,"rong":1489,"Ġvotes":1490,"iel":1491,"ised":1492,"fort":1493,"PR":1494,"mb":1495,"Ġ25":1496,"Ġche":1497,"ains":1498,"Ġcost":1499,"Ã¼":1500,"ĠAnd":1501,"Not":1502,"ger":1503,"tic":1504,"Ġalways":1505,"ool":1506,"Ġmet":1507,"Ġinvest":1508,"Ġdifferent":1509,"aj":1510,"Belgium":1511,"Ġread":1512,"ces":1513,"Ġback":1514,"Lat":1515,"ince":1516,"angu":1517,"Ġvisit":1518,"Ġdata":1519,"ĠParliament":1520,"ows":1521,"Ġ16":1522,"ĠAr":1523,"CH":1524,"Ġobject":1525,"up":1526,"ule":1527,"inist":1528,"TERN":1529,"Ġword":1530,"Ġfavour":1531,"bal":1532,"Ġeas":1533,"other":1534,"Are":1535,"ternational":1536,"Ġpress":1537,"Ġhope":1538,"Ġbeing":1539,"ving":1540,"Ad":1541,"ral":1542,"Ġfund":1543,"):":1544,"Luxembourg":1545,"ĠCo":1546,"Austria":1547,"Ġbo":1548,"ĠâĤ¬":1549,"ROV":1550,"Ġcor":1551,"Book":1552,"cess":1553,"ING":1554,"ience":1555,"Ġwithout":1556,"Ireland":1557,"ests":1558,"Ġpresent":1559,"Ġforward":1560,"udget":1561,"lish":1562,"ĠPOL":1563,"rist":1564,"Ġperson":1565,"Sub":1566,"ĠAPP":1567,"co":1568,"Ġorder":1569,"Ġ2010":1570,"ins":1571,"ards":1572,"Ġrece":1573,"val":1574,"arch":1575,"cu":1576,"Ġneeds":1577,"Ġdevelopment":1578,"Parliament":1579,"Ġpoints":1580,"See":1581,"quiries":1582,"Ġinter":1583,"Ġrooms":1584,"rade":1585,"thing":1586,"Ġfact":1587,"Ġ17":1588,"13":1589,"ten":1590,"UR":1591,"Ġ2008":1592,"Denmark":1593,"ID":1594,"Ġaccept":1595,"OTHER":1596,"Ġreal":1597,"Ġexp":1598,"ners":1599,"Ġwat":1600,"Ġmeet":1601,"ware":1602,"iss":1603,"Ġanswer":1604,"az":1605,"Ġgroup":1606,"ĠRes":1607,"load":1608,"Ġbelieve":1609,"ployment":1610,"Ġpolit":1611,"Finland":1612,"Here":1613,"Ġfew":1614,"witter":1615,"AG":1616,"Sweden":1617,"led":1618,"ĠX":1619,"Germany":1620,"Ġsec":1621,"istance":1622,"Ġfar":1623,"Ġused":1624,"ATIONS":1625,"Comm":1626,"Ġwhere":1627,"Ġ!":1628,"oney":1629,"Ġoffer":1630,"ĠAPPROV":1631,"ĠAPPROVED":1632,"Pol":1633,"ĠDEBATED":1634,"ĠDeputy":1635,"CON":1636,"view":1637,"Ġpack":1638,"uring":1639,"ĠĠĠĠ":1640,"Ġsur":1641,"arn":1642,"02":1643,"ustom":1644,"err":1645,"Ġstep":1646,"ional":1647,"urs":1648,"mber":1649,"ior":1650,"ĠInformation":1651,"Ġsign":1652,"Ġbl":1653,"Netherlands":1654,"ants":1655,"Ġthings":1656,"Ġrequire":1657,"Al":1658,"arg":1659,"Ġide":1660,"Ġamend":1661,"Ġfl":1662,"chn":1663,"Ġparticular":1664,"igures":1665,"Ġagreement":1666,"ĠPl":1667,"Ġgive":1668,"duc":1669,"eb":1670,"Ġach":1671,"My":1672,"une":1673,"Ġtext":1674,"Ġchild":1675,"Ġrights":1676,"ining":1677,"pa":1678,"ting":1679,"Ġcut":1680,"iven":1681,"46":1682,"ĠJan":1683,"ished":1684,"embers":1685,"Ġupd":1686,"Ġequ":1687,"Ġwelcome":1688,"ĠTwitter":1689,"Ġeffect":1690,"Now":1691,"Ġresolution":1692,"ĠPOLIC":1693,"ritt":1694,"OS":1695,"ĠWe":1696,"09":1697,"ween":1698,"ibility":1699,"Ġbetter":1700,"imes":1701,"Ġthrough":1702,"Ġcertain":1703,"UL":1704,"Ġair":1705,"Ġrules":1706,"Ġaddress":1707,"acy":1708,"Ġgoing":1709,"ĠPOLICY":1710,"Ġinquiries":1711,"Ġtaken":1712,"erence":1713,"olut":1714,"plement":1715,"EAS":1716,"ĠEx":1717,"ause":1718,"ANS":1719,"TEN":1720,"Ġadv":1721,"Ġcre":1722,"16":1723,"50":1724,"ield":1725,"FF":1726,"Ġsuccess":1727,"Commissioner":1728,"COUNCIL":1729,"Ġspec":1730,"nov":1731,"Ġoper":1732,"Ġdirect":1733,"Ġhand":1734,"Ġ/":1735,"onia":1736,"Ġcountry":1737,"work":1738,"14":1739,"Ġafter":1740,"ĠCOUNCIL":1741,"Ġrequest":1742,"Ġservice":1743,"Ġonline":1744,"TERNAL":1745,"IP":1746,"outh":1747,"ritten":1748,"isation":1749,"etition":1750,"Ġkey":1751,"ĠTh":1752,"riend":1753,"Con":1754,"Ġexample":1755,"Ġchang":1756,"Ġinterest":1757,"Ġput":1758,"Ã¶":1759,"Ġdocu":1760,"Ġed":1761,"ather":1762,"98":1763,"ah":1764,"vention":1765,"Ġresults":1766,"Ġsmall":1767,"reen":1768,"Ġty":1769,"ĠHe":1770,"Ġdetails":1771,"Ġfun":1772,"Ġbetween":1773,"OMM":1774,"Ġbefore":1775,"men":1776,"IA":1777,"Ġnoon":1778,"reed":1779,"Ġtechn":1780,"Ġmoney":1781,"Ġenough":1782,"Ġtool":1783,"ĠJu":1784,"Ġprocedure":1785,"Ġwish":1786,"ĠAm":1787,"Ant":1788,"22":1789,"Ġservices":1790,"Ġexper":1791,"vious":1792,"Ġ24":1793,"Ġbusiness":1794,"iti":1795,"Ġissues":1796,"Ġmak":1797,"eel":1798,"Ġpass":1799,"ided":1800,"umm":1801,"orth":1802,"Ġtalk":1803,"Ġsite":1804,"ours":1805,"ĠMrs":1806,"Other":1807,"uff":1808,"ungary":1809,"ternet":1810,"ommend":1811,"Im":1812,"Ġfam":1813,"Ġspecial":1814,"Ġname":1815,"ME":1816,"ĠDevelopment":1817,"MENT":1818,"03":1819,"Follow":1820,"Ġgrow":1821,"Ġsect":1822,"Ġshort":1823,"Ġaid":1824,"Ġcho":1825,"ness":1826,"Can":1827,"tal":1828,"rategy":1829,"Ġrespons":1830,"Ġlot":1831,"ĠAgriculture":1832,"via":1833,"Ġflo":1834,"ypr":1835,"Ġincre":1836,"urg":1837,"Ġdays":1838,"Ġher":1839,"yprus":1840,"ergy":1841,"pare":1842,"ination":1843,"Ġturn":1844,"ize":1845,"Ġreason":1846,"aff":1847,"DF":1848,"First":1849,"stand":1850,".:":1851,"LE":1852,"gress":1853,"zech":1854,"na":1855,"Ġversion":1856,"Ġprice":1857,"EASE":1858,"Ġcontrol":1859,"Est":1860,"isk":1861,"Ġ28":1862,"ĠII":1863,"97":1864,"Ġspeaker":1865,"Ġhostels":1866,"352":1867,"ually":1868,"ash":1869,"Ġboth":1870,"OV":1871,"TU":1872,"Ġpur":1873,"ĠCourt":1874,"Ġprotection":1875,"Comp":1876,"lobal":1877,"ists":1878,"ĠPROC":1879,"less":1880,"itions":1881,"ery":1882,"Ġfull":1883,"que":1884,"orities":1885,"ature":1886,"Ġpar":1887,"Ġproblems":1888,"ides":1889,"Ġ45":1890,"Ġquite":1891,"ott":1892,"Ġeach":1893,"Ġcap":1894,"Ġexpl":1895,"Ġenergy":1896,"Ġest":1897,"Ġlaw":1898,"Ġ22":1899,"96":1900,"Get":1901,"ension":1902,"club":1903,"ĠRELEASE":1904,"Ġthose":1905,"Ġconsid":1906,"itiz":1907,"ĠIs":1908,"ability":1909,"au":1910,"Ġlink":1911,"rices":1912,"Ġret":1913,"Ġreform":1914,"ĠMAR":1915,"ANN":1916,"Ġenvironment":1917,"201":1918,"Ġprojects":1919,"org":1920,"ĠInter":1921,"venia":1922,"ithu":1923,"anguage":1924,"Ġbr":1925,"ĠHostels":1926,"ĠBe":1927,"ĠNew":1928,"Ġfil":1929,"Ġins":1930,"Ag":1931,"lation":1932,"Ġbook":1933,"Ġphone":1934,"joy":1935,"Ġclick":1936,"AIR":1937,"Ġel":1938,"Ġdecision":1939,"ights":1940,"ĠHostelsclub":1941,"Ġless":1942,"ffice":1943,"Ġbas":1944,"Ġexpect":1945,"dom":1946,"enda":1947,"Ġselect":1948,"ters":1949,"eng":1950,"onth":1951,"ys":1952,"itted":1953,"Ġbudget":1954,"ervice":1955,"nment":1956,"Ġapproach":1957,"ĠCommittee":1958,"18":1959,"vak":1960,"Ġmed":1961,"rem":1962,"leg":1963,"ulg":1964,"nex":1965,"Ġ&":1966,"ingle":1967,"ĠAs":1968,"Ġhuman":1969,"etwork":1970,"Ġlet":1971,"Ġwaters":1972,"75":1973,"Ġ?":1974,"Ġbeg":1975,"incip":1976,"Ġpolitical":1977,"Tel":1978,"iation":1979,"ĠEconomic":1980,"Ġtrue":1981,"ceed":1982,"Ġactiv":1983,"Ġunt":1984,"One":1985,"fast":1986,"Ġmin":1987,"Ġben":1988,"Ġdist":1989,"of":1990,"ĠMay":1991,"Ġlife":1992,"IB":1993,"Some":1994,"Ġsocial":1995,"ĠAd":1996,"ithuania":1997,"ets":1998,"ĠITEMS":1999,"imate":2000,"Ġtrade":2001,"Ġimpro":2002,"Ġmention":2003,"Ġdeal":2004,"cri":2005,"itional":2006,"ITH":2007,"pes":2008,"ĠSocial":2009,"ias":2010,"Ġareas":2011,"Ġlevel":2012,"ĠUS":2013,"obile":2014,"reakfast":2015,"pro":2016,"ĠCON":2017,"ply":2018,"Ġfriend":2019,"Ġcity":2020,"ross":2021,"omb":2022,"CIAL":2023,"Ġaccount":2024,"ents":2025,"Ġeuro":2026,"Ġrun":2027,"Ġgen":2028,"Ġmeans":2029,"UN":2030,"Ġaround":2031,"ote":2032,"agement":2033,"ification":2034,"Who":2035,"ĠJuly":2036,"ittle":2037,"EUROPEAN":2038,"orm":2039,"par":2040,"ĠCl":2041,"Ġweek":2042,"omania":2043,"Your":2044,"Ġcustom":2045,"17":2046,"95":2047,"ense":2048,"amp":2049,"PRESS":2050,"Poland":2051,"Ġyet":2052,"ĠLe":2053,"ĠEnvironment":2054,"Ġeasy":2055,"Where":2056,"itive":2057,"ential":2058,"),":2059,"ĠJune":2060,"ribution":2061,"Ġbeh":2062,"AD":2063,"With":2064,"Ġold":2065,"ĠAFF":2066,"Ġcooperation":2067,"ĠSc":2068,"ĠProgram":2069,"Ġmonth":2070,"ortug":2071,"Ġexc":2072,"Ġsince":2073,"Ġthing":2074,"Ġcurrently":2075,"omen":2076,"Ġcond":2077,"AIRS":2078,"ĠAFFAIRS":2079,"ĠInd":2080,"ĠRE":2081,"ĠBar":2082,"Its":2083,"ica":2084,"Ġhim":2085,"ransport":2086,"ij":2087,"ources":2088,"ex":2089,"udg":2090,"Ġrespect":2091,"Ġnothing":2092,"part":2093,"Ġfour":2094,"ody":2095,"risis":2096,"Ġprom":2097,"Ġbecome":2098,"Ġfinancial":2099,"Ġbed":2100,"ined":2101,"ultural":2102,"ext":2103,"Ġthird":2104,"De":2105,"Ġnever":2106,"itizens":2107,"Ġ21":2108,"Ġcomments":2109,"ulgaria":2110,"Europe":2111,"got":2112,"Hungary":2113,"IM":2114,"Ġappl":2115,"ĠFOR":2116,"Ġ296":2117,"Ġrecommend":2118,"Ġtransport":2119,"Ġsk":2120,"Ġchildren":2121,"ĠWOR":2122,"33":2123,"echn":2124,"aur":2125,"Ġtax":2126,"Ġfield":2127,"isc":2128,"orn":2129,"nergy":2130,"Ġuntil":2131,"Ġanother":2132,"Ġcontinue":2133,"glish":2134,"ari":2135,"ean":2136,"Ġnecess":2137,"Ġdevelop":2138,"conomy":2139,"Ġelect":2140,"ĠDirective":2141,"ĠWITH":2142,"Ġcompany":2143,"ribut":2144,"Ġlead":2145,"Ġprincip":2146,"ology":2147,"Ġlittle":2148,"Ġsupp":2149,"Ġquality":2150,"Welcome":2151,"Ġ299":2152,"Ġaim":2153,"25":2154,"Ġz":2155,"Ġbig":2156,"Ġsector":2157,"vakia":2158,"AP":2159,"ode":2160,"ron":2161,"ustry":2162,"Member":2163,"isher":2164,"Ġgeneral":2165,"Ġele":2166,"Ġevent":2167,"Ġkind":2168,"Slovenia":2169,"Ġmean":2170,"rid":2171,"ustain":2172,"Ġwhole":2173,"Ġfloor":2174,"Ġlegis":2175,"04":2176,"Written":2177,"Ġposition":2178,"Ġwin":2179,"Ġwater":2180,"Ġcrit":2181,"itor":2182,"room":2183,"ĠAf":2184,"Ġmom":2185,"Ġdou":2186,"ically":2187,"Ġoffers":2188,"Ġpract":2189,"Ġterm":2190,"Ġdoing":2191,"Ġshare":2192,"Ġapplic":2193,"Tod":2194,"oura":2195,"Ġtools":2196,"IG":2197,"Ġlim":2198,"Ġminutes":2199,"Every":2200,"med":2201,"ĠSe":2202,"Ġorgan":2203,"isions":2204,"ingdom":2205,"Lithuania":2206,"Sec":2207,"Ġmaj":2208,"ĠCol":2209,"Ġaway":2210,"ently":2211,"sel":2212,"86":2213,"ĠPDF":2214,"Estonia":2215,"Ġbuild":2216,"Ġmove":2217,"AF":2218,"New":2219,"Ġconcerns":2220,"Ġcomment":2221,"Latvia":2222,"Cyprus":2223,"Click":2224,"Ġtop":2225,"ems":2226,"State":2227,"Ġpict":2228,"ober":2229,"self":2230,"Ġ000":2231,"Ġgraph":2232,"Ġmot":2233,"Ġparticip":2234,"icult":2235,"Ġphot":2236,"nect":2237,"Ġcare":2238,"Then":2239,"Ġconst":2240,"Ġabs":2241,"ask":2242,"ĠSh":2243,"Ġ@":2244,"iting":2245,"Ġple":2246,"aps":2247,"Ġdesign":2248,"Czech":2249,"Ġprices":2250,"Ġdate":2251,"lex":2252,"Ġ2000":2253,"otal":2254,"Ġbenef":2255,"ced":2256,"ogue":2257,"05":2258,"ront":2259,"unication":2260,"Ġ*":2261,"ortugal":2262,"Ġfinal":2263,"Pri":2264,"aris":2265,"Ġfac":2266,"Ġdownload":2267,"iod":2268,"45":2269,"af":2270,"Ġprogress":2271,"Ġnews":2272,"ORT":2273,"ĠChrist":2274,"ĠPROCESS":2275,"mes":2276,"ras":2277,"Ġgover":2278,"Ġdifficult":2279,"Ġ27":2280,"Be":2281,"ocus":2282,"Ġallow":2283,"IV":2284,"man":2285,"199":2286,"ivers":2287,"ederal":2288,"Ġdra":2289,"Ġpriv":2290,"ĠMEM":2291,"alf":2292,"Ġremain":2293,"Ġwords":2294,"reement":2295,"27":2296,"Sh":2297,"aut":2298,"ITY":2299,"Ġtotal":2300,"inistry":2301,"Ind":2302,"ource":2303,"ĠGu":2304,"do":2305,"Res":2306,"Ġsl":2307,"ĠPolicy":2308,"Ġprof":2309,"sc":2310,"AB":2311,"France":2312,"ele":2313,"rect":2314,"Ġrele":2315,"Ġworking":2316,"raq":2317,"303":2318,"ĠAss":2319,"Ġleft":2320,"Ġrepresent":2321,"Ġtimes":2322,"Ġsolution":2323,"Ġconsult":2324,"TENTS":2325,"oh":2326,"Ġappe":2327,"key":2328,"ĠReport":2329,"Ġsimply":2330,"Ġsubject":2331,"Ġ2006":2332,"ĠTrade":2333,"Ġ50":2334,"Ġrole":2335,"Ġstud":2336,"CONTENTS":2337,"ĠCent":2338,"Website":2339,"Ġauth":2340,"Ġlooking":2341,"fect":2342,"After":2343,"ising":2344,"Ġrisk":2345,"Ġsecurity":2346,"inion":2347,"Ġassistance":2348,"Ġve":2349,"Ġjo":2350,"aper":2351,"Ġdemoc":2352,"ĠMarch":2353,"Of":2354,"Rule":2355,"unately":2356,"ffic":2357,"Ġinclude":2358,"novation":2359,"Ġmoment":2360,"Or":2361,"ĠMan":2362,"Ġshe":2363,"Subject":2364,"Ġmon":2365,"pecial":2366,"ĠBrussels":2367,"Ġlo":2368,"SION":2369,"Ġstaff":2370,"Ġimplement":2371,"Ġcheck":2372,"ator":2373,"Ġeconomic":2374,"ĠRELATIONS":2375,"ĠProgramme":2376,"pen":2377,"entle":2378,"Ġstuff":2379,"wards":2380,"Ġmodified":2381,"Slovakia":2382,"Ġgiven":2383,"ĠFran":2384,"ĠFund":2385,"Ġcosts":2386,"19":2387,"gg":2388,"Ġvalue":2389,"ipp":2390,"nes":2391,"ĠIt":2392,"Ġnecessary":2393,"eter":2394,"Ġcommon":2395,"udgment":2396,"Ġthough":2397,"Ġnotified":2398,"Ġguests":2399,"earch":2400,"ructure":2401,"DP":2402,"Ġi":2403,"Ġweb":2404,"Annex":2405,"IES":2406,"orld":2407,"Ġhot":2408,"Ġunderstand":2409,"37":2410,"Ġopport":2411,"elations":2412,"Ġconclud":2413,"duct":2414,"UM":2415,"arity":2416,"Ġ%":2417,"resid":2418,"ĠEURO":2419,"Ġ4303":2420,"Ġapart":2421,"ĠCO":2422,"imum":2423,".)":2424,"Today":2425,"ticle":2426,"ĠInterior":2427,"ĠHouse":2428,"ANNEX":2429,"ĠAnt":2430,"ats":2431,"Ġpower":2432,"ances":2433,"Ġstatements":2434,"bo":2435,"Ġgraphics":2436,"adies":2437,"Ġplan":2438,"vest":2439,"Ġcrisis":2440,"pril":2441,"AV":2442,"ducation":2443,"Ġann":2444,"ĠGe":2445,"Ġserious":2446,"Ġpackage":2447,"eu":2448,"ino":2449,"ises":2450,"Main":2451,"SS":2452,"Ġdri":2453,"ussia":2454,"Ġproposals":2455,"app":2456,"racy":2457,"rad":2458,"large":2459,"Ġnetwork":2460,"residency":2461,"Ġadds":2462,"ĠMad":2463,"Ġmess":2464,"Ġ100":2465,"Ġrelations":2466,"Ġspecific":2467,"Service":2468,"Ġiniti":2469,"ĠIm":2470,"Ġmeeting":2471,"error":2472,"ncy":2473,"Ġsaf":2474,"ĠMinistry":2475,"ĠGermany":2476,"06":2477,"ton":2478,"inal":2479,"Ġwithin":2480,"Ġneeded":2481,"Ġconsum":2482,"Ġgl":2483,"ĠEUR":2484,"ĠGroup":2485,"ump":2486,"Ġadded":2487,"oine":2488,"Ġrese":2489,"Cl":2490,"itut":2491,"Ġlog":2492,"Ġchall":2493,"reng":2494,"entlemen":2495,"ms":2496,"Ġtest":2497,"Ġrate":2498,"Ġlocated":2499,"24":2500,"Ar":2501,"Ġfile":2502,"AND":2503,"rim":2504,"uary":2505,"Ġbal":2506,"Ġline":2507,"Ġ23":2508,"Ġtri":2509,"Ġpat":2510,"Ġ75":2511,"iety":2512,"Ã¤":2513,"ESC":2514,"ĠChina":2515,"Euro":2516,"Ġstrategy":2517,"Ġitself":2518,"Ġtour":2519,"Ġstrong":2520,"rict":2521,"isheries":2522,"Ġshow":2523,"Ġhealth":2524,"ify":2525,"ĠKingdom":2526,"Ġnational":2527,"From":2528,"ived":2529,"selves":2530,"07":2531,"Ġhome":2532,"Ġprocedures":2533,"Ġbar":2534,"ports":2535,"Many":2536,"Ġopt":2537,"ĠEC":2538,"OUT":2539,"Ġenter":2540,"Ġaff":2541,"TURE":2542,"ilities":2543,"ĠPh":2544,"ĠLa":2545,"RIC":2546,"Ġcitizens":2547,"eelie":2548,"ĠSch":2549,"ene":2550,"ury":2551,"urkey":2552,"ames":2553,"EXTERNAL":2554,"Antoine":2555,"ĠWORD":2556,"lished":2557,"Ġhard":2558,"ework":2559,"ramework":2560,"Ġregard":2561,"31":2562,"Ġpost":2563,"ĠPROCESSED":2564,"ĠCont":2565,"TIN":2566,"Ġsend":2567,"Ġmen":2568,"Ġmakes":2569,"cel":2570,"rand":2571,"Ġsimple":2572,"Romania":2573,"arant":2574,"Ġgame":2575,"ĠRed":2576,"ique":2577,"PL":2578,"Ġattention":2579,"ety":2580,"Ġfeel":2581,"UD":2582,"lection":2583,"Total":2584,"let":2585,"lear":2586,"Ġreasons":2587,"Bulgaria":2588,"ling":2589,"ĠMarket":2590,"ĠApril":2591,"Ġenjoy":2592,"roes":2593,"cember":2594,"Ġlonger":2595,"lin":2596,"Ġ2005":2597,"ized":2598,"anies":2599,"arget":2600,"Ġ2001":2601,"TRANS":2602,"Ġinternational":2603,"Ġbegin":2604,"ĠAfric":2605,"pend":2606,"ĠON":2607,"Ġsingle":2608,"gether":2609,"Ġwrit":2610,"Ġmembers":2611,"Ġtogether":2612,"PORT":2613,"by":2614,"Therefore":2615,"Ġinvol":2616,"Ġpriority":2617,"ng":2618,"sh":2619,"Ġperiod":2620,"ussion":2621,"ateg":2622,"08":2623,"fortunately":2624,"Ġcorrect":2625,"Ġholid":2626,"Ġsoft":2627,"ĠVice":2628,"Ġpop":2629,"erc":2630,"Ġsever":2631,"Ġfo":2632,"Ġnon":2633,"ĠCommissions":2634,"endment":2635,"Ġlive":2636,"Ġexist":2637,"ĠCommunity":2638,"AK":2639,"ani":2640,"Ġstat":2641,"Ġinvestment":2642,"Co":2643,"ĠSp":2644,"reaty":2645,"fer":2646,"atives":2647,"Ġgrowth":2648,"Judgment":2649,"Ġopp":2650,"ĠAmer":2651,"rief":2652,"Ġusers":2653,"Ġmanagement":2654,"!!":2655,"ĠBank":2656,"Ġinstall":2657,"arian":2658,"Ġvar":2659,"Ġkeep":2660,"CC":2661,"Ġful":2662,"idd":2663,"Ġ297":2664,"Ġtrad":2665,"largement":2666,"34":2667,"Ġwrong":2668,"ples":2669,"Ġconsider":2670,"Ġbro":2671,"Ġbreakfast":2672,"most":2673,"iter":2674,"pporte":2675,"ustainable":2676,"21":2677,"Will":2678,"Ġ35":2679,"pose":2680,"TO":2681,"Ġlarge":2682,"Ġbec":2683,"Ġdial":2684,"Ġsoon":2685,"gs":2686,"oom":2687,"ĠEm":2688,"pri":2689,"ĠQu":2690,"Ġreserv":2691,"ENTS":2692,"ĠFigures":2693,"ivid":2694,"Des":2695,"ites":2696,"alm":2697,"355":2698,"ĠMEMO":2699,"mitted":2700,"ĠKroes":2701,"Ġextrem":2702,"Ġnear":2703,"Ġachieve":2704,"idence":2705,"Ġstop":2706,"Ġ]":2707,"Ġsession":2708,"Ġhead":2709,"ĠTO":2710,"Ġclean":2711,"ringe":2712,"Ġable":2713,"ros":2714,"Ġseveral":2715,"Ġpark":2716,"Ġperfect":2717,"Ab":2718,"ler":2719,"Ġwar":2720,"Ġlocation":2721,"ither":2722,"Ġhist":2723,"ellent":2724,"Ġusing":2725,"abour":2726,"Ġremains":2727,"Ġreturn":2728,"Com":2729,"Ġresearch":2730,"Ġfood":2731,"ai":2732,"Ġpartners":2733,"ĠAgreement":2734,"Ġbelow":2735,"STAT":2736,"Ġocc":2737,"ĠCase":2738,"Ġ2015":2739,"Ġopinion":2740,"ADE":2741,"Ġduring":2742,"eed":2743,"Use":2744,"Want":2745,"Ġ2003":2746,"ideo":2747,"ze":2748,"Ġ..":2749,"Ġ2004":2750,"Ġdiscuss":2751,"26":2752,"Ġet":2753,"Ġtry":2754,"ĠPR":2755,"ĠEN":2756,"ained":2757,"Ġroad":2758,"amb":2759,"ream":2760,"Pl":2761,"rast":2762,"ĠTransport":2763,"28":2764,"Ġnegot":2765,"Ġ93":2766,"Reg":2767,"ano":2768,"Ġaspect":2769,"Ġapplies":2770,"Ġonce":2771,"Ġlearn":2772,"Ġdeli":2773,"ĠJanuary":2774,"aster":2775,"Ġbrief":2776,"Ġwriting":2777,"Ġtraining":2778,"United":2779,"Ġmov":2780,"ctober":2781,"Ġorig":2782,"ĠRegions":2783,"Ġcertainly":2784,"uel":2785,"Ġrefer":2786,"Ġwa":2787,"ĠAG":2788,"Only":2789,"Ġsure":2790,"ĠST":2791,"ili":2792,"ached":2793,"ences":2794,"Ġfamily":2795,"Ġglobal":2796,"Ġconnect":2797,"duction":2798,"Ġeverything":2799,"Ġobjectives":2800,"Ġ26":2801,"Ġproceed":2802,"Ġupdates":2803,"Ġoften":2804,"Ġclose":2805,"ament":2806,"onse":2807,"Ġdirective":2808,"Ġcentre":2809,"za":2810,"quis":2811,"OMIC":2812,"2001":2813,"Ġhouse":2814,"Ġtype":2815,"icies":2816,"Ġresources":2817,"Ġamount":2818,"Ġdiscussion":2819,"ĠDecember":2820,"Ġ3355":2821,"Current":2822,"be":2823,"ĠThank":2824,"ratul":2825,"ĠOffice":2826,"Ġachie":2827,"itors":2828,"igation":2829,"Ġcomfort":2830,"Ġ32":2831,"Ġcomplet":2832,"Ġabsolut":2833,"ĠEnglish":2834,"Ġbank":2835,"ĠMed":2836,"INAN":2837,"Ġsat":2838,"Ġside":2839,"usic":2840,"clusion":2841,"Ġess":2842,"Ġproper":2843,"ept":2844,"Ġapply":2845,"ULTURE":2846,"Ġfollows":2847,"ĠDef":2848,"yl":2849,"Ġtre":2850,"Ġcomes":2851,"ception":2852,"Ġmajor":2853,"ta":2854,"OUR":2855,"36":2856,"ĠEducation":2857,"ĠWorld":2858,"Ġextremely":2859,"Ġport":2860,"ĠOr":2861,"ancing":2862,"mar":2863,"Ġdont":2864,"Ġland":2865,"ERG":2866,"gen":2867,"ana":2868,"Ġkm":2869,"Ġlegal":2870,"Ġnight":2871,"Ġhours":2872,"opy":2873,"Ġinfringe":2874,"Ġdocuments":2875,"Ġlater":2876,"Ġ2002":2877,"Ġrequired":2878,"ires":2879,"Ġlat":2880,"Ġimprove":2881,"GR":2882,"Ġtask":2883,"Ġexperience":2884,"Ġmonths":2885,"ively":2886,"INT":2887,"ĠSecurity":2888,"ĠEUROSTAT":2889,"fact":2890,"ien":2891,"well":2892,"Ġaut":2893,"Ġcou":2894,"iful":2895,"Ġdocument":2896,"IF":2897,"iations":2898,"Ġregion":2899,"ĠHealth":2900,"IK":2901,"euro":2902,"Ġquick":2903,"Am":2904,"tle":2905,"Ġes":2906,"Ġcat":2907,"Ġinde":2908,"ĠFederal":2909,"ĠGeneral":2910,"ĠInternet":2911,"minist":2912,"ones":2913,"essment":2914,"Ġreceived":2915,"pporteur":2916,"UC":2917,"then":2918,"ĠFor":2919,"ĠBer":2920,"reedom":2921,"Ġwind":2922,"Ġ546":2923,"Ġincluded":2924,"Ġreceive":2925,"ivil":2926,"ĠMARK":2927,"Ġca":2928,"Ġfish":2929,"ĠPart":2930,"Cons":2931,"ĠWhat":2932,"Ġprovide":2933,"Environment":2934,"ki":2935,"va":2936,"Ġhear":2937,"Portugal":2938,"hod":2939,"Ġpositive":2940,"ĠBl":2941,"Ġ02":2942,"OD":2943,"Ġwalk":2944,"ĠFR":2945,"Ġinteg":2946,"Ġhappened":2947,"Economic":2948,"side":2949,"Which":2950,"Ġpersonal":2951,"ĠAll":2952,"ĠTR":2953,"Ġvoting":2954,"Ġwomen":2955,"ots":2956,"ĠNeelie":2957,"aking":2958,"Ġworks":2959,"Ġprinciple":2960,"Second":2961,"Ġcred":2962,"Ġamendment":2963,"Ġestab":2964,"III":2965,"olf":2966,"Ġnote":2967,"Ġexact":2968,"Ġapproved":2969,"Yes":2970,"Ġproposed":2971,"Ġyes":2972,"Ġleast":2973,"Ġmentioned":2974,"QU":2975,"She":2976,"zer":2977,"ĠSu":2978,"ĠAmendment":2979,"bon":2980,"ERS":2981,"ĠWh":2982,"COM":2983,"icial":2984,"Ġheart":2985,"Ġcalled":2986,"itution":2987,"Ġlanguage":2988,"%.":2989,"38":2990,"Ġprivate":2991,"Ġcam":2992,"Ġcases":2993,"Ġcontent":2994,"Ġcontacts":2995,"Ġsystems":2996,"autiful":2997,"ara":2998,"Ġresponse":2999,"ĠGerman":3000,"ĠOctober":3001,"Ġprevious":3002,"Ġrestaur":3003,"atory":3004,"ĠTreaty":3005,"Mrs":3006,"Ġentire":3007,"ees":3008,"igration":3009,"Ġclearly":3010,"Ġbased":3011,"Ġfunction":3012,"ĠColomb":3013,"ĠCOMM":3014,"Ġlight":3015,"ĠEUs":3016,"ĠEnergy":3017,"CY":3018,"ĠFrance":3019,"Ġ298":3020,"ovember":3021,"eptember":3022,"Court":3023,"Ġimage":3024,"ording":3025,"Ġreject":3026,"unities":3027,"ĠWITHOUT":3028,"ps":3029,"Ġnice":3030,"ĠHome":3031,"irm":3032,"ĠHow":3033,"Ġenc":3034,"Ġcompet":3035,"Ġarri":3036,"ĠComp":3037,"ĠFl":3038,"ably":3039,"Ġhappy":3040,"Ġmessage":3041,"hel":3042,"ĠMon":3043,"Ġart":3044,"rime":3045,"Ġgr":3046,"Ġguarant":3047,"Unfortunately":3048,"Ġresponsibility":3049,"Ġcompletely":3050,"Ġpriorities":3051,"Ġsum":3052,"oss":3053,"opher":3054,"hold":3055,"Ġsent":3056,"unications":3057,"Ġconcludes":3058,"ĠCan":3059,"ĠPresidency":3060,"rag":3061,"Ãĸ":3062,"ĠAb":3063,"UB":3064,"Ġurg":3065,"enn":3066,"Ġcompetition":3067,"Ġ)":3068,"Ġfront":3069,"Ġtakes":3070,"EG":3071,"Ġtown":3072,"ividual":3073,"pre":3074,"word":3075,"Ġfocus":3076,"Ġgentlemen":3077,"ustri":3078,"medi":3079,"INANCIAL":3080,"Public":3081,"aid":3082,"Ġsy":3083,"Ġfail":3084,"ĠBug":3085,"reece":3086,"Ġexcellent":3087,"Ġdemand":3088,"Ġtarget":3089,"Ġidea":3090,"TRADE":3091,"Ġoppos":3092,"europa":3093,"EV":3094,"Ġcreat":3095,"Ġitem":3096,"Latest":3097,"Ġtell":3098,"Ph":3099,"Ġmil":3100,"anced":3101,"head":3102,"ĠAfrica":3103,"ĠMARKET":3104,"Ġbath":3105,"istics":3106,"gu":3107,"Ġjob":3108,"ISHER":3109,"aterial":3110,"tection":3111,"Ġsch":3112,"Ġund":3113,"olutions":3114,"Ġbasis":3115,"Ġsoftware":3116,"39":3117,"Ġregist":3118,"OME":3119,"por":3120,"uge":3121,"erg":3122,"Ġbuy":3123,"Ġanim":3124,"ka":3125,"Ġprogrammes":3126,"Ġreply":3127,"put":3128,"Ġfiles":3129,"Per":3130,"Ġmind":3131,"ĠAug":3132,"accept":3133,"Ġcharge":3134,"Ġteam":3135,"Ġlegislation":3136,"Ġbeach":3137,"sequ":3138,"ĠNovember":3139,"Ġindustry":3140,"ISHERIES":3141,"44":3142,"TH":3143,"Ġobs":3144,"Ġdecl":3145,"ruary":3146,"Ġmodern":3147,"Ġeffort":3148,"Ġchanges":3149,"den":3150,"ony":3151,"igital":3152,"Ġcong":3153,"coming":3154,"ada":3155,"atic":3156,"Ġreview":3157,"ricultural":3158,"Ġmark":3159,"elli":3160,"Ġconditions":3161,"li":3162,"Ġfair":3163,"ogn":3164,"order":3165,"Ġsteps":3166,"cript":3167,"Ġpolicies":3168,"sp":3169,"eria":3170,"illa":3171,"ociety":3172,"Ġunaccept":3173,"Ġcreate":3174,"29":3175,"Doc":3176,"haps":3177,"iol":3178,"Ġtreat":3179,"ales":3180,"ĠCost":3181,"Ġgot":3182,"ebruary":3183,"Ġdire":3184,"ĠGDP":3185,"ALL":3186,"Ġ07":3187,"Ġelse":3188,"Ġachieved":3189,"ey":3190,"change":3191,"Ġhotels":3192,"OINT":3193,"Su":3194,"Ġcateg":3195,"Ġadditional":3196,"Ġrue":3197,"Ġcontribution":3198,"Ġemployment":3199,"oo":3200,"Ġfive":3201,"echnical":3202,"Ġdemocracy":3203,"Pre":3204,"Ġtable":3205,"Ġfigures":3206,"ĠIII":3207,"Priority":3208,"ĠRussia":3209,"55":3210,"Ġrent":3211,"Ġcomplete":3212,"Ġasked":3213,"Ġgener":3214,"rengthen":3215,"Ġunacceptable":3216,"TICE":3217,"aces":3218,"Ġactivities":3219,"Ġvia":3220,"Sc":3221,"Ġpub":3222,"Ġnat":3223,"ĠMobile":3224,"ended":3225,"CL":3226,"ctions":3227,"ĠSEC":3228,"ĠSpain":3229,"Ġabove":3230,"ization":3231,"Ġchanged":3232,"ma":3233,"Ġcard":3234,"ova":3235,"Ġgroups":3236,"2007":3237,"Ġdialogue":3238,"Ġessential":3239,"Each":3240,"ww":3241,"ĠEl":3242,"Ġsea":3243,"Ġfully":3244,"ĠPal":3245,"ĠAD":3246,"Ġsearch":3247,"Ġimpact":3248,"ĠBo":3249,"USTICE":3250,"Ġchoice":3251,"SO":3252,"ĠSeptember":3253,"Ġamendments":3254,"Ġpurpose":3255,"Ġapplication":3256,"80":3257,"EW":3258,"Ġmethod":3259,"ories":3260,"Ġbeautiful":3261,"Ġeconomy":3262,"EK":3263,"uck":3264,"Ġseems":3265,"ruction":3266,"Ġ04":3267,"ference":3268,"orway":3269,"Ġseen":3270,"ENCY":3271,"Ladies":3272,"Ġsumm":3273,"ĠDim":3274,"Ġdev":3275,"Ġanything":3276,"ĠItaly":3277,"ape":3278,"hib":3279,"ĠSumm":3280,"aced":3281,"str":3282,"aging":3283,"Add":3284,"RICULTURE":3285,"ursday":3286,"parency":3287,"Ġsafety":3288,"ĠColombani":3289,"Trans":3290,"Ġactions":3291,"Ġcongratul":3292,"asing":3293,"Ġlove":3294,"log":3295,"VEL":3296,"ued":3297,"Ġcomb":3298,"Ġdirection":3299,"Ġever":3300,"Ġholiday":3301,"ĠFret":3302,"ISC":3303,"ona":3304,"ĠCor":3305,"ĠMic":3306,"ĠTime":3307,"ried":3308,"ĠYou":3309,"ians":3310,"Ġeveryone":3311,"Mer":3312,"go":3313,"Ġframework":3314,"Ġoil":3315,"Ġhig":3316,"Ġothers":3317,"ĠFretwell":3318,"ici":3319,"ĠDirect":3320,"Ġthanks":3321,"ĠCooperation":3322,"ĠCulture":3323,"ĠIV":3324,"Ġlinks":3325,"istan":3326,"ĠVal":3327,"Ġeng":3328,"ĠRegulation":3329,"Ġeduc":3330,"VELOP":3331,"60":3332,"Se":3333,"Ġworth":3334,"Ġpool":3335,"Ġclass":3336,"Competition":3337,"roat":3338,"atab":3339,"Ġpeace":3340,"Financial":3341,"Ġtalking":3342,"Ġmusic":3343,"ĠWind":3344,"ude":3345,"Ġ40":3346,"ared":3347,"Spe":3348,"ha":3349,"Ġsize":3350,"Ġforce":3351,"rench":3352,"Ġindividual":3353,"Does":3354,"Ġchoose":3355,"erve":3356,"Ġchar":3357,"ograph":3358,"play":3359,"Ġproduction":3360,"Ġexplan":3361,"SP":3362,"ators":3363,"Ġmor":3364,"Ġprec":3365,"49":3366,"oul":3367,"vestment":3368,"Ġbecause":3369,"anger":3370,"EMENT":3371,"Ġconference":3372,"Ġabsolutely":3373,"23":3374,"Over":3375,"kra":3376,"ired":3377,"icha":3378,"ĠDefence":3379,"Ġwel":3380,"ĠAir":3381,"Open":3382,"VI":3383,"Ġpicture":3384,"Int":3385,"Ġready":3386,"Ġyoung":3387,"Ġgoes":3388,"ĠUnited":3389,"Ġmarkets":3390,"By":3391,"ENCE":3392,"TING":3393,"Ġhold":3394,"ĠMont":3395,"Ġdoub":3396,"hesion":3397,"ini":3398,"Ġmaterial":3399,"ĠTurkey":3400,"Ġdirectly":3401,"Ġsale":3402,"ĠIP":3403,"ĠFebruary":3404,"istic":3405,"Ġleave":3406,"Ġ2011":3407,"TA":3408,"Ġsw":3409,"Ġwhe":3410,"roso":3411,"iveness":3412,"Ġincrease":3413,"Ġexactly":3414,"Ġreality":3415,"ĠPublic":3416,"Ġstatement":3417,"Ġcapital":3418,"Ġvideo":3419,"Contact":3420,"Ġlocal":3421,"Ġwaste":3422,"Ġmatters":3423,"ĠBelli":3424,"olidarity":3425,"Note":3426,"ĠBefore":3427,"ĠBelliard":3428,"Ġsound":3429,"ita":3430,"ĠHOME":3431,"Ġopportunity":3432,"88":3433,"Would":3434,"Ġ2013":3435,"Ġgovernment":3436,"FOR":3437,"ged":3438,"nter":3439,"sid":3440,"VELOPMENT":3441,"65":3442,"ti":3443,"Ġsol":3444,"AGRICULTURE":3445,"cription":3446,"Ġelements":3447,"iddle":3448,"unch":3449,"FISHERIES":3450,"ĠCH":3451,"hern":3452,"Ġsugg":3453,"fully":3454,"ĠFinancial":3455,"comes":3456,"--":3457,"Ġcompanies":3458,"ches":3459,"hic":3460,"era":3461,"Ġregulation":3462,"47":3463,"Vis":3464,"Ġtem":3465,"Ġpo":3466,"ledge":3467,"Ġallowed":3468,"Ġcode":3469,"ĠEast":3470,"Ġalone":3471,"Ġagenda":3472,"Ġbuilding":3473,"ÃĦ":3474,"enge":3475,"Ġmar":3476,"Ġmult":3477,"Ġvol":3478,"vert":3479,"Ġrapporteur":3480,"Ġconcerned":3481,"Ġ31":3482,"SE":3483,"Ġfight":3484,"Ġpot":3485,"Ġdest":3486,"Ġhost":3487,"ĠRom":3488,"Ġperform":3489,"Ġrecord":3490,"Ġbad":3491,"ĠEIB":3492,"Ġinitiative":3493,"CO":3494,"Ġhon":3495,"range":3496,"Ġstandards":3497,"Ġinfringement":3498,"oe":3499,"ype":3500,"ilt":3501,"ĠAC":3502,"Ġsche":3503,"Ġaffect":3504,"Ġaware":3505,"Ġev":3506,"iving":3507,"ĠThursday":3508,"MENTS":3509,"Take":3510,"Ġinternet":3511,"Ġdatab":3512,"ilar":3513,"ĠEESC":3514,"Ġactually":3515,"Ġindeed":3516,"Have":3517,"Well":3518,"ched":3519,"JUSTICE":3520,"Mad":3521,"Yet":3522,"ault":3523,"Ġtel":3524,"ims":3525,"ife":3526,"Ġimmedi":3527,"SK":3528,"reet":3529,"Ġstarted":3530,"Ġexamples":3531,"che":3532,"Ġfarm":3533,"Ġmiss":3534,"amental":3535,"ban":3536,"ĠAction":3537,"rested":3538,"Ġdepend":3539,"2000":3540,"aul":3541,"yn":3542,"Ġident":3543,"Ġreports":3544,");":3545,"just":3546,"ering":3547,"Ġamb":3548,"Ġapartment":3549,"APP":3550,"DO":3551,"opp":3552,"Ġage":3553,"apan":3554,"Both":3555,"Che":3556,"oud":3557,"itarian":3558,"ensive":3559,"Ġ1999":3560,"ĠGeorg":3561,"Ġpast":3562,"Ġmax":3563,"Ġnature":3564,"1040":3565,"Ġdefin":3566,"where":3567,"ĠVass":3568,"Ġprovided":3569,"Ġenlargement":3570,"Ġemail":3571,"ructural":3572,"Ġupdate":3573,"ĠRef":3574,"Ġknown":3575,"Ġsubst":3576,"Ġschool":3577,"roatia":3578,"aw":3579,"Ġfill":3580,"Ġbring":3581,"Ġtook":3582,"ĠCons":3583,"elling":3584,"Ġterms":3585,"Ġbit":3586,"irt":3587,"ored":3588,"ĠVI":3589,"right":3590,"Ġyourself":3591,"Ġsatis":3592,"Language":3593,"Ġmember":3594,"Ġparticularly":3595,"Ġexpected":3596,"Such":3597,"spect":3598,"Ġwww":3599,"iture":3600,"Ġoption":3601,"Ġtowards":3602,"Ġclimate":3603,"Just":3604,"ya":3605,"Ġstation":3606,"anguages":3607,"ush":3608,"Ġinnovation":3609,"Ġrates":3610,"AY":3611,"Ġrev":3612,"Ġalmost":3613,"Ġheld":3614,"Ġ2014":3615,"ĠRegional":3616,"ichael":3617,"70":3618,"oting":3619,"ola":3620,"ociation":3621,"Ġpayment":3622,"rastructure":3623,"Ġsummer":3624,"COMM":3625,"ein":3626,"ĠTra":3627,"ipment":3628,"Man":3629,"Ġfall":3630,"Ġparts":3631,"Ġcommit":3632,"inary":3633,"Ġreach":3634,"Ġ70":3635,"Ġtele":3636,"Ġappropri":3637,"Ġlatest":3638,"ĠAugust":3639,"ox":3640,"Ġground":3641,"Ġ80":3642,"Ġdecisions":3643,"Ġnegotiations":3644,"nis":3645,"Ġinstru":3646,"Find":3647,"Part":3648,"wise":3649,"ald":3650,"ĠInst":3651,"ECON":3652,"Ġcreated":3653,"Relations":3654,"Ġsens":3655,"ĠIg":3656,"Ġfriendly":3657,"EA":3658,"atures":3659,"Ġspace":3660,"Finally":3661,"Ġpractice":3662,"ĠFINANCIAL":3663,"Ġoffice":3664,"uclear":3665,"Ġdouble":3666,"ommod":3667,"overnment":3668,"Ġsignific":3669,"itable":3670,"irc":3671,"Ġregul":3672,"Ġdatabase":3673,"vant":3674,"Ġsolutions":3675,"iles":3676,"Ġquot":3677,"Ġmodel":3678,"Ġ142":3679,"Ġvalid":3680,"Ġpleased":3681,"Secondly":3682,"May":3683,"ns":3684,"Ġx":3685,"Ġmach":3686,"ĠEconomy":3687,"acity":3688,"Ġobjective":3689,"Ġfunding":3690,"uter":3691,"Ġsense":3692,"ĠMembers":3693,"85":3694,"oon":3695,"Ġmount":3696,"lav":3697,"Ġregional":3698,"ĠWindows":3699,"Ġcharact":3700,"Two":3701,"ira":3702,"rec":3703,"Ġrecogn":3704,"umping":3705,"Ġeducation":3706,"FR":3707,"ley":3708,"ĠSea":3709,"Acc":3710,"bate":3711,"rary":3712,"Ġagreed":3713,"Ġincludes":3714,"ustrial":3715,"Sim":3716,"ser":3717,"Ġwarm":3718,"ĠAt":3719,"ĠAud":3720,"ured":3721,"Ġprepare":3722,"Ġhappens":3723,"Ġindic":3724,"Ġmaking":3725,"rated":3726,"ĠCar":3727,"Ġreached":3728,"emoc":3729,"umer":3730,"Ġuser":3731,"iterran":3732,"Very":3733,"ason":3734,"Ġvalues":3735,"Ġbehind":3736,"kraine":3737,"Ġtick":3738,"Ġupon":3739,"Ġextra":3740,"Ġadvant":3741,"Ġtechnical":3742,"Ġ9396":3743,"Ġwond":3744,"Ġfreedom":3745,"Ġpath":3746,"acks":3747,"Ġcontribut":3748,"reg":3749,"issions":3750,"Ġintro":3751,"Ġmist":3752,"Ġmight":3753,"Ġrather":3754,"Ġvehic":3755,"Free":3756,"ĠMal":3757,"Ġopened":3758,"Ġstandard":3759,"URITY":3760,"Ġfriends":3761,"iversity":3762,"UK":3763,"light":3764,"Ġhelpful":3765,"aration":3766,"Ġlisten":3767,"read":3768,"onz":3769,"ĠWest":3770,"Ġ09":3771,"Ġselector":3772,"ĠPlan":3773,"Ġrestaurant":3774,"Ġplann":3775,"Ġ2012":3776,"Ġsitu":3777,"idel":3778,"Ġactive":3779,"Room":3780,"ole":3781,"ĠAv":3782,"ĠSer":3783,"ĠOper":3784,"epend":3785,"Ġcontains":3786,"ike":3787,"ja":3788,"Ġdanger":3789,"asc":3790,"ĠPri":3791,"ĠSan":3792,"Ġapprox":3793,"Ġpictures":3794,"ming":3795,"Ġlarg":3796,"okes":3797,"INTERNAL":3798,"ĠInternational":3799,"Ġ65":3800,"APPOINT":3801,"Ġ99":3802,"uses":3803,"Ġtravel":3804,"ĠConvention":3805,"Ġcomfortable":3806,"Gu":3807,"arly":3808,"Ġinternal":3809,"Ġdam":3810,"ĠResearch":3811,"Ġquickly":3812,"iterranean":3813,"lla":3814,"rs":3815,"rop":3816,"Ġhalf":3817,"ĠLis":3818,"Ġimportance":3819,"ratic":3820,"Ġinvolved":3821,"81":3822,"Me":3823,"Rec":3824,"ging":3825,"ĠPer":3826,"ĠDG":3827,"ables":3828,"IONS":3829,"Ġaspects":3830,"Ġnatural":3831,"OW":3832,"lative":3833,"Ġfre":3834,"Ġdead":3835,"Ġ64":3836,"ĠOn":3837,"Ġourselves":3838,"ECONOMIC":3839,"Mon":3840,"Most":3841,"Ġfan":3842,"Ġgoods":3843,"Any":3844,"lu":3845,"oice":3846,"lax":3847,"Ġchallenge":3848,"LAR":3849,"ĠAN":3850,"ĠGo":3851,"Ġsepar":3852,"Ġwanted":3853,"Ġcustomers":3854,"itutions":3855,"Ġlate":3856,"ighb":3857,"Ġago":3858,"Ġremark":3859,"osp":3860,"ums":3861,"Ġ149":3862,"Ġtaking":3863,"comm":3864,"rink":3865,"estern":3866,"nces":3867,"ĠInvestment":3868,"ixed":3869,"Med":3870,"body":3871,"Ġcal":3872,"TRANSPORT":3873,"Em":3874,"Le":3875,"itle":3876,"Ġbillion":3877,"ĠEd":3878,"ĠNot":3879,"avid":3880,"ĠGreen":3881,"itoring":3882,"Ġflex":3883,"Ġcomprom":3884,"Ġjoint":3885,"Ġaud":3886,"Ġaccepted":3887,"cast":3888,"Ġsil":3889,"ival":3890,"Ġeither":3891,"Ġvict":3892,"prise":3893,"Ġpersons":3894,"Also":3895,"Ġpurch":3896,"bar":3897,"sz":3898,"duced":3899,"Ġmenu":3900,"ĠSouth":3901,"Ġofficial":3902,"ought":3903,"marquis":3904,"CLUS":3905,"Madam":3906,"ena":3907,"ednes":3908,"Ġlab":3909,"raz":3910,"Ġhistory":3911,"ks":3912,"Information":3913,"ovo":3914,"Ġprint":3915,"inute":3916,"Ġeffective":3917,"Ġenvironmental":3918,"ĠSECURITY":3919,"OJ":3920,"ares":3921,"ĠGonz":3922,"days":3923,"Ġbat":3924,"otion":3925,"see":3926,"ift":3927,"rateg":3928,"OY":3929,"Ġround":3930,"Ġfore":3931,"Ġder":3932,"Ġred":3933,"Ġaddition":3934,"Ġcentral":3935,"Hotel":3936,"ane":3937,"TED":3938,"Ġencoura":3939,"anish":3940,"ĠSk":3941,"Ġsupported":3942,"Merger":3943,"ednesday":3944,"more":3945,"Ġfacts":3946,"ĠBerlin":3947,"ĠStrategy":3948,"Ġpartner":3949,"Ġ67":3950,"Ġaccommod":3951,"OPER":3952,"Ġpleas":3953,"Ġimplementation":3954,"Office":3955,"Ġur":3956,"ĠEr":3957,"ĠSCH":3958,"ayer":3959,"ĠRelations":3960,"ĠTel":3961,"ecision":3962,"Ġoutside":3963,"Ġreading":3964,"42":3965,"Ġdiv":3966,"ĠCas":3967,"Ġrepl":3968,"Ġevents":3969,"48":3970,"Red":3971,"new":3972,"Ġpages":3973,"Ġbrow":3974,"Ġvac":3975,"Ġshows":3976,"Ġ58":3977,"Ġarch":3978,"Ġrange":3979,"aily":3980,"ĠChristopher":3981,"41":3982,"ĠCap":3983,"Ġviol":3984,"ĠJos":3985,"yle":3986,"ero":3987,"ĠMart":3988,"ĠFisheries":3989,"Ġens":3990,"obility":3991,"9586":3992,"Ġgovern":3993,"Pe":3994,"ufact":3995,"ĠThis":3996,"Ġterror":3997,"Ġcru":3998,"Those":3999,"ador":4000,"aged":4001,"Ġsimilar":4002,"Ġideal":4003,"Ġbalance":4004,"OG":4005,"ands":4006,"ecut":4007,"Ġfeed":4008,"Ġahead":4009,"Ġequipment":4010,"Ġchalleng":4011,"Ġfran":4012,"Ġfast":4013,"ĠInt":4014,"International":4015,"Ġconsultation":4016,"Ġsignificant":4017,"CLUSIONS":4018,"Pay":4019,"Ġsun":4020,"Ġlic":4021,"ĠID":4022,"TIC":4023,"ults":4024,"43":4025,"Ġsociety":4026,"ression":4027,"ĠFrench":4028,"ocation":4029,"aste":4030,"Ġclient":4031,"Ġcover":4032,"Ġagreements":4033,"Ġprovides":4034,"Ġbenefit":4035,"AIN":4036,"PO":4037,"Ġsix":4038,"Ġcame":4039,"Ġlies":4040,"ĠPat":4041,"agraph":4042,"USS":4043,"Ġcriteria":4044,"ĠEmployment":4045,"usiness":4046,"Ġboard":4047,"ĠMy":4048,"ocal":4049,"ruit":4050,"witzer":4051,"uild":4052,"ĠAL":4053,"debate":4054,"Firstly":4055,"cent":4056,"phone":4057,"Submitted":4058,"oid":4059,"Ġreact":4060,"Ġgas":4061,"Ġgra":4062,"ney":4063,"89":4064,"Energy":4065,"Ġshop":4066,"Ġrout":4067,"ending":4068,"Ġmotion":4069,"Ġobserv":4070,"PS":4071,"Ġdisplay":4072,"2005":4073,"Ġdifference":4074,"ĠPhil":4075,"Email":4076,"Since":4077,"ills":4078,"ĠCONCLUSIONS":4079,"Ġjobs":4080,"Ġtechnology":4081,"Before":4082,"iliou":4083,"ERGY":4084,"ĠPe":4085,"ĠJoh":4086,"ĠDeb":4087,"ĠAgency":4088,"Ġauthor":4089,"77":4090,"Ġsustainable":4091,"Ġsection":4092,"Ġamong":4093,"ocks":4094,"ĠPROGR":4095,"orest":4096,"wide":4097,"Ġcross":4098,"Ġborn":4099,"Ġey":4100,"TIV":4101,"Ġrequirements":4102,"Technical":4103,"Ġculture":4104,"Ġlow":4105,"ĠNetherlands":4106,"Ġ48":4107,"Ġtrain":4108,"Ġbenefits":4109,"APPOINTMENTS":4110,"OPERATION":4111,"Ġdom":4112,"ĠPL":4113,"ĠRights":4114,"Ġ33":4115,"Ġparties":4116,"Ġobvious":4117,"Ġcomplex":4118,"Ġfundamental":4119,"Ġbeginning":4120,"Ġ).":4121,"imb":4122,"ological":4123,"Ġfunds":4124,"Ġairport":4125,"tain":4126,"Ġter":4127,"Ġlanguages":4128,"ĠTV":4129,"Ġliving":4130,"ĠNe":4131,"valuation":4132,"Ġcongratulate":4133,"Ġwonder":4134,"witzerland":4135,"Bec":4136,"Council":4137,"tion":4138,"Ġrelax":4139,"ĠIreland":4140,"igure":4141,"Ġheard":4142,"abled":4143,"Committee":4144,"ĠWeb":4145,"Ġmedia":4146,"Ġill":4147,"Ġinform":4148,"Ġden":4149,"Ġdim":4150,"Ġseem":4151,"Mar":4152,"Ġmobile":4153,"ĠMe":4154,"iam":4155,"ĠVer":4156,"Ġaccording":4157,"Ġtransparency":4158,"Ġserved":4159,"Ġrail":4160,"Ġparking":4161,"Visit":4162,"ius":4163,"ASS":4164,"Ġresponsible":4165,"ipped":4166,"ĠAmeric":4167,"Maria":4168,"ĠGR":4169,"Ġsafe":4170,"2002":4171,"Appro":4172,"strÃ¶":4173,"ĠLisbon":4174,"szl":4175,"67":4176,"Ġthus":4177,"ĠTr":4178,"Ġemploy":4179,"Ġphotos":4180,"Ġaltern":4181,"Ġ34":4182,"Ġimpos":4183,"INS":4184,"alez":4185,"Ġdraw":4186,"lig":4187,"Ġtou":4188,"Ġstated":4189,"ĠLabour":4190,"Inter":4191,"Ġagricultural":4192,"ĠEuropes":4193,"ĠIgles":4194,"ĠSME":4195,"Ġstage":4196,"TEL":4197,"Ġdistribut":4198,"arisa":4199,"Her":4200,"ios":4201,"ĠRec":4202,"Ġrad":4203,"theless":4204,"Ġlimited":4205,"ĠAmerica":4206,"Ġbathroom":4207,"ĠGonzalez":4208,"Work":4209,"ĠCD":4210,"Ġadminist":4211,"alys":4212,"Ġtruth":4213,"Ġpassword":4214,"2010":4215,"Ġbehalf":4216,"ĠPaper":4217,"ĠSlo":4218,"Ġsubsid":4219,"pecially":4220,"Ġbroad":4221,"Ġdoubt":4222,"ĠIglesias":4223,"Marisa":4224,"Ġcivil":4225,"ĠPre":4226,"rael":4227,"arth":4228,"Ġoutcome":4229,"ĠProtection":4230,"About":4231,"Ġcompromise":4232,"Their":4233,"Ġinstitutions":4234,"Ġlegislative":4235,"ĠMadrid":4236,"Ġautom":4237,"ca":4238,"ico":4239,"Ġvill":4240,"Ġdeleg":4241,"Ġrule":4242,"Ġunique":4243,"board":4244,"Ġoptions":4245,"EAR":4246,"LER":4247,"wa":4248,"Ġ[":4249,"Ġways":4250,"Ġface":4251,"ĠSO":4252,"ama":4253,"Ġregister":4254,"Ġpublished":4255,"akes":4256,"ĠConference":4257,"Ġcredit":4258,"Directive":4259,"Ġsays":4260,"itiveness":4261,"ĠEM":4262,"urd":4263,"rab":4264,"ume":4265,"Ġ500":4266,"ĠBarroso":4267,"nual":4268,"Ġjour":4269,"Ġinterested":4270,"Ġthought":4271,"idelines":4272,"Ġsus":4273,"aint":4274,"arden":4275,"Ġargu":4276,"plementation":4277,"Ġbasic":4278,"Ġorigin":4279,"Ġestablished":4280,"68":4281,"UND":4282,"ese":4283,"omep":4284,"ĠTe":4285,"umber":4286,"Never":4287,"ĠMc":4288,"ĠNorth":4289,"Ġprofession":4290,"ĠPROGRAM":4291,"%)":4292,"apt":4293,"Ġpres":4294,"ĠParis":4295,"ĠSystem":4296,"term":4297,"Ġbuilt":4298,"ĠPoland":4299,"atur":4300,"Ġlik":4301,"ĠAgenda":4302,"ĠMadam":4303,"pol":4304,"Ġ$":4305,"itical":4306,"ĠEst":4307,"Ġalong":4308,"ques":4309,"Ġexchange":4310,"Ġ1998":4311,"overty":4312,"Ġhappening":4313,"Ob":4314,"Trade":4315,"Ġcopy":4316,"Ġdeep":4317,"Ġcommunication":4318,"ĠConclusions":4319,"Ġstudy":4320,"Ġpotential":4321,"ishes":4322,"Ġearly":4323,"roulla":4324,"Ġimages":4325,"Ġregions":4326,"AST":4327,"Ġfeatures":4328,"Ġserver":4329,"ĠMichel":4330,"100":4331,"oke":4332,"Ġfishing":4333,"Hel":4334,"Ġmis":4335,"icient":4336,"ownload":4337,"Ġrequires":4338,"Ġinteresting":4339,"omepage":4340,"roll":4341,"Ġcontext":4342,"CISION":4343,"augh":4344,"zo":4345,"Ġlack":4346,"ORK":4347,"Ġtypes":4348,"nership":4349,"FORM":4350,"EIB":4351,"rd":4352,"Ġ00":4353,"anism":4354,"Ġnorm":4355,"ĠMac":4356,"ĠAustria":4357,"ĠRo":4358,"employment":4359,"ĠLin":4360,"Ġ60":4361,"Ġknowledge":4362,"Ġmeasure":4363,"Ġbox":4364,"itary":4365,"ĠRelease":4366,"Sp":4367,"orry":4368,"ĠBal":4369,"ĠPark":4370,"ĠDISC":4371,"Ġimm":4372,"ĠCentral":4373,"OC":4374,"URE":4375,"Ġbreak":4376,"etter":4377,"ĠApart":4378,"Ġgoal":4379,"Ġcomputer":4380,"Ġthemselves":4381,"ribe":4382,"Perhaps":4383,"ez":4384,"Ġcirc":4385,"Ġdaily":4386,"ĠTH":4387,"ocol":4388,"lines":4389,"Ġparagraph":4390,"Ġfields":4391,"Ġtreatment":4392,"Good":4393,"Sm":4394,"Ġmag":4395,"Ġdream":4396,"ĠAre":4397,"ider":4398,"aches":4399,"Ġclar":4400,"Ġideas":4401,"ĠIndustry":4402,"Ġprepared":4403,"87":4404,"93":4405,"vels":4406,"Ġfine":4407,"road":4408,"ead":4409,"Ġpan":4410,"Ġstory":4411,"Ġselection":4412,"Ġcontract":4413,"ips":4414,"Ġsave":4415,"Ġopportunities":4416,"Ġvarious":4417,"Ġrejected":4418,"66":4419,"GI":4420,"Ġri":4421,"Ġcause":4422,"Ġrespond":4423,"Even":4424,"PRE":4425,"ĠCOM":4426,"Ġdeath":4427,"ĠHans":4428,"Ã¼r":4429,"fin":4430,"Ġton":4431,"resh":4432,"raft":4433,"ĠJapan":4434,"ĠWork":4435,"Inst":4436,"ISSION":4437,"Ġhigher":4438,"Ġpaper":4439,"Ġlost":4440,"ĠGreece":4441,"Ġcoming":4442,"Ġfounded":4443,"ĠArt":4444,"Ġexplanations":4445,"Ġdimension":4446,"GE":4447,"bott":4448,"position":4449,"Ġ06":4450,"DEVELOPMENT":4451,"Ġexperi":4452,"Ġcustomer":4453,"His":4454,"itation":4455,"Ġrepe":4456,"ĠMa":4457,"eth":4458,"osovo":4459,"ĠDEF":4460,"Enjoy":4461,"Ġurgent":4462,"Home":4463,"ato":4464,"Ġthreat":4465,"semb":4466,"Ġcapacity":4467,"Disc":4468,"Ġwritten":4469,"ĠTor":4470,"Ġlives":4471,"ager":4472,"ARD":4473,"Ġanswers":4474,"Ġparticipants":4475,"Check":4476,"Ġchallenges":4477,"bers":4478,"hol":4479,"Ġ46":4480,"Read":4481,"ĠDirector":4482,"90":4483,"iff":4484,"Ġdu":4485,"ĠIM":4486,"berg":4487,"Ġord":4488,"Ġ37":4489,"Ġapplause":4490,"IST":4491,"Ġefforts":4492,"down":4493,"Ġstrengthen":4494,"Ġitems":4495,"ĠGrand":4496,"Ġappear":4497,"mas":4498,"ster":4499,"Ġtim":4500,"ervices":4501,"encies":4502,"Dennis":4503,"Ġsuccessful":4504,"Ġimmediately":4505,"Ġlargest":4506,"Aid":4507,"Direct":4508,"oz":4509,"rete":4510,"Ġbott":4511,"ĠCom":4512,"etary":4513,"urch":4514,"raud":4515,"erson":4516,"posal":4517,"Ġ92":4518,"Ġbrings":4519,"Agriculture":4520,"Ġaf":4521,"ĠIraq":4522,"phas":4523,"ĠCommunication":4524,"92":4525,"Ġsolidarity":4526,"Ġbody":4527,"Ġconsequ":4528,"ails":4529,"Ġcategory":4530,"imately":4531,"Ġ74":4532,"Ġconsist":4533,"Impro":4534,"2013":4535,"Ġmaximum":4536,"Because":4537,"Vice":4538,"Ġban":4539,"ĠTrans":4540,"Ġharm":4541,"Ġgives":4542,"ĠLuxembourg":4543,"ava":4544,"Ġprevent":4545,"Ġelectric":4546,"Ġmap":4547,"Ġdrink":4548,"Ġstra":4549,"ĠBR":4550,"dam":4551,"Ġblog":4552,"ĠApp":4553,"ĠSy":4554,"ĠWednesday":4555,"Ġstarting":4556,"Ġphoto":4557,"Ġproperty":4558,"RES":4559,"Ġperm":4560,"arter":4561,"unt":4562,"ENMinister":4563,"Ġ1997":4564,"Ġcollect":4565,"Ġguarantee":4566,"ĠBY":4567,"....":4568,"mbass":4569,"Ġselected":4570,"Ġwaiting":4571,"iate":4572,"Ġsource":4573,"Ġcards":4574,"ĠPort":4575,"Ġappoint":4576,"Ġcalls":4577,"Ġwatch":4578,"Ġdiscussed":4579,"Key":4580,"onom":4581,"una":4582,"Ġexternal":4583,"Ġcontain":4584,"Ġparty":4585,"ĠInn":4586,"Ġcove":4587,"Ġseries":4588,"ĠPeter":4589,"Ġgreen":4590,"ĠWTO":4591,"Ġlear":4592,"52":4593,"book":4594,"vis":4595,"ĠMor":4596,"Ġweeks":4597,"Ġmovement":4598,"Av":4599,"hood":4600,"rite":4601,"ĠQ":4602,"Third":4603,"verage":4604,"ORS":4605,"Ġassessment":4606,"Ġcenter":4607,"Ġpopular":4608,"Useful":4609,"ETING":4610,"Source":4611,"ĠQuestion":4612,"Ġreception":4613,"Ġski":4614,"vote":4615,"orse":4616,"Ġtot":4617,"Ġdue":4618,"astic":4619,"Ġcompl":4620,"Ġdise":4621,"paign":4622,"Ġsituated":4623,"Bl":4624,"Ġsort":4625,"Ġpen":4626,"Ġpaid":4627,"Ġoral":4628,"Ġguest":4629,"strÃ¶m":4630,"face":4631,"ĠAct":4632,"ula":4633,"ĠRad":4634,"ĠJean":4635,"Ġplans":4636,"Ġuseful":4637,"Ġtrack":4638,"Ġmanufact":4639,"Christ":4640,"Ġincreased":4641,"Ġstatistics":4642,"VII":4643,"Ġwine":4644,"Ġmass":4645,"0000":4646,"ĠUkraine":4647,"Ġemphas":4648,"Ġminimum":4649,"Ġcovered":4650,"ĠPr":4651,"ĠBen":4652,"force":4653,"ĠLat":4654,"Ġmyself":4655,"Common":4656,"Ġglad":4657,"Ġconnection":4658,"Ġopposite":4659,"61":4660,"MO":4661,"cont":4662,"aries":4663,"Ġshown":4664,"ĠCOOPERATION":4665,"Ġsuff":4666,"Ġquiet":4667,"ESID":4668,"Ġtrust":4669,"Ġcommented":4670,"Ġhistor":4671,"ylum":4672,"57":4673,"uis":4674,"Ġself":4675,"Ġpie":4676,"alt":4677,"END":4678,"arel":4679,"Ġconcerning":4680,"Ġsurve":4681,"Transport":4682,"Up":4683,"ordination":4684,"Article":4685,"antic":4686,"aving":4687,"ACK":4688,"Ġrestrict":4689,"Ġconsumer":4690,"letter":4691,"Ġtrend":4692,"Support":4693,"Human":4694,"cor":4695,"chen":4696,"ii":4697,"uz":4698,"used":4699,"Ġgames":4700,"Ġoriginal":4701,"Ġyester":4702,"BER":4703,"Social":4704,"Ġtw":4705,"ison":4706,"Ġconcept":4707,"ĠForest":4708,"ivity":4709,"Internal":4710,"IND":4711,"Ġ96":4712,"Ġfinancing":4713,"PARENCY":4714,"fficient":4715,"94":4716,"Ass":4717,"UG":4718,"UP":4719,"burg":4720,"Ġtru":4721,"ĠCity":4722,"ĠShe":4723,"iding":4724,"Ġdepart":4725,"oph":4726,"Ġworkers":4727,"dumping":4728,"Ġten":4729,"Ġhy":4730,"ĠME":4731,"ĠDan":4732,"ressed":4733,"Ġwhile":4734,"Ġemerg":4735,"ourable":4736,"Ġconsumers":4737,"Ġwindow":4738,"Ġmorning":4739,"Look":4740,"ĠPot":4741,"ĠSTR":4742,"ĠGod":4743,"ĠHer":4744,"TES":4745,"Ġmech":4746,"rought":4747,"Ġeasily":4748,"Ġaddressed":4749,"spokes":4750,"ĠOperational":4751,"Nor":4752,"asur":4753,"Ġ--":4754,"ECspokes":4755,"Ġ90":4756,"Ġwants":4757,"Ġknows":4758,"Ġthinking":4759,"Report":4760,"Ġcolor":4761,"mbH":4762,"Adop":4763,"Ġespecially":4764,"iver":4765,"mentary":4766,"ĠBel":4767,"ĠBelgium":4768,"claration":4769,"Ġdecided":4770,"Ġpartnership":4771,"Action":4772,"bia":4773,"uments":4774,"ercial":4775,"Ġwent":4776,"urance":4777,"iab":4778,"Ġseason":4779,"Ġ2020":4780,"Ġformat":4781,"Ġfoot":4782,"ev":4783,"lim":4784,"mus":4785,"ĠGlobal":4786,"Ġadvert":4787,"ĠĠĠ":4788,"Ġindepend":4789,"Ġrunning":4790,"Ġrelevant":4791,"Ġtrip":4792,"National":4793,"STR":4794,"ĠMi":4795,"ĠSw":4796,"ildren":4797,"Ġspir":4798,"Ġapproval":4799,"Ġdraft":4800,"Ġreleases":4801,"Ġintegration":4802,"house":4803,"Ġlabour":4804,"Ġabst":4805,"Ġcla":4806,"ibilities":4807,"Ġtransfer":4808,"Ġhumanitarian":4809,"Ġbedroom":4810,"Ġdrive":4811,"ĠPartnership":4812,"ĠPROGRAMME":4813,"dra":4814,"Ġcamp":4815,"ĠAcc":4816,"Ġvan":4817,"rowth":4818,"Ġarrange":4819,"Ġinterests":4820,"Ġentirely":4821,"VD":4822,"iber":4823,"ĠDo":4824,"Ġprepar":4825,"Ġdetailed":4826,"Ġapartments":4827,"Ġcrucial":4828,"64":4829,"HO":4830,"sible":4831,"yr":4832,"Ġut":4833,"ĠMil":4834,"rik":4835,"iev":4836,"oved":4837,"Ġgrant":4838,"CISIONS":4839,"ls":4840,"Ġhuge":4841,"EUR":4842,"Another":4843,"Anti":4844,"cher":4845,"equ":4846,"Ġmand":4847,"ĠPaul":4848,"ĠGmbH":4849,"Ġprinciples":4850,"Ġfacilities":4851,"celona":4852,"Ġpopulation":4853,"LAND":4854,"Special":4855,"rative":4856,"Ġterr":4857,"arb":4858,"ĠPortugal":4859,"alls":4860,"clusive":4861,"Ġattract":4862,"iction":4863,"Ġsupply":4864,"uilding":4865,"Ġdistributed":4866,"LA":4867,"aring":4868,"illed":4869,"Ġanalys":4870,"uds":4871,"duce":4872,"ologies":4873,"Ġlimit":4874,"TRANSPARENCY":4875,"EEC":4876,"iers":4877,"Ġwide":4878,"Ġdesc":4879,"ĠYear":4880,"Ġapplied":4881,"ĠAssessment":4882,"IAN":4883,"uy":4884,"Ġcart":4885,"ĠPet":4886,"ĠSant":4887,"Inf":4888,"Ġ85":4889,"Ġacross":4890,"China":4891,"ĠNews":4892,"ĠScience":4893,"Ġregistered":4894,"Ġcharacter":4895,"People":4896,"IX":4897,"rey":4898,"inas":4899,"att":4900,"ĠCal":4901,"ĠBrit":4902,"Ġlevels":4903,"Ġsites":4904,"Conclusion":4905,"Ġimproved":4906,"Ġpractical":4907,"Nevertheless":4908,"fish":4909,"Ġforeign":4910,"ĠPC":4911,"ĠFree":4912,"ĠBUS":4913,"ĠDes":4914,"2003":4915,"English":4916,"Ġstands":4917,"Ġequipped":4918,"ronic":4919,"Ġappropriate":4920,"Ġdangerous":4921,"91":4922,"IER":4923,"ba":4924,"inated":4925,"ituation":4926,"ĠFood":4927,"Ġresol":4928,"ippe":4929,"arent":4930,"orders":4931,"Ġprem":4932,"2009":4933,"mbassador":4934,"DUC":4935,"Ġforget":4936,"ĠMichael":4937,"ĠAM":4938,"ĠSol":4939,"Ġsupports":4940,"ges":4941,"rely":4942,"ĠPH":4943,"rap":4944,"ĠHel":4945,"erences":4946,"Ġkit":4947,"urrency":4948,"Ġbeds":4949,"opping":4950,"sembly":4951,"Somet":4952,"ĠSwitzerland":4953,"uration":4954,"Ġprot":4955,"Ġrelated":4956,"Ġincluding":4957,"ticles":4958,"Ġoperation":4959,"Ġanimals":4960,"Tele":4961,"Turkey":4962,"enh":4963,"Ġdru":4964,"Ġstructure":4965,"ĠTechn":4966,"Ġspeed":4967,"Ġspeech":4968,"lexand":4969,"eleb":4970,"Ġmonitoring":4971,"Ġstatus":4972,"Ġcampaign":4973,"Ãľ":4974,"Ġspr":4975,"ĠExternal":4976,"IGH":4977,"Ġwait":4978,"ighbour":4979,"vision":4980,"Ġ#":4981,"itime":4982,"Ġqual":4983,"egal":4984,"Ġacceptable":4985,"Ġcritic":4986,"Ġinitiatives":4987,"itutional":4988,"orge":4989,"Ġcert":4990,"ĠSal":4991,"urt":4992,"ĠFax":4993,"Ġ89":4994,"Ġinfrastructure":4995,"Ġincreasing":4996,"ariat":4997,"Ġreleased":4998,"Ġwhether":4999,"Ġtotally":5000,"ITI":5001,"La":5002,"gar":5003,"atically":5004,"Ġmail":5005,"Ġweak":5006,"ĠTour":5007,"ĠWestern":5008,"ĠVan":5009,"Ġ44":5010,"ipping":5011,"Ġoptim":5012,"ĠCostasur":5013,"Ġvehicles":5014,"reas":5015,"ateral":5016,"Ġstability":5017,"ĠDen":5018,"Ġcharg":5019,"ENERGY":5020,"Ġnetworks":5021,"ĠSMEs":5022,"Russia":5023,"rew":5024,"ĠPie":5025,"Ġstrateg":5026,"ĠRomania":5027,"oking":5028,"Ġ475":5029,"Ġapprec":5030,"Ġregret":5031,"ifications":5032,"Ġevening":5033,"ĠArticle":5034,"ength":5035,"Ġelections":5036,"51":5037,"54":5038,"Car":5039,"Pr":5040,"itude":5041,"Ġbackground":5042,"ille":5043,"ilia":5044,"resp":5045,"acco":5046,"00352":5047,"chise":5048,"INESS":5049,"ĠProcess":5050,"Ġgetting":5051,"Ġsaying":5052,"Ġadvance":5053,"Ġinstruments":5054,"Fl":5055,"Justice":5056,"Peter":5057,"back":5058,"wh":5059,"Ġcr":5060,"Ġones":5061,"Ġconver":5062,"andid":5063,"ĠOpen":5064,"Ġadm":5065,"ERV":5066,"Ġbuff":5067,"ĠCentre":5068,"Ġscheme":5069,"Ġsatisf":5070,"LIC":5071,"kt":5072,"nia":5073,"Ġ(âĤ¬":5074,"Ġarticle":5075,"Ġreforms":5076,"ĠSTATE":5077,"83":5078,"EF":5079,"Ġexerc":5080,"ĠInf":5081,"Ġtransl":5082,"Ġpresented":5083,"Ġcondition":5084,"osen":5085,"Thus":5086,"Ġconv":5087,"Ġsimpl":5088,"Ġexpend":5089,"Ġeuros":5090,"Ġslow":5091,"ĠDimas":5092,"ĠSummit":5093,"Number":5094,"enty":5095,"ĠChe":5096,"Ġ41":5097,"aby":5098,"Ġgreater":5099,"Ġplayer":5100,"ĠĠĠĠĠĠĠĠ":5101,"Cooperation":5102,"Opening":5103,"Focus":5104,"Ġerror":5105,"rel":5106,"ĠPar":5107,"ĠAp":5108,"ĠSo":5109,"ĠBest":5110,"ĠTur":5111,"ĠHuman":5112,"umn":5113,"ends":5114,"Ġchance":5115,"ountry":5116,"Expl":5117,"ĠIsrael":5118,"Ġfranchise":5119,"Ġtouch":5120,"ĠCyprus":5121,"ids":5122,"ĠDom":5123,"Ġexhib":5124,"ĠVII":5125,"ARY":5126,"Ġ03":5127,"Ġraised":5128,"Croatia":5129,"LI":5130,"ycl":5131,"Ġmem":5132,"estic":5133,"amber":5134,"ĠNational":5135,"Ġ300":5136,"avros":5137,"ĠProspect":5138,"Ġcommittee":5139,"Ġ285":5140,"Ġpoor":5141,"Ġvillage":5142,"ua":5143,"isely":5144,"Ġfisheries":5145,"Ġbase":5146,"Ġisland":5147,"Ġladies":5148,"ĠECON":5149,"ĠRuss":5150,"ĠOb":5151,"hengen":5152,"Ġavoid":5153,"Ġsole":5154,"iano":5155,"ĠProduct":5156,"uesday":5157,"Ġhands":5158,"Otherwise":5159,"Ġload":5160,"Ġreserved":5161,"Ġreservation":5162,"ĠADOP":5163,"mical":5164,"ĠGU":5165,"ague":5166,"Ġregular":5167,"rateful":5168,"Ġpressure":5169,"Ġaims":5170,"ĠAssociation":5171,"Ġviolence":5172,"82":5173,"cle":5174,"Ġfurn":5175,"Ġfigure":5176,"ĠCzech":5177,"ĠRest":5178,"Ġadjust":5179,"Ġconflic":5180,"Indeed":5181,"ĠTRANS":5182,"iciency":5183,"iated":5184,"ĠService":5185,"ĠDel":5186,"ĠDay":5187,"rasmus":5188,"Ġannual":5189,"Ġaccommodation":5190,"62":5191,"Ext":5192,"TC":5193,"overy":5194,"Ġfear":5195,"ĠSweden":5196,"Ġgrateful":5197,"Ġrecent":5198,"Ġefficient":5199,"Ġmajority":5200,"PLOY":5201,"ĠQU":5202,"inner":5203,"Ġsport":5204,"Ġsales":5205,"Ġgarden":5206,"Ġstyle":5207,"umption":5208,"agen":5209,"Ġentry":5210,"ika":5211,"ĠConst":5212,"Ġcarried":5213,"Nothing":5214,"Ġmedic":5215,"Ġdeveloped":5216,"rant":5217,"uk":5218,"ilateral":5219,"ĠCAP":5220,"oper":5221,"ĠUr":5222,"Ġbutton":5223,"Ġactivity":5224,"Ġtrading":5225,"Ġterrorism":5226,"ĠPhilippe":5227,"Ġax":5228,"ora":5229,"rian":5230,"Ġsuitable":5231,"oker":5232,"ancy":5233,"TIONS":5234,"gypt":5235,"Ġinvestigation":5236,"ĠForum":5237,"Greece":5238,"Ġmm":5239,"oto":5240,"ĠNov":5241,"ĠWall":5242,"EST":5243,"Ġindustrial":5244,"Ġcompleted":5245,"External":5246,"Ġperformance":5247,"ĠLinux":5248,"ĠDEFENCE":5249,"ĠBUSINESS":5250,"Ġexpenditure":5251,"Dec":5252,"sk":5253,"ĠMs":5254,"ĠItal":5255,"ĠBAR":5256,"Ġhighlight":5257,"Ġseparate":5258,"PREPAR":5259,"Ġmechanism":5260,"ĠPiebal":5261,"bably":5262,"oriz":5263,"Ġminute":5264,"Ġduty":5265,"Ġnuclear":5266,"ube":5267,"ghan":5268,"ĠCommunications":5269,"Review":5270,"Ġcarry":5271,"oot":5272,"alia":5273,"Ġstake":5274,"Ġhaving":5275,"ĠKosovo":5276,"Ġconfirm":5277,"criptive":5278,"Documents":5279,"ĠECONOMIC":5280,"ĠPiebalgs":5281,"Download":5282,"ĠPA":5283,"ĠWar":5284,"udge":5285,"avigation":5286,"Final":5287,"Ġpayments":5288,"Ġthroughout":5289,"Ġexisting":5290,"Ġsummit":5291,"Ġbrowser":5292,"Ġensure":5293,"ECspokesAntoine":5294,"Last":5295,"bourg":5296,"Ġbrought":5297,"Ġalb":5298,"Ġexcept":5299,"Ġ36":5300,"ĠVAT":5301,"Ġgets":5302,"Ġdiscount":5303,"Ġconfidence":5304,"Ġpackages":5305,"ĠSummary":5306,"Ġalternative":5307,"BR":5308,"PDO":5309,"atch":5310,"Ġsle":5311,"Ġpoll":5312,"Ġdon":5313,"ffee":5314,"Ġcommunity":5315,"Ġprotected":5316,"Ġcolle":5317,"Ġjoin":5318,"Ġmarked":5319,"razil":5320,"OB":5321,"elt":5322,"eting":5323,"Three":5324,"appoint":5325,"celand":5326,"ĠMediterranean":5327,"High":5328,"pid":5329,"yond":5330,"inter":5331,"ĠMiddle":5332,"Ġluck":5333,"ĠES":5334,"useum":5335,"UST":5336,"Ġnumbers":5337,"Ġfilm":5338,"UDG":5339,"Ġestablish":5340,"Ġvictims":5341,"56":5342,"vo":5343,"ute":5344,"ĠHot":5345,"ĠStavros":5346,"Ġemissions":5347,"ondon":5348,"ĠProspective":5349,"PLOYMENT":5350,"Af":5351,"Go":5352,"traq":5353,"onik":5354,"owers":5355,"amed":5356,"Ġefficiency":5357,"Ġcheap":5358,"Ġwinter":5359,"ĠManuel":5360,"ĠBugtraq":5361,"Ġengine":5362,"Ġmistake":5363,"RIS":5364,"uer":5365,"Ġ1000":5366,"ĠGovernment":5367,"ĠVER":5368,"Once":5369,"ĠYouth":5370,"Ġhighly":5371,"prene":5372,"Ġregistration":5373,"Ġcommitment":5374,"Traq":5375,"Under":5376,"cer":5377,"Ġil":5378,"reprene":5379,"Ġce":5380,"Ġpain":5381,"Ġinnov":5382,"ĠAuth":5383,"Ġstates":5384,"stein":5385,"ĠRele":5386,"ĠPROCED":5387,"Ġrecommendations":5388,"Ġdevelopments":5389,"Ġauthorities":5390,"Clos":5391,"ĠSecurityFocus":5392,"ĠBugTraq":5393,"Approval":5394,"Could":5395,"lad":5396,"ny":5397,"Ġdie":5398,"ĠBusiness":5399,"iable":5400,"Ġneg":5401,"ĠJo":5402,"ags":5403,"Ġprefer":5404,"mbuds":5405,"Ġswim":5406,"oose":5407,"Ġsan":5408,"ĠCarl":5409,"Ġlines":5410,"ĠBulgaria":5411,"Questions":5412,"Ġemb":5413,"Ġvisitors":5414,"ĠAsia":5415,"Ġappeal":5416,"Ġpurchase":5417,"Ġconsequences":5418,"ĠADOPTED":5419,"Prom":5420,"mp":5421,"isch":5422,"Ġsong":5423,"Ġfire":5424,"Ġfirm":5425,"Ġmobility":5426,"ĠServices":5427,"Ġsuper":5428,"Ġ52":5429,"ously":5430,"aves":5431,"Ġjustice":5432,"Ġscreen":5433,"Moreover":5434,"Ġconsidered":5435,"Ġparticipation":5436,"rasbourg":5437,"Phone":5438,"Ġsides":5439,"Ġcultural":5440,"Ġdoll":5441,"ĠFer":5442,"ief":5443,"Ġfeature":5444,"Ġinside":5445,"cedure":5446,"Ġrisks":5447,"Ġterrace":5448,"Air":5449,"Tra":5450,"mann":5451,"arily":5452,"ĠPE":5453,"ĠIran":5454,"Ġoblig":5455,"Ġplayers":5456,"mbol":5457,"Ġmeters":5458,"Ġimplemented":5459,"Ġlearning":5460,"NE":5461,"Rel":5462,"Ġbear":5463,"Ġstock":5464,"roud":5465,"Ġfinally":5466,"standing":5467,"Ġexplain":5468,"ĠReleases":5469,"DG":5470,"di":5471,"press":5472,"Ġcook":5473,"Ġpoverty":5474,"ĠMark":5475,"rich":5476,"Ġconsists":5477,"Ġdefault":5478,"Ġrepresented":5479,"Descriptive":5480,"73":5481,"gel":5482,"Ġer":5483,"ĠMod":5484,"resse":5485,"ĠFact":5486,"ĠDub":5487,"Ġdoor":5488,"ENS":5489,"ogle":5490,"Ġanyone":5491,"Ġproduced":5492,"Ġprim":5493,"Ġforms":5494,"ĠBarcelona":5495,"Ġapplications":5496,"Ġetc":5497,"Spec":5498,"72":5499,"84":5500,"EO":5501,"jour":5502,"Ġsell":5503,"ĠPrime":5504,"ĠBudget":5505,"ella":5506,"airman":5507,"1999":5508,"itute":5509,"Ġdeliber":5510,"Ġreferred":5511,"ecutive":5512,"Non":5513,"Ġ01":5514,"Ġwood":5515,"orthern":5516,"Ġplaces":5517,"ĠKore":5518,"Ġ43":5519,"ĠEuropeans":5520,"Ġdoesnt":5521,"ĠMaria":5522,"Commit":5523,"Ġadvice":5524,"Should":5525,"ĠFrank":5526,"Ġdeliver":5527,"ĠWhite":5528,"53":5529,"71":5530,"Det":5531,"nal":5532,"Ġcurrency":5533,"Ġda":5534,"Ġdistance":5535,"Ġvoice":5536,"anda":5537,"ĠUK":5538,"ĠUnit":5539,"Ġstarts":5540,"UNIC":5541,"Ġseriously":5542,"ĠAirport":5543,"LARG":5544,"MA":5545,"SUM":5546,"tes":5547,"itial":5548,"ĠIT":5549,"Ġcompon":5550,"Ġ1996":5551,"Ġmachine":5552,"59":5553,"ois":5554,"rehen":5555,"Ġwishes":5556,"Ġceleb":5557,"arus":5558,"Ġnames":5559,"available":5560,"prises":5561,"Ġplaying":5562,"ĠCoR":5563,"ustoms":5564,"Ġadvantage":5565,"EARCH":5566,"Ġtonnes":5567,"Bel":5568,"Breakfast":5569,"Ġwrite":5570,"Ġcast":5571,"Ġrenew":5572,"ĠSil":5573,"Ġexport":5574,"ĠLou":5575,"...?":5576,"Ġprecisely":5577,"Did":5578,"Ġvess":5579,"Ġvirt":5580,"occo":5581,"Ġplat":5582,"Ġdeterm":5583,"Ġplayed":5584,"Ġrepresents":5585,"Ġfrequ":5586,"Ġimpossible":5587,"TAC":5588,"iance":5589,"onio":5590,"itely":5591,"ĠGi":5592,"Ġmatch":5593,"Ġcarefully":5594,"Ġcatal":5595,"SKI":5596,"PREPARATION":5597,"eturn":5598,"osed":5599,"allery":5600,"Ġsufficient":5601,"ĠCommon":5602,"Ġurban":5603,"Ġnormal":5604,"Apart":5605,"Time":5606,"pret":5607,"inn":5608,"orial":5609,"Ġpure":5610,"Ġdates":5611,"Ġnights":5612,"Ġthous":5613,"ĠBAL":5614,"antly":5615,"ection":5616,"ĠJac":5617,"Ġworked":5618,"ĠSecretariat":5619,"Ġ1995":5620,"Ġinflu":5621,"Ġleaders":5622,"Federal":5623,"Link":5624,"Loud":5625,"Ġmer":5626,"Ġlength":5627,"ĠPAR":5628,"ĠSP":5629,"ĠBon":5630,"amic":5631,"ĠHungary":5632,"Ġplant":5633,"Ġagriculture":5634,"Ġwhite":5635,"Ġ84":5636,"Ġbelong":5637,"Ġlaun":5638,"Ġconfig":5639,"Ġeffects":5640,"ĠECU":5641,"Ġaffected":5642,"bit":5643,"sch":5644,"ĠPina":5645,"empt":5646,"Ġsuc":5647,"INVI":5648,"ACH":5649,"Europes":5650,"Ġcounter":5651,"communications":5652,"Ġroute":5653,"Ġanalysis":5654,"LARGEMENT":5655,"ML":5656,"date":5657,"net":5658,"ĠMalm":5659,"ĠSa":5660,"ĠSport":5661,"ĠBr":5662,"TEC":5663,"ĠCouncils":5664,"Ġlooks":5665,"Ġraise":5666,"Ġsets":5667,"Ġconstruction":5668,"TIVE":5669,"500":5670,"79":5671,"Tax":5672,"Ġir":5673,"Ġfit":5674,"itious":5675,"Ġreduction":5676,"ĠDVD":5677,"Ġclub":5678,"abil":5679,"Ġoffered":5680,"Ġsubmitted":5681,"Ġappears":5682,"ĠSpanish":5683,"Ġdepends":5684,"Act":5685,"Cod":5686,"Green":5687,"ses":5688,"Ġdigital":5689,"ental":5690,"Ġhour":5691,"ĠARE":5692,"ops":5693,"INE":5694,"ORG":5695,"Ġ88":5696,"2006":5697,"2008":5698,"ĠDECISIONS":5699,"Ġblack":5700,"atherine":5701,"Ġforest":5702,"ĠVassiliou":5703,"Ġspirit":5704,"Ġsucceed":5705,"76":5706,"Ġsal":5707,"ĠCast":5708,"usion":5709,"ĠSm":5710,"ĠBalk":5711,"sec":5712,"ANCE":5713,"ĠUp":5714,"INK":5715,"Ġarticles":5716,"Ġoverall":5717,"Ġlisted":5718,"ructures":5719,"Ġseconds":5720,"Companies":5721,"scribe":5722,"riminal":5723,"Ġdelivery":5724,"Ġbriefly":5725,"ĠAuditors":5726,"Ġremarks":5727,"Ġprofessional":5728,"FER":5729,"Great":5730,"Make":5731,"eep":5732,"ken":5733,"hest":5734,"Ġfresh":5735,"Ġmission":5736,"ĠMag":5737,"ĠAUD":5738,"Ġstreet":5739,"ishing":5740,"lli":5741,"Ġ73":5742,"pected":5743,"Ġreflect":5744,"ĠJanez":5745,"Ġdesigned":5746,"Ġdemocratic":5747,"OURT":5748,"ĠCOMMISSION":5749,"Ġarrival":5750,"Ġplanned":5751,"ĠMartin":5752,"Payments":5753,"Ġdelegation":5754,"ghanistan":5755,"74":5756,"Access":5757,"BE":5758,"IZ":5759,"MID":5760,"UE":5761,"no":5762,"Ġaffairs":5763,"Ġbecomes":5764,"ĠInc":5765,"Ġstore":5766,"Ġ08":5767,"Ġcommercial":5768,"Ġreference":5769,"Ġcontinues":5770,"Ġoperations":5771,"Ġeditors":5772,"Ġgrowing":5773,"ĠClimate":5774,"Everyone":5775,"Ġdamage":5776,"Ġjourney":5777,"Ġstraight":5778,"Ġborder":5779,"ĠDemoc":5780,"Ġplus":5781,"Ġremember":5782,"Agenda":5783,"Ġbooking":5784,"ariff":5785,"Ġcouple":5786,"ĠForestry":5787,"Group":5788,"ĠHa":5789,"ĠLE":5790,"ĠLondon":5791,"Ġcontrary":5792,"Ġ55":5793,"Ġuns":5794,"Ġequal":5795,"Ġcontrols":5796,"Ġparam":5797,"Ġaccounts":5798,"Select":5799,"ĠAmerican":5800,"ICI":5801,"Ġproud":5802,"Ġstring":5803,"ĠGentlemen":5804,"umb":5805,"2004":5806,"Ġsetting":5807,"Ġsurround":5808,"ĠIndia":5809,"Ġholidays":5810,"ĠPROCEDURE":5811,"UT":5812,"roduction":5813,"ĠCam":5814,"Ġreduced":5815,"ĠER":5816,"ECAF":5817,"Ġaccession":5818,"Ġtraffic":5819,"Exam":5820,"Ġfamous":5821,"Ġnewsletter":5822,"Ġsubsidi":5823,"YS":5824,"Ġsem":5825,"Ġcur":5826,"Ġcrime":5827,"ĠIr":5828,"ĠLszl":5829,"Ġheav":5830,"ĠUR":5831,"Ġprevention":5832,"Ġworldwide":5833,"Ġprovisions":5834,"afety":5835,"Ġbecame":5836,"COMMON":5837,"Lear":5838,"Norway":5839,"PRO":5840,"Ser":5841,"ĠMet":5842,"Ġconven":5843,"Ġconduct":5844,"estival":5845,"Ġwithdra":5846,"ender":5847,"eck":5848,"apter":5849,"Ġ51":5850,"Ġ56":5851,"Ġfollowed":5852,"Ġproposes":5853,"icking":5854,"Ġspeaking":5855,"Ġ282":5856,"ĠAssembly":5857,"Ġsuppl":5858,"Description":5859,"Regional":5860,"Ġsymbol":5861,"Ġcalc":5862,"Ġwonderful":5863,"gest":5864,"iot":5865,"ened":5866,"iling":5867,"imal":5868,"ĠRES":5869,"Ġ76":5870,"ICES":5871,"Ġconcrete":5872,"Statement":5873,"Ġmotor":5874,"Ġtargets":5875,"Ġanimal":5876,"Adopted":5877,"CD":5878,"HN":5879,"ĠAR":5880,"Ġprobably":5881,"Ġdisappoint":5882,"ĠFinland":5883,"Ġcontinued":5884,"Ġsecret":5885,"Ġlimits":5886,"IFE":5887,"78":5888,"Clear":5889,"Four":5890,"eib":5891,"Ġfruit":5892,"ĠSA":5893,"Ġstar":5894,"verse":5895,"Ġshopping":5896,"Ġchosen":5897,"aga":5898,"ipl":5899,"Ġcoast":5900,"Development":5901,"Ġoccas":5902,"ĠVassil":5903,"UDGET":5904,"Commitments":5905,"atal":5906,"orage":5907,"enary":5908,"Ġcoll":5909,"olk":5910,"ĠGÃ¼":5911,"ĠGrowth":5912,"ELL":5913,"inese":5914,"Ġspecies":5915,"Ġwinners":5916,"Additional":5917,"Ġambitious":5918,"Mod":5919,"ĠThat":5920,"Ġsold":5921,"Ġcars":5922,"icit":5923,"Ġlose":5924,"Ġworlds":5925,"ĠAndor":5926,"Managing":5927,"Deputy":5928,"SA":5929,"ais":5930,"Ġaward":5931,"Ġborders":5932,"Ġmid":5933,"Ġnet":5934,"ache":5935,"utin":5936,"ĠFramework":5937,"Ġanti":5938,"ĠHigh":5939,"Ġmeant":5940,"ĠKarel":5941,"Ġcovers":5942,"Ġcentury":5943,"Ġcontinu":5944,"Ġcollection":5945,"Ġsecure":5946,"Community":5947,"Ġbrand":5948,"Ġsupple":5949,"ĠCosta":5950,"Ġfarmers":5951,"ĠPotonik":5952,"63":5953,"NER":5954,"Rep":5955,"rum":5956,"ening":5957,"Ġcant":5958,"itate":5959,"add":5960,"Ġrat":5961,"Ġliber":5962,"ĠOmbuds":5963,"Ġ39":5964,"Ġdecide":5965,"Ġguidelines":5966,"ĠEng":5967,"ĠYour":5968,"Ġblue":5969,"Ġupdated":5970,"Ġdeveloping":5971,"Ġtourism":5972,"iability":5973,"KI":5974,"VIII":5975,"page":5976,"ener":5977,"omas":5978,"ĠPos":5979,"Ġgone":5980,"rain":5981,"Ġsteel":5982,"ĠVilla":5983,"ĠEnter":5984,"Ġsatisfied":5985,"Break":5986,"Digital":5987,"iro":5988,"Ġtodays":5989,"ĠMore":5990,"ĠEX":5991,"0027":5992,"obby":5993,"ILL":5994,"ĠREG":5995,"rimination":5996,"ĠPHP":5997,"58":5998,"David":5999,"Ġsorry":6000,"Ġcore":6001,"Ġfixed":6002,"acc":6003,"ector":6004,"ĠOL":6005,"ANT":6006,"Ġunemployment":6007,"aching":6008,"Ã¶r":6009,"ĠClub":6010,"ĠPRESS":6011,"ĠConsumer":6012,"Ġkitchen":6013,"DI":6014,"weg":6015,"Ġcas":6016,"Ġpension":6017,"Ġbur":6018,"Ġnor":6019,"Ġlos":6020,"ĠSingle":6021,"ĠDep":6022,"Ġship":6023,"Ġenorm":6024,"Ġperhaps":6025,"ĠUniversity":6026,"ometer":6027,"Ġopening":6028,"Ġdemon":6029,"Everything":6030,"Ġtrying":6031,"Ġsouth":6032,"Ġfa":6033,"roy":6034,"Ġgave":6035,"ĠOR":6036,"ruption":6037,"ĠInternal":6038,"Ġcohesion":6039,"Ġphase":6040,"ientific":6041,"Ġasking":6042,"ĠMARG":6043,"Ġmilk":6044,"Ġmilitary":6045,"ighbourhood":6046,"rust":6047,"ĠEAST":6048,"ĠRules":6049,"Ġshower":6050,"ĠOther":6051,"Ã¼b":6052,"Ġmeetings":6053,"Ġpromote":6054,"Ġcritical":6055,"Ġparticipate":6056,"box":6057,"Ġbalcon":6058,"**":6059,"During":6060,"PER":6061,"mission":6062,"Ġwid":6063,"ils":6064,"ĠCroatia":6065,"ĠAS":6066,"irth":6067,"Ġdele":6068,"ĠNetwork":6069,"abor":6070,"Ġclosely":6071,"ĠHead":6072,"ĠAsh":6073,"Ġprofile":6074,"appro":6075,"ĠLaw":6076,"ĠFlash":6077,"Small":6078,"Ġbuffet":6079,"Post":6080,"uction":6081,"Ġawa":6082,"atively":6083,"Ġball":6084,"Ġbaby":6085,"Ġbeyond":6086,"ĠGal":6087,"Ġexception":6088,"ĠNorway":6089,"ecilia":6090,"ĠPlay":6091,"Ġlessons":6092,"ĠUSA":6093,"Ġrecommendation":6094,"Ġmaterials":6095,"Ġdivided":6096,"Discover":6097,"ĠSheet":6098,"Copy":6099,"None":6100,"Rest":6101,"td":6102,"tained":6103,"zeg":6104,"Ġ;":6105,"ounce":6106,"Ġfold":6107,"entral":6108,"osc":6109,"acious":6110,"ivered":6111,"Ġsex":6112,"Ġadapt":6113,"Ġdebt":6114,"izes":6115,"egu":6116,"ACE":6117,"Ġsett":6118,"Ġ150":6119,"Ġintended":6120,"legal":6121,"ienna":6122,"Ġmethods":6123,"Ġwelcomes":6124,"Ġmountain":6125,"Ġadvantages":6126,"Ġexercise":6127,"Explan":6128,"Rem":6129,"Ref":6130,"lantic":6131,"met":6132,"ĠMer":6133,"ĠFA":6134,"Ġdeg":6135,"ĠOS":6136,"rick":6137,"Ġ05":6138,"OTAL":6139,"Choose":6140,"Ġvariety":6141,"going":6142,"ĠMARGINS":6143,"CK":6144,"Ġtack":6145,"Ġaverage":6146,"isations":6147,"Ġsqu":6148,"Ġpret":6149,"asures":6150,"Ġevaluation":6151,"Ġge":6152,"Ġnotice":6153,"ĠLocal":6154,"Ġ202":6155,"Ġdelay":6156,"Furthermore":6157,"Ġintervention":6158,"Ġletter":6159,"Ġtickets":6160,"mosp":6161,"sive":6162,"van":6163,"Ġign":6164,"eds":6165,"Ġblo":6166,"Ġvision":6167,"ĠInnovation":6168,"vely":6169,"Ġpercent":6170,"Ġplanning":6171,"ĠAuthority":6172,"INVITES":6173,"AJ":6174,"Ġcm":6175,"ĠMON":6176,"ĠOp":6177,"Ġregime":6178,"ĠCharl":6179,"under":6180,"Ġcommitted":6181,"Ġkept":6182,"Ġimprovement":6183,"ĠJohn":6184,"Ġcriticism":6185,"ĠItalian":6186,"DLE":6187,"Joint":6188,"hn":6189,"enger":6190,"alle":6191,"ĠFirst":6192,"ĠDavid":6193,"ĠTo":6194,"ĠTuesday":6195,"ĠLink":6196,"Ġrural":6197,"Thats":6198,"Ġimports":6199,"pective":6200,"Allow":6201,"Ġdelivered":6202,"Protection":6203,"Ġfactor":6204,"Political":6205,"Implementation":6206,"ĠFunds":6207,"hr":6208,"mit":6209,"ray":6210,"Ġsources":6211,"Ġbegan":6212,"ĠBern":6213,"Ġsup":6214,"Ġspoke":6215,"Ġpolitics":6216,"exico":6217,"Ġtopic":6218,"ĠFranz":6219,"Ġvessels":6220,"Fax":6221,"Ġbon":6222,"ĠCard":6223,"Ġforum":6224,"ĠPad":6225,"ĠSpecial":6226,"ĠRen":6227,"ĠLuc":6228,"ĠStand":6229,"Ġtyp":6230,"Ġauthority":6231,"ĠContribution":6232,"Ġintegrated":6233,"Ġapproximately":6234,"Herring":6235,"Ġautomatically":6236,"ĠSOCIAL":6237,"Ġswimming":6238,"free":6239,"kki":6240,"ilies":6241,"Ġhous":6242,"ĠCR":6243,"ĠPan":6244,"ĠBur":6245,"ĠTri":6246,"artment":6247,"Ġusually":6248,"ervation":6249,"Ġroll":6250,"anges":6251,"onds":6252,"Children":6253,"Ġblock":6254,"Ġparad":6255,"Ġinstallation":6256,"Ġbanks":6257,"ĠAbbott":6258,"Ġcategories":6259,"ĠKorea":6260,"(%":6261,"Cor":6262,"bania":6263,"oor":6264,"ores":6265,"ĠCOURT":6266,"Ġlake":6267,"acher":6268,"ĠTod":6269,"bsites":6270,"OMS":6271,"Ġspread":6272,"Ġrelates":6273,"Enter":6274,"Ġtechnologies":6275,"IGN":6276,"ĠOrgan":6277,"Employment":6278,"Has":6279,"nel":6280,"yd":6281,"Ġcities":6282,"Ġpurs":6283,"Ġlower":6284,"etitiveness":6285,"Ġearl":6286,"ĠIX":6287,"Ġste":6288,"ĠRO":6289,"charge":6290,"rupt":6291,"ATEG":6292,"Ġbusinesses":6293,"iscal":6294,"Resumption":6295,"Ġmoving":6296,"Ġhostel":6297,"Ġsatisfact":6298,"Ġtelephone":6299,"Ġpiece":6300,"BAN":6301,"ball":6302,"based":6303,"atible":6304,"Ġfraud":6305,"astern":6306,"ĠSam":6307,"Ġstri":6308,"ĠBan":6309,"ENLARGEMENT":6310,"inding":6311,"enced":6312,"Ġinvestments":6313,"Ġfacing":6314,"Research":6315,"Ġcamera":6316,"Ġdefinitely":6317,"ĠArea":6318,"Ġadvertising":6319,"Sustainable":6320,"osnia":6321,"Ġ38":6322,"TIS":6323,"Ġcomplic":6324,"Ġunf":6325,"Ġveget":6326,"379":6327,"Ġproceedings":6328,"Ġhonest":6329,"ĠDebian":6330,"Ġtruly":6331,"ĠSwiss":6332,"Ġaxis":6333,"Next":6334,"Ġcell":6335,"ala":6336,"Ġloss":6337,"ĠAc":6338,"ĠRober":6339,"ading":6340,"Ġuses":6341,"ĠOl":6342,"ĠJava":6343,"Ġscen":6344,"annes":6345,"STA":6346,"Ġintend":6347,"Booking":6348,"Ġmedium":6349,"ĠAssistance":6350,"Ġfulf":6351,"ÃĸM":6352,"Ġfailed":6353,"Ġhighest":6354,"Ġcontribute":6355,"Ġclients":6356,"Closure":6357,"CS":6358,"Dis":6359,"EESC":6360,"HA":6361,"Us":6362,"min":6363,"Ġpick":6364,"Ġinitial":6365,"oman":6366,"ette":6367,"ĠAut":6368,"Ġatmosp":6369,"ocated":6370,"look":6371,"erves":6372,"Ġ83":6373,"Ġextension":6374,"ĠAdd":6375,"Ġzone":6376,"Ġelement":6377,"porary":6378,"ĠGoogle":6379,"EP":6380,"List":6381,"Ġtitle":6382,"Ġsam":6383,"ett":6384,"Ġyouth":6385,"Ġvon":6386,"ĠTax":6387,"ECOMM":6388,"ĠEuropeAid":6389,"ĠProdi":6390,"Ġmetres":6391,"Ġexpensive":6392,"Declaration":6393,"Ġticket":6394,"rehensive":6395,"Dont":6396,"Ir":6397,"time":6398,"Ġfell":6399,"Ġtob":6400,"ĠFRE":6401,"Ġplug":6402,"elson":6403,"iane":6404,"Ġcool":6405,"Ġguide":6406,"Ġ1994":6407,"Ġdefined":6408,"ĠResults":6409,"ahn":6410,"ourage":6411,"Ġperfectly":6412,"ĠCapital":6413,"Ġinformed":6414,"Ġsleep":6415,"ĠBalkans":6416,"Bar":6417,"Democ":6418,"Legal":6419,"hab":6420,"ym":6421,"Ġstress":6422,"Ġconclusion":6423,"oples":6424,"outhern":6425,"Ġchann":6426,"Ġdisput":6427,"Ġcoffee":6428,"Ġassess":6429,"comp":6430,"Ġoperational":6431,"Without":6432,"Ġregarding":6433,"ĠAvra":6434,"Ġencourage":6435,"Ġpleasure":6436,"ĠAUDIT":6437,"69":6438,"Budget":6439,"CCI":6440,"Maj":6441,"table":6442,"Ġcandid":6443,"ĠCong":6444,"ĠPAP":6445,"ĠLam":6446,"Ġlib":6447,"Ġlift":6448,"ROW":6449,"poses":6450,"Ġdecor":6451,"Program":6452,"Ġserve":6453,"Ġrecommended":6454,"rength":6455,"Place":6456,"Ġmissing":6457,"forcement":6458,"ĠTRANSPORT":6459,"ĠAvraam":6460,"Amer":6461,"win":6462,"icip":6463,"ĠPack":6464,"ĠSund":6465,"uled":6466,"Ġhes":6467,"Thanks":6468,"Ġ97":6469,"ĠAndroulla":6470,"Ġbiggest":6471,"Ġinvolve":6472,"Ġoccup":6473,"Ġflexibility":6474,"ĠVassilious":6475,"Breakdown":6476,"tel":6477,"ione":6478,"Ġmir":6479,"001":6480,"stan":6481,"ĠBru":6482,"pper":6483,"Ġrich":6484,"Ġworse":6485,"Ġrefuge":6486,"Communication":6487,"Ġchanging":6488,"ĠIslands":6489,"ĠPRESID":6490,"ĠNotes":6491,"Ġflexible":6492,"onomic":6493,"Thirdly":6494,"Ġappreciate":6495,"Ġconflict":6496,"Better":6497,"Mal":6498,"Ġminister":6499,"ĠPed":6500,"lying":6501,"Ġweap":6502,"ĠBas":6503,"ĠBarn":6504,"ĠStud":6505,"ideos":6506,"Ġtranslation":6507,"Ġspend":6508,"Ġreasonable":6509,"Ġhearing":6510,"UBLIC":6511,"barometer":6512,"USSED":6513,"ĠDISCUSSED":6514,"repreneurs":6515,"DR":6516,"Dina":6517,"QL":6518,"Ġrein":6519,"Ġlay":6520,"ĠArab":6521,"ĠTele":6522,"ROM":6523,"Ġupg":6524,"Ġaccident":6525,"Ġrecently":6526,"Ġscope":6527,"ĠGeorge":6528,"Ġ753":6529,"Ġquotas":6530,"Ġforecast":6531,"Ġindependent":6532,"USTOMS":6533,"Ġenormous":6534,"Cap":6535,"GO":6536,"Joe":6537,"Ġtests":6538,"Ġformer":6539,"ĠPost":6540,"ffect":6541,"Ġfindings":6542,"Ġrequests":6543,"Ġassoc":6544,"Ġruns":6545,"ĠWORK":6546,"Ġmeaning":6547,"SSON":6548,"Ġgovernance":6549,"UNICATIONS":6550,"MIDDLE":6551,"BA":6552,"isa":6553,"Ġsnow":6554,"ĠIS":6555,"Ġstrength":6556,"ĠDR":6557,"ript":6558,"Ġdisposal":6559,"cluding":6560,"Ġsometimes":6561,"argin":6562,"eban":6563,"parent":6564,"CCCC":6565,"holders":6566,"ĠDimit":6567,"Ġregulations":6568,"Ġeyes":6569,"ĠMcC":6570,"ĠDenmark":6571,"Ġdeliberation":6572,"Global":6573,"Hence":6574,"aud":6575,"Ġtours":6576,"itect":6577,"Ġbug":6578,"Ġtold":6579,"ima":6580,"ĠDI":6581,"ista":6582,"ĠLtd":6583,"Ġseek":6584,"ĠProf":6585,"itiative":6586,"Ġskin":6587,"Ġwalking":6588,"Ġ0475":6589,"Ġdisplayed":6590,"Ġemployees":6591,"Ġargument":6592,"enhagen":6593,"Ġalbum":6594,"Ġsanctions":6595,"ĠIrish":6596,"ĠAUDITORS":6597,"NL":6598,"Presse":6599,"Vb":6600,"gent":6601,"with":6602,"ouble":6603,"Ġsports":6604,"rak":6605,"ĠFIS":6606,"ĠGl":6607,"ĠGold":6608,"ĠHen":6609,"Ġrise":6610,"Ġcontrad":6611,"posit":6612,"ĠChamber":6613,"Ġadoption":6614,"Ġsurpr":6615,"Ġtasks":6616,"Ġinstrument":6617,"aughter":6618,"Ġdisease":6619,"ĠHotels":6620,"Col":6621,"MER":6622,"vate":6623,"rock":6624,"Ġeat":6625,"Ġexists":6626,"ANG":6627,"ĠVAN":6628,"ĠVinc":6629,"Ġ49":6630,"ountries":6631,"Stat":6632,"Ġrapid":6633,"Ġleads":6634,"Come":6635,"Members":6636,"SC":6637,"eld":6638,"Ġgir":6639,"urb":6640,"ĠBO":6641,"ĠBrazil":6642,"ĠTechnical":6643,"Ġ400":6644,"arliaments":6645,"Ġscript":6646,"comed":6647,"Ġcolour":6648,"Agreement":6649,"Ġrelationship":6650,"Ġrestaurants":6651,"sequently":6652,"ĠACP":6653,"Christopher":6654,"TECTION":6655,"Ġearlier":6656,"Michael":6657,"REL":6658,"TON":6659,"border":6660,"uf":6661,"vi":6662,"itage":6663,"Ġded":6664,"Ġbecoming":6665,"ĠSpa":6666,"reshold":6667,"ulated":6668,"Ġweather":6669,"ĠDial":6670,"Ġplaced":6671,"Ġagencies":6672,"eren":6673,"Ġproduce":6674,"ĠProject":6675,"Ġpropose":6676,"uxury":6677,"elfare":6678,"Ġeasier":6679,"Ġshortly":6680,"Ġshared":6681,"Ġglass":6682,"Ġinstalled":6683,"Ġamounts":6684,"Ġsuggest":6685,"ĠErkki":6686,".(":6687,"Ne":6688,"POL":6689,"SEN":6690,"ipe":6691,"Ġfee":6692,"ĠCla":6693,"ĠMED":6694,"iger":6695,"ĠBro":6696,"ĠLo":6697,"urement":6698,"Ġworry":6699,"Ġenh":6700,"ugos":6701,"Ġmodels":6702,"Ġentries":6703,"ients":6704,"Ġdistribution":6705,"Ġleading":6706,"Ġmessages":6707,"eesc":6708,"Ġyesterday":6709,"()":6710,"Education":6711,"LY":6712,"Text":6713,"oring":6714,"asy":6715,"Ġstorage":6716,"Ġweight":6717,"riers":6718,"ĠHenn":6719,"ĠChinese":6720,"Ġinvite":6721,"Ġcourses":6722,"rengthening":6723,"Ġsolve":6724,"Ġsilence":6725,"contin":6726,"Ġmandate":6727,"Ġatmosphere":6728,"SH":6729,"WE":6730,"Ġshipping":6731,"Ġrace":6732,"ĠVienna":6733,"Ġdebates":6734,"Real":6735,"Ġcustoms":6736,"ĠAnti":6737,"Ġdevice":6738,"Ġpleasant":6739,"ĠCasino":6740,"Ġrailway":6741,"Ġelectricity":6742,"RESEARCH":6743,"Ġbalcony":6744,"Elect":6745,"IO":6746,"RIT":6747,"cell":6748,"off":6749,"Ġfant":6750,"Ġdied":6751,"icro":6752,"ethe":6753,"stat":6754,"ĠOffic":6755,"Ġresort":6756,"ĠKy":6757,"iple":6758,"Ġunion":6759,"ĠRev":6760,"EMPLOYMENT":6761,"Ġinterpret":6762,"Ġrequested":6763,"Ġversions":6764,"riday":6765,"Ġfailure":6766,"sterdam":6767,"Ġdescrib":6768,"Ġinnovative":6769,"Sch":6770,"Ġthreshold":6771,"Ġunivers":6772,"Start":6773,"ittees":6774,"ĠCohesion":6775,"ĠResort":6776,"ĠQuestions":6777,"Ġwelcomed":6778,"ATEGY":6779,"Market":6780,"MEM":6781,"Title":6782,"nos":6783,"night":6784,"Ġsn":6785,"Ġwall":6786,"ĠCamp":6787,"ĠEgypt":6788,"ĠTom":6789,"openhagen":6790,"elles":6791,"Ġwhom":6792,"Ġ71":6793,"IIa":6794,"Ġprize":6795,"ierre":6796,"ĠAmsterdam":6797,"Ġannounc":6798,"Ġstrongly":6799,"Ġexplanation":6800,"ĠGeorgiev":6801,"Ġcommitments":6802,"Ġsurvey":6803,"ĠSTATES":6804,"ĠHennon":6805,"Type":6806,"VEN":6807,"han":6808,"hof":6809,"orf":6810,"Ġspl":6811,"Ġcod":6812,"ĠJoint":6813,"nown":6814,"Ġcoordination":6815,"Ġspacious":6816,"Ġundert":6817,"Ġmode":6818,"ĠRepresentatives":6819,"ĠConf":6820,"ĠXIV":6821,"Ġflat":6822,"Ġbegins":6823,"ĠMedia":6824,"ĠPalest":6825,"HU":6826,"Rue":6827,"fers":6828,"Ġsand":6829,"ĠDecision":6830,"Ġlif":6831,"TEIN":6832,"economic":6833,"Ġsomeone":6834,"Reform":6835,"Again":6836,"onym":6837,"Ġeye":6838,"ĠGeorgievas":6839,"GL":6840,"Joh":6841,"Situation":6842,"ÃŁ":6843,"Ġtill":6844,"ĠAlp":6845,"Ġvital":6846,"forums":6847,"bert":6848,"ogether":6849,"Ġproduc":6850,"ibly":6851,"Ġformal":6852,"oliday":6853,"Ġcreation":6854,"Ġfamilies":6855,"Ġconstruct":6856,"ĠShar":6857,"CA":6858,"fl":6859,"ugh":6860,"year":6861,"Ġwon":6862,"aru":6863,"Ġband":6864,"ĠIceland":6865,"ĠRoom":6866,"ader":6867,"ĠGr":6868,"active":6869,"ĠWord":6870,"agues":6871,"Ġunc":6872,"ancell":6873,"Ġconcent":6874,"oyal":6875,"Enlargement":6876,"ĠAnna":6877,"azza":6878,"Ġsigned":6879,"Ġflight":6880,"UNITY":6881,"Ġpromotion":6882,"Ġslight":6883,"ĠManagement":6884,"Ġinfringements":6885,"Ġsuggestions":6886,"journment":6887,"ĠCoRs":6888,"ĠAshton":6889,"BERG":6890,"Data":6891,"Fran":6892,"ko":6893,"Ġic":6894,"Ġmigration":6895,"Ġgain":6896,"Ġ66":6897,"Ġinstruct":6898,"ĠYugos":6899,"Ġextent":6900,"rises":6901,"ĠAnnual":6902,"Adjournment":6903,"Ġfactors":6904,"Ġpurposes":6905,"Ġconsumption":6906,"tlement":6907,"porate":6908,"Ġvacation":6909,"Sometimes":6910,"ĠRussian":6911,"Ġplatform":6912,"Ġtobacco":6913,"El":6914,"Mil":6915,"Neelie":6916,"TUR":6917,"Ġhop":6918,"ĠData":6919,"Ġrub":6920,"ANE":6921,"akistan":6922,"ifth":6923,"Ġsugar":6924,"ellite":6925,"ESTERN":6926,"Ġaccomp":6927,"ĠDEVELOPMENT":6928,"Ġrecovery":6929,"Ġmanage":6930,"ĠChristian":6931,"Ġmoved":6932,"Ġdefinition":6933,"Ġlicense":6934,"Ġterrit":6935,"Ġdrugs":6936,"Ġlaunched":6937,"Def":6938,"MAR":6939,"nor":6940,"Ġcy":6941,"Ġyoure":6942,"amily":6943,"Ġasylum":6944,"TEM":6945,"iviane":6946,"Ġadopt":6947,"Ġdescription":6948,"Ġcourt":6949,"IRA":6950,"Currently":6951,"Mediterranean":6952,"ĠSlovenia":6953,"AX":6954,"Ge":6955,"Jon":6956,"ĠAID":6957,"illing":6958,"Ġstructural":6959,"ĠRome":6960,"stood":6961,"unis":6962,"endar":6963,"Ġsaw":6964,"Ġarms":6965,"Ġboot":6966,"AGE":6967,"Ġgenu":6968,"ABLE":6969,"Ġstudents":6970,"rictive":6971,"ĠBoard":6972,"Ġsubsidiarity":6973,"Return":6974,"TOTAL":6975,"what":6976,"zone":6977,"rej":6978,"Ġtheme":6979,"Ġforgot":6980,"ĠML":6981,"Ġyoull":6982,"ĠOne":6983,"Ġcontroll":6984,"ĠKat":6985,"OUL":6986,"retary":6987,"Androulla":6988,"Ġphys":6989,"Ġinfo":6990,"ĠReding":6991,"Ġcompetitiveness":6992,"Ġsubstances":6993,"ĠMalta":6994,"OJA":6995,"ĠMEETING":6996,"ĠTechnology":6997,"Ġstrategic":6998,"RITTEN":6999,"Anc":7000,"OK":7001,"Out":7002,"VIS":7003,"ying":7004,"rees":7005,"Ġbirth":7006,"ĠMand":7007,"Ġearn":7008,"Ġgiving":7009,"ĠRa":7010,"unction":7011,"ĠGood":7012,"Ġseven":7013,"uba":7014,"Ġgoals":7015,"INIS":7016,"Ġcommand":7017,"Ġmanual":7018,"Ġpossibility":7019,"Ġconfir":7020,"Notes":7021,"Ġpresentation":7022,"Ġexpand":7023,"ĠAfghanistan":7024,"Ġurgently":7025,"Ġdemands":7026,"Ġdestroy":7027,"MW":7028,"anas":7029,"Ġpas":7030,"ĠPower":7031,"ĠSpe":7032,"acing":7033,"ĠLib":7034,"udan":7035,"Ġque":7036,"everal":7037,"athan":7038,"viously":7039,"ABIL":7040,"Consumer":7041,"Ġguaranteed":7042,"ĠOnline":7043,"Ġemergency":7044,"ĠOmbudsman":7045,"wegian":7046,"AU":7047,"Tr":7048,"Val":7049,"World":7050,"zen":7051,"Ġson":7052,"etable":7053,"ĠEnd":7054,"ĠSociety":7055,"ĠSERV":7056,"ado":7057,"ĠTim":7058,"ustral":7059,"ĠGran":7060,"ĠLi":7061,"Ġcomprehensive":7062,"Ġ77":7063,"Ġspot":7064,"Health":7065,"Ġmainly":7066,"Ġexpress":7067,"Ġorganised":7068,"Ġ2731":7069,"Ġarrived":7070,"Ġrental":7071,"Ġobviously":7072,"Ġbottom":7073,"Afric":7074,"Learn":7075,"Dr":7076,"Nat":7077,"from":7078,"how":7079,"hotel":7080,"reens":7081,"Ġpill":7082,"Ġhom":7083,"ĠPa":7084,"Ġwebsites":7085,"Ġcontents":7086,"pty":7087,"Ġfinished":7088,"Ann":7089,"ĠYork":7090,"ĠRegion":7091,"Ġinvestig":7092,"ĠResolution":7093,"Ġestate":7094,"Ġcauses":7095,"Ġcharacters":7096,"Ġvehicle":7097,"FORMATION":7098,"Ġrepeat":7099,"Improving":7100,"ĠBritish":7101,"ECOMMUNICATIONS":7102,"hez":7103,"ĠAlexand":7104,"Ġec":7105,"Ġearth":7106,"Ġgold":7107,"Ġgolf":7108,"ĠFre":7109,"ĠFuture":7110,"ĠDis":7111,"ĠVAL":7112,"Ġdelight":7113,"quiry":7114,"Ġsectors":7115,"Ġfourth":7116,"Ġtopics":7117,"ifying":7118,"Ġdiscussions":7119,"imbab":7120,"Ġsuspend":7121,"ĠBaltic":7122,"Ġcircum":7123,"Ġharmon":7124,"Looking":7125,"Ġpreparation":7126,"Ġgranted":7127,"SUMER":7128,"ĠJacques":7129,"ebanon":7130,"etheless":7131,"Nob":7132,"Sk":7133,"ih":7134,"Ġsustain":7135,"Ġbi":7136,"ĠAT":7137,"ĠEF":7138,"ido":7139,"ĠIND":7140,"ĠHol":7141,"Ġseat":7142,"ĠNi":7143,"action":7144,"Ġimag":7145,"Ġ59":7146,"Ġoutput":7147,"ĠProcedure":7148,"Ġtransparent":7149,"Ġinstead":7150,"ĠIsland":7151,"ĠControl":7152,"Ġmembership":7153,"ĠPalace":7154,"Ġdevices":7155,"Ġarrangements":7156,"Copyright":7157,"Explanations":7158,"Set":7159,"oes":7160,"set":7161,"Ġult":7162,"Ġcash":7163,"Ġfram":7164,"Ġpresidency":7165,"ario":7166,"Ġboy":7167,"lean":7168,"Ġhomepage":7169,"Ġrecon":7170,"ĠErasmus":7171,"ulations":7172,"pped":7173,"ĠDEL":7174,"unk":7175,"ocate":7176,"oken":7177,"Ġdivers":7178,"ĠProt":7179,"USTR":7180,"ILD":7181,"Ġintention":7182,"aza":7183,"Priorities":7184,"Ġlogo":7185,"Ġpattern":7186,"Ġmovie":7187,"Overview":7188,"According":7189,"Ġradio":7190,"ĠRoad":7191,"Ġresolved":7192,"Ġcomponents":7193,"Several":7194,"wer":7195,"yt":7196,"ĠASS":7197,"oles":7198,"ĠTU":7199,"ĠHar":7200,"Ġallows":7201,"lications":7202,"oldova":7203,"Ġmaintain":7204,"Ġattack":7205,"Ġchemical":7206,"Ġpersonally":7207,"ĠXII":7208,"Ġbalanced":7209,"Ġafford":7210,"Ġopposed":7211,"Ġtemper":7212,"ĠPrize":7213,"ĠPeace":7214,"ĠFerre":7215,"Ġcomplicated":7216,"Cre":7217,"Mac":7218,"SL":7219,"Vass":7220,"zy":7221,"Ġcold":7222,"Ġparliament":7223,"Ġnavigation":7224,"ĠCECAF":7225,"Ġforth":7226,"ĠMin":7227,"ĠFull":7228,"struction":7229,"ĠGreat":7230,"Ġexports":7231,"ĠLA":7232,"inea":7233,"abel":7234,"Ġcompatible":7235,"Ġ79":7236,"Ġ600":7237,"ECU":7238,"ĠChange":7239,"Ġ800":7240,"Ġfinance":7241,"Structural":7242,"Ġdiscover":7243,"Ġacquis":7244,"ĠExecutive":7245,"Ġoperating":7246,"Ġeditor":7247,"Ġphotograph":7248,"Ġesc":7249,"Ġintroduced":7250,"Ġlikely":7251,"Ġconvinc":7252,"zegov":7253,"CUSTOMS":7254,"LAV":7255,"mm":7256,"icious":7257,"eta":7258,"stances":7259,"Ġdog":7260,"ĠLand":7261,"Inc":7262,"Ġtrav":7263,"undred":7264,"Ġfunded":7265,"Ġboat":7266,"Ġpassed":7267,"2012":7268,"Ġtesting":7269,"Composition":7270,"ĠBlack":7271,"Ġreplace":7272,"Ġdeparture":7273,"Ġpretty":7274,"imbabwe":7275,"zegovina":7276,"Homepage":7277,"KA":7278,"PUBLIC":7279,"South":7280,"bl":7281,"Ġtab":7282,"inos":7283,"itz":7284,"ĠCa":7285,"ida":7286,"Ġeight":7287,"Ġnoted":7288,"ĠBud":7289,"ando":7290,"fficking":7291,"Ġplenty":7292,"ĠVIII":7293,"Ġ53":7294,"Ġdischarge":7295,"Ġmanaged":7296,"Ġprovision":7297,"Ġnumer":7298,"Ġtaxation":7299,"Ġcombat":7300,"Ġmanufacture":7301,"Ġhistoric":7302,"Aud":7303,"Ra":7304,"son":7305,"Ġtaste":7306,"het":7307,"inions":7308,"Ġpermanent":7309,"Ġnone":7310,"ĠCode":7311,"raid":7312,"unich":7313,"ĠOut":7314,"alled":7315,"Ġ42":7316,"Ġupload":7317,"ĠReform":7318,"ĠCommunities":7319,"IRON":7320,"Ġdeficit":7321,"Ġsigns":7322,"Ġinsp":7323,"engers":7324,"Ġhealthy":7325,"Ġevidence":7326,"Ġappropriations":7327,"ĠBALK":7328,"EY":7329,"Pla":7330,"Prices":7331,"Sy":7332,"lt":7333,"rent":7334,"eneg":7335,"Ġswe":7336,"Ġpm":7337,"Ġparent":7338,"Ġnorth":7339,"Ġreduce":7340,"ĠBay":7341,"ema":7342,"ĠGer":7343,"Ġusual":7344,"Innovation":7345,"Ġcontest":7346,"reements":7347,"igned":7348,"Ġrock":7349,"Ġprej":7350,"Ġscale":7351,"Ġremoved":7352,"Ġattend":7353,"Ġcorner":7354,"Ġexpert":7355,"Ġenterprises":7356,"Ġhardly":7357,"ĠCompetition":7358,"Ġimmediate":7359,"iliouEU":7360,"Apartment":7361,"ĠAREA":7362,"Lszl":7363,"Much":7364,"MED":7365,"View":7366,"VIRON":7367,"Ġhit":7368,"ige":7369,"Ġmeat":7370,"ORD":7371,"Ġseeing":7372,"ATO":7373,"Ġcents":7374,"witch":7375,"Exc":7376,"ĠAndris":7377,"ashion":7378,"Ġlaws":7379,"ĠAdminist":7380,"Ġcondem":7381,"SOCIAL":7382,"Ġexhibition":7383,"ĠMalmstrÃ¶m":7384,"ĠLinks":7385,"VassiliouEU":7386,"VIRONMENT":7387,"Cong":7388,"EB":7389,"Full":7390,"RA":7391,"jo":7392,"xelles":7393,"Ġcriminal":7394,"Ġbag":7395,"Ġhall":7396,"ĠPay":7397,"ĠPER":7398,"Ġnotes":7399,"ĠDiam":7400,"aming":7401,"Ġplants":7402,"Ġadvent":7403,"Ġagency":7404,"ECH":7405,"ECLAR":7406,"Ġspeakers":7407,"Ġextended":7408,"Progress":7409,"Ġfavor":7410,"ĠAnnex":7411,"Ġrealistic":7412,"Ġpatent":7413,"Consult":7414,"Ġpenal":7415,"Ġoccasion":7416,"Emer":7417,"FIN":7418,"ga":7419,"lam":7420,"arger":7421,"elia":7422,"ĠMann":7423,"ĠPla":7424,"Ġgallery":7425,"uraru":7426,"Ġprospect":7427,"ĠFil":7428,"ades":7429,"Ġrid":7430,"udicial":7431,"Ġenquiries":7432,"appe":7433,"Ġunfortunately":7434,"Ġscand":7435,"Ġsched":7436,"Ġentered":7437,"Ġperspective":7438,"Ġanswered":7439,"Expected":7440,"cohol":7441,"Ġlots":7442,"Ġbooks":7443,"Ġdealing":7444,"Ġtradition":7445,"Ġabsolute":7446,"Ġadministration":7447,"Ġcourage":7448,"olo":7449,"ĠRos":7450,"Ġalt":7451,"ĠFire":7452,"ĠTAC":7453,"quality":7454,"ĠGN":7455,"ĠLas":7456,"ĠNice":7457,"ĠVen":7458,"ĠStar":7459,"Ġcompli":7460,"ternoon":7461,"ensus":7462,"ĠCharter":7463,"Ġtaxes":7464,"Introduction":7465,"Available":7466,"Ġliberal":7467,"Nobody":7468,"300":7469,"DA":7470,"FA":7471,"Food":7472,"gence":7473,"Ġfle":7474,"Ġdark":7475,"Ġdyn":7476,"ĠPact":7477,"Ġneither":7478,"ĠHost":7479,"Ġplenary":7480,"Ġcloser":7481,"Ġfinish":7482,"Ġpossibilities":7483,"arming":7484,"Ġaccessible":7485,"Adv":7486,"Ġamended":7487,"ĠBeach":7488,"Ġdealt":7489,"Ġpromot":7490,"aurant":7491,"Ġsafegu":7492,"Ġarguments":7493,"ĠSTRATEGY":7494,"ĠTourism":7495,"Ġcolleagues":7496,"ĠPaduraru":7497,"Jonathan":7498,"WESTERN":7499,"iant":7500,"ĠCopenhagen":7501,"ĠMat":7502,"ĠSim":7503,"cean":7504,"Ġexit":7505,"Ġexclud":7506,"ifies":7507,"Ġreserve":7508,"Ġrose":7509,"posed":7510,"Ġ61":7511,"EDUC":7512,"Ġ95":7513,"Ġopens":7514,"Ġeverybody":7515,"Ġguard":7516,"Ġ250":7517,"ĠSchool":7518,"Ġsummary":7519,"TAX":7520,"Ġgovernments":7521,"Ġafraid":7522,"Ġcharges":7523,"Ġnegative":7524,"ĠOpinion":7525,"Anca":7526,"ĠBALKANS":7527,"BUDGET":7528,"Deb":7529,"GA":7530,"OOD":7531,"craft":7532,"Ġfat":7533,"Ġmix":7534,"inger":7535,"ĠCAR":7536,"ctor":7537,"Ġhair":7538,"ĠBut":7539,"Ġdeposit":7540,"ĠStability":7541,"aret":7542,"Ġpolice":7543,"Ġdiscrimination":7544,"Exper":7545,"unicip":7546,"AMEW":7547,"Ġsignal":7548,"Ġlearned":7549,"ĠWhy":7550,"AMEWORK":7551,"doc":7552,"je":7553,"mal":7554,"Ġought":7555,"inations":7556,"Ġmother":7557,"ĠSur":7558,"emy":7559,"ĠNO":7560,"ĠStano":7561,"Ġsaved":7562,"Ġeverywhere":7563,"Ġdeserves":7564,"Ġ1993":7565,"Ġaccessed":7566,"Ġturned":7567,"Ġconsideration":7568,"Ġlesson":7569,"ĠSchengen":7570,"Ġwarning":7571,"ĠACTION":7572,"Simply":7573,"while":7574,"ĠFISCH":7575,"Il":7576,"Year":7577,"ror":7578,"Ġtariff":7579,"reme":7580,"anim":7581,"ito":7582,"Ġinhab":7583,"Ġmac":7584,"vere":7585,"ĠSee":7586,"ĠSatur":7587,"ura":7588,"Ġstrict":7589,"Ġprohib":7590,"ulate":7591,"rif":7592,"endments":7593,"ially":7594,"ROL":7595,"ERN":7596,"Ġquant":7597,"jective":7598,"ĠChairman":7599,"ĠPlayer":7600,"Ġcareful":7601,"ĠWesteren":7602,"Monica":7603,"ĠSoft":7604,"ĠPedro":7605,"CZ":7606,"PT":7607,"Search":7608,"cy":7609,"gr":7610,"ht":7611,"Ġmut":7612,"ĠAward":7613,"oster":7614,"uties":7615,"ĠRSS":7616,"ĠTar":7617,"Ġexclusive":7618,"ĠOld":7619,"ĠWater":7620,"ĠKar":7621,"Ġdisabled":7622,"Ġactual":7623,"Ġspoken":7624,"Ġoverview":7625,"overn":7626,"Ġdialog":7627,"ĠTorres":7628,"Clearly":7629,"RELATIONS":7630,"ITER":7631,"Table":7632,"km":7633,"Ġcott":7634,"ĠCrisis":7635,"Ġongoing":7636,"ĠNic":7637,"Ġ62":7638,"place":7639,"nowledge":7640,"Ġprograms":7641,"Ġbudgetary":7642,"ĠMEMBER":7643,"idden":7644,"ĠSupport":7645,"ĠSkype":7646,"Ġadministrative":7647,"Ġweapons":7648,"Ben":7649,"FINANCIAL":7650,"Jan":7651,"Kingdom":7652,"MAN":7653,"Oper":7654,"miss":7655,"Ġchat":7656,"Ġtoler":7657,"Ġdinner":7658,"ĠEL":7659,"imated":7660,"Ġ47":7661,"INA":7662,"OUS":7663,"ĠUnions":7664,"Ġmarketing":7665,"Ġvisible":7666,"Ġattached":7667,"Ġelectronic":7668,"Ġdriving":7669,"Ġarrive":7670,"ĠCanada":7671,"Ġaccordingly":7672,"Ġafternoon":7673,"Ġhesitate":7674,"GEN":7675,"Long":7676,"Par":7677,"Youth":7678,"my":7679,"nam":7680,"oj":7681,"erce":7682,"oun":7683,"Ġmiddle":7684,"icated":7685,"ĠCecilia":7686,"Ġgift":7687,"ĠDa":7688,"portion":7689,"aken":7690,"allas":7691,"ESTIONS":7692,"Ġsav":7693,"ileo":7694,"Ġdeserve":7695,"ĠEurobarometer":7696,"Ġbuildings":7697,"ĠFranc":7698,"Play":7699,"ratulations":7700,"Ġvolume":7701,"Ġbattle":7702,"Obviously":7703,"Ġspring":7704,"Ġmemory":7705,"Fi":7706,"ties":7707,"Ġfax":7708,"ĠAid":7709,"Ġvideos":7710,"Ġstick":7711,"ĠFriday":7712,"lication":7713,"Ġresource":7714,"rown":7715,"Ġpred":7716,"Quite":7717,"Ġempty":7718,"ĠMarian":7719,"Ġassist":7720,"Ġincor":7721,"Conf":7722,"Ġ229":7723,"Climate":7724,"ĠAfrican":7725,"Ġconnected":7726,"Ġcatch":7727,"Ġdomain":7728,"ĠTeam":7729,"ĠEstonia":7730,"Ġriver":7731,"ĠTodd":7732,"Plaice":7733,"Jo":7734,"MIT":7735,"Wald":7736,"gage":7737,"Ġpil":7738,"Ġdry":7739,"ila":7740,"Ġhum":7741,"ĠMove":7742,"ĠIC":7743,"ĠTerm":7744,"ĠGra":7745,"ĠGree":7746,"Ġrul":7747,"Ġlie":7748,"Ġmerely":7749,"Ġunderstood":7750,"egot":7751,"Ġrelation":7752,"ĠLeon":7753,"1998":7754,"scape":7755,"ĠAntonio":7756,"Ġpowerful":7757,"Ġtourist":7758,"ĠMonetary":7759,"ascal":7760,"Intervention":7761,"ĠWallstrÃ¶m":7762,"Ġsuperv":7763,"ĠDimitri":7764,"101":7765,"IEL":7766,"laga":7767,"making":7768,"migration":7769,"site":7770,"sper":7771,"ĠMill":7772,"irk":7773,"ĠBrian":7774,"ĠLithuania":7775,"ARE":7776,"Ġrow":7777,"Ġavail":7778,"Ġfinances":7779,"USSION":7780,"Ġdesired":7781,"Ġ1992":7782,"Ġcorresp":7783,"Ġbehav":7784,"Ġolder":7785,"Ġorganisations":7786,"Ġlatter":7787,"Prepar":7788,"Ġdestination":7789,"Ġmountains":7790,"Accession":7791,"ĠBelarus":7792,"ĠNovak":7793,"ischler":7794,"continuation":7795,"Ġproducers":7796,")?":7797,"410":7798,"Fisheries":7799,"Ġerr":7800,"ester":7801,"Ġfrag":7802,"Ġpowers":7803,"rops":7804,"ctic":7805,"ĠMult":7806,"ĠSC":7807,"Ġonto":7808,"emark":7809,"ĠLife":7810,"ĠVill":7811,"Ġobst":7812,"Ġfunctions":7813,"Ġskills":7814,"Ġelection":7815,"Ġdiscussing":7816,"acedonia":7817,"Ġidentified":7818,"Ġarchitect":7819,"Ġobserved":7820,"ĠDISCUSSION":7821,"Ġcatalogue":7822,"Ġthousand":7823,"Ġwithdraw":7824,"iplom":7825,"Ġdescribed":7826,"Keep":7827,"TY":7828,"__":7829,"but":7830,"hne":7831,"Ġsoul":7832,"Ġcos":7833,"edd":7834,"Ġduties":7835,"ingu":7836,"ĠRich":7837,"ĠBre":7838,"Ġant":7839,"opol":7840,"ĠGMO":7841,"ĠHub":7842,"TEE":7843,"ĠWith":7844,"Ġverified":7845,"ellig":7846,"ĠStructural":7847,"onte":7848,"lah":7849,"Ġunit":7850,"Ġspect":7851,"izing":7852,"Ġlaunch":7853,"Conc":7854,"Ġconsiderable":7855,"Ġ....":7856,"Ġmultiple":7857,"Americ":7858,"MEMO":7859,"unisia":7860,"Civil":7861,"Laughter":7862,"Mult":7863,"mon":7864,"tr":7865,"ument":7866,"Ġcere":7867,"rob":7868,"Ġvary":7869,"ĠBus":7870,"ĠDu":7871,"ĠKarl":7872,"Ġnoise":7873,"Ġ63":7874,"Ġregards":7875,"Project":7876,"Ġprocesses":7877,"Ġkinds":7878,"shop":7879,"Ġimprovements":7880,"Ġsubstant":7881,"Ġschools":7882,"Ġdeadlines":7883,"Ġimmigration":7884,"Ġrestrictive":7885,"ĠQUESTIONS":7886,"uerto":7887,"Ġsettings":7888,"ĠBruxelles":7889,"Ġannounced":7890,"ĠFerrero":7891,"ECLARATION":7892,"*)":7893,"Day":7894,"GRO":7895,"HL":7896,"Script":7897,"Ver":7898,"auty":7899,"can":7900,"ooth":7901,"pm":7902,"rates":7903,"Ġtrou":7904,"eni":7905,"anz":7906,"asters":7907,"Ġlarger":7908,"Ġstocks":7909,"ĠFed":7910,"abilities":7911,"ecess":7912,"Ġkg":7913,"ALS":7914,"anged":7915,"Ġgreatest":7916,"Ġrelatively":7917,"ĠPROTECTION":7918,"Ġexpression":7919,"ommendation":7920,"Ġresponsibilities":7921,"IVE":7922,"Ġsheet":7923,"Ġtried":7924,"ategory":7925,"iliar":7926,"rague":7927,"Ġmaritime":7928,"Ġfilled":7929,"Norwegian":7930,"Ġattractive":7931,"ĠConstitution":7932,"Ġsupplementary":7933,"ĠSunday":7934,"enegro":7935,"DS":7936,"SQL":7937,"band":7938,"spe":7939,"uable":7940,"Ġice":7941,"ĠCivil":7942,"ĠHER":7943,"ĠLim":7944,"ĠJa":7945,"ĠJun":7946,"ĠUTC":7947,"INTER":7948,"Ġacts":7949,"Ġcommittees":7950,"Quality":7951,"Annual":7952,"OLAF":7953,"ĠWeek":7954,"legation":7955,"Ġpractices":7956,"Ġunderstanding":7957,"Ġreturned":7958,"Ġhonourable":7959,"Ġsensitive":7960,"ĠIMF":7961,"ycling":7962,"ĠProtocol":7963,"198":7964,"Comb":7965,"NET":7966,"Pal":7967,"water":7968,"Ġtabled":7969,"Ġfather":7970,"icians":7971,"Ġgar":7972,"Ġstable":7973,"Ġthats":7974,"Ġshares":7975,"ĠLU":7976,"ĠWill":7977,"ĠWolf":7978,"ĠVol":7979,"ĠStock":7980,"Ġdisaster":7981,"Stud":7982,"Ġsomewhat":7983,"ĠMarc":7984,"ĠAnn":7985,"ĠĠĠĠĠ":7986,"Ġoperate":7987,"Ġexplained":7988,"Ġbright":7989,"Ġprivacy":7990,"Ġreservations":7991,"Abbott":7992,"Ġsounds":7993,"ĠRoma":7994,"DennisAbbott":7995,"Specific":7996,"Ġscandal":7997,"ĠNovakova":7998,"TOR":7999,"iest":8000,"minute":8001,"inate":8002,"ounter":8003,"aro":8004,"ĠMexico":8005,"ĠExt":8006,"ĠElect":8007,"ĠHÃ¼b":8008,"ante":8009,"istory":8010,"Ġexcess":8011,"Ġleaves":8012,"Ġaviation":8013,"ITAL":8014,"ĠAgricultural":8015,"iking":8016,"azing":8017,"ebast":8018,"Ġinsurance":8019,"Ġstudies":8020,"amburg":8021,"Ġsurely":8022,"ĠFRAMEWORK":8023,"Overall":8024,"ĠInteg":8025,"ĠHerzegovina":8026,"Ġclaim":8027,"Irina":8028,"Ġfantastic":8029,"ĠSharrock":8030,"Congratulations":8031,"Waldner":8032,"PGI":8033,"cile":8034,"ham":8035,"Ġwont":8036,"Ġpet":8037,"Ġpresident":8038,"Ġna":8039,"Ġlit":8040,"Ġrank":8041,"ĠKing":8042,"erved":8043,"HEL":8044,"Ġopinions":8045,"Ġremind":8046,"Ġconfident":8047,"ructuring":8048,"ĠCOMMIT":8049,"Ġcongratulations":8050,"TELECOMMUNICATIONS":8051,"Ġillegal":8052,"ĠLouis":8053,"Ġheavy":8054,"ĠEnterprise":8055,"ĠCharlie":8056,"Ġlibrary":8057,"repreneurship":8058,"Ġupgrade":8059,"ĠHÃ¼bner":8060,"Certain":8061,"Country":8062,"DEN":8063,"IAL":8064,"Min":8065,"Margin":8066,"cam":8067,"pot":8068,"Ġbreat":8069,"Ġhundred":8070,"Ġrenov":8071,"ĠAB":8072,"ĠAfter":8073,"ĠRural":8074,"ĠBook":8075,"ĠDec":8076,"ĠDigital":8077,"Were":8078,"qual":8079,"Ġjustified":8080,"Ġentrance":8081,"Ġvisited":8082,"Ġdifferences":8083,"ĠZe":8084,"ĠAlc":8085,"tenance":8086,"Ġsurv":8087,"Ġsurprise":8088,"orny":8089,"Ġconclude":8090,"Ġposts":8091,"ĠQuality":8092,"Ġtreated":8093,"Ġgenerally":8094,"ĠGeorgia":8095,"Ġpermitted":8096,"Ġhistorical":8097,"Ġpollution":8098,"Ġcircumstances":8099,"ĠFISCHLER":8100,"ĠSaturday":8101,"Bal":8102,"Location":8103,"Spr":8104,"Single":8105,"Ukraine":8106,"sy":8107,"sen":8108,"Ġpra":8109,"Ġow":8110,"ĠMax":8111,"ĠMuseum":8112,"Ġled":8113,"ĠProm":8114,"ĠSE":8115,"illions":8116,"ulf":8117,"ĠFischler":8118,"emo":8119,"ĠOlli":8120,"ĠWin":8121,"ICE":8122,"Ġteacher":8123,"Ġprocurement":8124,"obil":8125,"Ġproposing":8126,"Ġfees":8127,"Ġhelps":8128,"Ġprocessing":8129,"Ġtexts":8130,"Ġhimself":8131,"Environmental":8132,"ĠMonday":8133,"Particip":8134,"Ġmachines":8135,"Ġarchive":8136,"Ġabstained":8137,"Ġconvenient":8138,"Cla":8139,"EIGN":8140,"HAS":8141,"Sa":8142,"UES":8143,"nio":8144,"Ġfaster":8145,"itants":8146,"eless":8147,"ĠMunich":8148,"Ġproved":8149,"ĠRub":8150,"ĠBSE":8151,"Ġdeals":8152,"ĠGen":8153,"ĠLake":8154,"ĠOP":8155,"akh":8156,"ĠStat":8157,"ĠStard":8158,"TIONAL":8159,"Ġaccom":8160,"Ġpeoples":8161,"ugar":8162,"Ġspent":8163,"Ġlooked":8164,"Lets":8165,"Att":8166,"Ġpassengers":8167,"Others":8168,"ĠInstitute":8169,"Ġappointed":8170,"Ġdiseases":8171,"Taxation":8172,"ĠLamy":8173,"Based":8174,"Water":8175,"erest":8176,"Ġsight":8177,"Ġpun":8178,"Ġbought":8179,"Ġnut":8180,"otos":8181,"Ġkil":8182,"ensation":8183,"ĠStatement":8184,"Ġ1990":8185,"Ġimpression":8186,"Ġcolors":8187,"Ġvisiting":8188,"Ġbrid":8189,"ĠCenter":8190,"Ġproperly":8191,"Ġportal":8192,"Rooms":8193,"ĠMeeting":8194,"Examples":8195,"ĠGÃ¼nter":8196,"Ġburden":8197,"Programme":8198,"Ġrefugees":8199,"Ġforgotten":8200,"IED":8201,"tate":8202,"Ġwoman":8203,"Ġbound":8204,"Ġmicro":8205,"Ġdram":8206,"ĠMig":8207,"ĠEastern":8208,"ulner":8209,"ĠFamily":8210,"ĠBa":8211,"Ġwilling":8212,"aine":8213,"ummer":8214,"iech":8215,"ardo":8216,"oger":8217,"Contin":8218,"102":8219,"Ġsupporting":8220,"Strasbourg":8221,"Ġobtain":8222,"anning":8223,"Ġattitude":8224,"Ġexciting":8225,"Organ":8226,"Ġfeeling":8227,"Ġbanking":8228,"Amelia":8229,"opped":8230,"aught":8231,"Ġorders":8232,"Blue":8233,"Serbia":8234,"ĠStardoll":8235,"CR":8236,"Fort":8237,"Figures":8238,"IATION":8239,"Japan":8240,"Was":8241,"pons":8242,"pens":8243,"wan":8244,"eding":8245,"Ġincome":8246,"entions":8247,"ĠCF":8248,"Ġliability":8249,"ĠAF":8250,"ĠEdu":8251,"acle":8252,"Ġgrand":8253,"ĠBMW":8254,"rie":8255,"Ġexecut":8256,"Ġ94":8257,"erts":8258,"ikan":8259,"Ġvisits":8260,"Ġlists":8261,"ulled":8262,"Ġexpectations":8263,"OUTH":8264,"Ġcorrected":8265,"Ġdeclaration":8266,"rosoft":8267,"Ġillust":8268,"Director":8269,"Ġprimary":8270,"Ġtackle":8271,"Ġconfirmed":8272,"Ġscheduled":8273,"Bas":8274,"Max":8275,"Person":8276,"Ren":8277,"Te":8278,"Women":8279,"building":8280,"said":8281,"vy":8282,"orca":8283,"ĠfÃ¼r":8284,"arf":8285,"Ġmarg":8286,"ĠMik":8287,"ĠMacedonia":8288,"Ġlobby":8289,"ĠPakistan":8290,"tery":8291,"ĠBE":8292,"aints":8293,"ĠHE":8294,"Ġshut":8295,"Ġshape":8296,"ĠWik":8297,"Ġplays":8298,"ittings":8299,"Ġprison":8300,"Ġscore":8301,"Ġscientific":8302,"Ġremove":8303,"ployed":8304,"Ġdidnt":8305,"wedish":8306,"Consequently":8307,"Ġdriver":8308,"ĠTraining":8309,"ĠPatten":8310,"Instead":8311,"ĠLatin":8312,"uzz":8313,"ĠBARN":8314,"Ġinfluence":8315,"ĠBarnier":8316,"VENTION":8317,"Ġcondemn":8318,"Ġpenalty":8319,"Aut":8320,"BACK":8321,"Del":8322,"rection":8323,"Ġcop":8324,"alter":8325,"arations":8326,"uster":8327,"ĠMAT":8328,"Ġeleg":8329,"utch":8330,"ĠBy":8331,"ĠLord":8332,"Ġallocation":8333,"Ġadequ":8334,"rics":8335,"Ġdisappe":8336,"OMI":8337,"redit":8338,"ACT":8339,"Ġrelig":8340,"ĠAndors":8341,"ĠAndreas":8342,"Ġexpressed":8343,"Ġ!!":8344,"Ġrequirement":8345,"Ġflights":8346,"Secretary":8347,"Ġdownloaded":8348,"Ġtraditional":8349,"Comment":8350,"Ġoccur":8351,"ĠSerbia":8352,"Ġfeedback":8353,"Ġclarification":8354,"ĠMorocco":8355,"Ġyesterdays":8356,"Carlo":8357,"ĠUrmas":8358,"Ġvirtual":8359,"Ġfolder":8360,"Ġgenuine":8361,"Case":8362,"Ccile":8363,"MON":8364,"hand":8365,"inst":8366,"iliation":8367,"Ġfort":8368,"Ġye":8369,"ĠSub":8370,"Ġeconom":8371,"Ġproof":8372,"ĠBad":8373,"adt":8374,"ĠHoliday":8375,"odies":8376,"ĠNow":8377,"ĠNations":8378,"ĠJoe":8379,"TITU":8380,"Ġsuite":8381,"ĠMinisters":8382,"apers":8383,"Ġserves":8384,"Ġdecis":8385,"Head":8386,"Ġinstance":8387,"Ġacqu":8388,"Product":8389,"Ġinflation":8390,"ĠINFORMATION":8391,"ĠAngel":8392,"itizen":8393,"Ġsupposed":8394,"Ġwinner":8395,"ĠOrder":8396,"Amendment":8397,"ĠCompany":8398,"Ġcreating":8399,"iciary":8400,"Ġobservations":8401,"untary":8402,"Ġbedrooms":8403,"ĠPAET":8404,"FERENCE":8405,"Ġbonus":8406,"Ġcandidate":8407,"Ġphysical":8408,"ustralia":8409,"ĠCOMMITTEE":8410,"ĠBARNIER":8411,"Business":8412,"Er":8413,"Ent":8414,"TP":8415,"THER":8416,"Target":8417,"VAT":8418,"las":8419,"mat":8420,"Ġfab":8421,"ĠCitizens":8422,"ĠMerc":8423,"ĠEP":8424,"acles":8425,"Ġstru":8426,"Ġrob":8427,"ĠReal":8428,"Ġ700":8429,"Ġ82":8430,"Ġcooper":8431,"OUNTR":8432,"Ġrain":8433,"Ġexamine":8434,"Ġvaluable":8435,"ĠEurostat":8436,"Ġobjects":8437,"tenstein":8438,"Ġdirectory":8439,"ĠClass":8440,"Ġdifficulties":8441,"Ġbarriers":8442,"Ġcorrectly":8443,"Integ":8444,"Ġquota":8445,"ĠTHIS":8446,"ĠDaniel":8447,"ĠSERVICES":8448,"400":8449,"??":8450,"Es":8451,"uters":8452,"Ġfem":8453,"itness":8454,"eler":8455,"ĠCustoms":8456,"ĠSYS":8457,"Ġalcohol":8458,"ĠFront":8459,"ĠBORG":8460,"amas":8461,"ĠGas":8462,"ĠNos":8463,"ĠNik":8464,"Ġ72":8465,"Ġ120":8466,"Ġattempt":8467,"Ġcolours":8468,"ĠThomas":8469,"Ġexperts":8470,"MEETING":8471,"Ġabsurd":8472,"onesia":8473,"Ġliked":8474,"uisine":8475,"Ġleadership":8476,"Ġtypical":8477,"Ġdispute":8478,"John":8479,"Africa":8480,"Ġsuspended":8481,"Mlaga":8482,"Turn":8483,"known":8484,"live":8485,"pon":8486,"inian":8487,"Ġwild":8488,"ĠPlease":8489,"ĠPoker":8490,"Ġstars":8491,"Ġstopped":8492,"ĠDon":8493,"Ġseg":8494,"Ġexceed":8495,"ĠWhere":8496,"Ġchurch":8497,"eller":8498,"Ġunanim":8499,"obe":8500,"overed":8501,"OLL":8502,"Ġdesk":8503,"Ġends":8504,"Ġdefence":8505,"ĠChristmas":8506,"Ġdrivers":8507,"Ġspecifically":8508,"Ġstronger":8509,"Cohesion":8510,"Ġsensible":8511,"Ġlabelling":8512,"Ġshops":8513,"chers":8514,"Nonetheless":8515,"Details":8516,"ĠTUOMI":8517,"egotiations":8518,"GROUND":8519,"ĠTUOMIOJA":8520,"Alexand":8521,"Mor":8522,"Sign":8523,"Tour":8524,"Ġtro":8525,"Ġsad":8526,"Ġswitch":8527,"Ġfelt":8528,"asa":8529,"ĠMel":8530,"ĠPO":8531,"ĠPascal":8532,"lymp":8533,"ĠFound":8534,"rive":8535,"opoul":8536,"ĠGolf":8537,"ĠHall":8538,"ĠKallas":8539,"cons":8540,"Ġ91":8541,"ugen":8542,"Ġcalling":8543,"Ġincred":8544,"Ġpackaging":8545,"ĠWebsite":8546,"Ġweekend":8547,"Schengen":8548,"Transparency":8549,"Ġholds":8550,"Ġwheel":8551,"Ġpresence":8552,"ĠLatvia":8553,"STRÃĸM":8554,"ladim":8555,"Ġcastle":8556,"approx":8557,"ĠBernard":8558,"ABILITY":8559,"Ġdelighted":8560,"ĠPlaza":8561,"EDUCATION":8562,".,":8563,"Central":8564,"HOL":8565,"Having":8566,"Mobile":8567,"Ste":8568,"Section":8569,"yan":8570,"inen":8571,"aling":8572,"Ġbike":8573,"Ġbinding":8574,"elle":8575,"ĠMich":8576,"Ġles":8577,"ĠPalm":8578,"ĠSi":8579,"ĠSpr":8580,"ĠSolidarity":8581,"irms":8582,"ĠFrit":8583,"ĠFÃ¼":8584,"ĠTRE":8585,"ĠTreas":8586,"veloping":8587,"ĠDeut":8588,"Ġconsensus":8589,"Sole":8590,"Ġmodule":8591,"Ġended":8592,"Ġendorse":8593,"Ġsurface":8594,"Ġfamiliar":8595,"Ġmedical":8596,"Ġapplicable":8597,"Ġorganisation":8598,"!!!":8599,"Ġnearly":8600,"Ġcompetitive":8601,"ĠCorazza":8602,"Ġrecorded":8603,"Ġmisunder":8604,"ĠInfrastructure":8605,"Ġerrors":8606,"Bur":8607,"CP":8608,"Government":8609,"Park":8610,"arest":8611,"point":8612,"rig":8613,"sa":8614,"Ġisol":8615,"Ġforces":8616,"ĠPAL":8617,"ĠPrague":8618,"ĠRot":8619,"ĠBelg":8620,"ĠTer":8621,"Ġanc":8622,"ĠHO":8623,"ĠWa":8624,"ĠStrasbourg":8625,"Ġunto":8626,"Ġthemes":8627,"Ġsubscribe":8628,"ĠPRODUC":8629,"ĠPolish":8630,"Ġdrawn":8631,"Share":8632,"ĠFranco":8633,"ĠiPhone":8634,"Ġsatellite":8635,"Simpl":8636,"Ġgradu":8637,"Ġtimetable":8638,"Ġrestrictions":8639,"Maja":8640,"Ġslightly":8641,"Incre":8642,"Ġsavings":8643,"CES":8644,"Freedom":8645,"Ro":8646,"SV":8647,"bel":8648,"des":8649,"lor":8650,"uly":8651,"upp":8652,"zb":8653,"ĠThere":8654,"Ġtreaty":8655,"rea":8656,"orne":8657,"Ġcuisine":8658,"Ġist":8659,"Ġisnt":8660,"Ġnamed":8661,"ellect":8662,"ĠMain":8663,"ĠMaj":8664,"ĠPierre":8665,"Ġdefe":8666,"Ġ54":8667,"annis":8668,"uthor":8669,"Ġflow":8670,"Ġelig":8671,"Ġmonitor":8672,"Ġenjoyed":8673,"ennis":8674,"ĠNeighbourhood":8675,"Ġclarify":8676,"ĠDesign":8677,"Promoting":8678,"Ġobligations":8679,"Ġavailability":8680,".-":8681,"Making":8682,"Right":8683,"WTO":8684,"YI":8685,"furt":8686,"run":8687,"rants":8688,"ĠParliaments":8689,"eters":8690,"ĠSH":8691,"Ġep":8692,"olt":8693,"stra":8694,"Ġdoors":8695,"ENN":8696,"Ġunn":8697,"Ġpreced":8698,"Ġsubmit":8699,"Ġ1991":8700,"ĠConc":8701,"ĠĠĠĠĠĠ":8702,"Ġdistin":8703,"Ġtrial":8704,"arantee":8705,"Ġfores":8706,"Ġcreature":8707,"Ġdeclarations":8708,"ĠConsult":8709,"Ġcontributions":8710,"ĠSlovakia":8711,"ktop":8712,"Ġdollpage":8713,"Ġfrequently":8714,"ĠDepartment":8715,"Ġconvinced":8716,"Ġnumerous":8717,"Ġinhabitants":8718,"iechtenstein":8719,"Diff":8720,"LU":8721,"VA":8722,"ao":8723,"list":8724,"orah":8725,"Ġwelfare":8726,"Ġphen":8727,"Ġdig":8728,"ĠCountries":8729,"ĠMB":8730,"Ġlunch":8731,"Ġgap":8732,"urally":8733,"ĠFace":8734,"ĠFern":8735,"ĠDr":8736,"ĠHamburg":8737,"law":8738,"Ġtrafficking":8739,"ernel":8740,"Strengthening":8741,"TERS":8742,"Ġowners":8743,"Ġpassenger":8744,"Ġtalks":8745,"Ġnearby":8746,"Ġcreates":8747,"Speaking":8748,"ĠMonti":8749,"Ġurge":8750,"ĠMiros":8751,"Ġfurnished":8752,"ĠDemocracy":8753,"Nice":8754,"sm":8755,"zz":8756,"oros":8757,"enz":8758,"Ġsizes":8759,"Ġfix":8760,"ĠCL":8761,"vey":8762,"ĠPo":8763,"ĠPass":8764,"etting":8765,"Ġvulner":8766,"ĠForm":8767,"estein":8768,"iag":8769,"ĠTick":8770,"Ġang":8771,"ĠHT":8772,"Ġseats":8773,"ĠOK":8774,"ĠUnder":8775,"ĠKong":8776,"Ġclock":8777,"ĠMrPresident":8778,"ĠInitiative":8779,"Ġroot":8780,"Ġ98":8781,"Ġpositions":8782,"Ġotherwise":8783,"ĠMargot":8784,"Ġspecified":8785,"ĠUSD":8786,"Ġgeneration":8787,"Ġloan":8788,"Ġinvolves":8789,"Ġcleaning":8790,"Ġdocumentation":8791,"ĠRoman":8792,"Ġdeadline":8793,"Ġaudit":8794,"Ġreaction":8795,"Telephone":8796,"olkestein":8797,"Ġcasino":8798,"Ġprejudge":8799,"Ġadventure":8800,"ĠGMOs":8801,"Ġrenovated":8802,"Ġphenomen":8803,"Ambassador":8804,"LIS":8805,"Ġcab":8806,"Ġcry":8807,"ĠMoldova":8808,"Ġluxury":8809,"ĠEvaluation":8810,"ĠSOL":8811,"ĠSaint":8812,"Ġvaria":8813,"ournal":8814,"ĠBolkestein":8815,"ĠTop":8816,"ĠLEG":8817,"dule":8818,"Ġjudgment":8819,"ancic":8820,"oves":8821,"Ġvisa":8822,"IREC":8823,"Change":8824,"PRESID":8825,"Import":8826,"AFO":8827,"Ġconstantly":8828,"India":8829,"Ġtrademark":8830,"Ġcapt":8831,"Ġguarantees":8832,"Ġsuggestion":8833,"----":8834,"Maybe":8835,"Ġencouraging":8836,"ĠDeborah":8837,"ĠSyria":8838,"ĠRadio":8839,"ĠSanta":8840,"Ġmedicine":8841,"orizon":8842,"Ġvegetables":8843,"Ġrubber":8844,"Ġparents":8845,"Lo":8846,"SI":8847,"Summ":8848,"inating":8849,"oria":8850,"itch":8851,"roc":8852,"Ġmerc":8853,"ĠPRE":8854,"atever":8855,"ĠTib":8856,"ams":8857,"rier":8858,"istration":8859,"Ġshame":8860,"ocij":8861,"Invest":8862,"ĠView":8863,"ĠKR":8864,"ATIONAL":8865,"Ġscience":8866,"ETY":8867,"Administ":8868,"Ġequally":8869,"Ġimproving":8870,"Ġports":8871,"ĠWho":8872,"Ġlabel":8873,"Ġsusp":8874,"holm":8875,"Ġclaims":8876,"Ġcertific":8877,"Ġsquare":8878,"ĠDialogue":8879,"Experience":8880,"ocijancic":8881,"Catherine":8882,"Future":8883,"GF":8884,"GRE":8885,"Name":8886,"Natur":8887,"Sorry":8888,"YPR":8889,"ho":8890,"ui":8891,"Ġack":8892,"Ġpip":8893,"Ġmouse":8894,"omalia":8895,"ĠCI":8896,"ĠCOR":8897,"using":8898,"Ġlayer":8899,"owards":8900,"ĠISO":8901,"Ġstructures":8902,"ĠTy":8903,"ANGE":8904,"ĠEUROPE":8905,"ĠKocijancic":8906,"Ġclot":8907,"erent":8908,"Ġkilled":8909,"ango":8910,"Ġtrail":8911,"Ġimplications":8912,"Ġmaintained":8913,"ĠPolitical":8914,"Ġlinked":8915,"echnology":8916,"ĠECB":8917,"ĠSuites":8918,"Ġconsistent":8919,"Below":8920,"ĠOthers":8921,"Ġdegree":8922,"TAXATION":8923,"ĠGreek":8924,"BACKGROUND":8925,"ellectual":8926,"Decision":8927,"Put":8928,"bles":8929,"cia":8930,"gang":8931,"po":8932,"pite":8933,"real":8934,"Ġpal":8935,"edia":8936,"ĠCatherine":8937,"ĠMA":8938,"ĠMAL":8939,"Ġbeaches":8940,"ĠPM":8941,"ĠAh":8942,"ĠEv":8943,"ĠEarth":8944,"ĠSun":8945,"illance":8946,"igaret":8947,"Ġstored":8948,"ĠBrand":8949,"pping":8950,"istical":8951,"ONS":8952,"ĠNOT":8953,"ĠWi":8954,"ablish":8955,"erend":8956,"bster":8957,"Ġpref":8958,"REG":8959,"Ġtransition":8960,"Ġdecre":8961,"Ġrare":8962,"Ġprior":8963,"anned":8964,"Ġsurf":8965,"Ġhandle":8966,"Ġsmaller":8967,"ĠCONFERENCE":8968,"Todays":8969,"Ġlogin":8970,"Ġperiods":8971,"Ġrevolution":8972,"Media":8973,"Ġcalendar":8974,"Ġaudio":8975,"Help":8976,"Ġpanel":8977,"Ġordered":8978,"Ġdrinks":8979,"IGHT":8980,"Decisions":8981,"Ġmechanisms":8982,"Ġblood":8983,"Ġhouses":8984,"Ġunfair":8985,"onymous":8986,"ancellor":8987,"Ġinstructions":8988,"Returns":8989,"ĠTreasury":8990,"DK":8991,"Dan":8992,"End":8993,"Hon":8994,"Send":8995,"een":8996,"field":8997,"inz":8998,"Ġcitizen":8999,"Ġfer":9000,"Ġod":9001,"lem":9002,"ela":9003,"ĠMAN":9004,"ĠDie":9005,"ĠTreat":9006,"Internet":9007,"Ġsuit":9008,"Youll":9009,"HERN":9010,"Ġfeet":9011,"Prof":9012,"Ġblame":9013,"ridge":9014,"Security":9015,"ĠGuinea":9016,"Comple":9017,"Among":9018,"Ġmistakes":9019,"Something":9020,"Ġincreasingly":9021,"Price":9022,"ĠPEACE":9023,"Ġfaith":9024,"Ġdelete":9025,"Ġdiversity":9026,"Creat":9027,"Ide":9028,"Try":9029,"UAL":9030,"fred":9031,"you":9032,"Ġtun":9033,"Ġspp":9034,"Ġcalm":9035,"Ġbre":9036,"ĠSituation":9037,"Ġprove":9038,"quently":9039,"odes":9040,"ĠLive":9041,"ĠLIFE":9042,"Ġheat":9043,"ailand":9044,"apest":9045,"ALTH":9046,"Ġdisag":9047,"ELS":9048,"Ġfines":9049,"Ġimpress":9050,"hips":9051,"Ġaddresses":9052,"riendly":9053,"Ġtaxi":9054,"Ġjoined":9055,"errorism":9056,"Ã¤r":9057,"enez":9058,"Ġwindows":9059,"Ġdeclared":9060,"ÃĦKI":9061,"Ġrecognition":9062,"Ġexperienced":9063,"Ġfurniture":9064,"Modern":9065,"ffective":9066,"Ġdedicated":9067,"Ġforthcoming":9068,"Ġsafeguard":9069,"BB":9070,"Customs":9071,"Mic":9072,"Port":9073,"Safety":9074,"WORK":9075,"poc":9076,"uels":9077,"iner":9078,"itu":9079,"Ġinj":9080,"Ġmaster":9081,"Ġduration":9082,"Ġhosp":9083,"ĠMigration":9084,"Ġliter":9085,"ĠAccess":9086,"ĠRule":9087,"ĠLiber":9088,"ĠNick":9089,"Ġadults":9090,"ireless":9091,"Ġoutstanding":9092,"iana":9093,"enses":9094,"Ġcommunic":9095,"urred":9096,"Ġ1989":9097,"Ġinstitutional":9098,"Ġrefund":9099,"essions":9100,"ĠEuropol":9101,"Ġannounce":9102,"ĠContact":9103,"Ġachievement":9104,"Ġindex":9105,"Ġgenerated":9106,"Ġschemes":9107,"Ġsubstance":9108,"Ġrevised":9109,"Ġtrends":9110,"Ġpremium":9111,"Ġparameter":9112,"Ġdemonstr":9113,"ĠFAQ":9114,"ĠStandard":9115,"ĠFREE":9116,"ROWTH":9117,"Malta":9118,"GAL":9119,"LIFE":9120,"Sara":9121,"Top":9122,"iov":9123,"Ġtend":9124,"Ġtables":9125,"isual":9126,"Ġwarn":9127,"Ġfly":9128,"Ġdies":9129,"Ġlas":9130,"Ġbeauty":9131,"ĠEur":9132,"ĠSafety":9133,"ĠIl":9134,"Ġstream":9135,"ulous":9136,"chmark":9137,"Ġcancell":9138,"ĠNor":9139,"ĠNord":9140,"ĠOff":9141,"ailway":9142,"ĠKaz":9143,"Ġjudge":9144,"ORE":9145,"peri":9146,"ĠChamp":9147,"ordan":9148,"ĠDeclaration":9149,"ounds":9150,"Staff":9151,"cks":9152,"Ġassociation":9153,"Ġextend":9154,"Ġsettlement":9155,"ietnam":9156,"geria":9157,"Ġcorrection":9158,"Ġinterface":9159,"Ġincreases":9160,"Ġpromise":9161,"Ġelected":9162,"Ġfacility":9163,"Ġremained":9164,"Ġannulled":9165,"AKIS":9166,"ĠApartment":9167,"ĠMilan":9168,"Ġprotocol":9169,"ĠRestaurant":9170,"orizont":9171,"ĠBanner":9172,"ĠCongo":9173,"TURAL":9174,"ĠSoftware":9175,"Ġowner":9176,"ĠFrits":9177,"Naturally":9178,"GAN":9179,"NEW":9180,"Unt":9181,"VIT":9182,"da":9183,"map":9184,"rac":9185,"atz":9186,"anmar":9187,"esh":9188,"Ġpric":9189,"alse":9190,"Ġhorse":9191,"ĠMus":9192,"ĠSon":9193,"osis":9194,"ĠList":9195,"urea":9196,"Ġride":9197,"ĠNEW":9198,"ivities":9199,"Ġabol":9200,"Ġchair":9201,"Ġ292":9202,"venue":9203,"Ġcommend":9204,"Ġissued":9205,"ĠMarg":9206,"Ġsubs":9207,"Ġboost":9208,"Ġcorruption":9209,"valu":9210,"azine":9211,"Albania":9212,"uffs":9213,"Ġheritage":9214,"IMPL":9215,"Ġshareholders":9216,"1997":9217,"Industrial":9218,"Ġbroch":9219,"Ġcredibility":9220,"ivalent":9221,"Working":9222,"Ġdelegations":9223,"Ġcopyright":9224,"liminary":9225,"TACs":9226,"Ġuniversal":9227,"Ġexcluded":9228,"PRESIDENCY":9229,"Fight":9230,"French":9231,"IE":9232,"ITE":9233,"Like":9234,"POR":9235,"RD":9236,"Sure":9237,"lights":9238,"Ġtree":9239,"Ġcult":9240,"Ġpor":9241,"Ġinput":9242,"Ġmuseum":9243,"Theres":9244,"Ġhar":9245,"ĠCAM":9246,"Ġreverse":9247,"ĠSustainable":9248,"ĠTiron":9249,"quate":9250,"quest":9251,"ĠLiechtenstein":9252,"ĠWars":9253,"ĠVia":9254,"connect":9255,"anging":9256,"Ġaccur":9257,"Whiting":9258,"Ġcounts":9259,"Stand":9260,"Ġspa":9261,"Ġemp":9262,"Ġmodules":9263,"Chinas":9264,"Ġmetro":9265,"Ġmeets":9266,"selt":9267,"sche":9268,"Ġlovely":9269,"Measures":9270,"Ġrepeated":9271,"Ġrenewable":9272,"Posted":9273,"ĠTironi":9274,"Erasmus":9275,"hus":9276,"ixt":9277,"pact":9278,"Ġ{":9279,"enza":9280,"Ġfestival":9281,"itled":9282,"Ġpoker":9283,"Ġdrop":9284,"ĠEEA":9285,"ĠSector":9286,"impro":9287,"ĠRiver":9288,"ĠFlo":9289,"ĠFestival":9290,"ĠDet":9291,"ĠTro":9292,"ĠTool":9293,"Ġseas":9294,"ĠNorthern":9295,"ivier":9296,"ERAL":9297,"agn":9298,"Ġanywhere":9299,"Ġcoord":9300,"Ġ2016":9301,"Ġobl":9302,"Ġentertain":9303,"Ġspeaks":9304,"ducing":9305,"ija":9306,"Ġlobster":9307,"Ġconcluded":9308,"Ġtested":9309,"ĠRomano":9310,"ĠVerhe":9311,"Ġstrengthened":9312,"Flat":9313,"Ġconfigur":9314,"Ġunnecess":9315,"Bi":9316,"NO":9317,"North":9318,"Option":9319,"WEL":9320,"cs":9321,"fa":9322,"hi":9323,"Ġ),":9324,"Ġtut":9325,"Ġbran":9326,"Ġmal":9327,"Ġnons":9328,"Ġreve":9329,"etween":9330,"ĠEDP":9331,"ĠRoyal":9332,"Ġwear":9333,"quer":9334,"Ġshock":9335,"Ġrig":9336,"actions":9337,"Whats":9338,"Ġenforcement":9339,"eches":9340,"Ġoffic":9341,"EURO":9342,"ICA":9343,"Ġ87":9344,"essional":9345,"Ġmetal":9346,"URES":9347,"Ġfloors":9348,"Ġbooked":9349,"ĠAsylum":9350,"Ġwinning":9351,"Ġremaining":9352,"Ġbroken":9353,"Ġnaturally":9354,"Ġregulatory":9355,"Ġintroduce":9356,"ĠMySQL":9357,"Ġestablishment":9358,"oscow":9359,"gentina":9360,"Ġcontrolled":9361,"Ġeligible":9362,"Bank":9363,"HT":9364,"Middle":9365,"PH":9366,"Six":9367,"TV":9368,"ked":9369,"och":9370,"prom":9371,"Ġid":9372,"Ġfans":9373,"Ġbird":9374,"Ġnom":9375,"ĠCat":9376,"ĠIo":9377,"uta":9378,"sions":9379,"Ġconvention":9380,"Ġ()":9381,"ĠFac":9382,"ĠBosnia":9383,"ĠTotal":9384,"umin":9385,"Ġexplo":9386,"Ins":9387,"Ġabroad":9388,"Ġ68":9389,"Ġtraged":9390,"ĠAgain":9391,"Ġexamined":9392,"Ġobjections":9393,"Ġpresents":9394,"Ġelim":9395,"Ġcareer":9396,"Reduction":9397,"Improve":9398,"Ġsuffering":9399,"Ġtemperature":9400,"Commenting":9401,"Bo":9402,"Oral":9403,"Pat":9404,"Ur":9405,"zes":9406,"oni":9407,"orough":9408,"Ġcable":9409,"ented":9410,"Ġhorny":9411,"ĠAmbassador":9412,"ĠIb":9413,"Ġsty":9414,"ĠRam":9415,"ĠBi":9416,"umers":9417,"ĠOt":9418,"ĠJer":9419,"Ġcontrast":9420,"ĠKey":9421,"Ġquote":9422,"ĠSte":9423,"ĠStep":9424,"Ġreported":9425,"ĠDelegation":9426,"ĠProv":9427,"ĠMaritime":9428,"Ġreliable":9429,"swers":9430,"ĠAng":9431,"Ġbegun":9432,"Ġzero":9433,"Ġbigger":9434,"Ġconstant":9435,"Ġmonetary":9436,"ĠAntnio":9437,"Comments":9438,"ustrian":9439,"Ġsolved":9440,"Ġaffects":9441,"Ġresolve":9442,"Ġdrug":9443,"ĠTurk":9444,"Ġsongs":9445,"ĠPosselt":9446,"Ġdecisive":9447,"ACI":9448,"BUR":9449,"Die":9450,"Dates":9451,"Net":9452,"Off":9453,"Whe":9454,"bc":9455,"bed":9456,"}:":9457,"Ġera":9458,"lege":9459,"otic":9460,"ĠCOUNTR":9461,"ĠMess":9462,"ĠMaur":9463,"ĠPrem":9464,"ĠEnt":9465,"Ġegg":9466,"Ġvir":9467,"kerel":9468,"ĠBreakfast":9469,"ĠDol":9470,"ustries":9471,"quin":9472,"opia":9473,"ĠGene":9474,"ĠNext":9475,"ĠOur":9476,"ĠOver":9477,"ĠOlymp":9478,"Ġplain":9479,"Ġamazing":9480,"Ġbelie":9481,"ulling":9482,"Ġequality":9483,"ĠREV":9484,"ĠFOREIGN":9485,"Ġzu":9486,"Ġprofit":9487,"Ġlogic":9488,"Consider":9489,"Ġcreative":9490,"ĠADD":9491,"ĠApartments":9492,"ĠUpdate":9493,"ĠURL":9494,"Ġcontinuing":9495,"Ġparadise":9496,"Ġassociated":9497,"Ġinterpretation":9498,"Ġacquisition":9499,"Claude":9500,"ĠVerheugen":9501,"600":9502,"RC":9503,"Wind":9504,"bre":9505,"fold":9506,"nen":9507,"pass":9508,"rating":9509,"isory":9510,"orter":9511,"Ġbodies":9512,"Ġintern":9513,"icate":9514,"iled":9515,"eline":9516,"ĠMission":9517,"ĠMINIS":9518,"ĠSat":9519,"ĠSudan":9520,"ĠTob":9521,"ĠGROWTH":9522,"sole":9523,"ĠVideo":9524,"ERY":9525,"Ġunable":9526,"Ġcoins":9527,"REEV":9528,"Still":9529,"Ang":9530,"Ġdesire":9531,"Ġmaintenance":9532,"Ġsmooth":9533,"Ġincent":9534,"Ġinterview":9535,"ĠTRADE":9536,"Ġfunctioning":9537,"Ġidentity":9538,"Ġsituations":9539,"Ġdamages":9540,"ĠCasa":9541,"INSTITU":9542,"Ġdeeply":9543,"ĠDubois":9544,"ĠVincent":9545,"Ġdynamic":9546,"Ġcorrespond":9547,"ĠRichard":9548,"Certainly":9549,"Fortunately":9550,"Alexandre":9551,"Ġtragedy":9552,"EPP":9553,"Fund":9554,"June":9555,"Ma":9556,"MES":9557,"VW":9558,"col":9559,"Ġfisher":9560,"Ġfuel":9561,"Ġpg":9562,"Ġpays":9563,"Ġbars":9564,"Ġdiplom":9565,"ĠCuba":9566,"Things":9567,"ĠDist":9568,"emic":9569,"ĠHy":9570,"ĠLeg":9571,"Ġru":9572,"Ġlived":9573,"Ġupper":9574,"Ġworst":9575,"cles":9576,"ĠMinisterial":9577,"ĠKen":9578,"ĠStef":9579,"inder":9580,"Ġje":9581,"Ġjudg":9582,"ancer":9583,"Ġ81":9584,"Ġcohere":9585,"Ġrelating":9586,"oyer":9587,"Ġdefine":9588,"CHT":9589,"Ġreceiving":9590,"Ġturning":9591,"Ġletters":9592,"Ġplanet":9593,"TINI":9594,"Ġreferring":9595,"ĠAGRE":9596,"Ġessence":9597,"Ġtrees":9598,"Ġautumn":9599,"Ġcaused":9600,"ographical":9601,"ĠMontenegro":9602,"Ġwarmly":9603,"ĠAudit":9604,"Ġlistening":9605,"Ġweakness":9606,"Ġstrategies":9607,"Ġslowly":9608,"Ġsample":9609,"Ġfellow":9610,"Ġchannel":9611,"ĠPRESIDENT":9612,"Statistics":9613,"Ġmargins":9614,"Local":9615,"PI":9616,"REC":9617,"gic":9618,"ker":9619,"uit":9620,"Ġsla":9621,"aled":9622,"rot":9623,"Ġinquiry":9624,"entoo":9625,"ĠPIN":9626,"ĠPortug":9627,"ĠPuerto":9628,"ĠSwedish":9629,"idance":9630,"Ġvent":9631,"irty":9632,"uls":9633,"ĠDun":9634,"ĠDutch":9635,"Ġdogs":9636,"ĠGar":9637,"ĠGame":9638,"ĠJon":9639,"ailed":9640,"Ġkids":9641,"Ġkernel":9642,"Ġcomputers":9643,"rug":9644,"Ġ78":9645,"ICAL":9646,"cker":9647,"ologne":9648,"ĠEuropa":9649,"ĠAnders":9650,"Ġforwarded":9651,"plementing":9652,"Ġoperates":9653,"Ġtalked":9654,"ĠAdobe":9655,"Private":9656,"door":9657,"ĠiP":9658,"Art":9659,"almon":9660,"Regulation":9661,"Ġmoves":9662,"Ġlandscape":9663,"ĠJohannes":9664,"Ġsubsidies":9665,"ĠEMU":9666,"Ġemphasise":9667,"arbour":9668,"Ġconfirmation":9669,"Ġawait":9670,"Ġsatisfaction":9671,"ĠRevolution":9672,"ĠWordPress":9673,"ĠFoundation":9674,"Summary":9675,"REEVY":9676,"Large":9677,"larg":9678,"inar":9679,"eries":9680,"omens":9681,"Ġnine":9682,"ĠCup":9683,"ĠCrist":9684,"acio":9685,"raw":9686,"Ġstone":9687,"Ġproportion":9688,"ĠRay":9689,"ĠRob":9690,"ĠFROM":9691,"ĠDisc":9692,"Ġneighb":9693,"employed":9694,"odge":9695,"nther":9696,"ĠLu":9697,"ĠJes":9698,"ailing":9699,"ĠWRITTEN":9700,"Ġspending":9701,"Ġgreatly":9702,"Ġlegit":9703,"Ġedition":9704,"Competitiveness":9705,"ijing":9706,"iodiversity":9707,"ĠImplementation":9708,"ĠENERGY":9709,"ĠENVIRONMENT":9710,"EMENTATION":9711,"Ġtemporary":9712,"Ġfighting":9713,"Ġdreams":9714,"Ġcharged":9715,"ĠProducts":9716,"Extra":9717,"ĠOLAF":9718,"ĠOrganisation":9719,"Ġdestroyed":9720,"Rapporteur":9721,"Consultation":9722,"ĠWolfgang":9723,"ikanen":9724,"orizontal":9725,"Dep":9726,"Nuclear":9727,"Pur":9728,"Present":9729,"UTURE":9730,"ds":9731,"dis":9732,"rations":9733,"Ġsac":9734,"Ġfault":9735,"Ġfasc":9736,"Ġfirms":9737,"arin":9738,"Ġbreed":9739,"iced":9740,"ĠMount":9741,"Ġly":9742,"Ġ110":9743,"Ġ(%)":9744,"ĠBorg":9745,"ĠDA":9746,"ĠLy":9747,"ocational":9748,"ĠNet":9749,"ĠWHO":9750,"ĠVista":9751,"ĠStig":9752,"Ġ4379":9753,"Ġcomprises":9754,"Ġunits":9755,"Ġanymore":9756,"Ġscene":9757,"ATTINI":9758,"Enh":9759,"Ġcolumn":9760,"ĠAnne":9761,"Ġaircraft":9762,"Ġoperators":9763,"Ġfacil":9764,"1995":9765,"rading":9766,"Europol":9767,"pporteurs":9768,"ĠFlore":9769,"Ġcombination":9770,"Ġprecise":9771,"ĠAtlantic":9772,"Ġlargely":9773,"Ġprinted":9774,"rategic":9775,"Payment":9776,"ĠTray":9777,"Ġjournal":9778,"related":9779,"ĠApost":9780,"ĠGUCHT":9781,"Ġcookies":9782,"ĠGiul":9783,"ĠRobert":9784,"Ġuncertain":9785,"OLLOW":9786,"Surely":9787,"BC":9788,"Cal":9789,"Ed":9790,"EIRA":9791,"JOINT":9792,"RI":9793,"Sebast":9794,"dated":9795,"mans":9796,"Ġou":9797,"Ġsoc":9798,"Ġsolid":9799,"Ġfiscal":9800,"Ġing":9801,"Ġtow":9802,"Ġdign":9803,"Ġreward":9804,"ĠMIC":9805,"ĠMeg":9806,"ĠActions":9807,"ĠSAN":9808,"Ġprosper":9809,"orer":9810,"chant":9811,"ĠBack":9812,"Ġcancer":9813,"ĠOJ":9814,"though":9815,"ordinary":9816,"PETI":9817,"Appoint":9818,"adequate":9819,"ACP":9820,"Ġformats":9821,"ĠPolack":9822,"ĠZimbabwe":9823,"Ġintens":9824,"Ġoldest":9825,"Ġchecked":9826,"ĠSchul":9827,"Ġsessions":9828,"ĠFRATTINI":9829,"Ġfocused":9830,"Ġmissed":9831,"Ġtelevision":9832,"Ġsilent":9833,"Ġsurprised":9834,"Ġpassion":9835,"ĠLiikanen":9836,"Ġframe":9837,"Ġnonsense":9838,"1000":9839,"Dom":9840,"German":9841,"Video":9842,"mo":9843,"nst":9844,"tra":9845,"oral":9846,"Ġsittings":9847,"Ġbra":9848,"Ġburn":9849,"asis":9850,"ĠCS":9851,"ĠSup":9852,"Ġvers":9853,"changed":9854,"stadt":9855,"stuffs":9856,"ĠBILD":9857,"Ġannex":9858,"emporary":9859,"ĠGRE":9860,"ĠHY":9861,"Ġchapter":9862,"ĠKOS":9863,"Ġclause":9864,"Ġkill":9865,"Ġknew":9866,"Ġstays":9867,"Ġentitled":9868,"Ġowned":9869,"150":9870,"ĠResources":9871,"Almost":9872,"Ġdirectives":9873,"Ġmini":9874,"aiwan":9875,"ĠMicrosoft":9876,"Ġschedule":9877,"COMMUNITY":9878,"Ġgrounds":9879,"Meeting":9880,"USSIA":9881,"Ġexperiences":9882,"Ġmassage":9883,"Ġmatching":9884,"ĠGalileo":9885,"grace":9886,"MEETINGS":9887,"INSTITUTIONAL":9888,"Ac":9889,"Citizens":9890,"House":9891,"LAN":9892,"LINK":9893,"Met":9894,"Switzerland":9895,"Ty":9896,"hou":9897,"iour":9898,"Ġrom":9899,"Ġiron":9900,"Ġma":9901,"Ġmunicip":9902,"ĠAst":9903,"oli":9904,"ĠRh":9905,"arted":9906,"ĠJur":9907,"alling":9908,"Ġimper":9909,"ĠVladim":9910,"asty":9911,"teg":9912,"rugs":9913,"ĠIns":9914,"Ġoffices":9915,"wood":9916,"encia":9917,"Ġcommunications":9918,"uese":9919,"Ġlocations":9920,"Prov":9921,"ĠINTER":9922,"ĠExchange":9923,"162":9924,"Conference":9925,"Ġrespected":9926,"ribute":9927,"ĠCollege":9928,"Ġfaces":9929,"fficial":9930,"Order":9931,"Ġpatient":9932,"Ġeth":9933,"EGF":9934,"Ġrecognise":9935,"Ġintroduction":9936,"Ġroutes":9937,"Ġdomestic":9938,"reyer":9939,"ĠBritain":9940,"ITIES":9941,"Ġthousands":9942,"ĠOfficer":9943,"Ġcycle":9944,"ĠMLLER":9945,"ĠAlexander":9946,"Ġsweet":9947,"ĠDimitrij":9948,"Ġkilomet":9949,"Ġvulnerable":9950,"Honourable":9951,"Ġobligation":9952,"110":9953,"Building":9954,"Double":9955,"Id":9956,"div":9957,"mod":9958,"pack":9959,"Ġtight":9960,"Ġaw":9961,"Ġfashion":9962,"Ġbes":9963,"Ġbul":9964,"ente":9965,"ĠCreat":9966,"ĠMobility":9967,"ĠPap":9968,"ĠPoint":9969,"ĠEs":9970,"ĠSet":9971,"ĠSIL":9972,"Ġevalu":9973,"ĠRA":9974,"ĠRem":9975,"ĠRio":9976,"ĠBOT":9977,"Web":9978,"ĠHahn":9979,"outs":9980,"ĠLebanon":9981,"Ġheating":9982,"ected":9983,"Ġleather":9984,"Ġkn":9985,"Ġ57":9986,"plate":9987,"Ġarray":9988,"ssen":9989,"Financing":9990,"Israel":9991,"ungal":9992,"Unemployment":9993,"News":9994,"Ġwebcam":9995,"Ġopposition":9996,"Ġmarks":9997,"Ġwelcoming":9998,"Ġobservation":9999,"ĠDirectorate":10000,"rapy":10001,"Greenland":10002,"Ġfavorite":10003,"Ġcotton":10004,"ĠMiroslav":10005,"Ġphenomenon":10006,"Ġimpressive":10007,"ĠBILDT":10008,"Barb":10009,"NA":10010,"Roger":10011,"iform":10012,"iences":10013,"len":10014,"ni":10015,"Ġtough":10016,"inf":10017,"oub":10018,"Ġwines":10019,"Ġfifth":10020,"Ġbicy":10021,"rog":10022,"Ġmixed":10023,"ĠMade":10024,"ĠPI":10025,"ĠSen":10026,"ĠSand":10027,"iga":10028,"igher":10029,"ĠRUP":10030,"cha":10031,"ĠTown":10032,"ami":10033,"Ġhect":10034,"ĠJn":10035,"Ġuna":10036,"Ġroof":10037,"acht":10038,"print":10039,"ĠAgreements":10040,"Ġremed":10041,"Ġobtained":10042,"Ġassets":10043,"Ġmanner":10044,"Ġmanager":10045,"annual":10046,"Ġcentres":10047,"Ġhelping":10048,"ventions":10049,"ĠEuros":10050,"Ġbooth":10051,"Ġblind":10052,"Ġleader":10053,"Ġmotorway":10054,"Ġchecks":10055,"Ġthoughts":10056,"Ġshowing":10057,"ĠAlliance":10058,"Ġsynt":10059,"Ġreviewed":10060,"Ġelsewhere":10061,"Ġclassic":10062,"haus":10063,"Ġlabor":10064,"Ġregularly":10065,"ĠRestrictive":10066,"Ġexceptional":10067,"ĠDublin":10068,"Ġplugin":10069,"ĠMiguel":10070,"ĠFacebook":10071,"ĠRUPEL":10072,"900":10073,"BO":10074,"Bosnia":10075,"CULTURE":10076,"July":10077,"Mail":10078,"Need":10079,"bod":10080,"hard":10081,"uj":10082,"Ġtag":10083,"Ġmus":10084,"Ġdiam":10085,"asse":10086,"osing":10087,"ĠBlog":10088,"ĠDO":10089,"ĠTre":10090,"ĠText":10091,"quid":10092,"ĠGE":10093,"ĠHong":10094,"essa":10095,"ĠLog":10096,"Ġchamp":10097,"elled":10098,"ellow":10099,"ago":10100,"Ġdisgrace":10101,"OUMinister":10102,"Ġ621":10103,"Ġinvited":10104,"ĠMario":10105,"Ġextreme":10106,"Ġhelped":10107,"207":10108,"Ġsmart":10109,"Ġservers":10110,"CHO":10111,"ĠAmendments":10112,"Ġdistort":10113,"ĠGuest":10114,"Ġconsulting":10115,"Ġwarrant":10116,"Ġpublish":10117,"ography":10118,"Ġvacc":10119,"Ġemphasis":10120,"Ġtranslated":10121,"ĠUrban":10122,"Training":10123,"Democracy":10124,"ĠPackage":10125,"Ġcontradict":10126,"ĠKyoto":10127,"ĠAdministration":10128,"Ġprospects":10129,"Ġancient":10130,"Until":10131,"ĠCOUNTRIES":10132,"CF":10133,"LO":10134,"PC":10135,"Tim":10136,"bus":10137,"kan":10138,"lined":10139,"asure":10140,"ication":10141,"Ġnations":10142,"Ġloved":10143,"ĠSite":10144,"Ġvilla":10145,"Ġglo":10146,"Ġstations":10147,"ĠRel":10148,"ĠDid":10149,"ĠDanish":10150,"ĠDownload":10151,"Ġneut":10152,"emen":10153,"ĠCommissioners":10154,"isting":10155,"Ġexclus":10156,"endo":10157,"Ġyours":10158,"ĠUs":10159,"ĠKDE":10160,"Ġcomparis":10161,"Ġcompared":10162,"Ġcompensation":10163,"airy":10164,"Ġavo":10165,"Ġrightly":10166,"Ġtea":10167,"ikes":10168,"overs":10169,"Ġsmoking":10170,"azz":10171,"CONSUMER":10172,"Ġlawy":10173,"2011":10174,"Ġelev":10175,"Ġmoments":10176,"Ġstudio":10177,"RICA":10178,"Ġachievements":10179,"ĠForce":10180,"ĠSuper":10181,"Ġbuying":10182,"Speech":10183,"Ġrecords":10184,"Ġimposed":10185,"Ġlacking":10186,"Ġcontracts":10187,"ĠWorking":10188,"Ġsuffer":10189,"ENDA":10190,"Ġsurveillance":10191,"Ġhypoc":10192,"DUCTION":10193,"IGHTS":10194,"Ġdetermined":10195,"ĠBurma":10196,"ĠJavaScript":10197,"Ġgirls":10198,"Ġicon":10199,"Georg":10200,"Ġchemicals":10201,"Ġobstacles":10202,"Ġexcessive":10203,"Ġadequate":10204,"Ġconfigurations":10205,"Purpose":10206,"ĠTraynor":10207,"Life":10208,"San":10209,"ben":10210,"pal":10211,"hetic":10212,"ati":10213,"ansion":10214,"arters":10215,"Ġdining":10216,"Ġnar":10217,"Ġhor":10218,"ĠCur":10219,"ĠCatal":10220,"ĠMech":10221,"Ġbeer":10222,"iders":10223,"Ġeast":10224,"osoph":10225,"Ġgear":10226,"Ġstages":10227,"stal":10228,"ĠTIM":10229,"andon":10230,"ĠGB":10231,"ĠGaza":10232,"Ġshoes":10233,"ureau":10234,"ĠNGO":10235,"ĠJournal":10236,"ĠWelcome":10237,"Ġcha":10238,"ĠKal":10239,"Ġcloud":10240,"lavia":10241,"Ġunited":10242,"Ġspeeches":10243,"icht":10244,"ĠSecond":10245,"Stay":10246,"Ġeveryday":10247,"ATES":10248,"Presidents":10249,"Ġextensive":10250,"Ġincident":10251,"ĠAnswers":10252,"Ġflu":10253,"Ġtechnological":10254,"Ġretail":10255,"Ġclicking":10256,"Ġmotiv":10257,"ĠShow":10258,"Ġfaced":10259,"appy":10260,"Ġreturns":10261,"ĠCompetitiveness":10262,"ALLS":10263,"ographic":10264,"Ġawareness":10265,"ĠTravel":10266,"ĠCarlos":10267,"Ġbelongs":10268,"Ġawarded":10269,"Ġdemonst":10270,"Ġrapidly":10271,"ĠYugoslav":10272,"Excellent":10273,"Ġprohibited":10274,"overnance":10275,"ounge":10276,"Ġstrugg":10277,"ureauc":10278,"Ġunnecessary":10279,"AZ":10280,"DL":10281,"Pract":10282,"Sw":10283,"Watch":10284,"will":10285,"Ġtank":10286,"onent":10287,"Ġpod":10288,"Ġincl":10289,"Ġmit":10290,"Ġthorough":10291,"ĠMP":10292,"ĠIvan":10293,"ĠFER":10294,"ĠFrans":10295,"ĠBert":10296,"ĠDays":10297,"ĠLIND":10298,"ĠNET":10299,"ĠJew":10300,"Ġallocated":10301,"Investment":10302,"Ġsuites":10303,"RODUCTION":10304,"Ġenable":10305,"INI":10306,"thi":10307,"Ġdispl":10308,"Ġdismiss":10309,"ECD":10310,"ounded":10311,"Ġrapporteurs":10312,"ĠEnlargement":10313,"Ġinstitution":10314,"ĠRegulations":10315,"ĠZur":10316,"Ġprocessed":10317,"Ġoffering":10318,"Ġadvanced":10319,"Ġfilter":10320,"Ġpromises":10321,"UMAN":10322,"itutes":10323,"Ġoccurred":10324,"rastructures":10325,"ĠNotice":10326,"Ġgladly":10327,"Inflation":10328,"Telecommunications":10329,"Ġqualifications":10330,"Fourth":10331,"Ġpercentage":10332,"Ġministers":10333,"Ġcontradiction":10334,"Ġpilot":10335,"ĠMovement":10336,"Combating":10337,"Parking":10338,"Cross":10339,"Karel":10340,"NIK":10341,"aus":10342,"low":10343,"lang":10344,"lik":10345,"life":10346,"rass":10347,"ville":10348,"itals":10349,"Ġmine":10350,"asi":10351,"Ġnation":10352,"Ġvo":10353,"Ġalias":10354,"ĠByr":10355,"ĠGet":10356,"ĠGAL":10357,"Ġcancel":10358,"istent":10359,"Ġrising":10360,"ĠOf":10361,"ANA":10362,"aker":10363,"ERDF":10364,"pth":10365,"Ġju":10366,"Ġdisk":10367,"OMinister":10368,"Ġrecip":10369,"Ġraw":10370,"ĠAlbania":10371,"Ġpaying":10372,"iorg":10373,"ĠPlat":10374,"Ġeffectively":10375,"Ã¶n":10376,"ĠREPUBLIC":10377,"Ġsky":10378,"ĠReports":10379,"Ġenterprise":10380,"ĠAGAIN":10381,"Ġglobalisation":10382,"Ġartist":10383,"Ġsolar":10384,"Ġprinting":10385,"ĠPLAN":10386,"Helene":10387,"ĠEngland":10388,"Democratic":10389,"Ġgirl":10390,"ĠNielson":10391,"Ġdisagree":10392,"Category":10393,"Gross":10394,"Near":10395,"SW":10396,"SUD":10397,"Waste":10398,"YL":10399,"called":10400,"iating":10401,"long":10402,"inema":10403,"enue":10404,"oured":10405,"Ġwitness":10406,"Ġpour":10407,"arious":10408,"ingap":10409,"ĠMoscow":10410,"ĠSW":10411,"ĠSTEIN":10412,"mental":10413,"osa":10414,"Ġstim":10415,"ĠFE":10416,"ĠDIREC":10417,"ĠHung":10418,"Ġleaving":10419,"erner":10420,"ATED":10421,"Ġattacks":10422,"Ġcarbon":10423,"AMENT":10424,"Ġpoliticians":10425,"ĠXP":10426,"Ġresponses":10427,"Ġorganization":10428,"Ġrepresentative":10429,"rimin":10430,"Ġfairly":10431,"TAIN":10432,"Ġmagn":10433,"Association":10434,"Ġadjustment":10435,"ĠFrankfurt":10436,"VIIIc":10437,"ĠREGUL":10438,"allel":10439,"Ġsatisfactory":10440,"ĠRoberto":10441,"Ġscenario":10442,"Ġworrying":10443,"Advocate":10444,"Ġbehaviour":10445,"Maximum":10446,"opoulou":10447,"ĠHTML":10448,"ĠGeneva":10449,"Ber":10450,"Call":10451,"Cost":10452,"Culture":10453,"Official":10454,"Pet":10455,"Vol":10456,"case":10457,"government":10458,"ivery":10459,"Ġtennis":10460,"iny":10461,"ounder":10462,"itics":10463,"Ġpig":10464,"Ġpix":10465,"Ġinev":10466,"Ġmouth":10467,"ĠCAS":10468,"ĠMall":10469,"ĠAustrian":10470,"ĠSqu":10471,"olio":10472,"Ġstories":10473,"irg":10474,"Ġdepth":10475,"unting":10476,"ford":10477,"ONG":10478,"rome":10479,"ĠWE":10480,"RORIS":10481,"licit":10482,"ĠVel":10483,"ĠChinas":10484,"Ġcoal":10485,"Ġarran":10486,"Ġtransposition":10487,"Ġ1040":10488,"OLA":10489,"Ġpharm":10490,"comings":10491,"Ġmostly":10492,"rats":10493,"ĠArch":10494,"Ġfactory":10495,"ĠExpress":10496,"Ġadvise":10497,"Ġkeys":10498,"ĠThailand":10499,"ensions":10500,"ĠGuide":10501,"Ġroads":10502,"Ġmiles":10503,"Ġteams":10504,"ĠQue":10505,"Ġcollabor":10506,"Ġincorrect":10507,"Ġfemale":10508,"ĠIoannis":10509,"ĠByrne":10510,"ingapore":10511,"RORISM":10512,"700":10513,"Egypt":10514,"Fre":10515,"Fraud":10516,"LD":10517,"MB":10518,"Together":10519,"Towards":10520,"Vote":10521,"Viviane":10522,"oa":10523,"ĠÃĸ":10524,"Ġtuna":10525,"heim":10526,"Ġast":10527,"Ġtoile":10528,"Ġnic":10529,"Ġhat":10530,"Ġhidden":10531,"ĠMen":10532,"ĠMusic":10533,"ĠPerson":10534,"oler":10535,"ĠISS":10536,"igu":10537,"ĠBat":10538,"ĠGames":10539,"Ġships":10540,"ĠLuis":10541,"Ġheight":10542,"eph":10543,"Ġchain":10544,"Ġnovel":10545,"anca":10546,"Ġtransit":10547,"Ġapprove":10548,"ĠStatements":10549,"EMENTS":10550,"ĠPolicies":10551,"Ġdemo":10552,"ĠAlm":10553,"Connect":10554,"Ġputs":10555,"Implementing":10556,"Ġfilms":10557,"ĠUSB":10558,"ĠIndic":10559,"scale":10560,"Ġconsulted":10561,"ĠCOSTA":10562,"Ġlogical":10563,"Ġinstallations":10564,"ĠValley":10565,"Ġvoluntary":10566,"Ġlistened":10567,"Ġofficials":10568,"Ġcomplaints":10569,"Ġpieces":10570,"ĠAccession":10571,"ĠJoa":10572,"Ġdeleted":10573,"Ġsurprising":10574,"Ġsplit":10575,"unctioning":10576,"ĠVenice":10577,"Ġsupervision":10578,"Preparation":10579,"ĠSpring":10580,"ĠSchulz":10581,"BEL":10582,"Date":10583,"OTI":10584,"PA":10585,"mony":10586,"pay":10587,"onian":10588,"itles":10589,"alities":10590,"Ġmig":10591,"ĠCab":10592,"ĠCases":10593,"ĠMass":10594,"Ġbeings":10595,"ĠPers":10596,"ĠSem":10597,"resa":10598,"Ġvou":10599,"ĠFrom":10600,"ĠFab":10601,"este":10602,"ĠBra":10603,"ĠType":10604,"unes":10605,"ĠGentoo":10606,"forced":10607,"acking":10608,"udden":10609,"Ġability":10610,"Ġabandon":10611,"ĠKla":10612,"ĠKinn":10613,"Ġlets":10614,"Ġnobody":10615,"ARI":10616,"Ġpartition":10617,"Ġanyway":10618,"Ġaccord":10619,"Control":10620,"anna":10621,"Ġlegally":10622,"Protect":10623,"Always":10624,"Ġflag":10625,"Ġedge":10626,"Canada":10627,"auer":10628,"ĠREHN":10629,"Ġnecessarily":10630,"ĠSpace":10631,"ĠBlue":10632,"ĠCOMMON":10633,"Ġdecline":10634,"hibition":10635,"Ġambition":10636,"ĠInstance":10637,"Ġindicators":10638,"ĠServer":10639,"Ġrelaxing":10640,"ĠNewsroom":10641,"Ġmeantime":10642,"Ġchannels":10643,"Membership":10644,"Ġenhance":10645,"Ġconstructive":10646,"Ġelegant":10647,"Ġdignity":10648,"Barbara":10649,"Ġavoided":10650,"ĠAGAINST":10651,"197":10652,"800":10653,"BOUR":10654,"FI":10655,"Iceland":10656,"Meg":10657,"Sad":10658,"Save":10659,"Tom":10660,"VER":10661,"Win":10662,"Western":10663,"aug":10664,"bec":10665,"lock":10666,"uan":10667,"ye":10668,"heet":10669,"Ġsq":10670,"aland":10671,"Ġdas":10672,"ĠCou":10673,"ĠCross":10674,"ĠCountry":10675,"ĠMaster":10676,"ĠSV":10677,"ĠSie":10678,"Ġvig":10679,"Ġstrange":10680,"ĠRomp":10681,"ĠFISC":10682,"ĠTalk":10683,"ĠTAK":10684,"emp":10685,"Ġshar":10686,"Ġshot":10687,"ĠLight":10688,"ĠNATO":10689,"Ġorient":10690,"aceut":10691,"Ġcompar":10692,"Ġjoy":10693,"ogues":10694,"Ġproduces":10695,"Ġfinanced":10696,"aterini":10697,"iki":10698,"Ġdefend":10699,"ups":10700,"Ġequivalent":10701,"ĠJuan":10702,"OVA":10703,"Ġprompt":10704,"ĠCOW":10705,"Design":10706,"ĠGenerals":10707,"Ġcompetence":10708,"ĠSECTOR":10709,"Address":10710,"Ġcombined":10711,"Ġdoubts":10712,"Ġfalls":10713,"Ġwidely":10714,"Ġconcentrate":10715,"akhstan":10716,"ĠAgainst":10717,"Whether":10718,"210":10719,"Aik":10720,"Gen":10721,"LES":10722,"Negotiations":10723,"POS":10724,"Sil":10725,"Ġtip":10726,"hent":10727,"Ġsing":10728,"Ġcrops":10729,"Ġfalse":10730,"itar":10731,"Ġpow":10732,"Ġpity":10733,"Ġdro":10734,"otor":10735,"ĠCru":10736,"ĠCond":10737,"ĠMur":10738,"ĠAustralia":10739,"ĠEconom":10740,"ĠSUM":10741,"olas":10742,"Ġgreet":10743,"ĠFour":10744,"chi":10745,"ĠTest":10746,"rible":10747,"ĠGEN":10748,"ĠLes":10749,"ĠLos":10750,"ĠNE":10751,"Ġadult":10752,"Ġabuse":10753,"ĠViviane":10754,"ĠVietnam":10755,"Ġresident":10756,"ĠStation":10757,"ĠSteel":10758,"INEN":10759,"duces":10760,"teen":10761,"ĠInvest":10762,"Ġconcert":10763,"Ġphil":10764,"TERIAL":10765,"Ġreferend":10766,"ocket":10767,"Ġstanding":10768,"155":10769,"Ġblank":10770,"Ġkeyword":10771,"Ġturns":10772,"Ġpara":10773,"ĠClancy":10774,"1996":10775,"ĠGuidelines":10776,"Ġconsultations":10777,"Ġbrother":10778,"Ġheading":10779,"Ġconnections":10780,"Ġartists":10781,"ĠCHF":10782,"ĠEIBs":10783,"Ġrecognised":10784,"Ġindicated":10785,"Ġreplaced":10786,"TICS":10787,"Ġbathrooms":10788,"Ġindependence":10789,"Ġpensions":10790,"ĠTaxation":10791,"Ġdecorated":10792,"Neither":10793,"ĠMEDIA":10794,"Ġimagine":10795,"ĠBudapest":10796,"Ġsubstantial":10797,"Ġgarage":10798,"ĠStockholm":10799,"Participation":10800,"ĠWaite":10801,"ĠPortuguese":10802,"Aim":10803,"Aug":10804,"Best":10805,"Rad":10806,"Sur":10807,"UY":10808,"Wednesday":10809,"car":10810,"hop":10811,"matic":10812,"Ġcigaret":10813,"Ġfool":10814,"Ġbureauc":10815,"ĠMary":10816,"ĠMAY":10817,"Ġbeat":10818,"ĠPiet":10819,"etic":10820,"ĠACC":10821,"ĠSM":10822,"iration":10823,"ĠFair":10824,"ĠBON":10825,"ĠDU":10826,"Ġneighbourhood":10827,"emption":10828,"ĠNat":10829,"ĠNap":10830,"ĠJnos":10831,"ĠKUK":10832,"ĠStart":10833,"Ġenlarge":10834,"Ġenemy":10835,"INAL":10836,"Ġcompos":10837,"Ġsauna":10838,"anchez":10839,"ICK":10840,"EDING":10841,"Ġvalley":10842,"ILEO":10843,"Ġintellig":10844,"ĠAndr":10845,"AGGF":10846,"Ġeffectiveness":10847,"ĠIIa":10848,"Ġbenchmark":10849,"Ġdifficulty":10850,"Results":10851,"Ġ%.":10852,"Class":10853,"Ġ352":10854,"Above":10855,"ALLI":10856,"Ġvictory":10857,"Ġseemed":10858,"Ġappointment":10859,"ĠHelp":10860,"Ġcertification":10861,"Ġregrettable":10862,"Ġconvergence":10863,"Ġsimplification":10864,"Ġcolleague":10865,"Ġparameters":10866,"Ġwithdrawn":10867,"Create":10868,"Syria":10869,"Ġmutual":10870,"ĠIntegration":10871,"ĠApostola":10872,"aceutical":10873,"Aikaterini":10874,"Feel":10875,"IOU":10876,"IME":10877,"Lim":10878,"Op":10879,"WH":10880,"cing":10881,"gi":10882,"mma":10883,"sized":10884,"Ġtid":10885,"itan":10886,"Ġmaps":10887,"Ġdance":10888,"ĠCultural":10889,"ĠCologne":10890,"Ġrect":10891,"ĠMÃ¼":10892,"etically":10893,"ĠSU":10894,"ĠSanchez":10895,"Ġgained":10896,"uries":10897,"utt":10898,"ĠFe":10899,"ĠDer":10900,"adow":10901,"ods":10902,"Ġring":10903,"ĠNig":10904,"ĠNight":10905,"akers":10906,"ĠKrist":10907,"INES":10908,"EDPS":10909,"Ġtransaction":10910,"Ġremote":10911,"Ġextract":10912,"oys":10913,"Slovak":10914,"Ġsections":10915,"December":10916,"Ġnevertheless":10917,"Short":10918,"Close":10919,"Ġnegotiation":10920,"ĠParty":10921,"Ġdemanding":10922,"Science":10923,"Management":10924,"Reding":10925,"Ġrelaxation":10926,"ĠBYR":10927,"Humanitarian":10928,"ĠSalz":10929,"Ġprimarily":10930,"ĠPosition":10931,"Ġcells":10932,"ĠMcCREEVY":10933,"Defin":10934,"USTRY":10935,"Ġparliamentary":10936,"ĠAlcide":10937,"Ġaccompl":10938,"ĠGasperi":10939,"ĠPRODUCTS":10940,"iovisual":10941,"ĠEDPS":10942,"Ġexclusively":10943,"ĠKinnock":10944,"196":10945,"Five":10946,"Iraq":10947,"Ministry":10948,"Test":10949,"UATION":10950,"cue":10951,"hua":10952,"iques":10953,"inery":10954,"isen":10955,"Ġcure":10956,"Ġcock":10957,"Ġbread":10958,"lev":10959,"level":10960,"illy":10961,"Ġhide":10962,"ĠCre":10963,"usc":10964,"ĠMO":10965,"Ġlounge":10966,"ĠSL":10967,"ĠSav":10968,"Ġvit":10969,"Ġstrik":10970,"changes":10971,"amm":10972,"rip":10973,"email":10974,"Ġhel":10975,"Ġhell":10976,"akis":10977,"ĠVenez":10978,"ĠKon":10979,"Ġquarter":10980,"Ġclarity":10981,"Ġenvis":10982,"agers":10983,"iza":10984,"Ġ881":10985,"Soft":10986,"ATER":10987,"Online":10988,"Ġlaund":10989,"Ġconfusion":10990,"ĠPolice":10991,"Ġcorporate":10992,"Altern":10993,"OSLAV":10994,"Imports":10995,"Ġshortcomings":10996,"OVI":10997,"Ġactivate":10998,"Ġdesigns":10999,"ĠImmigration":11000,"umps":11001,"EGOTI":11002,"Ġhonour":11003,"ĠPriv":11004,"rdric":11005,"Ġdimensions":11006,"Ġbottle":11007,"Ġtwice":11008,"which":11009,"ĠObjective":11010,"Ġconfiguration":11011,"Ġignore":11012,"Ġaccidents":11013,"Ġbridge":11014,"Ġtutorial":11015,"Ġlyrics":11016,"thiopia":11017,"4379":11018,"Abs":11019,"AID":11020,"Back":11021,"CAP":11022,"Facts":11023,"Land":11024,"Leg":11025,"NS":11026,"Navigation":11027,"aard":11028,"trans":11029,"reets":11030,"Ġwins":11031,"Ġcouncil":11032,"alis":11033,"rote":11034,"Ġini":11035,"Ġislands":11036,"otland":11037,"Ġhung":11038,"ĠCV":11039,"Ġyang":11040,"acific":11041,"uts":11042,"0001":11043,"ceived":11044,"ĠROS":11045,"ĠFL":11046,"ĠBed":11047,"Ġdoctor":11048,"essler":11049,"ĠLic":11050,"ĠNH":11051,"ĠOcean":11052,"ĠJul":11053,"aks":11054,"ĠWell":11055,"arding":11056,"lich":11057,"ARR":11058,"EDER":11059,"ĠChurch":11060,"Ġteaching":11061,"Animal":11062,"Ġtransactions":11063,"Ġspons":11064,"Ġlaid":11065,"Ġtracks":11066,"Too":11067,"Ask":11068,"Ġpolitically":11069,"Ġsuccessfully":11070,"ufficient":11071,"Ġorganic":11072,"ĠGuarantee":11073,"Ġsubjects":11074,"Ġsheep":11075,"ERSEN":11076,"Ġurgency":11077,"Ġdeclare":11078,"Ġpeaceful":11079,"Ġauthorised":11080,"ĠAmericas":11081,"Ġmagic":11082,"Ã¼rgen":11083,"UGOSLAV":11084,"Ġfirmly":11085,"ĠMarkos":11086,"Ġcomponent":11087,"Example":11088,"ĠPlaya":11089,"Ġparadox":11090,"ĠClaus":11091,"ĠYugoslavia":11092,"Ġhopes":11093,"Ġterritory":11094,"ĠMandelson":11095,"ĠFISCHER":11096,"Iran":11097,"KE":11098,"Kosovo":11099,"Liber":11100,"Mat":11101,"Mont":11102,"Presidency":11103,"Rate":11104,"UTION":11105,"bur":11106,"bean":11107,"Ġrough":11108,"Ġtort":11109,"inic":11110,"Ġsouthern":11111,"Ġwise":11112,"arctic":11113,"Ġthrow":11114,"ota":11115,"Ġhal":11116,"Ġlag":11117,"ĠPutin":11118,"ĠSPE":11119,"oses":11120,"Ġprop":11121,"ĠBos":11122,"ĠDi":11123,"ĠTwo":11124,"ĠHil":11125,"ĠNuclear":11126,"Ġmeals":11127,"Ġclimb":11128,"ĠChris":11129,"Ġ86":11130,"Ġ900":11131,"Ġscan":11132,"Ġscreens":11133,"Ġenthus":11134,"115":11135,"Ġindustries":11136,"Ġdelicious":11137,"Ġcontinent":11138,"Ġfavourite":11139,"ustomer":11140,"argo":11141,"ĠExpl":11142,"Ġputting":11143,"Ġexplore":11144,"Ġactivated":11145,"Ġminor":11146,"Ġdistrict":11147,"ĠProgrammes":11148,"Ġcorrections":11149,"Ġengines":11150,"Ġholding":11151,"Ġrevision":11152,"ropical":11153,"OWSKI":11154,"Ġseparately":11155,"ĠRecommendation":11156,"Spokes":11157,"Ġmandatory":11158,"Ġdescribe":11159,"Ġconditioning":11160,"Lastly":11161,"Ġobliged":11162,"abilisation":11163,"Ġcalculated":11164,"Ġinvolvement":11165,"ĠPRESIDENCY":11166,"ĠStudio":11167,"Ġsustainability":11168,"Ġguardian":11169,"January":11170,"ĠSYSTEM":11171,"Road":11172,"ĠTreaties":11173,"Ġarranged":11174,"Card":11175,"Mart":11176,"Northern":11177,"NAFO":11178,"Pass":11179,"Rural":11180,"SEC":11181,"upe":11182,"rep":11183,"including":11184,"atis":11185,"Ġtheres":11186,"Ġinclusion":11187,"Ġhole":11188,"Ġren":11189,"ĠMS":11190,"ĠMare":11191,"ĠSTE":11192,"raf":11193,"keep":11194,"ĠTunisia":11195,"umes":11196,"istor":11197,"ighter":11198,"ĠOpt":11199,"ĠOption":11200,"ĠUrs":11201,"Ġcontro":11202,"ROU":11203,"Former":11204,"Ġenlarg":11205,"elsen":11206,"Ġunfor":11207,"ishment":11208,"Ġdiss":11209,"aven":11210,"plus":11211,"ĠChildren":11212,"Ġconsc":11213,"Ġarm":11214,"phan":11215,"112":11216,"ĠYUGOSLAV":11217,"vents":11218,"OPOUL":11219,"Ġrestric":11220,"AMA":11221,"Ġbless":11222,"Ġblocks":11223,"Myanmar":11224,"160":11225,"Ġrepresentatives":11226,"Ġkeeps":11227,"uela":11228,"Ġsentence":11229,"Ġreviews":11230,"Ġclasses":11231,"Ġperformed":11232,"Ġevil":11233,"Ġfarming":11234,"Ġcomplaint":11235,"Black":11236,"ĠBenita":11237,"Adoption":11238,"Ġpurely":11239,"Codecision":11240,"Capital":11241,"ĠRaim":11242,"VivianeReding":11243,"VivianeRedingEU":11244,"Ahead":11245,"East":11246,"Foreign":11247,"Frdric":11248,"RANE":11249,"fox":11250,"uing":11251,"Ġum":11252,"oning":11253,"orama":11254,"anied":11255,"Ġsought":11256,"Ġcache":11257,"roeconomic":11258,"elo":11259,"Ġreb":11260,"Ġreass":11261,"usal":11262,"ĠMo":11263,"Ġbeef":11264,"ĠPen":11265,"ĠPACT":11266,"ĠSAP":11267,"mented":11268,"Ġeve":11269,"acin":11270,"ĠIAC":11271,"urious":11272,"ĠFreedom":11273,"ĠFISHERIES":11274,"ĠDoc":11275,"Ġdep":11276,"opes":11277,"outique":11278,"ĠLind":11279,"Ġrating":11280,"ĠNav":11281,"Inv":11282,"Ġresidence":11283,"anka":11284,"ĠStreet":11285,"ENG":11286,"tek":11287,"Ġunw":11288,"Ġsaving":11289,"Ġoutdoor":11290,"ĠUnivers":11291,"Ġconsolid":11292,"Ġendors":11293,"riage":11294,"Ġdifferently":11295,"161":11296,"menia":11297,"ĠAdam":11298,"Ġexcur":11299,"IMATE":11300,"AFRD":11301,"ĠManager":11302,"AVE":11303,"ESCU":11304,"Ġtourna":11305,"Ġconsiderations":11306,"Ġstops":11307,"Registration":11308,"ĠCHANGE":11309,"COST":11310,"Ġquoted":11311,"Ġfrank":11312,"ARDS":11313,"Ġloaded":11314,"Ġexceptions":11315,"ĠSmall":11316,"Ġsupplies":11317,"ĠGÃ¼nther":11318,"Ġfulfil":11319,"ĠDiamant":11320,"ITERRANE":11321,"ĠICT":11322,"Americas":11323,"Baltic":11324,"Morocco":11325,"ĠBelgian":11326,"ĠMINISTERIAL":11327,"ĠSquare":11328,"ĠISSUES":11329,"ITERRANEAN":11330,"BL":11331,"Ps":11332,"Services":11333,"TD":11334,"Tur":11335,"ket":11336,"Ġaer":11337,"inet":11338,"atom":11339,"Ġwalls":11340,"Ġpace":11341,"Ġdict":11342,"ĠSIM":11343,"Ġgate":11344,"ourse":11345,"ĠFEK":11346,"cho":11347,"ĠBush":11348,"ĠHere":11349,"anta":11350,"rous":11351,"Ġsharing":11352,"Ġ350":11353,"Ġchart":11354,"INN":11355,"Ġking":11356,"ints":11357,"Ġsoil":11358,"Star":11359,"117":11360,"Ġraises":11361,"Ġlaugh":11362,"2020":11363,"condition":11364,"Procedure":11365,"ĠResidence":11366,"ULT":11367,"olutely":11368,"Ġparallel":11369,"Ġminority":11370,"product":11371,"Developing":11372,"ĠShop":11373,"AVIATION":11374,"ĠCOMMUNITY":11375,"liers":11376,"Ġautomatic":11377,"ĠEMPLOYMENT":11378,"Ġcircle":11379,"ISTANCE":11380,"Ġconversion":11381,"ĠAponte":11382,"Relax":11383,"Ġfitness":11384,"Ġdisappointed":11385,"Republic":11386,"accession":11387,"ĠFilm":11388,"Ġridic":11389,"Ġarchitecture":11390,"osophy":11391,"Around":11392,"Buy":11393,"GB":11394,"Hope":11395,"Las":11396,"Sol":11397,"SME":11398,"host":11399,"person":11400,"tor":11401,"tical":11402,"Ġtips":11403,"Ġawards":11404,"onn":11405,"Ġslo":11406,"Ġowe":11407,"Ġbio":11408,"Ġinn":11409,"Ġinadequate":11410,"ĠMOD":11411,"teries":11412,"aya":11413,"ĠIz":11414,"Ġ130":11415,"iring":11416,"ĠDIS":11417,"ĠDIM":11418,"ĠDouble":11419,"ĠTAX":11420,"unn":11421,"unning":11422,"ĠHug":11423,"ĠJUN":11424,"ĠKO":11425,"ellers":11426,"Ġenabled":11427,"arer":11428,"ograp":11429,"Ġdishes":11430,"oving":11431,"ĠChile":11432,"ords":11433,"Ġproducer":11434,"Ġscr":11435,"Ġmoder":11436,"Ġguys":11437,"Ġguidance":11438,"120":11439,"Ġrefers":11440,"Ġrepair":11441,"Ġbusy":11442,"Ġrestructuring":11443,"Ġ180":11444,"ĠAlber":11445,"ĠAllah":11446,"Ġdirections":11447,"Following":11448,"IGR":11449,"IVER":11450,"Ġloans":11451,"Ġglance":11452,"rims":11453,"Ġtrips":11454,"Ġoppose":11455,"Ġmarried":11456,"Ġfallen":11457,"OCK":11458,"ĠJapanese":11459,"Ġmanufactured":11460,"Christian":11461,"Ġutmost":11462,"ilingual":11463,"PERLINK":11464,"ĠOfficial":11465,"ĠLibya":11466,"Ġshuttle":11467,"zbek":11468,"Ġcertificate":11469,"ĠTurkish":11470,"governmental":11471,"EGOTIATIONS":11472,"Ġcontrovers":11473,"CB":11474,"Equ":11475,"FS":11476,"Fishing":11477,"IRO":11478,"ITION":11479,"March":11480,"Prime":11481,"PCD":11482,"Rom":11483,"ky":11484,"pet":11485,"Ġtail":11486,"inent":11487,"Ġtheory":11488,"Ġok":11489,"Ġdress":11490,"oms":11491,"ĠPAT":11492,"ĠAwards":11493,"ĠSar":11494,"ĠSearch":11495,"idas":11496,"ulum":11497,"Ġ(%":11498,"Ġwealth":11499,"ĠBor":11500,"ĠBureau":11501,"ĠTE":11502,"istence":11503,"TEQ":11504,"ĠJose":11505,"agne":11506,"Ġune":11507,"Ġreporting":11508,"ancies":11509,"ĠMarco":11510,"Ġdesktop":11511,"ATORS":11512,"Ġmana":11513,"ĠYes":11514,"ILÃĦ":11515,"Already":11516,"Ġflash":11517,"ĠIslam":11518,"Ġinspect":11519,"Ġpromised":11520,"rasse":11521,"ĠFundamental":11522,"Ġresear":11523,"ĠLaure":11524,"Ġsending":11525,"Ġmovies":11526,"Ġportf":11527,"Ġindividuals":11528,"Ġmoral":11529,"Ġpurchased":11530,"Ġaccommodate":11531,"ĠSystems":11532,"Ġdrinking":11533,"ĠAccount":11534,"Ġprotest":11535,"Promotion":11536,"Ġirre":11537,"Ġforests":11538,"ĠHaiti":11539,"Ġsurroundings":11540,"Ġconducted":11541,"ĠORGAN":11542,"Restrictive":11543,"Ġhousing":11544,"Ġaccompany":11545,"Ġtravelling":11546,"Sprat":11547,"Ġcopies":11548,"Ideal":11549,"Ġhectares":11550,"zbekistan":11551,"PCDD":11552,"Bes":11553,"Brazil":11554,"CESS":11555,"ITED":11556,"SON":11557,"SMinister":11558,"Tell":11559,"Voting":11560,"WAL":11561,"Woj":11562,"gn":11563,"group":11564,"jer":11565,"erted":11566,"ouch":11567,"Ġcommission":11568,"Ġflying":11569,"Ġolive":11570,"alet":11571,"Ġbill":11572,"rogen":11573,"ilde":11574,"elong":11575,"Ġrevers":11576,"ĠESP":11577,"ĠSIS":11578,"raction":11579,"ĠRound":11580,"ĠBig":11581,"ĠBlo":11582,"unate":11583,"Ġanal":11584,"ĠLad":11585,"ubl":11586,"ĠNero":11587,"ĠOs":11588,"ĠOnd":11589,"ĠJar":11590,"Ġplate":11591,"ĠUser":11592,"Ġimpl":11593,"ĠVict":11594,"ĠKAL":11595,"Ġquery":11596,"ĠReview":11597,"izations":11598,"izhou":11599,"ibe":11600,"Soon":11601,"Ġattach":11602,"Ġreferences":11603,"ierra":11604,"ĠAlg":11605,"Ġdirected":11606,"Ġestimated":11607,"oha":11608,"Ġimplementing":11609,"ĠMarkets":11610,"Ġexistence":11611,"!!!!":11612,"Ġachieving":11613,"Ġproperties":11614,"ÃĸN":11615,"Ġsym":11616,"EVA":11617,"razy":11618,"Ġcrossroad":11619,"ĠGRASS":11620,"Ġbroadcast":11621,"Ġordinary":11622,"Ġqualified":11623,"Ġoptimistic":11624,"Ġmedicines":11625,"Belarus":11626,"Ġsupplier":11627,"Texts":11628,"Ġquantity":11629,"ĠFrancis":11630,"ĠHubert":11631,"ĠBusquin":11632,"ĠFederation":11633,"Ġconfidential":11634,"ĠZealand":11635,"Ġisolated":11636,"Ġepis":11637,"Ġvariable":11638,"ĠTibet":11639,"Ġingred":11640,"oubted":11641,"ĠZurich":11642,"ĠRompuy":11643,"Author":11644,"Dist":11645,"History":11646,"Located":11647,"MT":11648,"Oh":11649,"Yizhou":11650,"fan":11651,"xim":11652,"organ":11653,"Ġfont":11654,"Ġpaint":11655,"Ġber":11656,"Ġdiag":11657,"ĠCrow":11658,"ĠCEO":11659,"etch":11660,"ĠEV":11661,"ĠSaf":11662,"ĠSomalia":11663,"Ġstr":11664,"ĠRIGHTS":11665,"ĠBuilding":11666,"adays":11667,"Ġnearest":11668,"sem":11669,"odia":11670,"Ġriding":11671,"ANK":11672,"ĠVIS":11673,"ĠKm":11674,"INTS":11675,"ricks":11676,"HEUG":11677,"ĠReader":11678,"Ġoutlook":11679,"Ġpointed":11680,"Ġacting":11681,"Ġprogramming":11682,"Ġspaces":11683,"eek":11684,"TRÃĸM":11685,"Ġpublication":11686,"Ġcourts":11687,"Ġindices":11688,"Ġdiscip":11689,"ĠYOU":11690,"athy":11691,"Ġexpansion":11692,"Ġflows":11693,"Ġoperator":11694,"Company":11695,"ĠMARTIN":11696,"Ġsincere":11697,"ĠREPORT":11698,"apsed":11699,"IVAL":11700,"iversary":11701,"Show":11702,"Ġpatients":11703,"Ġvaried":11704,"being":11705,"ĠPalacio":11706,"Transfers":11707,"ĠDirectives":11708,"Install":11709,"iii":11710,"Ġabstain":11711,"Ġarrangement":11712,"IANOU":11713,"ĠNewsletter":11714,"ĠVERHEUG":11715,"Ġsurrounded":11716,"ĠREGION":11717,"Ġignored":11718,"ĠAlps":11719,"ĠAIDS":11720,"Ġinvestigations":11721,"ĠHostel":11722,"Ġstrictly":11723,"Ġruling":11724,"Ġtrouble":11725,"Ġpreferences":11726,"Ġbrochure":11727,"Ġofficer":11728,"bcd":11729,"Ġcomparison":11730,"Georgia":11731,"oubtedly":11732,"Growth":11733,"Lib":11734,"SM":11735,"Twitter":11736,"cultural":11737,"disc":11738,"su":11739,"Ġau":11740,"Ġpa":11741,"Ġincoming":11742,"Ġmel":11743,"lets":11744,"Ġthick":11745,"ownt":11746,"ĠId":11747,"Ġvari":11748,"irts":11749,"Ġhabit":11750,"ĠBol":11751,"ĠDerm":11752,"ĠDoll":11753,"ĠDrag":11754,"ĠDECLARATION":11755,"ĠTa":11756,"ĠGL":11757,"ĠGard":11758,"ĠGord":11759,"ĠHtel":11760,"ĠLong":11761,"ĠObs":11762,"ANIA":11763,"ĠWas":11764,"ĠVitor":11765,"Ġmeal":11766,"INO":11767,"apid":11768,"Ġunus":11769,"Ġunemployed":11770,"ĠIng":11771,"Ġdisp":11772,"ĠChic":11773,"ibbean":11774,"Ġspare":11775,"Ġovercome":11776,"Ġ140":11777,"Proposal":11778,"Ġinfrastructures":11779,"Ġinvestors":11780,"Ġpressing":11781,"ĠCONSUMER":11782,"ĠLevel":11783,"ĠScore":11784,"Ġpromoting":11785,"Ġzones":11786,"Ġdownloads":11787,"ĠChristos":11788,"ĠSchreyer":11789,"Ġtargeted":11790,"Ġevident":11791,"Ġageing":11792,"Guide":11793,"Ġfreely":11794,"ĠPortal":11795,"Ġengineering":11796,"Ġdetermine":11797,"secut":11798,"Ġratio":11799,"Ġexpertise":11800,"Ġfleet":11801,"Join":11802,"Ġcosy":11803,"ĠFernando":11804,"ĠMALMS":11805,"ĠMechanism":11806,"ĠTalko":11807,"upea":11808,"Ġunforget":11809,"ĠIACOV":11810,"Wojtek":11811,"Big":11812,"BES":11813,"Clean":11814,"Field":11815,"GH":11816,"Gal":11817,"LT":11818,"Less":11819,"Log":11820,"Languages":11821,"Own":11822,"PG":11823,"Sustain":11824,"West":11825,"aim":11826,"ders":11827,"iqu":11828,"rus":11829,"zard":11830,"Ġtran":11831,"reb":11832,"Ġcord":11833,"Ġbilateral":11834,"Ġbanned":11835,"rov":11836,"Ġhire":11837,"elve":11838,"ctors":11839,"ĠPia":11840,"ĠPage":11841,"ĠAK":11842,"resden":11843,"ĠIll":11844,"Ġgrat":11845,"Ġ112":11846,"Ġhareng":11847,"ĠBu":11848,"ĠBUDGET":11849,"riving":11850,"Ġash":11851,"ĠNI":11852,"iva":11853,"Ġchap":11854,"Ġstayed":11855,"ECTS":11856,"Ġcoin":11857,"Ġarise":11858,"111":11859,"ictures":11860,"Chairman":11861,"Export":11862,"Ġbuses":11863,"Ġhighlights":11864,"ĠZAL":11865,"Ġsignals":11866,"Ġtextile":11867,"Ġinsert":11868,"Within":11869,"ĠSche":11870,"ĠIndustrial":11871,"rooms":11872,"Ġorganized":11873,"1994":11874,"Ġprivat":11875,"Clupea":11876,"Ġsyn":11877,"ĠBox":11878,"Ġtemplate":11879,"Ġbathing":11880,"Ġencouraged":11881,"ocolate":11882,"ĠComfort":11883,"Ġelectrical":11884,"Ġdepartment":11885,"ĠPaula":11886,"ĠObama":11887,"Species":11888,"Ġsucceeded":11889,"Ġsupplied":11890,"Milk":11891,"ĠTACs":11892,"ĠGNU":11893,"Ġteachers":11894,"ĠOPIN":11895,"ĠEduard":11896,"Burma":11897,"WELCOM":11898,"Ġincentives":11899,"ulsory":11900,"ĠUrsula":11901,"ĠDiamantopoulou":11902,"ĠMALMSTRÃĸM":11903,"Ġharengus":11904,"ATIVE":11905,"HIC":11906,"KAN":11907,"Money":11908,"Mean":11909,"October":11910,"Ple":11911,"PON":11912,"Sir":11913,"SPE":11914,"Ts":11915,"break":11916,"cz":11917,"file":11918,"has":11919,"ipt":11920,"tt":11921,"try":11922,"Ġtub":11923,"Ġtrem":11924,"hem":11925,"Ġwife":11926,"Ġcater":11927,"Ġflav":11928,"Ġpush":11929,"Ġbold":11930,"Ġincom":11931,"ĠClick":11932,"ĠAle":11933,"ĠEb":11934,"ĠSl":11935,"ĠSir":11936,"osh":11937,"Ġstreets":11938,"ĠFort":11939,"state":11940,"ĠBri":11941,"ĠBOD":11942,"ĠBrab":11943,"emar":11944,"ĠGova":11945,"endid":11946,"ĠNep":11947,"ĠWomen":11948,"udiciary":11949,"Ġcharm":11950,"ells":11951,"ĠStructure":11952,"Ġapparent":11953,"jectives":11954,"ruits":11955,"avour":11956,"ewable":11957,"ICATORS":11958,"uggage":11959,"Ġtrace":11960,"Ġclears":11961,"anni":11962,"Ġproviding":11963,"Ġformula":11964,"Ġapolog":11965,"ĠAlfred":11966,"TERNATIONAL":11967,"Ġamending":11968,"Ġafterwards":11969,"Ġactively":11970,"ĠAdvis":11971,"ADT":11972,"Ġsuppliers":11973,"Ġprivile":11974,"Ġhardware":11975,"Consumers":11976,"pread":11977,"EVENTS":11978,"Ġobser":11979,"like":11980,"Ġsearching":11981,"Ġmulti":11982,"Ġoptional":11983,"Peace":11984,"Ġsignificantly":11985,"Hello":11986,"Ġnormally":11987,"atoes":11988,"Ġstrengthening":11989,"Ġcontaining":11990,"Ġcertified":11991,"Ġreflected":11992,"BEI":11993,"Ġdisappointing":11994,"Ġwidth":11995,"Ġfulfilled":11996,"ĠTelecommunications":11997,"Ġharmonisation":11998,"Ġmanufacturers":11999,"Audrey":12000,"Tourism":12001,"ĠDidier":12002,"Ġtoilet":12003,"Ġscrutin":12004,"ĠBrabant":12005,"ĠGovaert":12006,"Brit":12007,"Cent":12008,"Dem":12009,"Give":12010,"Lebanon":12011,"Terrorism":12012,"WRITTEN":12013,"XX":12014,"ZI":12015,"cat":12016,"ping":12017,"Ġtape":12018,"Ġauf":12019,"isure":12020,"Ġwest":12021,"Ġcaught":12022,"arre":12023,"Ġdiving":12024,"Ġthin":12025,"Ġhiking":12026,"ĠMap":12027,"Ġyield":12028,"ĠPED":12029,"ĠAge":12030,"ĠSPR":12031,"ĠReturn":12032,"stant":12033,"stream":12034,"ĠBER":12035,"ĠDoha":12036,"ĠTerr":12037,"oding":12038,"ONIA":12039,"ĠLag":12040,"ĠLear":12041,"ĠLodge":12042,"ĠJames":12043,"aked":12044,"ĠWerner":12045,"berger":12046,"Ġmere":12047,"asting":12048,"ERCIAL":12049,"ĠKOV":12050,"abs":12051,"Ġcomply":12052,"Ġunchanged":12053,"izer":12054,"ilemma":12055,"Ġarbit":12056,"Ġapproaches":12057,"ĠMara":12058,"sson":12059,"Ġphones":12060,"IRD":12061,"ILY":12062,"Ġ160":12063,"Ġinterrupt":12064,"ULTURAL":12065,"Ġchoices":12066,"Establish":12067,"ĠIndonesia":12068,"Industry":12069,"apped":12070,"Amount":12071,"ĠPartner":12072,"poration":12073,"ĠAugier":12074,"Ġgenerate":12075,"Addition":12076,"ĠCHAR":12077,"irable":12078,"Similar":12079,"communication":12080,"Ġbattery":12081,"ĠErnst":12082,"Ġarchives":12083,"Ġsunny":12084,"Ġradical":12085,"Ġmagazine":12086,"Ġwatching":12087,"ĠPAPAN":12088,"Ġcelebrate":12089,"Ġpursue":12090,"TISTICS":12091,"ĠGolden":12092,"ĠLoi":12093,"Ġpredict":12094,"ĠJaime":12095,"ĠFÃ¼le":12096,"IMPLEMENTATION":12097,"ĠFlorence":12098,"Ġprosperity":12099,"ĠFERRE":12100,"Ġridiculous":12101,"DON":12102,"Easy":12103,"FL":12104,"HIP":12105,"Mexico":12106,"TN":12107,"Tob":12108,"hot":12109,"iment":12110,"iem":12111,"lan":12112,"link":12113,"pie":12114,"rition":12115,"yes":12116,"eras":12117,"Ġcaf":12118,"Ġfib":12119,"Ġfires":12120,"Ġpets":12121,"Ġborne":12122,"Ġmurd":12123,"Ġdairy":12124,"icular":12125,"ĠCad":12126,"ĠCamb":12127,"ĠCopy":12128,"ĠAthen":12129,"ĠSof":12130,"ĠSource":12131,"aco":12132,"ĠIR":12133,"illes":12134,"ulating":12135,"Ġconvert":12136,"ĠFri":12137,"ĠFont":12138,"ĠFUND":12139,"star":12140,"sted":12141,"ĠBL":12142,"ĠBange":12143,"ĠBah":12144,"adus":12145,"ĠTask":12146,"ĠTaiwan":12147,"ĠGallery":12148,"ĠGessler":12149,"ĠHus":12150,"ĠHold":12151,"ĠHEM":12152,"ONE":12153,"ĠJust":12154,"ĠWil":12155,"Ġinformations":12156,"ĠUse":12157,"ĠVE":12158,"Ġresist":12159,"ĠKr":12160,"ĠKYPR":12161,"Young":12162,"Ġwhats":12163,"Ġstaying":12164,"Ġworkshop":12165,"ĠChar":12166,"ĠChall":12167,"Ġtragic":12168,"While":12169,"105":12170,"Ġ106":12171,"ĠCommerce":12172,"ĠMarina":12173,"Ġentrepreneurship":12174,"ATA":12175,"Ġende":12176,"Ġvisual":12177,"Ġlasts":12178,"risy":12179,"STADT":12180,"CEE":12181,"ĠArgentina":12182,"Ġpersonnel":12183,"Ġairports":12184,"ĠBeat":12185,"ĠBeijing":12186,"amps":12187,"ADS":12188,"Ġconstitution":12189,"Ġappeared":12190,"Ġentering":12191,"ividually":12192,"Despite":12193,"lerfish":12194,"Ġoccurs":12195,"Ġobserve":12196,"Ġsummar":12197,"ĠEditor":12198,"Ġderog":12199,"Ġbrows":12200,"Ġlicence":12201,"Ġboxes":12202,"financing":12203,"Ġcollected":12204,"ĠMih":12205,"ĠDomestic":12206,"Ġvirtually":12207,"Ġultimate":12208,"ĠDELIVER":12209,"Ġescape":12210,"FAO":12211,"ĠHERE":12212,"HOLM":12213,"Ġdisplays":12214,"Ġportfolio":12215,"Ġcrossroads":12216,"ĠBangemann":12217,"250":12218,"DECLARATION":12219,"Lou":12220,"PU":12221,"War":12222,"aire":12223,"card":12224,"ding":12225,"uct":12226,"villa":12227,"yard":12228,"Ġtap":12229,"Ġtrick":12230,"hearted":12231,"inars":12232,"initiative":12233,"Ġtherapy":12234,"Ġped":12235,"Ġmad":12236,"ĠdI":12237,"ĠMir":12238,"ĠMem":12239,"ĠMIL":12240,"ĠPoul":12241,"ĠSIK":12242,"olly":12243,"olved":12244,"Ġ(*)":12245,"ĠRun":12246,"cht":12247,"ĠTable":12248,"amin":12249,"ĠHA":12250,"Ġsequ":12251,"Ġexclusion":12252,"ĠWood":12253,"ĠVe":12254,"ENESS":12255,"ENOV":12256,"arks":12257,"ereals":12258,"Ġwhatever":12259,"ART":12260,"Ġpartly":12261,"conf":12262,"Ġrot":12263,"ĠRein":12264,"angers":12265,"ICATION":12266,"Ġ69":12267,"pling":12268,"Ġprev":12269,"PEZ":12270,"Ġcommod":12271,"rena":12272,"125":12273,"Ġtrig":12274,"Ġfoundation":12275,"Prot":12276,"Ġsmile":12277,"Ġdefense":12278,"ieties":12279,"Ġintoler":12280,"Ġcheese":12281,"Ġboats":12282,"Ġinterim":12283,"Ġhandling":12284,"Ġedit":12285,"Ġbrands":12286,"ijk":12287,"Everybody":12288,"Respons":12289,"Ġrepresentation":12290,"Ġnegotiating":12291,"Ġpreviously":12292,"Ġsymp":12293,"Ġprecious":12294,"Ġregulated":12295,"ĠALL":12296,"ĠPeople":12297,"Marie":12298,"ĠAppro":12299,"Ġpermit":12300,"Ġskiing":12301,"Ġsuffered":12302,"alties":12303,"Ġadvertise":12304,"ĠYears":12305,"Ġaccompanied":12306,"Personally":12307,"Urban":12308,"Ġcoherent":12309,"Practical":12310,"ĠOPINION":12311,"ĠDELIVERED":12312,"/+":12313,"Fruit":12314,"Gadus":12315,"HOR":12316,"IJ":12317,"Pop":12318,"Risk":12319,"SIS":12320,"Tw":12321,"Ult":12322,"Walk":12323,"YN":12324,"cific":12325,"df":12326,"elect":12327,"kin":12328,"mn":12329,"ooting":12330,"she":12331,"vio":12332,"Ġsake":12333,"Ġpsy":12334,"Ġinclusive":12335,"leading":12336,"ĠColl":12337,"Ġlights":12338,"ĠPy":12339,"ĠEvery":12340,"ĠSingapore":12341,"imates":12342,"ĠRod":12343,"Ġalarm":12344,"aman":12345,"ĠGarden":12346,"ĠHIV":12347,"oute":12348,"umed":12349,"essor":12350,"ĠLANG":12351,"Ġaster":12352,"ĠNIC":12353,"ĠNature":12354,"ĠNeed":12355,"ieu":12356,"ANI":12357,"ĠJack":12358,"ĠJak":12359,"ĠJÃ¼rgen":12360,"ĠWhe":12361,"ĠWALL":12362,"Ġplastic":12363,"ENDO":12364,"abe":12365,"Ġunfort":12366,"posals":12367,"Ġsovere":12368,"oval":12369,"ucht":12370,"ECT":12371,"ITOR":12372,"ĠFinn":12373,"Ġadopts":12374,"Ġdesper":12375,"Heinz":12376,"Ġdiscovered":12377,"Ġrelate":12378,"Eng":12379,"Proceed":12380,"DECISIONS":12381,"ĠAlb":12382,"Ġinterven":12383,"Ġspecify":12384,"ijan":12385,"Ġaimed":12386,"Ġshell":12387,"Ġsafer":12388,"Ġkeeping":12389,"priate":12390,"Ġcaution":12391,"Ġmorhua":12392,"Ġmarine":12393,"ĠAmericans":12394,"Ġcollective":12395,"Ġlearnt":12396,"Ġtwin":12397,"Ġhyd":12398,"Ġadjusted":12399,"ĠCastle":12400,"iotechnology":12401,"Ġstrike":12402,"Textiles":12403,"Ġcompliance":12404,"ĠJuncker":12405,"Ġclothes":12406,"Standard":12407,"Ġentertainment":12408,"ĠJonas":12409,"Sebastien":12410,"uddenly":12411,"Megrims":12412,"Sadly":12413,"Ġenlarged":12414,"CECAF":12415,"Cecilia":12416,"Front":12417,"Foot":12418,"September":12419,"Viol":12420,"front":12421,"gl":12422,"king":12423,"nik":12424,"post":12425,"isdom":12426,"Ġwake":12427,"Ġcens":12428,"itored":12429,"icits":12430,"ĠMAG":12431,"ĠPin":12432,"ĠAV":12433,"Ġyouve":12434,"pection":12435,"Think":12436,"Ġgrey":12437,"ceive":12438,"ĠBRO":12439,"vergence":12440,"ĠDiv":12441,"ads":12442,"ĠTDI":12443,"Ġdoc":12444,"Ġrational":12445,"ANU":12446,"TEX":12447,"ĠJav":12448,"aila":12449,"eppe":12450,"Ġcontained":12451,"Ġchose":12452,"ĠVO":12453,"ELAND":12454,"OMÃĦKI":12455,"White":12456,"Ġtransfers":12457,"ĠMaro":12458,"Ġwellness":12459,"Ġguided":12460,"Ġindis":12461,"Ġassign":12462,"Ġmatches":12463,"anny":12464,"armon":12465,"Ġsmoke":12466,"Ġinterior":12467,"Ġintermedi":12468,"Ġcertainty":12469,"Ġmonitored":12470,"Ġpatience":12471,"Ġposted":12472,"Ġtowns":12473,"Ġtelling":12474,"haust":12475,"itae":12476,"Ġmultilateral":12477,"Reduc":12478,"Ġterrorist":12479,"Ġreactions":12480,"Ġgrave":12481,"TIVES":12482,"TIVENESS":12483,"zores":12484,"Ġ0001":12485,"GIUM":12486,"Ġmanufacturing":12487,"Ġtwenty":12488,"Ġpreparations":12489,"IXED":12490,"LIAMENT":12491,"Ġceiling":12492,"Ġpreferred":12493,"Ġ4398":12494,"ĠURBAN":12495,"ĠEngine":12496,"Electric":12497,"ĠPalestine":12498,"ĠINDICATORS":12499,"ĠFirefox":12500,"Ġcooperate":12501,"Ġincredible":12502,"Ġdistinction":12503,"Ġsubscription":12504,"ĠSuperv":12505,"ĠMallorca":12506,"Ġreferendum":12507,"Ġrestricted":12508,"ĠOndrej":12509,"::":12510,"AUD":12511,"Code":12512,"DB":12513,"Ev":12514,"FC":12515,"PM":12516,"Pos":12517,"Russ":12518,"Sal":12519,"Tuesday":12520,"Walter":12521,"ci":12522,"care":12523,"feld":12524,"hy":12525,"rity":12526,"sq":12527,"war":12528,"xy":12529,"iser":12530,"ori":12531,"Ġsick":12532,"Ġcow":12533,"Ġmillions":12534,"Ġmango":12535,"ilings":12536,"ĠCanc":12537,"ĠMid":12538,"ĠMOR":12539,"vet":12540,"Ġlovers":12541,"ĠSMS":12542,"ĠSummer":12543,"terdam":12544,"Ġgender":12545,"urf":12546,"Ġstores":12547,"ĠRisk":12548,"step":12549,"advant":12550,"ĠTi":12551,"amer":12552,"ĠLars":12553,"ĠLeni":12554,"ĠOpport":12555,"ĠJUSTICE":12556,"ĠJordan":12557,"ĠVA":12558,"ĠKale":12559,"through":12560,"ongue":12561,"Ġroots":12562,"perty":12563,"erald":12564,"oven":12565,"ĠChancellor":12566,"ername":12567,"Contract":12568,"Step":12569,"Ġrecover":12570,"uxe":12571,"isms":12572,"ĠYOUR":12573,"Ġ1615":12574,"ĠXML":12575,"ysics":12576,"inciples":12577,"Ġabsor":12578,"ĠAntarctic":12579,"ĠImpro":12580,"QUE":12581,"ĠCanaria":12582,"ĠAbout":12583,"ognition":12584,"Ġdestruction":12585,"Monitoring":12586,"Ġdivision":12587,"Ġterrible":12588,"ĠDoes":12589,"Ġadmit":12590,"Ġconflicts":12591,"Ġadapted":12592,"Ġlosses":12593,"Ġlayout":12594,"ĠPalestinian":12595,"MARK":12596,"Ġliberalisation":12597,"Benef":12598,"ĠMariann":12599,"Ġbirds":12600,"Anglerfish":12601,"ĠGiulio":12602,"Ġinevitable":12603,"ĠCruz":12604,"ĠVERHEUGEN":12605,"Ġunfortunate":12606,"310":12607,"Dress":12608,"DNER":12609,"Functioning":12610,"GER":12611,"Hot":12612,"Ken":12613,"Later":12614,"Pan":12615,"after":12616,"born":12617,"rase":12618,"west":12619,"xx":12620,"zig":12621,"ĠÃ¤":12622,"Ġtram":12623,"Ġtired":12624,"inique":12625,"Ġwet":12626,"Ġcup":12627,"Ġble":12628,"Ġbrain":12629,"Ġmes":12630,"ello":12631,"Ġforced":12632,"ĠAHERN":12633,"Ġear":12634,"ĠIss":12635,"igi":12636,"Ġstret":12637,"Ġproven":12638,"keys":12639,"ĠFiscal":12640,"ĠFOOD":12641,"ĠFOLLOW":12642,"ĠBang":12643,"ĠTUR":12644,"uno":12645,"ĠGO":12646,"ĠHam":12647,"Ġexchanges":12648,"Ġliquid":12649,"ĠOil":12650,"aki":12651,"Ġplot":12652,"Ġvoters":12653,"ĠVil":12654,"Ġagents":12655,"Ġagrees":12656,"ESTER":12657,"Ġclip":12658,"010":12659,"arelli":12660,"riculum":12661,"Ġtrains":12662,"Ġviewed":12663,"ITUATION":12664,"pha":12665,"anners":12666,"Ġproviders":12667,"Ġexamination":12668,"STATE":12669,"Ġreceives":12670,"IDEL":12671,"ĠPlus":12672,"Ġdirector":12673,"Ġtechniques":12674,"asha":12675,"OVERN":12676,"Ġinsist":12677,"172":12678,"Ġparticipating":12679,"Ġconstitutes":12680,"Ġmomentum":12681,"Ġpatents":12682,"ĠSupp":12683,"ĠCanary":12684,"Super":12685,"Ġclassified":12686,"Ġdependent":12687,"irtual":12688,"Guests":12689,"Ġforemost":12690,"ĠALM":12691,"Ġmassive":12692,"ĠDanube":12693,"ĠHeritage":12694,"Ġutter":12695,"equality":12696,"Ġattractions":12697,"Ġmailing":12698,"Ġhighlighted":12699,"repreneur":12700,"ĠROOM":12701,"Using":12702,"ĠTimor":12703,"Ġpillars":12704,"Ġsustained":12705,"MEDITERRANEAN":12706,"edding":12707,"Ġceremony":12708,"Ġsurvive":12709,"Important":12710,"ĠJesus":12711,"ĠMAYSTADT":12712,"AIDS":12713,"ĠGordon":12714,"Ġunforgettable":12715,"+?":12716,"Cur":12717,"CING":12718,"Der":12719,"DRE":12720,"Fac":12721,"GUE":12722,"Jun":12723,"LV":12724,"Ru":12725,"Rent":12726,"Rules":12727,"Solidarity":12728,"TROL":12729,"bank":12730,"fit":12731,"ml":12732,"Ġselling":12733,"Ġwireless":12734,"Ġcul":12735,"Ġcinema":12736,"Ġfest":12737,"Ġpid":12738,"Ġpending":12739,"Ġpapers":12740,"alus":12741,"eder":12742,"edge":12743,"Ġbis":12744,"Ġdan":12745,"asion":12746,"Ġhors":12747,"ĠMAC":12748,"ĠPop":12749,"ĠPACK":12750,"ĠAqu":12751,"ĠSTU":12752,"ĠSouthern":12753,"ĠIts":12754,"implementation":12755,"ĠRight":12756,"Ġneighbour":12757,"ĠGall":12758,"ĠHD":12759,"ĠLud":12760,"ĠLast":12761,"ĠOetting":12762,"class":12763,"asts":12764,"Ġresistance":12765,"ĠKl":12766,"ĠKre":12767,"ENE":12768,"Ġjack":12769,"Ġunity":12770,"Ġuniform":12771,"inki":12772,"ĠRead":12773,"plex":12774,"Ġdiox":12775,"encing":12776,"Ġfinding":12777,"Ġsomewhere":12778,"OLOG":12779,"OLUTION":12780,"Ġovernight":12781,"ĠRepresentation":12782,"Ġassume":12783,"ĠConnect":12784,"Ġprocedural":12785,"Exports":12786,"incre":12787,"ĠThird":12788,"uffet":12789,"Ġspecialist":12790,"Ġinspection":12791,"ĠAsked":12792,"Ġdistingu":12793,"ĠEnvironmental":12794,"Ġrespects":12795,"Ġprincipal":12796,"Ġprofiles":12797,"ĠFranois":12798,"Ġhousehold":12799,"zerba":12800,"ĠSuite":12801,"ĠWhich":12802,"Ġfocuses":12803,"Ġtells":12804,"Ġundoubtedly":12805,"Perfect":12806,"liver":12807,"ĠYoung":12808,"Ġidentify":12809,"ĠPeru":12810,"Ġlicens":12811,"POINTS":12812,"Ġalternatives":12813,"Ġappearance":12814,"ĠApple":12815,"Infrastructure":12816,"voire":12817,"Afghanistan":12818,"Ġclubs":12819,"eckling":12820,"Ġministerial":12821,"Ġpatterns":12822,"Ġphotography":12823,"Ġwithdrawal":12824,"ĠAFRICA":12825,"Ġreligion":12826,"Products":12827,"Ġmisunderstanding":12828,"Ġbranch":12829,"ĠStefan":12830,"Ġstruggle":12831,"iorgos":12832,"ĠKlaus":12833,"ĠSUMMIT":12834,"ographer":12835,"WALDNER":12836,"Meanwhile":12837,"ĠFERRERO":12838,"ĠAthens":12839,"ĠdIvoire":12840,"ĠOettinger":12841,"zerbaijan":12842,"CHE":12843,"Don":12844,"Fast":12845,"Flex":12846,"Gr":12847,"Hard":12848,"Ive":12849,"IRE":12850,"Jul":12851,"Network":12852,"Round":12853,"TT":12854,"Tunisia":12855,"Zimbabwe":12856,"friendly":12857,"uin":12858,"wing":12859,"zza":12860,"Ġq":12861,"Ġtal":12862,"Ġwrote":12863,"esc":12864,"Ġfuck":12865,"Ġmas":12866,"Ġrely":12867,"Ġbears":12868,"ĠED":12869,"ĠECHO":12870,"ĠSign":12871,"idumping":12872,"acular":12873,"Ġstood":12874,"ulator":12875,"Ġalive":12876,"ĠFar":12877,"ste":12878,"ĠBAK":12879,"ĠGovernance":12880,"Ġshap":12881,"ĠLAM":12882,"Ġhet":12883,"Ġrac":12884,"oca":12885,"ĠNon":12886,"ifa":12887,"ĠKim":12888,"elsinki":12889,"Ġdisasters":12890,"pliance":12891,"erning":12892,"ften":12893,"Ġrecycling":12894,"USTAIN":12895,"Ġunderground":12896,"riteria":12897,"Ġindividually":12898,"Ġasset":12899,"Ġprovider":12900,"Ġcheaper":12901,"Ġcutting":12902,"Ġcream":12903,"Ġkeyboard":12904,"Ġbookings":12905,"Ġbasket":12906,"ĠLeader":12907,"Ġrespective":12908,"ischer":12909,"Individual":12910,"ĠGuy":12911,"Ġpatch":12912,"Ġpostal":12913,"ĠEmploy":12914,"Ġbadly":12915,"ĠInstru":12916,"Ġindicator":12917,"Ġextraordinary":12918,"ĠSeries":12919,"ĠOpera":12920,"Ġremarkable":12921,"Ġreplied":12922,"ĠCDs":12923,"ĠArtis":12924,"Supporting":12925,"Ġfootball":12926,"limited":12927,"Ġcamping":12928,"LANDS":12929,"Ġembargo":12930,"Ġdollars":12931,"Ġdegrees":12932,"Ġassessed":12933,"ĠPAPER":12934,"ĠHenri":12935,"ĠProjects":12936,"Ġenhanced":12937,"Ġterritorial":12938,"Ġreconstruction":12939,"Ġphotographs":12940,"ĠGerrit":12941,"Ġscandalous":12942,"Simplification":12943,"Ġforeseen":12944,"ĠTicker":12945,"Administrative":12946,"tegat":12947,"ungalow":12948,"ĠNGOs":12949,"ĠREGULATION":12950,"IGRATION":12951,"ĠScoreboard":12952,"%-":12953,"AA":12954,"Eastern":12955,"GS":12956,"Heckling":12957,"Light":12958,"Migration":12959,"Opt":12960,"RIK":12961,"Sector":12962,"UZ":12963,"dep":12964,"gency":12965,"jan":12966,"Ġtent":12967,"inians":12968,"Ġcrazy":12969,"Ġfate":12970,"Ġfert":12971,"Ġfits":12972,"Ġpir":12973,"Ġocean":12974,"Ġbomb":12975,"Ġbags":12976,"Ġbiodiversity":12977,"Ġmo":12978,"icing":12979,"enta":12980,"oty":12981,"ĠCE":12982,"ĠCarm":12983,"Ġluggage":12984,"ĠPrices":12985,"ĠPacific":12986,"ĠErik":12987,"idal":12988,"ols":12989,"ĠBEL":12990,"ĠBund":12991,"ĠBoutique":12992,"ĠDresden":12993,"andro":12994,"Ġanx":12995,"emies":12996,"ĠGert":12997,"ĠHard":12998,"Ġexecutive":12999,"ĠLO":13000,"ĠLegal":13001,"ĠNorm":13002,"ĠWay":13003,"Ġorphan":13004,"ĠVis":13005,"ENTR":13006,"arkoz":13007,"Ġjudicial":13008,"rypt":13009,"Ġdisadvant":13010,"aysia":13011,"useums":13012,"ISMinister":13013,"Ġfinds":13014,"Ġspam":13015,"Ġinvites":13016,"Ġproductive":13017,"Ġ1980":13018,"Ġdesert":13019,"ATH":13020,"Ġassent":13021,"Ġopenness":13022,"Ġfeas":13023,"rator":13024,"ĠAlgeria":13025,"ĠAna":13026,"Subscribe":13027,"AGEMENT":13028,"ĠĠĠĠĠĠĠ":13029,"Ġblow":13030,"Ġoperated":13031,"otti":13032,"Agreements":13033,"ĠAdv":13034,"Deep":13035,"Ġmotto":13036,"Ġauthors":13037,"Ġanniversary":13038,"Register":13039,"IIIa":13040,"Ġunderm":13041,"Ġunderest":13042,"ALLY":13043,"Ġworthy":13044,"ĠSanter":13045,"Guidelines":13046,"ĠANN":13047,"ĠEdition":13048,"strÃ¶ms":13049,"ĠPROGRAMMES":13050,"ĠApartament":13051,"ÃľN":13052,"Ġceilings":13053,"PROGR":13054,"Ġmirror":13055,"Ġtariffs":13056,"Operational":13057,"ĠMarianne":13058,"ĠLUPO":13059,"MONTI":13060,"Ġsegment":13061,"ĠTREMONTI":13062,"Ġdefeats":13063,"Ġabolished":13064,"Ġstylish":13065,"Ġeggs":13066,"Ġweaknesses":13067,"ĠHungarian":13068,"ĠNatural":13069,"ĠSalzburg":13070,"ĠPATTEN":13071,"Ġtremend":13072,"ARO":13073,"City":13074,"Dear":13075,"GDP":13076,"KOV":13077,"MANS":13078,"MANN":13079,"Poss":13080,"Sear":13081,"Saf":13082,"TB":13083,"WAY":13084,"gart":13085,"max":13086,"nie":13087,"name":13088,"ponse":13089,"Ġaqu":13090,"aton":13091,"Ġther":13092,"Ġwider":13093,"icism":13094,"otive":13095,"Ġlakes":13096,"ĠPOS":13097,"ĠASP":13098,"idad":13099,"Ġvast":13100,"utation":13101,"Ġstressed":13102,"ĠRud":13103,"ĠFly":13104,"ĠFig":13105,"Ġweigh":13106,"ĠDick":13107,"adium":13108,"ĠTER":13109,"ĠGreens":13110,"Ġshift":13111,"ĠLPEZ":13112,"ĠLaila":13113,"uber":13114,"ĠJoz":13115,"ĠWat":13116,"Ġworried":13117,"licante":13118,"Ġours":13119,"claim":13120,"ĠKn":13121,"ĠStaff":13122,"ENB":13123,"INATION":13124,"ears":13125,"HEALTH":13126,"ller":13127,"lles":13128,"OMER":13129,"ASE":13130,"Ġconservation":13131,"Ġarrested":13132,"ĠProgress":13133,"Ġcounting":13134,"ĠTheod":13135,"Ġtransitional":13136,"Ġinvitation":13137,"ĠMarie":13138,"PART":13139,"Ġpossibly":13140,"Ġreflection":13141,"Ġrefused":13142,"Exhibition":13143,"Ġrepro":13144,"owski":13145,"CHI":13146,"ĠReserved":13147,"163":13148,"Agricultural":13149,"ijn":13150,"AFT":13151,"UMENTS":13152,"Ġtourists":13153,"ĠPhotos":13154,"Ġheadqu":13155,"ĠFRIED":13156,"ĠMonitoring":13157,"ennium":13158,"ĠGeorgios":13159,"COMMISSION":13160,"Ġfalling":13161,"ĠCaribbean":13162,"Anyone":13163,"TICAL":13164,"Ġdeaths":13165,"ĠHansen":13166,"iverse":13167,"Ġcampaigns":13168,"Ġalbums":13169,"Ġdonor":13170,"Ġlaunches":13171,"ĠCamer":13172,"ĠRESEARCH":13173,"ĠFREIVAL":13174,"Ġseeking":13175,"Ġhomes":13176,"Ġcontestant":13177,"arfur":13178,"Autom":13179,"ĠPalma":13180,"Ġacknowledge":13181,"ĠTyrol":13182,"improving":13183,"ĠTAKEN":13184,"ĠKUKAN":13185,"ĠDermot":13186,"Ġscrutiny":13187,"Additionally":13188,"ĠHEMILÃĦ":13189,"Louis":13190,"ĠFREIVALDS":13191,"Ban":13192,"FT":13193,"Fifth":13194,"GN":13195,"Iss":13196,"Jean":13197,"MIXED":13198,"Poverty":13199,"Ryan":13200,"SD":13201,"Sep":13202,"Sudan":13203,"Sugar":13204,"kelsen":13205,"uum":13206,"zones":13207,"rend":13208,"Ġwave":13209,"Ġmort":13210,"lez":13211,"asja":13212,"Ġhier":13213,"ĠCall":13214,"ĠCER":13215,"ĠPV":13216,"ĠAIR":13217,"ĠAlex":13218,"ĠEsk":13219,"iller":13220,"ulatory":13221,"ĠRue":13222,"ĠBAS":13223,"ĠBetter":13224,"ĠBroad":13225,"ĠDem":13226,"ĠTal":13227,"ĠTonio":13228,"quake":13229,"quire":13230,"ĠLanka":13231,"looking":13232,"Ġimbal":13233,"ĠVery":13234,"ESF":13235,"Ġmyth":13236,"Ġteach":13237,"Andor":13238,"hered":13239,"119":13240,"Ġrarely":13241,"Ġlegend":13242,"Union":13243,"irdas":13244,"Latin":13245,"ĠArri":13246,"Ġexplicit":13247,"Ġcuts":13248,"Ġhandled":13249,"Ġbasically":13250,"program":13251,"ĠCONVENTION":13252,"Ġsincerely":13253,"ĠREACH":13254,"Ġchildrens":13255,"Ġorganize":13256,"Beautiful":13257,"Indic":13258,"ABOUR":13259,"ĠFRENDO":13260,"Prevention":13261,"Ġpubl":13262,"ĠBohez":13263,"Ġoils":13264,"Ġdepending":13265,"Ġtelecommunications":13266,"ĠAtzo":13267,"ĠAviation":13268,"Recommendation":13269,"Emissions":13270,"Left":13271,"Ġamongst":13272,"ĠMeasures":13273,"ĠVersion":13274,"alysis":13275,"Improved":13276,"Aviation":13277,"ĠRados":13278,"ĠPrice":13279,"ĠCheck":13280,"richt":13281,"Ġrenewed":13282,"Ġcounterfe":13283,"ĠMalmstrÃ¶ms":13284,"Ġconvenience":13285,"enerife":13286,"Remember":13287,"ĠBasel":13288,"eldorf":13289,"Natasja":13290,"ĠPaolo":13291,"ĠASSISTANCE":13292,"ĠMillan":13293,"ĠRubiano":13294,"ĠMikkelsen":13295,"Ġaccurate":13296,"ĠIbiza":13297,"brev":13298,"Ġcorresponding":13299,"ĠKenya":13300,"ĠAGREEMENT":13301,"ĠHYPERLINK":13302,"Ġneutral":13303,"ĠNETWORK":13304,"Ġasterisk":13305,"Ġpidla":13306,"ĠApartamentos":13307,"Average":13308,"BON":13309,"Broad":13310,"DER":13311,"Fine":13312,"HAG":13313,"KAR":13314,"Labour":13315,"Nov":13316,"Old":13317,"Ship":13318,"Various":13319,"WAR":13320,"YND":13321,"].":13322,"aux":13323,"bn":13324,"code":13325,"effective":13326,"made":13327,"rors":13328,"Ġauction":13329,"anical":13330,"Ġsalmon":13331,"Ġcrises":13332,"itative":13333,"Ġbab":13334,"Ġinner":13335,"Ġdivid":13336,"Ġnorthern":13337,"oted":13338,"Ġrevenue":13339,"ĠMos":13340,"ĠPut":13341,"ĠSad":13342,"Ġease":13343,"Ġeating":13344,"Ġgross":13345,"ĠREDING":13346,"ĠFollow":13347,"estyle":13348,"ĠDor":13349,"ĠGift":13350,"ĠHAL":13351,"ĠHistory":13352,"istry":13353,"ĠLanguage":13354,"ĠWelfare":13355,"about":13356,"eca":13357,"erenc":13358,"Ġwhiting":13359,"ALOG":13360,"ORSKI":13361,"Ġpoly":13362,"iannual":13363,"Ġ9207":13364,"plete":13365,"meat":13366,"Ġpride":13367,"Ġinvoice":13368,"Ġscar":13369,"Ġapproves":13370,"USA":13371,"Ġprizes":13372,"Ġformed":13373,"Ġformally":13374,"Ġmaybe":13375,"arsh":13376,"ĠINTERNAL":13377,"Ġflour":13378,"Ġtextiles":13379,"OSMinister":13380,"Ġaids":13381,"Ġorganise":13382,"Ġstudent":13383,"Supp":13384,"VIEW":13385,"Chemical":13386,"Ġsignificance":13387,"ropol":13388,"ĠANTS":13389,"aneous":13390,"ĠPLASS":13391,"Ġclarified":13392,"Ġpenalties":13393,"Ġstructured":13394,"Ġfears":13395,"ĠDVDs":13396,"Active":13397,"Ġsurrounding":13398,"Ġoccasions":13399,"Ã¼big":13400,"Ġbirthday":13401,"ĠFrequently":13402,"ĠVillage":13403,"ĠLimited":13404,"Ġdramatic":13405,"Integrated":13406,"ĠDiego":13407,"ĠWarsaw":13408,"Windows":13409,"Ġromantic":13410,"ĠVladimir":13411,"Ġhypocrisy":13412,"Ġpharmaceutical":13413,"Ġendorsed":13414,"ĠZALM":13415,"Ġintolerable":13416,"ĠLeniency":13417,"ĠKalevi":13418,"ĠPLASSNIK":13419,"(*)":13420,")-":13421,"130":13422,"Bat":13423,"BIA":13424,"Camp":13425,"Far":13426,"IEF":13427,"Lone":13428,"Mark":13429,"NIA":13430,"Pia":13431,"RUSSIA":13432,"aa":13433,"aution":13434,"cin":13435,"gor":13436,"hl":13437,"iu":13438,"ku":13439,"yo":13440,"Ġtaught":13441,"islative":13442,"orous":13443,"Ġsen":13444,"Ġfuels":13445,"ali":13446,"Ġmobil":13447,"ndor":13448,"Ġhang":13449,"ĠCIV":13450,"ĠCredit":13451,"usz":13452,"ĠMim":13453,"ĠMoz":13454,"ĠMECU":13455,"Ġbeet":13456,"ĠPra":13457,"ĠEle":13458,"ĠSri":13459,"ĠSection":13460,"imacy":13461,"uris":13462,"igen":13463,"rable":13464,"ĠRock":13465,"ĠBOL":13466,"ĠBROW":13467,"ĠDEN":13468,"ademy":13469,"Ġdear":13470,"ander":13471,"quier":13472,"amo":13473,"ĠHI":13474,"ĠHave":13475,"ĠOECD":13476,"ĠJenn":13477,"ĠWIN":13478,"ĠWalter":13479,"ifts":13480,"udes":13481,"Ġchocolate":13482,"Ġimpose":13483,"ĠKor":13484,"ĠSta":13485,"ENBERG":13486,"Ġ450":13487,"abelling":13488,"apse":13489,"ALITY":13490,"ogo":13491,"ISATION":13492,"Ġarrest":13493,"blems":13494,"Ġtransform":13495,"Ġproductivity":13496,"Ġsubdiv":13497,"121":13498,"Ġsettle":13499,"Ens":13500,"Proposed":13501,"Ġprotecting":13502,"Ġaccessories":13503,"ĠAlt":13504,"ĠPlanning":13505,"MEIER":13506,"Getting":13507,"Ġminorities":13508,"Ġnewsp":13509,"ĠGuido":13510,"Ġshel":13511,"Ġunderstandable":13512,"ĠAnton":13513,"atson":13514,"PLAN":13515,"CoR":13516,"Ġvaries":13517,"Ġconsiderably":13518,"Ġautonom":13519,"COMPETI":13520,"ĠColombia":13521,"Ġfrontiers":13522,"Phil":13523,"Ġswift":13524,"Ġrecognize":13525,"regional":13526,"Ġvictim":13527,"Ġreplies":13528,"Ġlicences":13529,"ĠPatrick":13530,"ruitment":13531,"Ġharmful":13532,"Ġconverted":13533,"ĠDemocratic":13534,"Learning":13535,"ĠCongress":13536,"nosis":13537,"Ġrows":13538,"Ġgradually":13539,"Ġprecedent":13540,"Ġpipeline":13541,"Ġdemonstrated":13542,"ĠSTEINMEIER":13543,"Petitions":13544,"Ġvoucher":13545,"ĠACCESS":13546,"uscany":13547,"ĠVenezuela":13548,"Ġenvisaged":13549,"Absolutely":13550,"Besides":13551,"Ġunusual":13552,"USTAINABLE":13553,"ĠANTSU":13554,"Bed":13555,"HY":13556,"KO":13557,"KES":13558,"Lis":13559,"Pack":13560,"PES":13561,"SR":13562,"Site":13563,"Tri":13564,"rise":13565,"yb":13566,"only":13567,"isers":13568,"enzo":13569,"Ġsel":13570,"Ġsalt":13571,"Ġcir":13572,"Ġpact":13573,"ĠCirc":13574,"ĠMail":13575,"ĠMach":13576,"ĠMIK":13577,"Ġlv":13578,"Ġlux":13579,"ĠEc":13580,"ĠEquality":13581,"ĠSab":13582,"ĠSAF":13583,"Ġein":13584,"Ġeen":13585,"osur":13586,"Through":13587,"utual":13588,"Ġstance":13589,"Ġstakes":13590,"ĠRu":13591,"ĠRet":13592,"ĠFel":13593,"ĠFINAN":13594,"ĠDK":13595,"ĠDream":13596,"adia":13597,"ĠTEN":13598,"Ġantic":13599,"ĠHan":13600,"ĠHed":13601,"ĠHand":13602,"ĠHOL":13603,"oded":13604,"umns":13605,"formance":13606,"Ġexhaust":13607,"ĠLess":13608,"ĠLoc":13609,"ĠLine":13610,"ĠNatur":13611,"Formal":13612,"ENVIRONMENT":13613,"ecution":13614,"CIETY":13615,"ouses":13616,"posure":13617,"Ġnowhere":13618,"def":13619,"ĠChief":13620,"Application":13621,"Ġjustify":13622,"Ġcommunities":13623,"ificial":13624,"Ġtransmission":13625,"Ġmodify":13626,"Exchange":13627,"Ġdeficits":13628,"ĠAndrej":13629,"ĠâĤ¬)":13630,"IDO":13631,"Although":13632,"chnya":13633,"ĠExche":13634,"Ġcrew":13635,"Ġcountryside":13636,"naire":13637,"Ġexplains":13638,"ADO":13639,"ĠScotland":13640,"Ġmonthly":13641,"Ġtransportation":13642,"ronom":13643,"cedes":13644,"Ġdrag":13645,"Orig":13646,"Ġnationals":13647,"penditure":13648,"shops":13649,"Ġheads":13650,"Consolid":13651,"Ġcreatures":13652,"Ġessentially":13653,"ĠDimension":13654,"Ġcombating":13655,"Ġdestinations":13656,"Recommend":13657,"ĠOnly":13658,"OYANN":13659,"ĠSOCIETY":13660,"ĠTHAT":13661,"financial":13662,"Ġappointing":13663,"00000000":13664,"Ġcharacteristics":13665,"Ġoptimism":13666,"Ġappreciated":13667,"andidate":13668,"EFA":13669,"ĠInfo":13670,"STATISTICS":13671,"ĠBOEL":13672,"ĠTarja":13673,"____":13674,"Ġprisoners":13675,"Ġeconomies":13676,"uminium":13677,"ĠPremium":13678,"ĠCreative":13679,"Ġnarrow":13680,"emarie":13681,"ĠPAPANDRE":13682,"ĠKYPRIANOU":13683,"ĠSIKORSKI":13684,"Proceedings":13685,"020":13686,"610":13687,"BU":13688,"Countries":13689,"Casa":13690,"CALLS":13691,"Gra":13692,"Gener":13693,"Li":13694,"Nic":13695,"Nature":13696,"Paul":13697,"Ret":13698,"Railway":13699,"country":13700,"dy":13701,"ea":13702,"jana":13703,"kel":13704,"ned":13705,"var":13706,"Ġsou":13707,"Ġcaut":13708,"Ġpuzz":13709,"Ġpupp":13710,"Ġbid":13711,"Ġmood":13712,"Ġmuseums":13713,"Ġdr":13714,"Ġdownt":13715,"Ġhur":13716,"ĠCy":13717,"ĠMas":13718,"ĠMost":13719,"ĠMOL":13720,"ĠMID":13721,"ĠMIF":13722,"Ġliable":13723,"ĠPERS":13724,"ĠEthiopia":13725,"ĠSK":13726,"ĠSugar":13727,"Ġgam":13728,"imo":13729,"urse":13730,"igo":13731,"Ġ101":13732,"003":13733,"irin":13734,"ĠRI":13735,"Ġnotifications":13736,"ĠFoster":13737,"esto":13738,"version":13739,"adi":13740,"uns":13741,"ĠGRO":13742,"ĠHof":13743,"Ġexemption":13744,"Ġasp":13745,"Ġassembly":13746,"Ġusage":13747,"Ġusername":13748,"ANO":13749,"soever":13750,"Inform":13751,"Ġ388":13752,"Ġcharming":13753,"Ġleisure":13754,"Ġages":13755,"rico":13756,"izarre":13757,"Ġanybody":13758,"ISL":13759,"ECE":13760,"Ġacceler":13761,"undi":13762,"Ġ125":13763,"REE":13764,"Strong":13765,"ystems":13766,"Ġemission":13767,"Ġoverlook":13768,"Ġphases":13769,"Ġmodest":13770,"Ġdecades":13771,"127":13772,"Rev":13773,"Rein":13774,"Request":13775,"Ġdelicate":13776,"ĠPolitics":13777,"Production":13778,"STABILITY":13779,"Asia":13780,"Ġrealize":13781,"ĠThy":13782,"riends":13783,"TUAL":13784,"ĠLeague":13785,"ĠBarb":13786,"Ġrecommends":13787,"arios":13788,"Ġeventually":13789,"ĠAntanas":13790,"arians":13791,"ĠAGENDA":13792,"Ġcompetent":13793,"Preliminary":13794,"Ġgenerous":13795,"Ġindicates":13796,"TICLE":13797,"Ġmisleading":13798,"Ġthreats":13799,"agerrak":13800,"Ġcomplac":13801,"yrgy":13802,"Ġutil":13803,"Ġsimplified":13804,"ĠRussias":13805,"ĠSilver":13806,"ĠEXTERNAL":13807,"ĠCharles":13808,"CCCCCCCC":13809,"Electronic":13810,"American":13811,"Continue":13812,"ĠMATTERS":13813,"Ġincredibly":13814,"Ġcommunicate":13815,"ĠChampions":13816,"VITATION":13817,"BURG":13818,"Ġimperative":13819,"Ġlawyer":13820,"ĠLINDH":13821,"ĠPlatform":13822,"ĠHilton":13823,"ĠYUGOSLAVIA":13824,"Ġcontroversial":13825,"Ġingredients":13826,"ĠSPRING":13827,"ĠKOVCS":13828,"Tobacco":13829,"ĠOndrejika":13830,"ĠPACKAGE":13831,"ĠBAKOYANN":13832,"Searched":13833,"ĠExchequer":13834,"%).":13835,"211":13836,"February":13837,"IOR":13838,"KAS":13839,"LIN":13840,"Mobility":13841,"MINIS":13842,"Oil":13843,"Point":13844,"Sem":13845,"TG":13846,"YK":13847,"YOUTH":13848,"ZE":13849,"clic":13850,"dan":13851,"fire":13852,"kg":13853,"nger":13854,"nya":13855,"that":13856,"ucc":13857,"wall":13858,"inux":13859,"onial":13860,"atlantic":13861,"orient":13862,"Ġcyn":13863,"itas":13864,"alisation":13865,"Ġmask":13866,"icon":13867,"icars":13868,"Ġthread":13869,"Ġhus":13870,"ĠCount":13871,"vec":13872,"ĠAy":13873,"ĠSave":13874,"aca":13875,"ĠIve":13876,"Ġvitae":13877,"Ġgather":13878,"urities":13879,"uli":13880,"ĠROD":13881,"ĠRolf":13882,"ĠRailway":13883,"Ġalia":13884,"ĠBET":13885,"ĠDJ":13886,"ĠTam":13887,"unte":13888,"rix":13889,"ĠGir":13890,"ĠHerman":13891,"ĠHague":13892,"iese":13893,"ĠLove":13894,"ende":13895,"ĠNEGOTIATIONS":13896,"ĠOd":13897,"ANY":13898,"aka":13899,"TIES":13900,"Ġrescue":13901,"okia":13902,"agger":13903,"INC":13904,"INVITATION":13905,"Ġwhatsoever":13906,"ORY":13907,"avaria":13908,"percent":13909,"ovi":13910,"ICH":13911,"ECK":13912,"ITT":13913,"ITZ":13914,"ificent":13915,"Ġrecipe":13916,"Ġinvent":13917,"Ġunderway":13918,"Ġbetting":13919,"350":13920,"128":13921,"Ġlapt":13922,"Ġ116":13923,"Ġdeter":13924,"Ġasks":13925,"Proposals":13926,"Exp":13927,"Ġinfect":13928,"Atlantic":13929,"Ġintensive":13930,"Ġcarries":13931,"Ġfundament":13932,"ĠCoast":13933,"novative":13934,"145":13935,"Ġpasses":13936,"Ġgrown":13937,"Ġexplos":13938,"ĠAdri":13939,"ĠREYND":13940,"ijus":13941,"Ġapplying":13942,"Ġauthent":13943,"Photo":13944,"ĠCorporation":13945,"Sea":13946,"ĠMontoyer":13947,"Ġwheat":13948,"Ġmachinery":13949,"Ġindicate":13950,"Ġforever":13951,"Ġrelaxed":13952,"ĠGRUB":13953,"ISTAN":13954,"Ġemerging":13955,"Ġpreparing":13956,"Ġpremises":13957,"ĠDominique":13958,"Ġaxes":13959,"CodGadus":13960,"ĠProfessional":13961,"ĠVincenzo":13962,"Frank":13963,"Ġexpanded":13964,"ĠHarald":13965,"ĠHuber":13966,"anzar":13967,"ĠElectric":13968,"ĠWikicars":13969,"Ġharvest":13970,"Ġfishermen":13971,"Ġtowels":13972,"ĠInsurance":13973,"Ġthoroughly":13974,"ĠExplorer":13975,"ĠAlgirdas":13976,"Ġchapters":13977,"ĠNepal":13978,"yrgyz":13979,"%,":13980,"833":13981,"Equal":13982,"FN":13983,"Faro":13984,"Hand":13985,"LL":13986,"Often":13987,"Tar":13988,"bach":13989,"ded":13990,"erested":13991,"los":13992,"lant":13993,"lio":13994,"nn":13995,"vin":13996,"rene":13997,"atile":13998,"Ġcurs":13999,"Ġcraft":14000,"Ġfr":14001,"Ġfro":14002,"ithe":14003,"Ġpus":14004,"Ġpull":14005,"Ġpiano":14006,"Ġmill":14007,"Ġtower":14008,"icher":14009,"iler":14010,"Ġnative":14011,"ĠCZ":14012,"usions":14013,"ĠMicha":14014,"ĠPav":14015,"ĠPension":14016,"ete":14017,"ĠAx":14018,"owered":14019,"olve":14020,"Ġvs":14021,"Ġvine":14022,"Ġvib":14023,"Ġgest":14024,"uron":14025,"rage":14026,"Ġstabil":14027,"irs":14028,"ĠRÃ¼big":14029,"ĠFord":14030,"ĠFAC":14031,"ĠBurg":14032,"ĠDam":14033,"ĠTenerife":14034,"andou":14035,"amount":14036,"opard":14037,"ĠGross":14038,"ĠGulf":14039,"ĠHo":14040,"ĠHigher":14041,"antas":14042,"ublished":14043,"ĠWATER":14044,"ivation":14045,"ivia":14046,"ĠKAR":14047,"INCI":14048,"erer":14049,"Ġcompact":14050,"Ġcompulsory":14051,"ARS":14052,"Ġjew":14053,"ouncing":14054,"ussy":14055,"Ġclosing":14056,"pert":14057,"ĠRehn":14058,"plan":14059,"wobod":14060,"pectives":14061,"1049":14062,"Ġacted":14063,"nerg":14064,"uala":14065,"IIUS":14066,"Ġdecides":14067,"Ġ1988":14068,"TERRORISM":14069,"Ġindoor":14070,"HERLANDS":14071,"Ġconfront":14072,"Ġprovince":14073,"Ġsetup":14074,"Ġlisting":14075,"Ġcomplementary":14076,"Ġreads":14077,"Ġobjection":14078,"Ġboards":14079,"Ġrealise":14080,"Antidumping":14081,"Impact":14082,"ĠMayor":14083,"Ġdealer":14084,"UNIA":14085,"Ġwholehearted":14086,"Indonesia":14087,"ĠBanks":14088,"Ġfoodstuffs":14089,"Amendments":14090,"helm":14091,"iciaries":14092,"SPAIN":14093,"oultry":14094,"Partnership":14095,"ependent":14096,"Ġsilver":14097,"Redfish":14098,"Ġcoverage":14099,"Helen":14100,"Ġguestbook":14101,"ĠActivities":14102,"Assistance":14103,"Ġdiscounts":14104,"Ġdollar":14105,"Ġcatalog":14106,"Ġinfluenza":14107,"Ġseminar":14108,"Ġcoastal":14109,"Ġbugs":14110,"MERMANS":14111,"ĠDialogues":14112,"Ġpillar":14113,"MEDIA":14114,"Ġmackerel":14115,"Ġfragile":14116,"Ġspectacular":14117,"ITALY":14118,"Ġfabric":14119,"Solea":14120,"Ġcrystal":14121,"Ġferry":14122,"iviera":14123,"ĠFacility":14124,"ĠOtto":14125,"Ġfascinating":14126,"Ġethical":14127,"Ġbicycle":14128,"ĠTIMMERMANS":14129,"ĠPersonal":14130,"payers":14131,"Definition":14132,"ĠLicense":14133,"ĠHughes":14134,"Ġresearchers":14135,"WELCOMES":14136,"ĠFinnish":14137,"ĠALMUNIA":14138,"Ġorphaned":14139,"ĠMIFSUD":14140,"ĠREYNDERS":14141,"Br":14142,"Between":14143,"Cas":14144,"DVD":14145,"EAGGF":14146,"Framework":14147,"Grand":14148,"ITS":14149,"NT":14150,"NIS":14151,"SOL":14152,"Ten":14153,"Trad":14154,"Ve":14155,"bi":14156,"del":14157,"direct":14158,"gast":14159,"ifor":14160,"lers":14161,"nz":14162,"qun":14163,"sight":14164,"vation":14165,"vals":14166,"was":14167,"Ġaus":14168,"iso":14169,"oro":14170,"Ġwisdom":14171,"Ġcycl":14172,"itives":14173,"Ġom":14174,"Ġforb":14175,"ĠSpl":14176,"idity":14177,"acion":14178,"Thursday":14179,"Ġgym":14180,"004":14181,"ĠRic":14182,"ĠRiviera":14183,"ĠFu":14184,"ĠFore":14185,"ĠFile":14186,"ĠTEL":14187,"ĠTEC":14188,"ĠTrad":14189,"Ġdeeds":14190,"ĠGucht":14191,"ĠLet":14192,"ĠNAV":14193,"ĠNOW":14194,"akings":14195,"ardens":14196,"lict":14197,"ĠVED":14198,"astricht":14199,"ĠKUB":14200,"Ġenquiry":14201,"Ġenemies":14202,"agasc":14203,"abria":14204,"Ġjump":14205,"Ġmyster":14206,"Ġpreliminary":14207,"orship":14208,"Content":14209,"Ġarrow":14210,"Ġactor":14211,"Ġemot":14212,"Ġunderline":14213,"onder":14214,"ĠMarine":14215,"ssl":14216,"122":14217,"Ġmeasured":14218,"Ġattended":14219,"Ġconfigure":14220,"ĠConduct":14221,"Ġchangeover":14222,"Ġdelays":14223,"ologna":14224,"fortable":14225,"Ã¼ss":14226,"Ġbackup":14227,"ĠArm":14228,"Ġreceipt":14229,"AGER":14230,"ĠWeger":14231,"ĠHeath":14232,"2015":14233,"751":14234,"Ġmineral":14235,"Ġveter":14236,"Ġlogged":14237,"Ġreserves":14238,"Yester":14239,"space":14240,"Previous":14241,"Transfer":14242,"Ġworthwhile":14243,"Ġidentical":14244,"Simon":14245,"ĠCapacity":14246,"Ġlikes":14247,"respons":14248,"Ġadmission":14249,"Ġtranslate":14250,"Ġlucky":14251,"Ġcease":14252,"Ġwooden":14253,"ĠBonn":14254,"Ġmidnight":14255,"Ã¶rg":14256,"Ġsettled":14257,"Ġicons":14258,"ĠVALION":14259,"Ġattendance":14260,"Ġaltitude":14261,"ĠTerms":14262,"ĠMichle":14263,"ĠSiim":14264,"ĠDeutsche":14265,"Ġpricing":14266,"Ġouter":14267,"ĠPrivacy":14268,"ALOGUE":14269,"ĠBROWN":14270,"Ġcautious":14271,"))":14272,"135":14273,"Dial":14274,"FUTURE":14275,"JA":14276,"Jac":14277,"Kat":14278,"Mess":14279,"MISC":14280,"OCI":14281,"PLE":14282,"bes":14283,"fall":14284,"gue":14285,"lia":14286,"lana":14287,"pan":14288,"park":14289,"Â£":14290,"Ġtiss":14291,"held":14292,"inity":14293,"onic":14294,"eneration":14295,"Ġsi":14296,"Ġware":14297,"Ġfare":14298,"itating":14299,"Ġprag":14300,"Ġbay":14301,"Ġbare":14302,"Ġmg":14303,"Ġhorizontal":14304,"Ġhunting":14305,"ĠCrete":14306,"ĠCyr":14307,"ĠPPE":14308,"Ġ210":14309,"olia":14310,"terior":14311,"Ġgrew":14312,"imedia":14313,"irus":14314,"ulu":14315,"Ġconform":14316,"ĠRD":14317,"Ġalarming":14318,"ĠFal":14319,"Ġhazard":14320,"ĠBI":14321,"ĠBart":14322,"ĠBOG":14323,"ĠDOM":14324,"ĠDiet":14325,"aders":14326,"ĠTaj":14327,"ustin":14328,"forward":14329,"Ġsear":14330,"ĠLED":14331,"Ġran":14332,"ieva":14333,"ĠWild":14334,"ĠWatson":14335,"ĠUt":14336,"Ġchairs":14337,"Ġresolutions":14338,"ĠKari":14339,"oked":14340,"inees":14341,"Ġenglish":14342,"INIST":14343,"abeth":14344,"Ġwhose":14345,"Ġjun":14346,"Ġavast":14347,"Ġdebated":14348,"ISS":14349,"Ġtefan":14350,"IONAL":14351,"Ġjustification":14352,"Ġspell":14353,"Ġphrase":14354,"Heading":14355,"IRL":14356,"Ġintellectual":14357,"Ġcarrier":14358,"CHN":14359,"Ġwording":14360,"Ġexpenses":14361,"Ġfewer":14362,"ĠXX":14363,"Ġflags":14364,"ebook":14365,"EASURES":14366,"Immigration":14367,"Ġshortage":14368,"Ġexpecting":14369,"Ġminim":14370,"Ġdisturb":14371,"Ġnecessity":14372,
[...]
