#version: 0.2
e n
e r
c h
i n
Ġ d
i e
u n
s t
e i
a n
e s
o n
Ã ¼
i ch
Ġ S
Ã ¤
Ġ w
un g
e in
Ġ s
e l
a u
a t
a s
o r
a r
i s
a l
i t
g e
Ġ i
Ġ un
Ġd ie
Ġ A
t e
u r
Ġ m
Ġ v
Ġ f
Ġd er
Ġ b
i r
Ġ n
Ġ P
t er
Ġ E
m m
h r
Ġ ein
i on
Ġ B
Ġ M
t en
g en
d en
Ġi st
e m
Ġ z
Ã¼ r
Ġ K
e t
Ġ h
o l
D ie
ich t
Ġun d
Ġ F
Ġ I
Ġ au
s ch
Ã ¶
d er
Ġ R
r a
Ġ in
Ġ g
Ġ k
Ġ D
s s
Ġ G
b er
Ġ H
Ġf Ã¼r
Ġ V
i g
i er
ei t
r o
is ch
Ġ W
l ich
d e
Ġz u
l e
a b
k t
Ġ T
Ġ 2
o mm
Ġw ir
i l
ĠS ie
an d
r e
a ch
s e
a m
u m
0 0
Ġ L
en t
Ġ ge
Ġd as
Ġ 1
Ã Ł
o p
Ġv on
in d
Ġ er
f t
Ġ U
Ġ (
D as
E R
e h
Ġ an
Ġn icht
is s
at ion
Ġd en
c k
Ġ Z
u t
ĠI n
E N
u s
i en
Ġau f
r ei
l en
s er
ur op
i st
Ġd es
an n
ung en
ĠS t
Ġb e
Ġ l
Ġ N
Ġv er
n en
Ġ al
Ġ C
Ã¼ ber
ĠV er
ĠA n
Ġi m
a h
omm iss
Ã¤ n
i k
f f
o t
Ġs ind
. .
f or
e hr
Ġw er
isch e
e u
Ġ Ã¼ber
er r
o m
Ġein e
u ss
Ġm it
Ġ t
ĠR e
Ġ J
Ġ st
W ir
i mm
un d
Ġ p
Ã¤ r
b en
s p
I ch
o ch
Ġwer den
Ġ es
ei ter
Ġ -
a g
a hr
ĠK ommiss
ei l
es ch
it t
urop Ã¤
s en
el l
for m
r i
Ġs ich
D er
C H
ch en
Ġh ab
Ġau s
l o
Ġwir d
r Ã¤
ch t
ĠP ro
Ġ ich
et z
ie l
or t
g r
v er
in ist
ol l
inist er
ĠS ch
n t
i ge
r es
U N
ch e
ĠKommiss ion
Ġ o
ein e
h e
form ation
Ġ j
ss en
an k
r au
Ġ um
Ã¶ n
g t
st en
ung s
Ġau ch
u l
T E
m en
E s
Ã¤ t
Ġs ch
sch a
Ġm Ã¶
e d
er n
Ġdie s
an z
Ġh at
Ġ O
ĠIn formation
w ei
h al
ĠE r
r Ã¼
on t
al l
S ie
i v
el e
Ġs ie
in g
Ġhab en
l and
Ġ2 00
I n
ĠE U
e st
l ie
u f
Ġd em
scha ft
b t
uropÃ¤ ische
s i
isch en
eiter e
Ġv or
an g
ĠA b
e b
a kt
ei ten
a ge
a d
ĠU n
E in
b e
ĠmÃ¶ ch
omm en
Ġ 3
ĠB er
ĠInformation en
A N
o k
Ã Ħ
Ġun s
Ġun ter
st imm
n er
U n
ĠM inister
ĠI hr
in ter
g er
Ġz ur
Ġb ei
Ġal s
UN G
den t
i ck
rÃ¤ si
e g
el t
z u
O N
l ei
o s
an t
.. .
H err
E S
lich e
i gen
Ġk Ã¶n
I S
ier t
gr und
st e
ĠA r
b l
I N
Ġd a
rÃ¤si dent
en d
Ġs ein
r u
Ġw ar
au s
Ġun ser
ar t
w er
Die s
ter n
0 1
Ġk ann
inter grund
res s
W eitere
I T
3 2
Ġ a
te t
ĠH err
ot el
H intergrund
Ġh ier
Ã ĸ
i z
h t
R O
f Ã¼
Ġ e
f en
Ã ľ
i bt
Ġ .
Ġs o
ra g
k l
b ar
E uropÃ¤ische
ier en
Ġw ur
Ġw ie
Ġ ent
ĠV or
Ġn och
h eit
k eit
ĠkÃ¶n nen
Ġ ab
Ã¶ r
Ġm Ã¼
en n
Ġ 4
E r
Ġdie se
itt eil
ĠS p
A n
u ch
Ġn eu
ĠR at
b eit
Ġg esch
eh en
u g
e k
l a
Ġ c
ĠA us
at en
icht ig
Ã¼ n
f ol
a k
Ġn ach
ut z
E U
i m
ra ge
n e
itteil ung
Ġzu m
ĠmÃ¼ ssen
V er
l t
h en
ĠE nt
ĠH otel
S T
Ġ2 2
i c
W as
W ie
u ÃŁ
ont akt
Ġg ibt
ress em
S ch
ge b
in den
Ġn ur
Ġs ehr
n ah
Ġ 5
Ġein en
Ġm ehr
r ie
o h
p f
at t
f ahr
il l
ĠJ ahr
p t
Ġal l
it Ã¤t
e kt
A l
etz t
Die se
9 9
A T
Ã¤ h
t schaft
n is
l in
Ġo der
Ġs oll
t z
ĠE in
it te
ressem itteilung
ol it
i o
stimm ung
Ã¼ ck
Ġ( +
g ra
Ġ am
Ġs p
S t
un kt
u st
Ã¤n d
kl Ã¤r
ach ten
k ommen
ie len
i d
urop a
ra che
rei ch
al e
t re
ĠmÃ¶ch ten
ion en
lo ssen
f all
B ei
Ġ r
ĠP ar
ur ch
ĠAn g
ĠP rÃ¤sident
ff en
h nen
as s
a mm
ĠM a
en z
ra gen
ĠU N
Ġ22 9
o st
it z
in anz
or d
g lie
Ã¤n der
ĠÃ¼ber n
A L
p p
Ġdas s
o d
W ann
Ġwur de
Ġw as
ĠAb stimmung
eh men
h eiten
it glie
l an
st ell
Ġk eine
Ġdie ser
ĠA uss
ind et
au f
Ġb is
f er
Ġd e
r at
p rache
Ġ re
I L
st er
l ung
g lich
gra mm
ĠBer icht
ĠB e
ele gen
ei ch
Ġan der
g es
et t
n ung
Ġf inden
ol gen
Ġd ar
A R
Ã¼ tz
ir tschaft
ier ung
IS CH
ĠÃ¼bern achten
z i
z e
Ġz wei
h o
sch l
Ġi hr
o g
w e
ĠD ank
O R
Ġm uss
as sen
Ġgesch lossen
Ġ Ġ
and el
m e
ĠU hr
U S
ie le
it e
K ontakt
el len
i a
ĠAuss prache
q u
ĠRe g
ah l
Ġm an
ĠG e
itglie d
ĠZ eit
ar k
a st
er s
ĠmÃ¶ch te
Ġ 0
ss el
Ġ gen
Ġdies em
Ġb er
Ġ ...
es s
Ãľ ber
Ġein er
w ick
at z
e ch
ĠG r
Ġst att
Ġhab e
Ġ |
E H
a il
a at
Ġ2 01
ĠAng elegen
E M
el le
hal t
bl em
o v
res se
eb s
ĠIhr e
E L
Ġal le
ach t
sch en
w Ã¤r
fahr en
a p
tre ter
Ġ 6
ĠAn t
ĠI hnen
ff ent
Ġl ie
o b
Ġ 7
l au
O M
wÃ¤r t
uropÃ¤ ischen
s am
2 00
eu te
I ON
al t
amm en
r an
ĠD ER
w s
l am
Ġf indet
olit ik
il d
ĠAngelegen heiten
Ġk l
Ġg es
1 0
h er
er t
k te
itt el
ĠU m
Ġa ber
r t
3 0
Ġb es
a gen
Un d
ĠA l
ĠE uropa
F Ã¼r
Ġ et
lich en
Ġein em
Ġk ein
Ġ 9
er k
Ġb et
A ber
iv e
u b
in n
RO P
H ier
ĠAr beit
ĠF inanz
ig er
Ġd urch
O L
Ġ1 2
R A
Ã¤ hr
d u
Ġf olgen
Ġneu e
Ã¤ ch
Ġ 8
ĠSch l
Ġv iel
f e
ĠPro blem
lam ent
lie ÃŁ
mm er
ar d
l er
isch er
ig ung
ro ÃŁ
nah men
ĠF rage
rÃ¼ ssel
Ġw eiter
ol len
r et
I G
ĠPar lament
ei te
Ġj ed
Ġdie sen
st Ã¼tz
ĠK on
ri f
ĠL and
f ach
ol le
Ġg anz
Ġm ich
f Ã¼r
m al
eh t
ĠC h
ebs ite
w ort
K TE
fÃ¼ hr
g ar
p ro
ĠA uf
Ġ le
v or
ĠF rau
wÃ¤rt ige
w ar
ÃĦ ISCH
ROP ÃĦISCH
. )
iss en
S p
Ġge ht
V ielen
Ġge gen
Ġw ichtig
Ġj e
ĠD e
ĠKommiss ar
UN KTE
ĠF or
g el
K ommiss
Ġunser e
imm er
ĠE uropÃ¤ischen
S P
ĠP UNKTE
hal ten
in e
z ie
ĠM en
o ur
el s
Ġm ein
R T
Ġ %
r in
P ressemitteilung
ĠM itglied
on der
D a
Bei fall
ig t
Ġaus wÃ¤rtige
Ġet w
un den
S CH
y st
ei d
Ġ +
z eit
k ehr
ĠM ar
M EN
ul t
Ein e
k en
ach en
Ġt un
el d
TE IL
ÃŁ nahmen
I m
I I
Ġge w
u d
Ġ1 0
ich er
G EN
hal b
ut sch
us ammen
ĠUn ion
Ġ Ãĸ
ei gen
yst em
Ġ ÃĦ
ĠRe cht
00 0
ĠT h
e p
M inister
c t
ar b
Ġj etzt
fol ger
ĠUn ter
I K
ĠG es
ig keit
c e
al ien
I E
p l
Ġv om
er e
ĠE n
Ġp ro
) .
e ben
Ġg roÃŁ
Ġw en
Q u
w elt
r itt
in der
eh m
Ġi mmer
ur g
Ġd u
s etz
nis se
or gen
ab en
Ġdies es
P resse
ĠEnt wick
n der
ar beit
AN D
ĠPro gramm
er icht
s k
Ġein fach
Ġn un
u x
or g
A uch
ĠUN D
in a
ĠP ressemitteilung
Ã¤ l
ĠF l
ge m
1 2
gen d
r it
Ġh eute
y p
esch Ã¤
ĠVer t
ĠEnt sch
Ġh er
Ġer klÃ¤r
Ġg ut
lich keit
Ġjed och
o sten
w end
ĠB ei
ĠS itz
F T
Ġbe st
Ġ Die
f l
Ġals o
b st
Ã¼ hr
an ien
Ġge m
ch te
ĠVer treter
w irtschaft
B rÃ¼ssel
b urg
z eu
Ã¤ lt
A us
ĠS o
lei ch
re chen
a v
ie der
n et
S A
Ġb rau
f rage
1 1
Ġ Ãľber
Ã¤ re
il t
Ġetw as
3 5
UNG EN
m a
folger ungen
o w
ĠZ u
Ġw enn
Ġg el
ar um
E IT
I CH
ah er
ES S
sch ie
ĠSchl uss
Ġ1 4
Ġber eit
ĠE ur
ĠW elt
Ġ1 9
nah me
o ff
Ġb en
lo w
f on
ĠH ost
ĠK l
ĠA N
u te
am t
r icht
ĠSt Ã¤nd
ent r
W er
r ank
eschÃ¤ ft
2 5
e x
i f
am it
am en
. :
b es
p u
ret Ã¤r
t alien
Ġ1 1
rei s
ĠVor schl
R E
h a
il fe
B e
m ar
al en
stell t
Ġh in
kt ion
EU ROPÃĦISCH
Ġ2 0
I P
a aten
t ok
A b
A uf
ĠÃĦ nder
Ġda zu
D es
Ġb itte
el n
ei ÃŁ
Ġ1 99
Ġsoll te
ok um
Ã¶ s
Ġt he
F rau
ĠW ort
ĠHost els
ge ben
ĠW irtschaft
el che
Ġlie gt
in nen
tern ehmen
ĠSt aat
ĠMen schen
a y
V or
tok oll
Ġ :
em ein
ĠH er
Ġw eitere
Ġwur den
icher heit
ek retÃ¤r
ĠTh em
ĠF ragen
for der
A S
Ġ on
S o
utsch land
ĠGr und
ss ekretÃ¤r
u ft
Ġ1 5
ĠSchluss folgerungen
ĠT ag
Un ser
ĠSitz ung
un ft
ĠF all
Ġd rei
u cht
au en
ĠRe d
Ġsoll ten
ĠPro du
ungs ant
g ien
p er
ĠZ usammen
ĠRat es
ĠerklÃ¤r te
ers on
D e
wer t
Ġwie der
s icht
at Ã¼r
Ġc om
es en
Ġm ir
rif ft
u chen
Ġp er
5 1
lin ie
s ion
ĠPro tokoll
fÃ¼ g
ĠFinanz en
er v
ach e
ĠR icht
ĠEr geb
ĠN r
g ie
ch er
d em
M ER
h ne
au pt
ĠMa ÃŁnahmen
ik el
un de
Ġm orgen
o u
ord nung
wer b
el bst
tern et
m us
) :
ri ft
P ro
k unft
M ail
it ion
Ġ Qu
2 0
ank e
Ġm eine
stimm t
k e
Ã¶ l
Ġ /
ĠEntwick lung
Ġb in
z en
ab ei
Kommiss ion
ĠAr t
4 0
Ġk on
h Ã¶r
s o
Ġk omm
Ġ ,
ar e
bl ik
i b
ER TE
ho f
Ġ eigen
ĠD okum
ĠH aus
ĠUN ION
Ġsie he
w or
Ġwir k
s atz
in k
t eil
zi al
g l
at e
Ã¶ ÃŁ
ĠB ild
Ġ200 9
Ġin s
ge hen
ek te
Ġge f
Ġg r
ster reich
or en
st r
atÃ¼r lich
Ġunter stÃ¼tz
Ġb ie
Ġst eht
a c
s m
Ġbe f
ĠÃĸ ffent
w ischen
Ġd ann
ux em
E D
S ON
W arum
m pf
i um
ck en
Ã¶r der
u ten
ĠT eil
i al
Ġw ollen
el gien
OM MEN
Ġm achen
g esch
S low
ĠmÃ¶ glich
art ner
r land
N EH
imm t
M it
zie h
re u
uxem burg
Ġ and
Al le
ad t
ĠP unkt
ol en
Ã¤nder n
U m
Ã¤ ss
ĠSt ell
r is
ĠEur o
Ġsch on
al d
Die ser
ner gie
ĠVer b
ur z
E G
W ebsite
f r
Ġall es
ĠD aten
ÃŁ en
m ent
Ġb lei
M ar
en den
Ġein ige
st Ã¤nd
I talien
ĠEr klÃ¤r
Ġbrau chen
un kte
sp iel
ont r
ĠUm welt
NEH MER
ĠN e
ab e
Ġg ilt
ĠZ immer
al itÃ¤t
pu blik
ust iz
Z I
setz ung
h Ã¤lt
ĠAnt wort
au m
Ġihr e
A G
Ġ akt
Dies es
TEIL NEHMER
ett be
h n
ĠÃĸffent lichkeit
Ġv ie
ĠE uropÃ¤ische
pp e
we den
fol g
an gen
ĠS eite
Sp anien
v est
ĠPro j
ick en
l age
ieder lan
Ġs agen
i an
ien st
ĠIn n
st aaten
Ġander e
B E
US S
ge w
ĠL age
Ġbe sten
ettbe werb
Ġk ommen
ze pt
Ġbe gr
ag t
Ġ en
lin e
W I
Ġs ehen
ĠL eben
Ġg er
ĠM in
iederlan de
wei se
Ġv iele
Ġneu en
em ark
lich er
d es
z eich
Ġ200 7
1 5
o te
b ung
e c
ver fahren
al ten
Ġbereit s
ĠZ iel
inn land
p h
ei le
al is
ĠAN GEN
ĠB et
gen ommen
ungsant rag
ĠANGEN OMMEN
rÃ¼ n
ĠUn ternehmen
Ġda fÃ¼r
Ã¶ ff
Ġvie ws
ĠRe publik
la gen
Des halb
it ter
unkt ion
G e
ir k
I hr
Ã¤n emark
sch uss
ru kt
rat eg
ult ur
D ar
B elgien
Ġw ill
ĠP erson
ĠB Ã¼r
rei chen
ĠB ar
ei st
Ġ1 6
Ġw Ã¼r
Ġ1 8
lo s
M an
ol og
ĠN ach
ĠG eb
ir ekt
a x
Z u
Ã¶ ffent
Ġn Ã¤ch
Ãĸ RT
Ġf or
ĠM on
ten s
Ġunser er
ĠANGENOMMEN E
A nt
Ġfolgen de
Ġein es
k eiten
A M
V ER
ĠH andel
ÃĸRT ERTE
A rt
ah len
W elche
sp ro
Ġander en
p unkt
en te
Ġt o
Al l
SCH A
ĠG emein
z el
D och
ER ÃĸRTERTE
Ġv oll
E I
a de
ĠVorschl ag
Ġw Ã¤re
iv en
o c
ri or
n te
Ġm uÃŁ
ĠI N
R AT
ier te
Ġo f
an ge
Ġbe g
G en
ĠThem a
at ur
Ġ1 7
Ġnicht s
Ġzur Ã¼ck
Ġwirk lich
ing s
rei se
Ãĸ sterreich
ĠJahr e
ĠE urop
ic e
ĠB est
Ġge stimmt
D ER
L uxemburg
â Ĥ
âĤ ¬
ĠMinister in
SCHA FT
l ub
mar kt
ĠR ei
I rland
Ġw issen
ĠGe w
rukt ur
i de
p olitik
ĠB es
AL T
ST IG
ich te
ele fon
E T
Ġe x
Ġge ben
f te
9 6
Ġ X
OL IT
ĠJ ustiz
SON STIG
s b
ver treter
4 6
Ġst ehen
Ġs ol
ist e
N iederlande
ĠS icherheit
r itte
ĠSp iel
B ER
Ġs elbst
zieh ungen
e ter
ĠA p
is k
ĠT w
Ġer ste
5 0
ch n
ann t
Ġda ÃŁ
Ġ201 0
E nt
ik a
o ten
tern ation
W enn
ĠW ebsite
D Ã¤nemark
F innland
Sch weden
Ġ1 3
Ġl ang
a ck
ĠA d
Ġan ge
Ġ200 8
w eiter
Ġl ei
ĠLand wirtschaft
sch utz
De utschland
Ġge t
v on
ĠW as
ĠP l
Ġg lau
Ġn ie
i at
ein en
ĠO r
ah n
u e
em ber
B itte
at er
stell ung
K T
ĠW eg
a z
off e
d s
st ag
1 3
au t
ĠE nergie
ĠSt and
ĠHerr n
ĠZu kunft
OLIT IK
ĠA m
1 6
9 8
g abe
ĠTw itter
om p
isch es
an der
st at
Ġge b
ĠIn ternet
Ġs eine
is mus
ar ten
rank reich
ĠZusammen arbeit
I st
ĠM io
Ã¶ glich
Ġ !
ar te
ie t
Ġein mal
rÃ¤ ge
P rÃ¤sident
ĠG ra
ĠĠ ĠĠ
it u
N ach
ok rat
ech n
icht ige
bes ser
Ã¶ t
ĠE x
ĠStaat ssekretÃ¤r
A H
Presse k
T h
U R
m erk
ĠEntsch lieÃŁ
r uf
Ġwar en
Ġzu s
sch e
i p
ĠIn d
as st
or den
ĠMitglied staaten
P R
uÃŁ er
g ang
de ut
ĠIhr en
ĠIn ter
as e
T el
ĠH ilfe
st ellen
Ġf Ã¼hr
Ġge hÃ¶r
ĠG eld
Ġall er
ĠK omm
L E
u er
R e
Ġf est
ation en
ĠI ch
en nen
ĠG en
K l
m inister
ei chen
utz en
Ġ âĤ¬
An frage
Ġl etz
Ã¤t z
ĠL Ã¶s
ommiss ar
Ġgem ein
ot es
Ġo hne
Ġd abei
zeu g
ĠK inder
0 9
ĠM ittel
Ġsich er
stÃ¼tz ung
ĠEn de
4 5
Ã¤ u
Unser e
Ġg ern
an den
ĠS ystem
B et
ei gt
au fen
Ã¤ ten
E IN
fer enz
l ungen
ank en
c o
fall s
EUROPÃĦISCH EN
a den
i ff
m ittel
H ALT
s st
Ġbes ser
rif ten
0 2
oh l
el ie
ra ft
il itÃ¤t
Ġal len
ĠDokum ent
Ġbegr Ã¼
ĠS e
schie den
Ġbe k
Ã¤ ÃŁ
T ER
O S
ĠB eit
al er
ĠD ES
rau m
Ġd anke
Ġbe d
ĠB l
ra ch
ĠErgeb nisse
ĠStÃ¤nd igen
9 7
Ġkomm t
0 3
ĠS u
le x
Ġaus ge
ex t
J e
Ġver st
ot t
Ġkl ar
A C
A m
rateg ie
s ver
ĠVertreter s
ig es
und heit
SONSTIG E
ĠB o
Ġb eh
gar n
Ã¤h len
sch riften
eid ung
Ã¤t ze
Ġ te
Ġbei m
n ell
for t
h ang
o der
Ġe ben
ĠH and
B ericht
i ver
Ġn ah
RT SCHAFT
ĠF r
Ġp olit
h in
eu er
b au
u age
in de
Ġd aher
Ġst imm
W o
at ei
Ġgen au
Ġg ute
ericht s
D amit
rÃ¼ h
Ġbes onder
ass ung
rei cht
Ġd Ã¼r
1 4
Ġv otes
Ã¼n d
oh n
ĠVert rag
ei den
s el
Ġ3 0
1 8
Ġwer de
Ġz wischen
7 4
ĠH aupt
yp ern
d ie
Ġn immt
Art ikel
M ehr
D ann
ĠJahr en
e z
l icht
2 01
fÃ¼g bar
35 2
k on
ei len
Ġer halten
S S
it Ã¤ten
Ġbe de
7 5
ĠIn vest
wei s
at s
w alt
Ġver b
c lub
ei tet
i le
ĠA ut
ri v
TEIL UNG
Ġj a
ĠSt adt
Kommiss ar
2 2
ĠErklÃ¤r ungen
v ent
Ġgemein sam
D aher
sp rechen
Ġre cht
ĠVer kehr
Ġd och
s itz
ĠP reis
und es
sch ech
ĠRed ner
ach st
I EN
on e
ĠE l
Ġ em
Ġn atÃ¼rlich
ĠI I
itu ation
Ġfolgen den
ĠwÃ¼r de
Ġ2 8
Ġ2 5
IT TEILUNG
Ġe uropÃ¤ische
en ien
E C
Ġge hen
rie den
3 3
en s
f ten
T he
B ucht
ĠG esch
ĠBei spiel
f ragen
w eg
ĠP unkte
ation s
arb eiten
ÃŁ e
8 6
h and
ESS EM
D enn
I D
Z ur
o gen
ĠHostels club
ESSEM ITTEILUNG
Ġs eit
sten s
ĠBer eich
l ungs
ĠBÃ¼r ger
Sie he
ĠSo zial
ich ten
Ġver w
Ġo ffen
Ġ is
Ġ 000
Ġakt u
ust rie
Ġd amit
as se
ie d
ĠP olitik
re ffen
Ġn ot
ĠB en
es se
it y
Ġk osten
ĠG rÃ¼n
Ġglau be
ĠS te
ig n
ink s
m in
erichts hof
U M
i ent
ran sp
ĠD eb
ru ck
ĠReg ion
Ġver l
h il
st Ã¼ck
r Ã¤n
Ġ Y
tre ten
ĠD em
ĠJ an
st and
l ig
u p
Ġum f
9 5
Ã¼ h
Un ter
ĠProblem e
at te
b ei
ĠEU R
Ġgr Ã¶ÃŁ
Ġbest eht
ĠStÃ¤nd iger
ĠRicht linie
ĠStell vertreter
N EN
ĠJ un
ver kehr
Ã¶n ig
Ġdar f
p rÃ¼
st land
ĠMar kt
an is
Ġan genommen
am il
sch ung
L AND
wor ten
it auen
ĠA u
ier e
et ail
Z um
ĠR o
ar en
Ġ ro
ges amt
Ã¤ss er
Pressek ontakt
D F
ett land
um Ã¤n
sp olitik
ul gar
re cht
m p
a ff
sch lieÃŁ
ĠM ob
it ionen
Ġge st
rift liche
) ,
z ess
ĠB ed
ĠM al
ZI EH
b ild
ĠJ ul
ichtig t
Ġbie tet
r em
ischer ei
Ã¤ uf
Ġunser en
ĠW or
ĠM ill
am p
m an
Ġf reu
Ġver fÃ¼gbar
m ut
n ehm
ant wort
ĠS CH
C K
P olen
d ings
ĠS ituation
in ge
ĠT ext
iz ep
Ã¤ d
A r
ĠVer fahren
ug ang
Ġda von
uÃŁ en
ĠUnter stÃ¼tzung
umÃ¤n ien
Ã¤n g
Ã¶ ch
ZIEH UNGEN
M eine
Ã¤ ge
EN T
ist en
ĠFor m
un der
Ġf ol
ĠIhr er
Ġkein en
E uropa
a ffen
ra kt
Ġon line
Ġ y
ort sch
Ġ2 3
SP OLITIK
N E
OR D
ulgar ien
ĠB esch
wert ung
ĠP RO
ĠU r
ort ug
schech ische
eit ung
es sen
ĠM Ã¤r
ĠK ultur
ss e
k er
r on
Ġb esch
ĠK Ã¶nig
ĠGes undheit
iel t
g aben
Ġsch nell
ĠgroÃŁ e
1 99
Ġs ag
M itglied
b eh
A P
Un garn
Ġsch w
Ġ ?
ĠK ro
PR ESSEMITTEILUNG
Ġb y
Ġk urz
Ġer stellt
ĠF ahr
n ehmen
er ien
ĠB rÃ¼ssel
N un
ĠFl ug
Ã¶rder ung
it iat
ĠD u
an s
1 7
H er
Z wei
al te
ĠN eu
ĠPrÃ¤sident in
Ġdar auf
Da zu
ĠSt r
L assen
ĠG l
Ã¤n ger
lo b
c a
t rag
un ter
fÃ¼hr t
WI RTSCHAFT
Ġ Ã¶ffent
ĠEr folg
izep rÃ¤sident
il der
W ill
ĠP artner
op p
achst um
Ġ end
Ġf unktion
m b
ak ei
ĠR es
ĠKommissar in
ich ter
ĠAus w
Ġges agt
ĠS k
ĠÃĦnder ungsantrag
ĠF rei
z ahl
r il
fol gt
Ġin ter
rei bung
ein t
Ġl a
ĠR AT
Ã¤n de
BE ZIEHUNGEN
ul d
Ã¤nder t
rin gen
Slow enien
ĠSt ra
Ġl assen
pp en
V on
ab el
Ġer st
en ten
Ġn ehmen
ĠV ER
Ġje der
Ġer n
Ġden ke
ĠAn d
iel le
Ġ2 4
am e
Sch riftliche
ĠP DF
ĠK at
0 4
Ġm acht
Ġein z
ĠB em
Ġbet rifft
ĠdÃ¼r fen
f ang
Ã¶ff net
L A
O V
Ġer sten
Ġer war
ĠL e
Ġje den
E stland
st au
Ġw eiÃŁ
lau b
c kt
ĠLÃ¶s ung
ĠW och
ris e
ie s
ĠE N
L itauen
L ettland
Ġblei bt
J etzt
Z ypern
lei st
as ch
ĠG ru
I M
K on
en de
Ġ2 1
a in
ĠM ein
ĠG eschÃ¤ft
USS EN
Ġi hn
innen markt
Ġw eit
om b
Th is
Ġv ier
ra d
0 5
or e
Ġent fer
0 6
ĠG Ã¤
Ġt elefon
2 4
im a
Ġein ge
ĠkÃ¶n nte
ĠProj ekt
ĠReg ionen
formation en
Ġ Ã¤
ĠM e
rau cher
c en
ĠW ettbewerb
ĠN amen
G ibt
ĠP rior
Ġh offe
eh ler
ĠVer ein
enz en
ct or
Ġsag te
f Ã¤h
Ġ *
ein er
ik ation
s ol
z Ã¼
Ġw o
Ġsp rechen
ei g
H eute
ĠEU ROPÃĦISCH
ow n
ĠF re
Ġver k
ff iz
IN HALT
T schechische
Ġtelefon isch
ortug al
ĠRe form
EM O
w eit
Ġf al
au er
rt eil
2 1
r en
ĠM ed
Ġver s
te m
ĠD inge
Ġ200 0
Ġ @
Ġ2 7
h ol
ĠT Ã¼r
ÃŁ er
ĠD ienst
ĠT el
Ġver schieden
Ãľ R
Ġzus ammen
F rankreich
Ġw orden
we gen
ĠHaus halt
N icht
L ang
a f
r ig
o ber
Ã¤ mpf
ĠEntsch eidung
ĠW er
ah men
lich es
rÃ¤ gt
eschÃ¤ft igung
3 4
ĠProdu kte
zu g
war e
Ġre g
f Ã¤l
o ol
Ġzwei te
Ġem pf
Ġf rei
sp lan
Ġsch Ã¶n
Ġ &
w ie
ĠS l
ĠJ u
Ġp age
ĠnÃ¤ch sten
Ġgern e
etail s
Ġm od
ĠZ iele
u tet
Ġbef indet
ĠM it
re ch
fÃ¼g ung
Ihr e
okrat ie
ĠunterstÃ¼tz en
on nen
ele gt
Ġer forder
Ġer reichen
ĠSch w
ĠK olle
ĠC o
ĠAn geb
D E
Ġst ell
ĠHotel s
E uropÃ¤
h m
ĠD i
ĠR olle
ĠH a
Ġden n
ĠR Ã¼ck
Ġf r
ĠM an
ĠVer fÃ¼gung
ap it
Ġentfer nt
Ġwen den
ĠPerson en
y n
y s
EH R
at ive
Ġh eiÃŁ
Ġl ange
sp ekt
Ġent sch
ĠHerr en
ĠKÃ¶nig reich
rei ben
and elt
Ġ1 00
ĠBes uch
ĠA kt
id es
N eu
g angen
Ġst ellen
h andel
Ġw el
Ver ein
undes minister
le g
Ġ200 6
30 3
pro chen
Ã¼ d
Ġsie ht
ĠMa i
Slow akei
h ilfe
ĠF rÃ¼h
ĠL iste
ĠL ie
Ġblei ben
C h
ĠD amen
utz er
U T
entr um
ĠGe gen
Ã¤ch st
Ġs ele
Ġin ternation
ĠG er
St aat
N ur
ĠT he
ik en
ĠL Ã¤nder
ĠIhr em
n a
te gr
Ġl Ã¤
Ġ5 0
at iv
ial og
ĠArt ikel
Ġnah m
3 7
Ġh o
ig keiten
re d
zie ht
Ġben Ã¶t
Bet rifft
1 9
in o
ĠW ei
ĠZ ahl
ĠT echn
ĠS ol
Ġi hnen
Ġ ung
Ã¼ b
0 7
ĠIn st
ach r
ĠF amil
ĠD atei
ĠSt imm
Ġo b
Ġr ichtig
ĠRecht ss
Ġbie ten
K ann
Ġh el
u ar
Ġw Ã¼n
b ank
ho ws
ontr oll
ĠWas ser
ĠGra ph
B es
ĠF ot
lei cht
Ġbede utet
N ER
p lan
on d
Ġfol gt
h Ã¶
k ei
ĠN ov
AND EL
Ã¼ ssel
ĠK osten
c om
ar f
ĠA US
o ine
Ġd irekt
ur s
m iss
ur e
os it
ĠSch utz
Ġunser em
weiter ung
ĠJun i
ĠM od
fÃ¼hr ung
ĠEUROPÃĦISCH EN
a ÃŁ
Ġd ort
Wer de
Ġau ÃŁer
fon ds
ĠAb kommen
Ġ Ã¤ndern
ir e
ck e
ĠEin zel
ĠCh ina
I V
I Z
Ã¼n ft
L ICH
Ġhier zu
Ġ4 303
B er
g leich
ro m
ĠEU RO
ĠEurop as
I B
et te
le gen
C ESS
W ichtig
ĠS T
ĠS h
ĠW ORD
ĠO rt
ĠGraph ik
i der
ak et
Ġget an
ĠgehÃ¶r t
Ġso zi
nehm er
st ruktur
ĠP er
Ein ige
ST AT
Sch l
ĠBild ung
ĠPRO CESS
ĠPROCESS ED
D en
ĠVer s
re chte
eh e
an ce
Ant oine
O U
er en
Ġhat te
ĠSl ides
achr ichtigt
am er
Ġmein er
i j
ĠK unden
Ġg leich
Ġben achrichtigt
Ġmod if
o ck
6 4
6 7
onder e
teil t
I C
m Ã¤ÃŁ
s z
un ikation
A B
V iel
8 0
A USSEN
er nen
etz en
ĠGemein schaft
B ulgarien
ĠSlides hows
Ġa k
ĠFrau en
M E
b ed
Ġ op
ele g
O H
r as
ar m
Ġg ar
Ġk m
ĠInd ustrie
Ġe uropÃ¤ischen
Ġw ahr
wend ung
Ġnot wend
R umÃ¤nien
r ant
Ġv Ã¶l
Ġer w
Ġ200 1
bl ick
ĠS an
fÃ¼ l
K EHR
ĠF ischerei
uss land
ĠEin w
Ġeben falls
N atÃ¼rlich
ĠKro es
p ort
A D
ĠAl l
ĠF ÃľR
ell schaft
C C
ak te
ĠF ehler
Lang uage
al s
Ġh och
Ġsele ctor
or m
ĠProdu kt
ĠF ortsch
Ġ3 2
Al s
andel n
Ġer hÃ¤lt
ran s
spro gramm
ĠT age
re g
g elegt
ier ungs
ges etzt
Ġl ast
Ġbei den
schie d
ĠH in
ĠArbeit s
ĠVer sion
scha ften
ĠReg el
b o
Ġbe w
8 8
der n
ri ff
ĠMin uten
ĠBem erk
E n
ĠGÃ¤ ste
F OR
Ġwen ig
gem eine
merk sam
D em
ier ten
ES CH
Um welt
ĠEntschlieÃŁ ung
l y
Ġh Ã¤t
om pl
n ten
it ut
erv ice
Ġ ch
Ã¤ ter
CH E
UNG S
ĠPar k
ĠF il
Ġp ass
ungs verfahren
AUSSEN BEZIEHUNGEN
ĠunterstÃ¼tz t
rei fen
ĠSt rategie
Ã¤mpf ung
at or
l etz
y l
ĠI s
lie gen
ĠInn ern
ĠS er
ĠR ahmen
Ġ at
ĠE W
ing ungen
Ġlie gen
ĠJul i
ichter stat
ĠMein ung
a is
ĠD IE
F inanz
ĠA s
Ġall em
ĠA t
ISCH ER
Ġfreu en
G es
t lich
ĠP al
ĠM Ã¶glich
Ġ200 3
Ġle ben
f rei
ĠvÃ¶l lig
z ember
Ġh e
ĠVerb raucher
A K
ĠRecht s
Ġdar Ã¼ber
Ġun ver
Ġv ielen
ĠB uch
Ġ200 5
ĠErgeb nis
U ST
i as
ĠI de
ĠD er
ĠR E
vor schriften
m er
ĠT our
wer k
Ġder zeit
Ġc a
rie b
H EIT
ol f
Pro gramm
ĠA uÃŁen
ĠD E
ĠD isk
ĠW ahl
Ġ ..
ar itÃ¤t
ĠP h
ĠP reise
Ġgem acht
ĠT e
Ġer reicht
ĠS ache
ĠF olgen
ĠDe utschland
k ommissar
ĠK o
den ten
S E
er al
ĠD ialog
ers Ã¶n
ĠB ilder
U B
ĠL in
Ġer g
ĠC ol
an i
Ã¼ lt
ĠSch ritt
AT ION
Ġmodif ied
g s
v oll
Ġ2 6
ĠO st
ĠVor sitz
9 4
ĠM EMO
Ġ 99
T O
An d
Ġ201 5
ĠW achstum
olog ie
ĠS eiten
Ġw ichtige
eg or
Ã¼n f
Ge w
m itt
D abei
on st
Ġf re
ĠB eh
pt ion
u hr
Ġer sch
Ġletz ten
es ent
ĠP resse
ĠL uft
Ġde ut
Wichtig ste
t h
er es
arb eitet
ĠVorschl Ã¤ge
M a
R eg
7 0
h aus
r ing
ĠE mpf
Ġz ie
ov ation
ĠProj ekte
an a
ĠAnt rag
H ANDEL
ĠRicht ung
f ung
Ġ200 4
ichterstat ter
H in
Ġ qu
ab kommen
ĠU SA
Ġstell t
ro p
ben e
B is
Ġ200 2
Ġgen ug
ĠMÃ¤r z
ĠT err
Ġins gesamt
VER KEHR
S eit
um p
end et
ĠAp ril
ĠRechtss ache
G ER
ĠN etz
ri gen
I ER
R icht
st aat
ĠA ktion
ĠDem okratie
ĠW ebs
ru ch
fÃ¼ gt
ĠAuf gabe
Kl icken
ĠMill ionen
stau rant
Ġak zept
j a
Ã¼ sse
ĠW issen
Wir tschaft
esch reibung
igt es
t s
v a
et ten
b uch
en nt
Ġm ei
schl uss
25 5
z lich
sch rift
ber icht
sp iele
bes ondere
ge stellt
2 7
U CH
Z usammen
f in
Ġf ort
Ġsein er
ruf bar
R AN
f ter
ĠAus schuss
at ten
et ter
ĠW ind
zi p
mal s
T S
ich tet
own lo
d ien
ber eich
alt ung
ĠQu alitÃ¤t
ei m
Da fÃ¼r
at h
Ġbesonder s
M AR
Ġp osit
An hang
ĠM us
ra chen
ĠD as
ĠW ie
Ġt h
ĠWirtschaft s
ĠDeb atte
t ur
ach sen
ĠL a
ĠIn f
ĠN atur
Ġihr en
er st
ri d
Ã¤h lt
ie ten
IN AN
lin ien
deut ung
ransp ar
i x
Ġ ru
un k
ĠD on
W ettbewerb
on s
A F
A uÃŁer
ei der
200 1
ar i
! !
ĠK rit
ĠK raft
sch n
EM EIN
sam e
2 8
ĠEURO STAT
Ġ Ãľ
ĠO n
J a
ĠB eschÃ¤ftigung
ĠHer aus
A CH
o se
Ġt eil
Ġab rufbar
0 8
2 9
Ġs ollen
ĠK om
ĠW irk
Ġunter b
fr ika
ra cht
Ġ3 255
Ġent zieht
ik an
Ġhin zu
ft ware
uf en
Ġ7 5
antwort ung
ĠIn itiat
z immer
ĠW eb
ĠFrÃ¼h stÃ¼ck
Staat ssekretÃ¤r
z a
z ogen
Ġi hm
rie ben
str um
bild ung
ĠJu gend
3 1
3 6
ĠRe chte
Ã¼n st
t o
ĠB innenmarkt
age gen
utz ung
Ġgel ten
Ġinter ess
T ag
an o
ell i
alis ierung
ĠR om
E W
st elle
ĠM ark
ĠT ra
Ġgesch ehen
ĠErklÃ¤r ung
ĠBe deutung
ĠGeschÃ¤ft s
N Ã¤h
Ġver m
TE S
Ġsch l
AN G
II I
ĠB us
ol k
ĠD es
Ġver t
we ck
is a
ĠP la
2 6
P ress
em ent
sch t
der e
ĠV ort
Ġ2 9
or s
Ġh alte
Ġwichtig sten
et s
Ġg ab
fer t
ma ÃŁnahmen
tem ber
Ġnotwend ig
G emein
P ortugal
ag er
sver letz
ĠR aum
Ġbe ant
Ġander s
ĠV ide
ĠW ir
st unde
ur r
ĠMinister ium
Ġent halten
Ġmein en
s eite
um an
B EIT
U rteil
o ws
Ġ u
ĠG u
TE L
Ġ arbeiten
fol gen
stag ung
Ã¼nd et
SP RA
Ġfunktion iert
wick lung
ĠJan uar
ĠB undesminister
le ben
ĠKl ima
Ġhel fen
ra ktion
Ġstimm en
T EN
ion s
ck er
entr al
F F
ĠB ro
Ġihr er
d ienst
o od
Ġauf ge
ĠInter esse
ĠheiÃŁ t
Richt linie
or n
s on
ĠK ern
Ġp ersÃ¶n
lo g
ep tember
R ue
Ġbe stimm
wend et
hand lungen
ĠTÃ¼r kei
Ġf Ã¼
f ern
Ġsol che
Ġl au
Verein igtes
d i
at ien
kt ober
h Ã¤ng
st ehen
ĠP art
ĠM et
fahr t
Ġ ]
ĠF est
rau ch
ĠRat stagung
Ġwen iger
sk ommissar
ei che
Ġi r
ĠBen utzer
O P
p en
it h
R EN
ĠM ehr
ig it
ind ung
rie chen
pl atz
SPRA CHE
e uropa
In ternet
Ġh alten
klÃ¤r ung
Ġaller dings
Ġsp Ã¤ter
ĠFor schung
ĠAUS SPRACHE
i pf
un Ã¤chst
ĠB eg
schl ag
pro gramm
Be ziehungen
3 8
D anke
ĠP ol
eh len
IG UNG
ist r
Ã¤r en
au ft
rÃ¤si denten
ass il
en k
I A
K OM
U L
Ġn ation
ol d
ĠR ele
ĠV ielen
ss ystem
Ġst ark
Ġ )
ĠSt ud
Ġetw a
Ġher vor
ĠSp ort
Ã¤ he
L eider
j ekt
s ult
ĠK op
ĠParlament s
Ġerw Ã¤h
f el
g n
ĠRe staurant
sp l
itglie der
Ġger ade
ĠEntschlieÃŁ ungsantrag
Ġschw ier
Ġganz e
icht igen
age ment
pf licht
Ġentsch eiden
ĠZ ugang
Ġbrau cht
Ġmei sten
M ich
setz en
sm ittel
us ion
ĠN acht
ic a
ĠHeraus forder
ĠNe elie
ĠBeit rag
Ġw e
ar s
omm er
ĠEr weiterung
Ġbek annt
ĠF ir
Ġges am
il la
ĠW ert
ĠIn ner
6 5
8 7
Ġ0 2
if iz
Ġkon k
D u
Ġf Ã¼nf
ĠB au
re ten
her e
ĠVert eid
ch es
al le
Ġg lei
Ġ5 46
ro ffen
ontr olle
ab ilitÃ¤t
ĠAngeb ot
G IE
P rior
a ir
Ġw ohl
is e
Ġer folgt
Ġf inanz
ĠM il
ĠVer antwortung
akt ion
S e
f uhr
in gen
Ġsch lieÃŁ
W or
den ken
ĠI talien
AG E
ĠGl Ã¼ck
a ar
Ġw elt
ĠB r
ĠI M
ra k
S ind
on a
al es
op er
ad a
gl isch
riechen land
H andel
V iele
es ordnung
ĠB IP
ĠZ ahlen
Ġent hÃ¤lt
utz t
iver s
om ent
Ġeigen en
ĠR is
ob il
Ġte chn
p unkte
au ber
ĠW e
Ġall ein
ĠV ON
AuÃŁer dem
ĠRele ase
9 3
o ok
ĠS y
or ge
200 7
ĠRei se
ik o
Ã¤r k
k o
Ġr ichtige
hr ist
al len
Ġsein en
ĠGesch ichte
MAR KT
z eigt
Ġd agegen
ĠA ug
ist an
Ġbe z
Ã¤hr ung
ĠÃ¤ uÃŁer
O T
ĠK ar
re gel
besser ung
OH NE
assil io
G r
51 3
ĠPl atz
Will kommen
4 4
M ein
ch ten
Ã¼ t
ĠAn frage
itteil ungen
gem ein
G erichtshof
D urch
oll te
rau en
Ġsch wer
W el
un t
ĠE uropÃ¤
ĠF ar
ĠG erichtshof
ownlo ad
9 25
S K
u mmer
an st
ĠW est
sverletz ungsverfahren
ur t
ro tz
ĠL inks
ĠC as
eb ru
Ġso gar
ĠB al
ĠK ontakt
INAN Z
f assung
se hen
ĠB u
Ġk ompl
p rÃ¤
ie ht
ur f
ab le
Ġr und
Ã¤hr end
w esen
st adt
ĠSch wei
H aben
ra struktur
ĠCol omb
un sch
ahr en
ĠSo ftware
ĠThem en
ebru ar
6 8
z uf
Ġein gehen
ĠDe zember
Ġver sch
ĠBer ichterstatter
Ġins besondere
ell es
ĠI II
ra h
bar e
Ġkl icken
Ġweiter hin
ISCHER EI
M ittel
m lich
Ġz eigt
ĠK Ã¼
ĠK ont
ĠF ran
Ġpolit ische
Ġ Ã¼b
Ġein deut
Al so
ĠR A
ĠG ar
itÃ¤t s
ĠBl ick
M ag
m and
w w
ĠM ad
ĠK rise
Ġent sprechen
ICH ER
y er
is ierung
Dar Ã¼ber
ĠInvest itionen
Ġro om
ĠP lan
ĠSt at
IN NEN
merksam keit
am pf
Ġbest ehen
ĠColomb ani
s ent
ges ehen
ĠUm setzung
ranspar enz
ĠL Ã¤ndern
Ġo ft
Ġm oder
Ġer folg
ĠAuf merksamkeit
b et
w ir
ĠF Ã¤l
org anis
6 0
D EN
Ġver besser
ner stag
oh nung
ĠgroÃŁ en
f re
ĠInn ovation
ar a
ĠI V
ĠD urch
ĠH o
im e
EUROPÃĦISCH E
be k
AG UNG
m Ã¶glich
ĠAn fang
Ã¶l ker
ĠGru ppe
U F
Ã¤ um
ĠE G
ĠT ab
Ġbe endet
om at
ĠJahr es
ĠNe ws
ĠfÃ¼hr t
Re cht
in formationen
Ġf inde
ĠF rankreich
ĠT r
ĠC om
Er stens
WI CK
Ġsozi ale
2 3
x t
in ner
ĠE IB
our cen
74 513
ĠWoch e
F or
d ig
ĠN ord
Ġsp ielen
Ġkosten los
ĠMob ilt
Ġn e
ES T
ĠfÃ¼hr en
9 0
in i
h aupt
on n
Ġdar an
ĠP o
Ġer z
ĠGes amt
art ment
Ġeigen tlich
Ġbef inden
irk ungen
ĠInvest ition
UST IZ
r d
Ġge Ã¶ffnet
stimm en
ĠSte uer
A US
Ġd anken
Ġn utzen
Ġ9 3
ĠEW SA
ie te
Ġsch eint
ges sen
Ã¤uf ig
in gt
un st
Ġent wick
Ġ4 0
assilio u
w as
ĠA pp
rie g
Be wertung
Ġvoll stÃ¤nd
Ġlei cht
ĠK apit
om it
In s
ĠMa ÃŁ
Ã¤ch lich
WICK L
L AGE
os ition
u elle
rin zip
S O
b ahn
Ġh Ã¶r
Ġg lob
Ã¼n fte
rin gt
opp el
L and
V OR
ĠE R
ĠM ont
Ġh otel
Ġin st
ro so
Ġerforder lich
EuropÃ¤ ischer
Ġd ir
ung e
ĠP ass
ver s
fÃ¤h igkeit
Ġw esent
ĠM itt
AR BEIT
zeich net
ĠStand ard
k auf
in nt
ge ord
ĠT od
ak e
ĠP R
wei sen
K urz
a el
ĠS ervice
au se
Neu e
Ġd etails
ei en
Ġstimm e
INNEN MARKT
ĠM ich
Ġ201 3
Ġmein em
ĠgehÃ¶r en
elli ard
u se
ĠB elliard
qu e
Ġher aus
riv at
ĠEmpf eh
Ġ res
Ġver wendet
ĠC ost
IN G
Ġmehr ere
ĠIN NER
5 5
E B
Je der
v en
ĠAn satz
Ġab sol
Ar beit
ĠStr and
L e
k ra
ĠL es
ĠN Ã¤he
Ġbis her
Ġbet rÃ¤gt
gesch lossen
o de
in en
ĠS eptember
ol z
qu is
A d
Ã¼ gen
it el
Ġf ast
ĠF unktion
Ġso fort
LAND WIRTSCHAFT
F ISCHEREI
Ġk ennen
ĠG roÃŁ
eh n
gr u
ĠEr fahr
ĠReg ierung
ĠhÃ¤t te
E V
ra q
200 0
Zwei tens
ffiz ien
ĠDisk uss
ĠA sp
se kt
Ġjed em
Ġletz te
ĠAu gen
ICHER HEIT
Ġh andelt
be ziehungen
IS S
ĠSp anien
leist ungen
ĠInner es
ĠINNER ES
Ġ it
ĠI P
ĠAusw ahl
ĠVerteid igung
c c
f eld
sp rÃ¤sident
ĠAng aben
j ahr
ĠV izeprÃ¤sident
ĠL i
ĠBesch l
urr ent
Ġd eine
ĠA ben
ĠVer walt
ech s
Ã¶ st
Wir d
Ġneu es
ressem itteilungen
zeug nisse
- -
8 4
A uss
ĠS on
ol a
Ġl inks
lo se
ĠEurop e
ĠbegrÃ¼ ÃŁe
Ġend g
A kt
J USTIZ
S ehr
ĠB el
ig ten
Ġp l
gesch lagen
D aten
ro s
ĠWei se
ie f
am b
ĠEr w
Ab kommen
b est
m ail
w Ã¼r
EN Z
ĠC l
ĠPro zess
rit ten
ha fen
a ct
Ġbe kommen
hal te
Ġ201 1
Ġwichtig er
AS S
5 7
L USS
Ġs u
ĠE s
ĠVer ordnung
ĠEntwick lungs
ĠÃĦnder ungen
Ġakt iv
B eit
ST A
fr ist
u le
an de
ER NEN
Ġgesch ieht
ĠKon ferenz
ha ft
H aus
l ing
ĠR ussland
ap an
ĠGes etz
L ER
d aten
it ten
Ġm al
il f
ser e
Ġgen ehm
Ġgef unden
ĠGew Ã¤sser
ĠNov ember
ĠerhÃ¤lt lich
Ġb el
ig te
halt ige
Ġern st
d ruck
Ġver y
ĠBeit ritt
ĠDon nerstag
geord ne
L I
Ġs uchen
Ġsch le
Ġ199 9
Ġumf asst
Ġpass iert
K Ã¶n
N e
in s
ĠM IT
rei che
UN D
ĠWor te
ei ster
Ġv ote
Ġbe ste
Ġwill kommen
F olgen
ĠG o
aus schuss
10 40
Ġlei der
Ġerwar ten
ĠMus ik
E K
b ien
en der
Ġs el
ĠbegrÃ¼ ÃŁen
h aben
l Ã¤nder
or te
ver stÃ¤nd
halt ung
Mar ia
schrift lich
ĠG D
Minister in
U K
ĠP rÃ¤
ĠP ort
ĠE bene
Ġk omp
T echn
k i
l auf
Gew Ã¤sser
AR T
zÃ¼ glich
O hne
u el
an c
ĠA uft
ĠDokum enten
ĠOr d
ĠGegen teil
3 9
l i
ĠL og
E urop
M U
IS T
id aritÃ¤t
ord in
Ġaus gew
Ġab ge
ĠFortsch ritte
o gra
Ã¶ m
ier ungen
ER S
Ġmit t
ĠSch ul
V izeprÃ¤sident
ĠT est
ĠB ot
rei ten
ĠO ktober
F Ã¶rderung
ein ander
ĠE igen
Ġh inter
ĠRe de
zi f
ĠKomm unikation
ĠVertrag sverletzungsverfahren
Mag st
R I
Ġw ww
ĠZ wei
Ġgemeinsam e
ĠU S
rei sen
ul ar
ad urch
n d
w och
ĠU p
ĠAnt worten
Viel leicht
E ur
b auen
l ang
Ġin ner
ĠC O
ver b
Ġent sp
Ġlang uage
HANDEL SPOLITIK
as h
Ġge Ã¤ndert
om e
Ġwar um
ĠKon sult
kra ine
k a
ĠSt unden
Ġges p
hil fen
Ġfal sch
ĠbenÃ¶t igen
ERNEN N
p artner
s ystem
ig ungs
Ġer ster
gend a
Ġverschieden e
b eschreibung
Ġw elche
ĠSch iff
ĠOr g
ĠS Ã¼d
ĠM itteilung
ĠW erk
schn itt
L AN
Ġd au
ĠA G
ĠN or
Ã¤n ge
Ġkl eine
S ol
an te
Ġein zel
sch ein
Ġwir tschaft
ĠZ ug
EUROPÃĦISCH ER
l assen
Ġ3 4
Ġgr und
ĠnÃ¤ch ste
F R
al ter
ut t
ĠC ar
ri ffen
ĠO per
Ġ14 2
H O
m o
u h
se e
ĠC or
Ġ3 1
Ġ201 4
Ġd el
Ġh andeln
Ġge geben
ĠAn sicht
ĠgroÃŁ er
Ġgef Ã¤hr
ĠUr laub
ĠWind ows
8 5
D ok
Ġan ges
ek Ã¤mpfung
Ġhin aus
prÃ¼ ft
Ġdeut lich
Ġeindeut ig
F OL
o x
ĠS ommer
Ġw Ã¤hlen
Ġver Ã¶ffent
Al ler
J an
m et
Ġin d
ĠW ahr
ER UNG
l es
z t
Ġ or
ĠB ank
ĠF ebruar
Ġvor h
s weise
ĠF rieden
ekt or
Kommissar in
k Ã¼nfte
z er
el den
ĠSp rache
ĠGe org
ĠMe er
ĠGeschÃ¤fts ordnung
G EMEIN
ĠSch ritte
Er klÃ¤rung
All es
s Ã¤tze
Ġw ith
ĠK OM
RA M
Ġverw enden
ĠH och
ut ter
ĠRe f
ri min
An dere
skommissar in
7 7
Ġ x
Ġs etzen
ĠM itglieder
ĠF INANZ
Ġhat ten
ICH T
Ġkomm e
ĠOn line
ĠF uÃŁ
Ġg rat
Ġer fahren
ehm igung
B INNENMARKT
Ġb ringt
ĠP u
Ġg uten
Ġan geb
Ver b
Ã¼hr en
Ġzus Ã¤tz
ĠAsp ekte
ĠT at
Ġl ernen
sp er
ĠTe am
J ed
O der
Z ahl
ie sen
Ġdes halb
Ġl esen
sp ruch
Ġvor geschlagen
ĠBei spiele
ĠS c
ein kommen
ĠV olk
ig ht
AN LAGE
ĠÃĦnder ungsant
ĠTerr or
C urrent
vent ion
ĠAug ust
ĠÃ¤uÃŁer st
Aller dings
l Ã¤ss
Ġ reicht
Ġer fÃ¼l
on z
se k
Ġ201 2
Ġinternation ale
uman it
p reis
Ã¤ glich
ell er
Hin weis
f asst
w ach
ĠL eist
Ġkl ein
Ġje de
f rieden
ĠR ad
io de
ĠRegion al
F l
g o
w urf
Ã¤ che
ge t
ĠP f
ĠM ann
Ġh Ã¶
Ã¤n gt
ĠEr n
la den
Ġi de
ĠSt aaten
eu ch
Ġverst ehen
Ġan t
Ġver gessen
iff er
ĠFamil ie
Ġ93 96
Ġgenehm igt
J ahr
us st
ĠLeben s
c el
Ġp aar
ĠF raktion
Ġg u
ĠD ownload
ĠL ehr
rÃ¤ um
8 1
M Ã¶
Ġl Ã¶
ĠVer handlungen
Ġdar um
zeich nung
ĠKomm ent
ĠGrÃ¼n den
Ã¼ l
Ġein ger
eh l
ĠSe e
H otel
ĠP ra
ĠH e
ĠPrior itÃ¤ten
Ġhe ut
L ÃĦ
Ġ ar
ĠS a
ĠSt ruktur
ĠRei he
ĠBed ingungen
4 9
ĠK omp
tern e
Hintergrund informationen
usion sk
B est
ĠB ESCH
ĠK oh
anz en
in ne
ĠA L
Ġb ald
ĠP ost
ĠV I
ĠN ot
Ġver fÃ¼gt
ĠAn merk
ĠGr enzen
ĠP at
Ġk or
Ġzu frieden
Ġge k
ĠIn halt
Ġt ut
ĠAb geordne
ĠBe ziehungen
Ġpro f
ĠWoch en
red it
ĠRA TES
z entr
Ġd isk
Ġs erv
Ġb em
ĠwÃ¼n schen
m eld
ĠB as
Ġer he
Ġst immt
ul l
o y
or f
ĠD EN
ĠT er
iss ab
ver treten
Ġ14 9
Ġeigen e
ĠwÃ¼r den
ĠMobilt el
Ġvorh anden
o ut
Ġneu er
ĠlÃ¤ sst
G R
g te
Ġ are
ĠS ICHERHEIT
ah lung
ĠSchl Ã¼ssel
ĠStell ung
a ce
r y
ĠI m
iel len
im it
ĠProgramm s
AM MEN
ĠKolle gen
z ur
Ġd i
at um
ge h
Ġb ill
Ġh Ã¶ch
ra gt
ĠWebs eite
K ar
ĠPro f
mar quis
issab on
G ru
ĠF an
ĠIn tegr
ump ing
A V
D arum
N och
ĠP rÃ¼
ĠG onz
Ġver h
f iz
ie ÃŁen
Ġs agt
ter t
Ġc on
ges ellschaft
ĠVide o
F usionsk
N AH
S te
an ach
it a
Ġander es
Gen au
u k
gr ar
anz Ã¶s
Ġsp ez
Ġumf assen
ĠBemerk ungen
rotz dem
FOL GER
4 7
C O
S TE
W Ã¤hlen
k omm
ĠS ec
ĠT or
Ġau ss
ĠBer at
pro du
ere cht
ĠProgramm e
I R
v e
ĠS al
ĠS ub
ĠA genda
ĠZ entrum
ĠBer lin
al y
Ġge stellt
ĠO b
Ã¶ÃŁ e
ĠlÃ¤ uft
Ges amt
r ang
Ġ 00
ĠF erien
Ġk am
ĠZ eichen
art mut
Bei de
200 5
ĠGrÃ¼n de
5 2
6 1
K eine
j Ã¤hr
o e
al tet
ĠR ess
ĠÃ¶ffent liche
FOLGER UNGEN
Ġn Ã¤h
Ġzu g
ĠWissen schaft
ipf el
s uch
w eil
Denn och
ĠKom pro
h an
Ġein igen
rÃ¼ ck
pf er
Ġange zeigt
Auss prache
ERNENN UNGEN
o zi
ĠE is
ĠF ern
ĠZ oll
ĠIn strum
zeu gen
sm inister
201 0
Ġop t
Ġunterb richt
LUSS FOLGERUNGEN
P eter
Ġw or
ĠG ed
sicht lich
G RAM
u che
st off
ber t
ĠW aren
ÃŁ t
Ġver d
te te
ĠD ruck
Ġl aufen
Ġgegen Ã¼ber
ĠWettbewerb s
ĠInst itut
ber g
ĠSt art
Ġbeg innen
ĠInitiat ive
l eitung
ĠA ir
Ġb elie
ĠJ a
geb ung
ĠCh ance
ĠPer spekt
Ġwelt weit
Z ugang
j e
on g
ĠT ransparenz
ern er
Ġwar ten
zie hen
ĠFil m
s h
au ss
ĠP aket
Ġg ro
IN D
US AMMEN
ov o
gen tur
sper iode
f inden
g ern
k osten
ĠK or
ist or
Ġ5 00
ĠZeit punkt
ĠAut o
H ANG
e zif
Ġf Ã¶rder
ĠM ig
ĠK MU
ĠRedner in
4 8
d ung
r ik
Ġ eh
Ġd rin
ĠF el
Ġau t
Ġk ur
Ãľ SS
ats Ã¤chlich
ENT WICKL
NÃ¤h ere
v is
Ġ ehr
Ġw ollte
it es
ĠT agen
ĠÃ¼ber haupt
ĠMon ate
ĠStimm e
Ġn ennen
ĠK ennt
ien en
ĠO pt
95 86
ĠFlug hafen
B en
v Ã¶lker
and lung
ul la
Ġges prochen
ĠCh ar
Wettbewerb skommissarin
F AH
x is
el en
ĠP fl
ĠV is
Ã¤h n
Ġher unter
str Ã¶m
ĠTeil nehmer
ĠBar roso
ĠSol idaritÃ¤t
a i
l d
st ein
ĠR u
ap ier
ĠAusw irkungen
ĠK unst
ĠC on
ĠPar is
lex ib
G eb
st ra
ĠP rÃ¤sidenten
Ġbeg innt
Ġru h
ĠF ax
ro gen
ov a
ĠÃľ BER
E nergie
G leich
em ente
ĠAn wendung
ast rop
Haus halt
E x
ĠE d
ĠW ohn
Ãĸ ffent
Ã¶r de
Ã¼tz t
All gemeine
S er
ĠA v
ĠK arte
ĠF e
ĠI gl
ĠSt abilitÃ¤t
Ġsein em
ek ten
ost et
arb eiter
arbeit ung
ĠSitzung speriode
ĠKat egor
ĠDes ign
pflicht ungen
sekt or
U P
s eit
ab hÃ¤ng
gr enz
zeu ge
Aus schuss
Ġb ringen
Ġin form
sp rech
Ġsch affen
Ġy ou
LICH E
ĠVort eile
e ten
in t
pu ter
stat tet
ĠMed ien
ie g
Ġge eig
ri pt
Ã¤h l
ĠGr enz
Ġ8 0
ĠMÃ¶glich keit
ĠVorsitz es
ĠM ot
AN HANG
Ġbei de
amm lung
Ġreg ion
Fusionsk ontroll
v ol
w andel
ier ter
ĠSch wer
ĠAus sch
ale z
sz l
Ġabsol ut
8 9
al b
ge gen
ĠHer z
ĠHandel s
ĠIde e
ĠDiskuss ion
5 4
c on
o o
ĠGonz alez
st ung
ĠM Ã¤n
ĠK ampf
Ġver treten
ont akte
ĠkÃ¶n nten
Ġkein er
Ġaktu elle
ĠhÃ¶r en
Q U
un ion
ĠK re
ro ulla
ĠL issabon
ĠSt elle
ĠÃĦnder ung
ĠGen er
Schl uss
g um
ĠP olen
ĠU kraine
richt ung
ĠSer ver
ĠIgl es
ĠRe alitÃ¤t
Ã¤r kte
In ternation
AT EN
ĠReg eln
ĠFot os
ĠIgles ias
F r
i os
Ã¤ sion
ĠV iel
ĠV assiliou
ĠW ein
il ien
du z
Mar isa
Ġw Ã¤hrend
ĠH Ã¶
) ;
ar n
Ġver n
Ġkon nte
Ġm in
Ġge d
Ġweiter en
ĠTag esordnung
ĠGeb iet
ĠgrÃ¶ÃŁ te
Will st
ĠEinw Ã¤nde
Ġlau tet
5 6
M on
i pp
Ġ Ã¤hn
Ġs ei
Ġz eigen
Un ternehmen
Ver walt
Ġper f
ĠÃĦnderungsant rÃ¤ge
y r
ĠI D
de cken
ff ekt
Ġp rÃ¤
Techn ische
ĠverÃ¶ffent licht
W eiter
u ff
ing er
Wie der
ret ar
eral sek
F E
M IT
l Ã¼ck
Ġd o
Ġm ax
ĠG eh
ver t
Ġ6 0
Umwelt kommissar
ĠMad rid
k an
w enden
Ġ [
ĠE t
ĠK an
ĠK rieg
Ġ199 8
51 925
Dar auf
Ġpolit ischen
ĠÃ¶ffent lichen
Ġerwar tet
mÃ¤ÃŁ ig
z ent
am a
Ã¤n e
Ġkann st
Ġso wie
ĠLÃ¶s ungen
ISS ION
e cht
ĠM c
ro h
fÃ¼hr en
ĠAd resse
Ġs e
ĠM oment
Ġer lau
Ġan zu
ut ion
ĠC H
stell ungen
ĠM A
ĠN ame
ĠJ e
Ã¤t zen
la v
ZI AL
Z unÃ¤chst
r ation
au l
au sch
ak ten
ĠKrit erien
C ar
G A
ĠF isch
ĠD eleg
fol ge
ĠArbeit spl
Land wirtschaft
c or
Ġz entr
Ġl Ã¤nger
ĠSp rachen
Ver fahren
Ã¤u de
mb H
Ġeinz ige
G L
m ehr
w ohl
ei z
ĠF Ã¼hr
ĠG ott
le kt
ĠL u
RO GRAM
olit ische
Ġr el
P OLITIK
ĠK os
ĠEinzel heiten
Ġ ad
ĠP rivat
ri c
ĠUn ivers
ĠFamil ien
L IN
er o
ĠB log
ER GIE
sp h
ri kt
Ġ3 5
ĠAus wÃ¤rt
ĠAus kÃ¼nfte
St ell
Ġverschieden en
EuropÃ¤ isches
Ã¼r ger
eh lt
.. ..
Ġp riv
fÃ¼ gen
id umping
gem einen
rah men
at ed
ber eitung
ĠW unsch
ĠZ ust
ĠVer anst
ĠRe chn
Ġst Ã¤r
Ġgew orden
n etz
r ichten
Ġun ten
ann te
ĠC D
Ã¼tz liche
Ġjed es
ĠBei fall
EIT UNG
schlieÃŁ end
ĠPartner schaft
9 2
F rei
n ungen
on en
RA GEN
ĠBemerk ung
Z eit
s vor
Ġ el
ĠA grar
ah lt
ĠEn g
ĠWahr heit
Ġdisk ut
ĠKennt nis
N ein
s ie
ĠB ad
ĠG ast
ĠStand punkt
was ser
4 1
b el
l ad
v o
Ġd ich
ĠF Ã¶rderung
ĠZ weck
Ġbe vor
ĠAn fragen
iv il
N r
ĠA M
ĠM iss
Ġk aufen
ĠSCH LUSSFOLGERUNGEN
beh alten
l ass
an e
ĠF ol
be g
Ġganz en
ĠMÃ¶glich keiten
8 2
C U
ĠG mbH
Ġver ein
ĠFor um
Des wegen
ĠAm er
fÃ¤l le
ĠE rach
ĠT elefon
Ġer hÃ¶
ĠC hrist
ĠVor schriften
klÃ¤r ungen
ĠFl Ã¼
Ã¶ch ten
ĠPra xis
ĠErach tens
st att
te chn
Ġk Ã¼nft
Ġal t
ĠAn nahme
Ġvor gesehen
enn ung
Ġbest Ã¤t
Ġk ostet
ĠH artmut
Ġt Ã¤glich
ĠBericht s
ISCH E
onder n
ĠWirk ung
T RAN
f Ã¤hr
Ã¤ te
ab il
umanit Ã¤re
ĠS ek
et a
Ġh err
Ġauf bauen
ĠN icht
ĠAr ten
MÃ¶ chte
z lichen
ĠS inn
ĠE IN
il le
ent halt
ĠZ us
Ã¤rk ung
Ġinst all
M ISSION
ge ber
ra el
re te
Ġp rakt
Ġj em
fÃ¼ h
ĠEin satz
Ġgut es
ĠAm t
Ġrecht s
Ġir gend
Ġinner halb
ĠFINANZ EN
G E
Ġg ing
ĠD om
Ġzwei ten
Ã¶ff nung
ransp ort
FOR M
ĠFir ma
I O
st anden
art ige
Ver s
zeit ig
Ġerfolg reich
an geb
ĠB ug
Ġz ahl
ĠK n
ĠW ieder
ĠT rans
ĠZ U
ĠEr d
In d
ok es
Qu elle
wor tet
ĠHaushalt s
ĠWer te
KÃ¶n nen
ĠM rd
re ff
ĠGe fahr
ĠerklÃ¤r t
Ġben utzen
Ab stimmung
Denn is
Ġgesam te
USAMMEN ARBEIT
M Ã¶chten
l etter
Ġ euch
Ã¤ mp
ĠA ust
Ġwer t
ĠFrei heit
ĠFolgen des
ĠKonsult ation
Ġanges prochen
4 2
ei ger
on ds
ĠS O
ĠG riechenland
om eter
Ġle g
ĠNe w
vertreten der
L ÃľSS
g liche
m Ã¶
ĠA B
ĠVer Ã¤nder
Der zeit
Ġre ag
ĠFrage stunde
Eur o
Ġdrin gend
sprech partner
ur ity
sch ungs
ĠAr ch
ne ut
Ġges ehen
ĠMit arbeiter
bed ingt
n ach
ĠM o
ĠW TO
ĠIn sel
Ġp rÃ¼
Ġihr em
Ġ0 9
ĠIntegr ation
ĠRess ourcen
Z iel
b ott
un ehmen
al ist
it or
ge fÃ¼hrt
ĠK ind
Ġber Ã¼ck
folger ung
Wer den
201 3
ĠLes ung
b al
d et
Ġ us
Ġs ehe
ĠG olf
ru g
Ġkl einen
Ġgew Ã¤hr
S F
ĠV OR
eil igung
bar en
itz en
ĠAl b
Ġaktu ellen
ĠAkt iv
Fusionskontroll vorschriften
U r
d lich
ĠS P
at egor
ĠL eit
ĠC ent
SP AR
Ġfreu e
ĠInf rastruktur
ĠHerausforder ung
l Ã¤ndern
ĠS elbst
Ã¤ gt
Ġw ider
is h
ĠNach bar
ĠGew alt
Ġschwier ig
ĠOrd nung
O D
or mal
ĠT ur
kl us
Ġviel leicht
Ġbede uten
rÃ¤n k
ĠAu ff
ĠGru ppen
R UNG
ĠS E
ge geben
ĠK ontrolle
ĠC amp
Ġde fin
wach ung
ĠRechn ungs
O W
j ekte
m it
st offe
ĠA UF
ĠW inter
ĠL ink
imm ungen
ĠO ber
Ã¶r per
ST R
Ã¼tz en
ĠVert rauen
des sen
irekt or
Ġex t
UL T
k raft
m t
ĠS w
Ġm ag
ĠW I
SA ME
Ġzie hen
ĠerwÃ¤h nt
M S
ĠS low
ĠK rank
Ã¤t ig
ĠmÃ¼ nd
Ġ% .
ĠEx p
F rage
Z immer
i ppe
w ser
Ġs ondern
der ung
Ġver folgt
ĠKon zept
Ġgew esen
ĠProdu ktion
ĠHin sicht
ĠMitt woch
Ġ est
Ġs etzt
ĠF en
ĠL eute
sp rÃ¼
gr Ã¼ndet
lei sch
ĠSchl uÃŁ
ĠDatei en
Ġakzept ieren
ĠPerspekt iven
ĠA ss
Ġm us
Ġf Ã¼h
00 00
Ġer weiter
ĠN utzung
ĠRe st
Ã¤l lt
ĠAp artment
verkehr s
dig lich
ĠOper ation
d a
d as
ie w
al a
ĠP C
ĠK arten
ĠD oppel
Ġsp richt
Ġle diglich
ĠÃ¼b rigen
4 3
7 3
O G
it Ã¤r
ĠG leich
Ġer Ã¶ffnet
Ġt ragen
In formationen
IT ÃĦ
ĠSp aÃŁ
ĠBet rieb
Ġreg istr
. -
de te
Ã¤t igkeit
ĠAr gum
oh er
ĠBe wertung
Ġ199 7
Ġglei che
Ġgu ter
geh end
E A
b y
n ess
ĠA gentur
ĠP osition
Ġk aum
ĠG et
ĠBer ichte
Ã¼n sche
EI B
Ġverk auf
Ins gesamt
9 1
at iven
ĠA frika
Ġver teilt
Ġe uropÃ¤
Ġmein es
Ã¶t ig
Ġposit iv
ĠSchwei z
E F
n issen
r ist
v el
au sen
Ġun bedingt
ĠP an
ĠG lob
and t
ER N
Ġden ken
Ġab geschlossen
Ġsp ielt
Hier zu
Ã¼lt ig
S h
V II
i den
it en
ach se
scha fter
ĠO pfer
Ver trag
Ġbet roffen
ĠÃĸ sterreich
Ġgeb oren
G ES
o ss
w a
Ġv an
ĠM y
ĠW ill
ĠZ entral
ĠJ apan
Ġo ben
im as
Ġbet reffen
zeu gt
ĠLie fer
ĠUp d
M en
M ir
z us
ĠS icht
at es
ĠI rland
ĠO sten
ÃĦ nder
Sch utz
200 2
ĠLeben smittel
verstÃ¤nd lich
vÃ¶lker ung
LÃľSS E
K ein
ei sen
an ten
ir t
Ġl oc
bar ung
200 9
Ã¤hr ungs
ĠPerson al
ĠBest ell
prÃ¼ fung
6 6
am ent
00 352
ĠIn ternation
utsch e
euer ung
ĠMob ilitÃ¤t
Schl uÃŁ
UCH T
Ġeinzel nen
V D
ĠE ing
ĠO ption
av ig
ĠSu che
b ringen
Ġ organis
Ġf rom
Ġf ahren
ig ur
ĠL o
ĠVer l
Ġt rifft
ĠRat sprÃ¤sident
Sch lieÃŁ
ĠAl le
d am
i us
ĠB on
ĠI rak
ho w
Ġempf ehlen
M W
N Ã¼tzliche
P reis
u a
ch mal
Ġw eil
is l
ĠB ahn
Ġh Ã¤ufig
sp okes
1 00
l Ã¤u
Ġs auber
Ġf rÃ¼
ĠG R
ĠBer uf
me er
ĠGes ellschaft
ĠKomm un
Ġung e
ĠRegel ung
Ġw under
ĠC lub
ÃĦ FT
St art
ert ig
arte ment
EC spokes
ĠRE CH
Ġschl Ã¤gt
ĠCom puter
B ar
e zial
z wischen
Ġs echs
as ur
ON T
ĠZusammen hang
rad ition
ĠP ie
ĠM ag
ĠM art
ud em
ct ion
ĠHer zen
ĠMaÃŁ nahme
ĠTerror ismus
i ft
ie gen
ĠI mm
ĠBer eichen
Ġ4 5
Ġher zlich
ĠPrior itÃ¤t
ĠwÃ¼n sche
ĠOrg anis
L esen
m ann
v id
Ġ ).
it ieren
Ġb ein
ter e
ĠD ritt
Ġer neut
men sion
Ver kehr
Ġje weil
Ant idumping
ater ial
leg ung
K o
st o
Ein zel
hil ippe
ĠbenÃ¶t igt
Ġaut omat
SPAR ENZ
i ar
Ġzu stimmen
Ġan gem
ck s
ĠN ation
ĠO l
ĠAngelegen heit
ĠMon at
t ragen
en g
der t
ĠG as
Ġl Ã¤nd
ĠBer eiche
ĠVor gehen
alt a
ĠMen ge
Ġfre und
Mich ael
Ġkur ze
FAH REN
ROGRAM M
A ktion
Z udem
ei b
Die sen
ĠL auf
ien ste
iel l
all s
Ġ9 0
Ġ20 20
ĠMenschen rechte
ĠSicherheit s
ander ung
Zusammen arbeit
ĠErfahr ung
Jed es
Ġserv iert
ĠKos ovo
L szl
P h
l ant
Ġd ritte
Ġi l
ĠM acht
om ep
schl Ã¤ge
ET Z
Ġend lich
UT Z
G er
f g
k ten
ĠL uxemburg
ĠInformation s
Ġr ichtigen
ĠĠ Ġ
ĠAl tern
av a
Je de
ĠKop f
8 3
W EIT
i i
k arte
l iste
u mm
ĠA spekt
ĠP H
ĠH ause
ĠT ier
eil ung
In formation
Ġvor liegen
ĠAr b
Ġ4 3
ne te
EL LE
Ġlei sten
IGUNG SPOLITIK
Ġerlau bt
ĠprÃ¼ fen
K omm
y m
ĠS ant
Ã¤ cht
al ia
ĠK Ã¼r
ĠT em
Ġge fÃ¼hrt
Ġt rÃ¤gt
Ġunser es
ĠVor haben
av e
Ent wicklung
ĠNews letter
Beit rag
N ehmen
Ġ arbeitet
es e
ĠA lt
eh nt
ĠAr mut
Ver fasst
org ung
gew iesen
alis iert
oc us
Pressek ontakte
Ġwel chen
ĠMod ell
dien ste
gru ppe
Ġentsp richt
N ie
an cen
ĠW ider
Ġ1 000
rÃ¼ cken
iv id
ic kt
ERTE ID
zieh ung
Ge gen
L a
R o
S onst
f alt
z eichen
ĠS il
or gt
ĠAus gaben
ĠUnter such
forder ungen
ontr ollen
under t
Ġho ffen
Ġgar ant
ĠfÃ¼ gte
meld ung
Ġopt im
TRAN SPARENZ
omep age
ĠV II
ĠSt Ã¤d
ĠBot schaft
S ystem
i ÃŁ
ĠK ur
sch au
Ġaus reichen
iz enz
ĠProtokoll s
Ġvoll kommen
mittel n
bek Ã¤mpfung
Recht s
GEMEIN SAME
ĠKOM MISSION
Ġgrat ul
cel ona
D S
Ġb l
ĠB anken
Ġh Ã¤lt
sch eidung
In ter
ĠBe f
ĠAuf gaben
Ġbesser e
ĠPass wort
MÃ¶chte st
K ro
U G
g reifen
i kt
l Ã¤nd
Ġ Ã¶
ĠS inne
Ġf ehlt
Ġn o
ol e
ĠD oll
esch l
ĠMa c
AL L
pl ant
Ġbeh andelt
ĠRes erv
Ġvers uchen
af ft
ffizien z
Daten bank
S eine
Z us
is se
is iert
ĠU rteil
ĠSt Ã¼ck
Ã¤n glich
la f
retar iat
Ġd ein
es ien
Ã¤ st
ĠP ot
ĠB i
ĠH intergrund
ĠV ERTEID
ist iken
wer te
sam en
Ġkl are
ĠunterstÃ¼tz e
A p
ĠP ortugal
ĠM er
Ã¶ hn
ĠSt ad
lo sen
be zogen
auf nahme
ĠFortsch ritt
ĠAuft rag
ĠAnmerk ungen
ĠS onder
ĠV an
ĠVer besserung
Ġt Ã¤tig
Ġre den
ĠTour ismus
ĠAktion splan
ĠSec urity
S c
ot o
Ġst aff
Ġvor bei
ĠUn d
bar keit
oh nt
IL D
ĠEn glisch
Gemein same
D ort
I s
O l
Ġh istor
ra f
Ġunter schied
stell er
Ġersch eint
P S
ĠRe ch
ĠAuf enthalt
aff e
P E
Ġn Ã¤
ĠI mp
ĠV illa
ust er
qu alitÃ¤t
fuhr en
Ġdau ert
D rit
z w
ĠG ro
eit s
Ġre gel
ap az
fl Ã¤che
Ġex ist
amp ag
Ġglei chen
ĠCost asur
D adurch
P l
n ov
on ik
Ġb il
ber eiche
ĠH off
ĠRe zept
spro zess
Ġerg Ã¤n
Ma ÃŁnahmen
ĠFen ster
P ressemitteilungen
st re
Ġm m
ĠD imas
ĠL icht
ĠC an
ST AGUNG
eid ungen
fl Ã¼
ĠVerb indung
SONSTIG ES
ĠSpiel er
ĠKlima wandel
ĠAben d
p ekt
Ã¼ ter
ĠB ER
ĠF akt
ÃĦ N
An sprechpartner
los igkeit
kon om
Reg ion
unk ten
ĠBESCH LÃľSSE
A U
a j
h nt
ĠK ir
de st
chen gen
Ġab gel
Ġnie mand
ĠAnd or
Ġsozi alen
use um
ĠSICHERHEIT S
Kro atien
F ragen
P F
f inanz
m od
s ichtig
u ern
en e
te st
ĠR umÃ¤nien
re ak
Ġver lan
be zÃ¼glich
inde stens
Ġjeder zeit
Ġgeeig net
sie he
F ran
G est
R ussland
Ġa v
ak zept
Ver besserung
OR G
Ġwen ige
Ch ina
Ġth is
ĠHerausforder ungen
SchluÃŁ folgerung
SchlieÃŁ lich
Ġ $
as mus
ar y
ĠW all
re kt
um en
ĠSt ock
Ġl os
ĠN ein
Ġo ffiz
Ã¶r den
Ġgen ommen
ĠĠĠĠ ĠĠĠĠ
ĠTechn ologie
ĠAs yl
ĠFran ch
Ġentwick elt
ĠEmpfeh lungen
ogra f
ĠBerat ung
6 2
7 2
R IS
S EN
W e
ĠA c
te xt
ĠP rem
ĠW eiter
ER B
he ben
ant ie
ĠAus gang
Ġgen annt
Gen ehmigung
schlieÃŁ lich
Her zlich
AUS HALT
H at
h olen
ĠK redit
Ġ4 75
St and
ard s
ĠStell vertretender
ĠZwei fel
Ġangeb oten
ĠKompro miss
M UN
Ġs inn
ĠT reffen
EN ERGIE
ann ten
ĠBer g
AN N
iz iert
Ġ0 4
EL T
ĠDaten schutz
Ġfunktion ieren
ĠReform en
ĠKÃ¼ che
ĠVerwalt ung
Verwalt ungs
i ot
ĠT ats
ach te
Ġan sprechen
ann en
Ġbe achten
ag s
av ros
Ã¶ff nen
ĠLin ie
Ġbez ahlen
itÃ¤ts achse
ĠFÃ¤l len
ĠVERTEID IGUNGSPOLITIK
H o
u len
at her
ra m
ĠD etails
ig h
Ġge grÃ¼ndet
op y
Ġer folgen
ĠFinanz ierung
ĠUnter schied
alis mus
Ġbed arf
Unter stÃ¼tzung
ĠStra ÃŁen
ais on
O b
s um
Ġb as
ik e
Ġp assen
200 8
Ġges etzt
ĠMen Ã¼
Ġ% )
inde st
ĠFranch ise
7 6
z um
st es
ĠM and
ĠIn s
ri an
he et
Ã¶r t
Ġander er
icher ung
Ġsol chen
Ġange geben
ĠDi mension
ĠfÃ¶rder n
G eben
M itteilung
y a
ar tet
Ġz ehn
Ġin tegr
ĠD igit
ig in
le b
kt ionen
ĠN ah
Ġall gemein
OL L
BER EITUNG
Ġverl oren
Wel ches
act s
Ġant worten
ĠFel der
bal gs
D I
Ġn ormal
ĠB io
se qu
Ġt ot
Ġst Ã¤nd
Ġp ar
ĠÃĸ l
richt linie
olog ien
ĠAd R
Ġnah e
beh Ã¶rde
Ġeinz ig
ĠAngeb ote
aly se
Ġbelie b
ĠPie balgs
ĠnÃ¤ mlich
f ast
h otel
ol o
ĠT eile
Ġge kommen
ĠZ ypern
ĠSt ellen
Ġver Ã¤ndert
rÃ¤ ger
Ġ3 00
ĠBe zug
Ġ7 0
200 3
ĠFot o
Ġnation alen
Ġeh er
G anz
ĠS am
ĠD ar
oh len
qu es
ond on
Ġs age
Ġk rit
ĠT ele
Ġer k
Ġver fÃ¼gen
tern ehm
ho de
rig ht
Ġbestimm te
Ġkonk rete
ĠEuropÃ¤ er
c y
Ġ Ã¤l
ĠA K
Ġin akzept
ĠW ohl
Ġbe fÃ¼r
ĠVer kauf
lo ck
ele kt
ang el
be w
ĠMa il
200 6
ha fter
En glisch
Ġgesam ten
ĠhÃ¶ her
ĠlÃ¶ sen
ECspokes Antoine
5 45
Ġ ur
ĠM asch
ĠG re
lo ss
ris en
Re form
ĠBo den
ĠLin ux
J A
Z USAMMENARBEIT
Ã¤ chen
as c
Ġk ontakt
ĠW affen
Ġzu ge
il ia
Ġer reich
ĠSch weden
ĠAus bildung
Ġnach haltige
St rategie
schl Ã¼ssel
Ġbet eil
F ortsch
R IT
T eil
c l
c ia
p ar
Ã¼ ÃŁ
Ġer ken
eh me
yp e
ĠKo ordin
C D
K inder
P er
y t
Ġ #
Ġb r
Ġb itten
Ġn Ã¶tig
ĠB elgien
Ġl ok
ik er
ot s
geb iet
ĠZeit raum
Ġ28 5
ĠBu gt
ĠDeleg ation
7 1
P O
Ġf ragen
ĠM eter
ĠF akten
le an
Ġbe stimmt
ĠAn zahl
wei te
ĠAb stimm
Ġ3 3
ess ion
Ġben utzt
if ik
Dar an
Gr und
ĠKapit al
STA ATEN
ĠWI RTSCHAFT
L ie
o is
z eiten
in es
on te
ĠB ekÃ¤mpfung
sch w
ra b
ĠD o
ĠZ ivil
Ġ3 6
IT Z
ĠAl ter
ĠErn Ã¤hrung
Ġerhe b
Ġmax im
ĠBugt raq
B innenmarkt
s wert
z ul
ch em
ĠS ign
ar ch
Ġb uchen
ĠW ar
Ġt reffen
qu em
EL L
kon ferenz
ĠKo oper
NÃ¤h eres
ĠInvestition sb
ĠerfÃ¼l lt
fg han
7 9
B ESCH
F ocus
G riechenland
O B
T H
T raq
m as
Ġh Ã¤ngt
ĠSt re
Ã¤r kt
Ġvor behalten
ST EN
ĠDokum ente
ĠhÃ¤t ten
ĠBug Traq
ĠSecurity Focus
N ation
T rotzdem
w and
Ġd igit
ĠB ud
ĠG elegen
Ġer s
ĠÃ¼ber all
Ġvor gelegt
iz ei
ĠbegrÃ¼ ÃŁt
ĠBro wser
regel ung
Kurz beschreibung
rikt ive
G u
W E
n ern
Ġ up
ĠK urs
ab y
ĠT o
ĠT onnen
am als
pl Ã¤tze
hÃ¶r en
ĠWettbewerbs fÃ¤higkeit
C l
F rÃ¼
J oe
n ungs
s icherheit
ĠB ade
ĠF R
ĠR ot
il len
il anz
Ġt atsÃ¤chlich
est e
pp ort
Ġgew innen
ĠSozial es
ĠschÃ¶n e
EW G
ĠRis iko
wÃ¼r d
Drit tens
% )
Ġ as
Ġd ank
Ġs enden
ĠP len
ĠP rinzip
ĠM or
Ġz war
Ġge h
olog ische
auft rag
Ġverbesser t
ĠKomment are
on ien
ĠS im
at o
ĠB ulgarien
ĠD rogen
ist ik
Ġdem okrat
iz in
enn e
IG E
teil ung
Ġbek omm
Ġausge stattet
ĠEl emente
stehen den
ĠFÃ¤l le
avig ation
E t
S elbst
b a
n ummer
Ġ 01
ei cht
at a
ĠA R
Ġm indestens
ĠE CU
Ġz ahlen
ĠG arten
ĠT ick
ĠL am
ĠFor schungs
ĠKl ein
ĠBesuch er
ĠIs land
ĠIde en
ĠpersÃ¶n lich
ĠP a
Ġge plant
ER K
Ġunter sch
Ġall gemeinen
pro blem
Ġgemeinsam en
Nicht s
ĠInst all
arm on
VOR BEREITUNG
Ġinakzept abel
S icherheit
T AC
Ã¤ us
Ġf l
and a
re form
ern e
eich er
ĠVerfahren s
ĠHÃ¶ he
M L
l Ã¶s
in c
in ess
Ã¼ cher
ĠB an
ĠI ran
Ã¤n den
Ġst arten
Ġ5 5
Ġsp Ã¤t
og le
ĠLand es
ĠBar celona
Ġverb unden
recht s
ore a
ĠFre unde
ĠDienst leistungen
Europ as
ĠBas is
acts heet
o us
z n
Ġz unÃ¤chst
Ġg elegen
Ġg ood
ĠSch laf
In vest
Ġvor her
rie d
acht ung
Gru ppe
vol ution
R at
f Ã¤lt
o ben
u ell
ch ter
al k
ĠM Ã¼n
Ġz w
ro ck
ĠSt ahl
Ã¤n gen
Ġstatt finden
Da vid
schein lich
statt ung
ÃĦFT IGUNG
w ill
Ġw ichtigen
ĠW eiÃŁ
ann es
Ġver z
ĠGr Ã¶ÃŁe
fÃ¼hr ungen
Ġgew Ã¼n
Ġschle cht
ĠKoh Ã¤sion
ĠAuswÃ¤rt igen
A id
M ark
b rech
Ġs omit
or iz
ĠG em
rei b
ehr te
Ġo ber
Ġ0 7
AND E
v iel
en bahn
ag es
rÃ¤ gen
ic o
oh nen
ĠBe weg
ĠMen sch
ud io
Ġbed au
Zusammen setzung
ĠFar be
sph Ã¤re
ĠArb eiten
s ichtigt
Ġw Ã¤ren
Ġzu stÃ¤nd
ind ustrie
imm ern
ruf e
ĠFre und
ĠEmpfeh lung
ĠInvestitionsb ank
on io
ĠE ner
ĠÃ¼ber prÃ¼ft
Ġvor an
sam er
Ent wick
ras ilien
Ġverbesser n
ĠInstitut ionen
ĠOperation elles
D A
P L
f il
g as
s Ã¤tz
s fonds
in st
ier end
ĠW ahlen
Ġl eich
ĠEin t
ĠgroÃŁ es
ĠZu stimmung
richt ungen
199 9
ĠJe an
Start seite
Z E
a w
Ġ ag
un i
ei ge
el be
Ġm en
ĠL ondon
ind ungen
ĠJ os
sp r
ell a
he bung
Ġbes uchen
Da von
ĠGes prÃ¤
ĠMin ute
Ġbesonder e
Ã¤d t
aÃŁ t
Ġerz ielt
t Ã¤u
au d
ĠT ri
rei ber
Ġver antwort
om en
Ġt reten
Ġp erson
ĠAb satz
Herr n
Sch wer
Ġr ein
ĠBei hilfen
eist et
Ġbeh andeln
Ġbeant worten
ake te
WEIT ERUNG
6 3
K AN
f rastruktur
ĠP en
ĠP ina
ĠB AR
Ġg Ã¼nst
ĠD VD
ĠL ib
Ġer le
ĠZ iffer
Ġver ab
ok er
geb nisse
RE G
Ġen g
Gen eralsek
Ġglau ben
Ġfest gelegt
And re
ĠEigen t
ather ine
C hrist
f angen
ur en
ĠF ach
Ġst ets
ĠUn garn
AN T
ho ben
immer klÃ¤rungen
forder t
weis ung
Ġinternation alen
Ad resse
ĠArbeitspl Ã¤tze
B ook
J ustiz
M einer
f isch
er weise
at oren
ĠM ass
ist ische
ĠPro zent
Ġsch reiben
Vor lage
ĠStellvertreter in
ĠZahl ungs
ĠCas ino
ĠSek unden
Nie mand
E O
G roÃŁ
n ien
p o
p assung
z ahlung
Ġun er
ÃŁ burg
ann er
Ġwer e
res sere
schaft s
Ġ3 7
... ?
itz t
ĠInd ien
gangen en
handel s
ENTWICKL UNGS
ĠKategor ie
545 30
B eschreibung
E l
al og
Ġk o
ĠT V
ust r
Ġsicher lich
ĠauÃŁer dem
itut ion
ressere fer
F A
p ack
ĠS uch
ĠT isch
uf e
ĠSp iele
Ġbet rach
Ġeinger ichtet
ĠKÃ¼r ze
reak fast
5 9
F ischerei
L age
g yp
es c
ig ungen
ĠW Ã¤hrungs
Ġent schieden
Ġwichtig es
ĠEn d
ĠIs rael
Ġposit ive
Ġtechn ische
Ġendg Ã¼lt
ĠmÃ¼nd liche
V III
ĠR ANDE
ser v
ungs k
ĠVor aus
ĠAng st
ĠKon fl
ĠNach richt
ĠGeb Ã¤ude
ations rat
ĠCo de
ĠWe ge
Kar el
komm unikation
lexib ilitÃ¤t
Ã¤mp fen
B RA
D atei
E ben
F ort
V om
a der
on i
ĠS and
Ġb eit
ĠG al
Ġbe wer
ieren de
St at
EL E
Ġdurch aus
Ġwichtig ste
ĠÃ¤ uÃŁ
Ġzie mlich
Wirtschaft liche
auss etz
6 9
G UB
or a
Ġm e
em a
ĠC omm
sp artner
ul ierung
Ġab zu
Er Ã¶ffnung
la w
Ġc m
ĠArbeit nehmer
Ġ199 6
weg s
ĠgrÃ¶ÃŁ ten
ĠGer man
ĠschlieÃŁ lich
Ġzahl reiche
Ġautomat isch
ĠPot onik
fghan istan
E mpf
p ress
en a
in formation
ĠP ressemitteilungen
ĠK auf
ĠG ipfel
re e
Ġge be
ĠZ eiten
ĠZ UR
IN TER
art a
schlieÃŁ en
mb ol
ĠRAT STAGUNG
And roulla
ifiz ierung
Ġverd ient
Ġjem and
ĠfrÃ¼ her
Ġkontakt ieren
L eb
P et
S ein
W ollen
ie va
Ġein zu
ĠB O
Ġg erecht
ĠH ans
rei bt
os k
wÃ¤rt ig
Ab schlieÃŁend
aff ung
rÃ¤um e
ĠPH P
H AUSHALT
f allen
n ier
ir m
Ġt eilen
Ġp ress
Ãľ BER
Ġ4 8
St ruktur
ĠAkt ionen
an lage
Ġw eg
au chen
Ġh ei
ĠI T
ĠI X
ĠG EMEIN
EN S
Ġsch n
Ver t
St ra
Dar in
Ġeben so
ĠWor ten
ĠInitiat iven
mÃ¶glich keiten
ĠUpd ate
ĠGelegen heit
Ġw ann
ĠF eld
Ġden en
ri m
Ġj Ã¼n
Ġum gesetzt
oh ner
Ġ0 3
Ġ0 8
200 4
fach ung
ĠTag ung
ĠMal m
ĠMÃ¤r kte
Kon ferenz
zÃ¼ g
Ġerforder t
ĠKrit ik
Zahl ungen
fiz it
5 00
H aupt
p s
w o
z y
un n
un ternehmen
ĠD av
ĠH olz
Ġst and
ild et
ĠStaat sminister
Pro jekt
ĠMon aten
rÃ¤n kt
Ġfal len
Ġho he
Ġverh inder
Ãĸffent liche
D rei
T e
l ag
Ġs onst
at isch
as k
Ġf uer
ĠE lekt
rÃ¤ fte
oll ten
Ġdurch gefÃ¼hrt
Sp iel
prÃ¼ fen
frei heit
ĠRechnungs hof
ĠWill kommen
opy right
5 3
en h
st euer
at ein
ĠP eter
ĠT yp
ĠSt avros
Ġbe gl
ĠÃ¼ber w
gr Ã¶ÃŁ
Ġe chte
Ġweiter er
fÃ¼hr er
ĠUnter kunft
Ġeinfach e
Ġbest ellen
RE CH
ĠHa fen
Ġext rem
* *
L U
S ehen
Z wischen
b ett
st ieg
es halb
ĠR el
le hen
ag n
EU R
Ġber uf
Ġweiter es
ĠAuÃŁen beziehungen
Ġnation ale
7 8
A ut
W issen
m ark
ĠA k
Ġb eschÃ¤ft
ĠIn nen
ĠC ity
gr enzen
Ġmehr eren
ĠUm gebung
SCH UNG
SCH UTZ
Ġfor dern
ĠKro atien
ĠnÃ¤h er
Internation ale
Stell vertreter
ĠRezept ion
% .
V P
z eigen
Ġh ast
ĠW ohnung
ĠT al
ik as
ver n
ad o
eg el
geb nis
ĠGr and
ild ung
fl uss
Ġ199 5
ĠUr s
ĠKat astrop
ĠGlÃ¼ck w
ĠCost a
Ġvern Ã¼nft
Ġzentr ale
ĠMalm strÃ¶m
F ol
S ITZ
g eiz
t el
au ch
ĠE uch
ĠB eschÃ¤ft
ĠB undes
ten t
Ġh il
sch m
ĠD I
ĠG ut
ĠT ar
ien d
ĠEU ROP
si di
Ãľ N
Ver ordnung
agen tur
Ġgef Ã¶rder
Tag esordnung
For schung
6 64
N or
O K
f igur
p ark
p reise
Ġ reich
ei er
Ġun be
ĠH am
am es
ann e
Ġver folgen
ĠC he
sp unkt
ĠSch n
pf lich
ĠJahr h
ĠBe vÃ¶lkerung
eid et
ou se
Ġnie d
ĠMe eres
ĠStimm en
Bes uchen
ĠSh op
SK I
Ġmoder n
ĠBeschl uss
M il
O rt
a frika
s f
w agen
ĠP ool
re at
ĠÃ¼ber ras
Ġle bt
ĠBei hilfe
ma ck
hÃ¤lt nis
licher weise
ĠKolle g
Ġhervor ragen
ausschuss es
ĠGeorg ieva
ĠStellung nahme
ĠZus atz
brech ung
B r
b ie
m ot
ĠS ektor
ĠB and
ĠG AP
Ġbe quem
ĠN utzen
ot os
Ġj Ã¤hr
Er weiterung
Ġgen er
Ġ15 0
ĠInter essen
omb in
ĠvollstÃ¤nd ige
RI FT
STR Ãĸ
Ġangem essen
P ar
u al
v an
as en
Ġm ed
Ġf air
ĠM itte
Ġk Ã¼
ber eit
ĠH aut
and o
ĠVer halten
Ġgesch Ã¼tzt
ĠAus nahme
Ġdar in
Ġkl einer
10 7
fl ug
ec ilia
ĠMil ch
Ne elie
gyp ten
F ER
K OMMEN
d rÃ¼ck
Ġ elekt
ĠE miss
op h
Ġauf merksam
ĠJ o
we ch
ĠAnt eil
Ġbeg onnen
ĠBest immungen
Ġverl ieren
ĠEN T
ĠBeg inn
Ġheut igen
Ġloc ation
A KT
T Ã¼r
c i
i ber
z iel
z iele
en ter
el a
ĠM AR
ĠF Ã¼
ĠR ub
ĠT a
EN Minister
ver standen
Ġso zial
Ġnach halt
Ġfolgen des
ĠCh ancen
Ã¼h ungen
Ġbeant wortet
ĠBeg riff
zuf Ã¼gen
ĠMich el
Ġgrund legen
Ġd anach
hr e
ĠF onds
ĠVer fassung
om as
lei che
du kt
IK ATION
ĠEntsch eidungen
fl ation
ĠGrund lage
Ġnie mals
ĠNeu es
ĠVerein barung
ring lichkeit
Ġsel ten
Sol che
Ġheut ige
ENTWICKLUNGS ZUSAMMENARBEIT
A lex
J u
P artner
Ġd ient
em al
Ġz Ã¤hlt
ĠD is
ĠW ien
ĠN ieder
ÃĦ H
geb aut
Ġdar aus
fÃ¼hr ungs
ĠRed ing
ou is
Ġbegr enz
yn am
Ġwel chem
Wirtschaft s
ĠFar ben
HO F
MIT TEL
STRÃĸ M
A pp
F orm
M A
V O
p aket
hr en
Ġein gel
Ġh as
ĠI l
sch Ã¤tz
ĠH altung
Ġzu vor
Ġer stellen
ĠVer wendung
ĠJ ac
bar ometer
Ver pflichtungen
ehm bar
ian o
Her zlichen
leist ung
mitt lung
ĠSchluÃŁ folgerungen
Verwaltungs behÃ¶rde
BRA UCH
Leb hafter
a un
ge fÃ¼gt
ĠG old
ĠU R
ĠO pen
Ãľ H
Ġkon zentr
hol t
Ġwel cher
ĠLie be
Ġop er
ĠGo ogle
ĠSchiff e
Ġind ivid
Ġrel ativ
Zus Ã¤tz
F ax
M od
Ã¤ fen
ier minister
ĠW andel
ĠSt unde
att form
ĠKl age
ĠSu per
Bis her
ĠTr end
Ġherunter laden
Men schen
ampag ne
A uÃŁen
K EIT
T ab
V I
b all
ĠF rank
re che
ĠPro di
ĠVor bereitung
Ġ20 2
sicht igen
ĠQu al
ĠNach richten
ĠGen eral
ĠBeh andlung
regel n
ĠHoff nung
sidi aritÃ¤t
5 8
S k
v olle
icht bar
le y
Ġl aden
ri ge
geb iete
AL E
ĠBe denken
ĠHandel n
itiat ive
ĠMehr heit
ĠRis iken
obil ien
ĠzusÃ¤tz liche
Ġprof itieren
ĠUntersuch ung
B ekÃ¤mpfung
Ġf and
Ġf ertig
ĠP unkten
ĠV AN
ĠT itel
Ġge prÃ¼ft
ĠIn halte
ĠC a
ok ko
Ġa cc
Ġsp rach
ech sel
Ġeigen es
ĠDeb ian
ĠWor ld
ĠMill iar
ĠMan uel
Ġglob ale
ĠPfl icht
fÃ¼h l
D anach
E P
W elt
ie gel
ĠP ad
Ġein heit
gen t
em ie
et h
sch uld
ĠD el
ĠD ienste
ĠW ald
ĠT iere
ĠL izenz
rei te
ĠIhr es
igen d
Bei m
ob by
II a
ide o
gang s
ĠST RA
ikan ische
Wieder aufnahme
Ġabgel ehnt
B eg
C A
V b
y d
at ri
Ġun abhÃ¤ng
Ġn eben
ĠK Ã¶rper
sch te
Ġg rÃ¼n
ĠD an
ĠD orf
ĠG rÃ¼
ĠT aten
Ġer t
ĠZ wischen
Ġ3 9
ĠÃ¼bern ehmen
stell te
Ġbew usst
ĠOpt ionen
Ġausreichen d
oriz ont
Entwick lungs
k ki
r aten
er zeugnisse
au st
ĠP AP
ĠE rei
ĠB AL
ĠK enn
ĠL eg
ER WEITERUNG
ĠAn liegen
Ġst ren
eich ert
Ġgel angen
ĠnÃ¤ch ster
ĠAbgeordne ten
ĠPrÃ¼ fung
duz iert
ĠBestell ung
FrÃ¼ here
I F
O r
S omit
e a
in ken
ĠK amer
ĠD re
ro t
ag ung
iv al
be auftrag
amm er
ĠGr unde
ĠRicht linien
aler ie
Unter brechung
stau sch
ĠKolle ge
ĠGemeinschaft s
Ġkomp lex
LÃĦ RUNG
ĠFlÃ¼ cht
ĠSO ZIAL
schlÃ¼ssel ung
L eben
g ung
h ung
v i
z ert
Ġf Ã¤llt
ĠP L
Ġein ig
sch reiben
ĠT ransport
ist er
Ġst olz
ĠSch ule
Ġdies bezÃ¼glich
ger ufen
os nien
wer ke
ieren der
Ġ4 4
Er war
Ġgen ieÃŁen
Ġle hnt
ĠDe utsch
Ġkon nten
reu de
Ġverst ehe
ĠStra f
amer ika
Prior itÃ¤tsachse
ĠEurope Aid
MUN IKATION
Ġhil ft
B ot
C S
P reise
i que
k or
v al
w ay
or k
ĠF err
der s
ĠR en
ĠT op
ĠT ex
eu gen
os law
ĠMin dest
ĠStra ÃŁe
ĠvollstÃ¤nd ig
ĠMÃ¤n ner
uff et
FORM ATION
K ON
L etz
P olitik
R el
ĠS orge
ĠM inder
em en
ĠF actsheet
Ġg Ã¼ltig
Ġer Ã¶r
Ġp la
akt iv
rie f
lin ge
enz Ã¼ber
Ġgel Ã¶st
ĠTag es
zeich nis
ĠGeb iete
ĠGemein same
Ġho hen
ĠStud ie
Folgen de
ĠInstrum ente
ĠRu he
ĠMot or
Ġreag ieren
J on
J ul
T itel
d o
at ik
as si
sch reiten
Ġg rÃ¼
Ġk n
ĠT R
Ġauf genommen
ĠJ ava
In st
Ġunter s
Ġ4 00
Ġr asch
IE D
ĠTeil nahme
ian e
Ġlang sam
ĠKinder n
ĠSte uern
ĠRes ort
ĠVers and
Ġwe gen
Ġwe der
fre und
ĠTab ak
Ġwirtschaft liche
ĠGed anken
Ġleg isl
ĠLeit linien
ĠstÃ¤nd ig
m eister
y an
Ġ Ã¶ffnen
er nt
in as
un e
ĠP ap
ĠP apier
ĠF A
Ġsch Ã¼tzen
ĠO S
ĠUn ternehm
itz e
Ġre st
ho den
ĠEx t
ĠForm ular
ĠSan ktionen
Ġerken nen
G rÃ¼n
M itt
S Ã¼d
p assen
t ell
ĠM O
ĠM orgen
ĠK art
Ġh ilf
ĠD r
ĠD irekt
Ġer leben
Ġdes sen
ĠSt rom
Ġaus fÃ¼hr
gr Ã¼ÃŁ
ĠSch aden
Ġgesch affen
ak ter
Ġsp aren
unkt ionen
Ġgen Ã¼
Ãľber einkommen
ĠFl ash
sm itglied
hol ung
ĠGerichtshof s
ĠViel falt
ĠlÃ¤nd lichen
5 96
u c
z one
ĠA D
ĠM useum
icht s
ra am
ĠD en
re cher
se h
Ġal te
ĠAn schluss
ne ten
Ġlang frist
co de
Ġy our
Her ing
Ġsu per
Ġkor rig
ĠMig ration
ĠAv raam
ĠMc C
ĠAuff assung
Ġdank bar
p la
w ahl
ĠM ik
ĠM oder
ĠH O
ĠH u
ĠH enn
Ġver dien
akt ionen
RA UM
IE DEN
schie de
Ġfor m
oten zial
PrÃ¤sident in
ĠBeit rÃ¤ge
ĠBem Ã¼hungen
ĠBundesminister in
ĠschlieÃŁ en
Wor um
ERS UCHT
Ġmitt ler
L ink
Q L
S SON
g u
h nung
k ur
p a
p ass
w St
in strum
Ġd adurch
an on
ĠS em
sch lagen
ĠW o
Ġp h
UN ION
ĠAb bott
Ġunter nehmen
Ġ5 2
Ġgen utzt
ha fte
AM T
ĠdÃ¼r fte
Ġ28 2
CC I
ĠNor wegen
ĠLeist ung
5 35
S u
w irk
au stausch
ĠF lexibilitÃ¤t
Ã¶ nen
ĠH ol
ĠH eim
um s
Ġal ten
ĠSp ezial
Ġfolgen der
ĠGew inner
ĠGesundheit s
Ġschnell er
ĠVerein igten
Ma i
FF EN
ĠVOR SITZ
Ġgarant iert
Generalsek retariat
D ina
N UNGS
e te
r ien
v in
Ġ Q
Ã¤ uft
or y
Ġk om
Ġk ultur
ro chen
ĠT ir
ĠL as
ĠAn wend
IN I
Ġnach stehenden
IL L
ĠEntwick lungen
ĠX IV
rÃ¼h stÃ¼ck
gru ppen
ĠErfahr ungen
ĠInstrum ent
F L
S ow
b ruch
l Ã¤uf
m elden
m Ã¤rkte
Ġs ur
as chen
ĠF innland
ĠI st
ĠR h
ra in
Ġan gen
Ġbe ob
ri a
ster dam
Ġander em
alt ungen
ĠerklÃ¤r en
ĠÃľber nahme
ĠDienst ag
37 9
ĠWirk lichkeit
anzÃ¶s isch
Ġregion ale
Ġperf ekt
beg riffen
ĠRech nung
TÃ¼r kei
B undesminister
G em
L Ã¤nder
P hilippe
it s
ĠV al
Ġer lÃ¤u
ĠN iederlande
ĠVer gleich
ĠAn lage
Ġo ut
TE GIE
rÃ¼ ckt
all y
ĠEnt wurf
Ġ8 5
Ġget roffen
ĠStaatssekretÃ¤r in
ĠSchw ier
ĠAll gemeine
CC CC
ĠBal kan
B as
N L
c es
r ich
st rategie
ir ma
ĠB ern
ĠB aum
ff er
Ġt ritt
ĠEr asmus
Ġvor ber
Ġvor ange
Ġent gegen
ges etz
ze ÃŁ
US A
Ġkein es
Ġgew Ã¤hlt
ex iko
ĠBal kon
ĠKommun al
B AN
D atum
ĠS at
el ten
Ġm ark
ĠE mail
Ġein gesetzt
ĠM ED
ĠK affe
Ġ4 6
Ġc lean
ĠEin igung
gel assen
ald irekt
bed arf
FOR SCHUNG
ais er
925 8
Ġkompl ett
ĠTod es
uk le
ĠÃ¤uÃŁ ern
5 46
E miss
S icher
ĠS n
Ġb zw
ĠB EI
Ġh inn
ach s
ach tet
am eter
Ġbe ein
Ġt r
lie ben
ĠSp a
war z
ĠFor sten
Ġ199 4
ĠBest and
Ent decken
ĠEx per
fort able
Ġinteress ant
ĠVerwalt ungs
ULT UR
ĠeuropÃ¤ ischer
ĠBeweg ung
596 67
B eschl
I X
b s
o sen
as che
Ġb ist
ĠD ir
ss p
ĠG eist
ĠW h
Ġp ol
Ã¤r m
hal tet
est er
Ein en
ÃĦ M
ic s
zeich nen
sst aat
Ġakzept iert
ĠStat us
Ġentwick eln
ĠVerÃ¤nder ungen
Book ing
D an
z o
ĠS ekt
Ġs orgen
ar us
ĠM utter
Ġh a
ĠAn kunft
Ã¤r ke
ĠAb schluss
Ġent tÃ¤u
ost at
Ġgel eistet
Ġgef allen
ĠBÃ¼r o
ĠBo ot
Ġoffen sichtlich
ĠJan ez
ĠWer bung
itÃ¤ts achsen
ĠMich ael
ĠPrÃ¼ f
ĠSub sidiaritÃ¤t
Fort setzung
Erwar tete
NUNGS HOF
5 9258
B Ã¼rger
H U
K A
O n
Z oll
Z weck
k oh
ĠS A
ĠS Ã¼
Ġs er
Ġf ehlen
ĠB la
ĠM esse
Ġh umanitÃ¤re
ĠT raum
ĠZ uf
ĠRe aktion
Ġst rateg
lau fen
war en
ĠZu cker
ĠGemein schaften
Ġsol cher
ĠVerkehr s
Ġgrund sÃ¤tz
ĠStÃ¤d te
Ġerreich bar
zn ei
enh agen
D ienst
m achen
n icht
s ur
z ig
Ġ att
Ġn ein
ĠP A
ĠH omepage
rei st
ĠJ ohn
ul a
Ġall gemeine
ĠUnternehmen s
Ġbeg ann
apit al
ĠArbeits markt
ĠPh ase
ĠRegional politik
Jahr es
ĠTer min
Ġehr geiz
B R
R es
ĠS TE
Ġn eg
ĠE ssen
ĠF ein
ĠR O
Ġk ontroll
rei tet
Ġunter n
lei ben
la stung
ĠGrund satz
Gen er
EC AF
ĠgrÃ¶ÃŁ er
ĠHa ft
ĠPresse stelle
ĠerfÃ¼l len
Ġspez ielle
ĠVeranst altung
Ġbil den
Ġsinn voll
ĠAK P
e esc
on y
ĠG i
ĠG el
ĠV oll
ĠW Ã¤hrung
eh le
ĠEr zeugnisse
Ġbei spiel
Ġhier fÃ¼r
Ġsp reche
ĠVorschlag s
Ġverb oten
ĠspÃ¤ter en
ĠApp artement
ĠBeschl Ã¼sse
Ġdau ern
Ġruh ig
ĠZust and
ĠWIRTSCHAFT S
Schwer punkt
H e
S onder
V ier
c ell
g a
w es
an ismus
al lo
ĠP reisen
ĠF in
ĠF reude
ĠT ool
ĠN Ã¤ch
ĠEr de
ht on
Ġso wohl
Ġ4 2
ĠReg istr
Ġgew iss
ĠKl ar
str eng
ĠGemein samen
AH R
ĠBeh Ã¶rden
ĠSchwer punkte
ĠprÃ¤ sent
Sonst ige
grÃ¼ÃŁ ung
B eschÃ¤ftigung
I t
J uni
L UNG
U hr
ĠE ind
ier re
ĠVer stÃ¤nd
ĠJ ob
ri b
Ġsch rift
ug h
Ã¼n schen
ic es
gew icht
ssystem e
Ġfinanz ielle
Ã¤um e
ĠstÃ¤r ker
ĠfÃ¼h len
ĠHenn on
F oren
K ultur
L uft
g ut
Ġn ehme
ĠB ett
ĠD a
ĠH alb
ĠC hr
ed ingungen
OR T
Ġ6 5
our n
ĠBet eiligung
ĠFr anz
Ġverl assen
ĠBed arf
ĠBus iness
KOM MUNIKATION
ĠStat istiken
iend ly
ĠkÃ¼ mm
535 93
O ffen
W eshalb
s inn
er gie
ei ra
Ã¤ ck
Ġein verstanden
Ã¼r z
ĠK al
ĠAn hang
ĠAn alyse
ell os
ress ourcen
ĠAus land
ĠAus gabe
ĠAus druck
ĠVerb rauch
ĠDaten bank
az za
Mitglied staaten
Ġpass ieren
ĠAs ien
ĠGlob alisierung
ETZ UNG
fÃ¤lt ig
E ICH
K I
n or
Ġd ienen
it er
ĠP il
Ġz Ã¤hlen
ĠD ol
ĠVer z
rau cht
Ġr en
ĠKl im
De zember
ET T
Ġbestimm ten
ĠfÃ¼ l
ĠhÃ¶ch ste
Ġzug Ã¤nglich
ĠerhÃ¶ ht
ĠbestÃ¤t igt
Ġverantwort lich
ĠVORSITZ ES
U D
W Ã¤hrend
te ste
ĠK O
Ġin begriffen
de ck
and id
ist a
Ġbe wegen
Ġl es
An lage
AR D
qu ote
ran che
Ã¤l fte
man agement
fin ition
Ġ75 3
ĠHo f
GR UND
Ġkeiner lei
alist isch
GES AMT
ĠBahn hof
A ss
ĠS zen
ar ia
Ġder en
Ġz eit
ĠK risen
Ã¶ ger
Ġin nov
ĠD Ã¤nemark
ss icherheit
00 1
Ġver pflich
ĠAn hÃ¶r
ĠAn spruch
sp rÃ¼n
ĠAb fall
ru gs
im ent
ĠEin trag
Ġsp ezif
Be grÃ¼ÃŁung
ĠAm sterdam
besser ungen
ĠSystem e
ĠVertrag s
ĠForm at
gangen heit
ĠAs hton
ĠRechts vorschriften
Prior itÃ¤t
ĠKont o
ĠAgrar politik
ĠApartment s
BRAUCH ER
Bot schafter
Ġverdien en
I mmer
W en
k s
z usammen
an en
ar u
ge st
te x
ĠE M
ĠK e
ro w
iv iane
ug oslaw
ĠGr an
Ġle gen
gleich heit
ĠVort eil
Ġwesent lich
Akt uelle
Ġdiskut ieren
ĠRECH NUNGSHOF
ĠMilliar den
J ohn
b r
b ab
p el
is ieren
ĠF ort
ĠF OL
Ġin zwischen
Ġzu dem
ĠL U
Ġt eile
ĠO ff
eich ern
ech net
hand elt
LICH EN
ĠPol izei
Ġres erv
reff end
F inden
K oh
z unehmen
ĠS erv
at astrop
ĠE F
ĠB ay
sch er
ĠH igh
ĠN ummer
ĠAn streng
eu ern
Ġe ffekt
ak istan
ST RA
Ġlie be
fÃ¤h ig
Ġteil nehmen
Wel chen
ĠberÃ¼ck sichtigen
Ġunge fÃ¤hr
ĠDav id
aldirekt ion
1 98
A J
K osten
k arten
w Ã¤
Ġ ter
un a
ĠP hil
ĠK unde
ĠD ich
ĠW ord
ĠT AC
ĠL ive
ĠN ationen
ĠÃ¼ber zeugt
art ig
bar er
ĠVor aussetz
ĠBe w
AR E
lau t
erk ennung
Ġweiter gehen
Ġvoll er
BER G
ĠNetz werk
Ġentsprechen d
BESCH ÃĦFTIGUNG
C Z
G esch
R IE
S uchen
T ele
Ġd ah
ĠS m
au p
ĠP oker
il ater
anz e
iert es
Ġsp an
id o
ĠÃľber prÃ¼fung
ĠRed aktion
ĠBÃ¼r gern
Man chmal
Ġselbst verstÃ¤ndlich
sel be
Ġbesch lossen
ĠSk ype
ĠMehr wert
Ġide al
Zimmer beschreibung
ĠBeschÃ¤ft igungs
ĠErei g
F erner
F alls
h i
s d
w ohnung
Ġ rie
Ġ reichen
ein igung
gen z
Ġz erst
Ġin vest
ĠH el
Ġl and
Ġl ag
ĠVer gangenheit
nis ierung
ĠPar ad
Ġgef ragt
ĠUmwelt schutz
ĠAut ob
ĠSh ar
ĠKom fort
Ġmen sch
L T
Z OLL
ge g
ĠB E
ĠF Ã¤h
sch ul
cht ung
IN S
Ġzwei f
IK A
org nis
ĠStaat s
ĠX II
Ġgeb racht
UR G
ĠEW R
ĠTerr asse
Ġhervor heben
ĠAktiv itÃ¤ten
ĠGem Ã¼
S ub
f leisch
j o
u z
ĠS chengen
Ġm ar
ĠM ut
ber ge
ĠH eil
lich ung
rei f
ĠC omp
ungs stunde
IN A
Ġhier bei
im es
Ã¼ck w
ĠReg ierungen
Ġbes ucht
eld et
Gen ieÃŁen
ĠGeld b
ĠFr em
Ġkosten frei
abel j
Ġempf ohlen
ĠTra in
ĠFir men
ĠLi ber
ĠErw achsen
rimin ierung
ĠAbgeordne te
GL IED
Ġdiskut iert
ĠArgum ent
ĠInstall ation
drÃ¼ck lich
E igen
in ent
ei ert
Ã¤ mt
Ġs h
ĠP akete
ĠK urz
ber gen
ĠW etter
op f
op s
Ġan erk
ĠVer pflichtungen
itt ling
ĠSch m
ES TE
id a
ov e
leist ungs
IER UNG
ĠMark e
ĠMet hode
ĠBerichterstatter in
VizeprÃ¤sident in
ĠAltern ative
ĠendgÃ¼lt igen
Ġbegl Ã¼ckw
( )
M achen
b ad
g y
in ien
as y
Ġn atÃ¼r
ber to
ĠH Ã¤lfte
de ckt
am s
ĠZ immern
Ġp ri
Ã¤t igkeiten
iv itÃ¤t
lei chen
auf bau
ffent lich
Ġle gt
Ġwen igen
ĠSitz ungen
zeug ung
ĠGesch enk
ĠSozial ausschuss
ĠZahl ungen
ĠInf os
ĠpersÃ¶n lichen
ĠSlow enien
lÃ¤nd ische
F raktion
G ut
R ep
W ald
s a
s bericht
z ed
it i
Ġb rit
ĠE S
ĠM ult
ĠD auer
ent wicklung
Ġer f
ĠC al
Ã¤r z
och en
gr ess
ungs mittel
arb eite
Ġgel ungen
atur en
Mitglied staat
ĠauÃŁer halb
Ġqu al
EW SA
ĠPla yer
Ġres pekt
Beit ritt
ĠEis enbahn
Ġwor k
ĠMart in
Gest atten
ĠNah en
ĠVerstÃ¤nd nis
N ot
N ov
t d
ĠS orgen
el ia
ĠA fghanistan
Ġn Ã¼tz
Ã¶ sen
Ġg lÃ¼ck
ĠG leiche
ĠT U
and al
Ġer h
Ġbe zieht
ĠVer h
he k
ĠO STEN
rÃ¼ stung
est o
Ġ3 8
Ġnoch mals
An ca
la st
Ġ5 8
Ġam er
RE FFEN
ĠMittel punkt
ĠSu pport
ĠBuch ung
ath an
Ġinteress iert
ĠRestaurant s
ifiz iert
Prior itÃ¤ten
ĠTab elle
ĠKapit el
ILD UNG
A t
K S
P rakt
e ed
t es
y ch
Ġ Diese
or dent
ĠA S
Ġf rage
Ġf assen
ĠB rasilien
ĠK ontrollen
ĠD etail
ĠV ol
Ġver f
Ġt yp
Ġt rotzdem
ĠO R
bl att
wer den
uÃŁ land
Ġde utsche
ub a
Presse dienst
Ġkon st
Um setzung
Mar kt
tens iv
Ġbesonder en
mb ud
Ġbem Ã¼
ĠAussch uÃŁ
Vers ammlung
ĠSchwier igkeiten
abelj au
I l
M US
N DER
W EST
k el
Ã¼ ssen
Ġw eist
at ter
mm a
ĠM alta
den k
ĠN ahr
Ġsie ben
ĠBer ichtig
aus o
Ġgesch rieben
ive au
ĠÃľber einkommen
ĠÃľber wachung
alen der
51 7
Ġbegr Ã¼ndet
ĠY ork
ĠArbeits losigkeit
oment an
Ġentsprechen de
ĠVizeprÃ¤sident in
ENTWICKL UNG
Mon ica
ĠDritt lÃ¤ndern
ĠKoordin ierung
ĠKommunal vertreter
C lau
D IE
I AN
h at
Ġd amals
Ġm or
ĠB ur
Ã¼r o
ĠF RE
Ġk g
ĠH ouse
ut to
ĠSt il
ĠAn erkennung
ĠJ ur
Ġaus zu
ver sion
Un s
Sch olle
zi ale
Ġ0 6
rin a
rit ann
40 3
ĠInn ov
ĠPl ug
ĠAut or
ĠgrÃ¶ÃŁ ere
ĠNeu e
zahl ungen
ĠPark platz
Ġversch w
ĠGar antie
ĠRad io
ĠKomment ar
ĠPat ent
zur eichen
NAH MEN
ĠNachbar schaft
Ġbein haltet
ĠIns eln
F IN
W ar
Y P
f an
m es
ĠM ess
Ġh art
ĠF Ã¼r
sch uÃŁ
ĠW a
ĠL ux
ĠVer k
ru ption
ĠÃ¼bern ommen
me ch
ĠFor men
ud an
alis ieren
ĠfÃ¼hr te
Ġeinge fÃ¼hrt
Ġverk aufen
Ġverk Ã¼ndet
Ġfal sche
Ġfre ie
Tag ung
Arbeit s
ĠVis ion
Ġinform iert
ĠFÃ¼hr ung
ĠberÃ¼ck sichtigt
Ġjeweil s
ĠEner gien
E CH
F rÃ¼hstÃ¼ck
L OS
N utzen
S eite
V assiliou
Ġs en
Ġn a
Ġein s
Ġein iges
Ã¶ se
de x
le gt
ĠT ro
ĠT her
ut in
In n
Sch auen
schl uÃŁ
Ġgew onnen
Ġhin zufÃ¼gen
199 8
Ġvers ucht
Ġfr anzÃ¶s
na pp
ĠAusschuss es
fert igt
apaz itÃ¤t
lÃ¶s ung
ĠjÃ¼n g
Ġberuf liche
ĠGlÃ¼ckw unsch
Vassiliou EU
5 74
J n
g ast
r eitung
Ġw achsen
ar ische
ĠB R
ĠF ISCH
ĠR os
ĠAn passung
Ġsch lagen
ed ro
bl iot
wer ber
Ã¶r ter
geb racht
St Ã¤rkung
Ġ8 00
ine a
our ce
ĠUnter schiede
Ġsol ches
ĠGra f
Ġgest rigen
rakt ionen
mitt ag
Ã¼nst ler
dienst leistungen
ĠErw art
Verb raucher
ĠArch iv
ĠGre en
Ã¤us er
bab we
N UNG
R ad
V A
W F
p art
in os
st eht
ĠS atz
ĠA lex
Ġb ar
ĠM aterial
et ing
sch irm
ĠH imm
ĠV III
ĠW ander
ĠL eiter
ĠL ernen
Ġge fordert
ĠEin e
ĠEin fÃ¼hrung
Ã¤nd ler
ĠPar ameter
ĠZeit plan
rateg ien
ĠGl as
ĠAuÃŁen handel
pflicht ung
Ġkonk ret
3 00
B l
M ed
S im
i am
w issen
er ung
ĠS onnen
Ġs org
at ib
Ġun mittel
ur aru
Ġm y
ĠE m
Ã¶ konom
Ġ2 50
ent scheidung
Ġl etzt
ĠSch Ã¶n
Ġvor aus
ru h
Was ser
ĠEin stellung
Ġ6 00
ĠLand wir
ĠUr spr
ĠVER H
Ġverm eiden
ĠStud io
Mich el
ĠDurch fÃ¼hrung
Ġausgew ogen
ĠEng agement
ĠNation al
Ġfreund lich
PF UNG
Ġ04 75
G H
G erne
S L
m ine
n am
Ġd ritten
ie fert
Ġs ah
Ġs Ã¼d
at ch
ol er
ĠI dent
Ġk ennt
ĠD ringlichkeit
ss elt
ĠG RA
ĠV ar
Ġzu erst
il de
ĠL ager
Ġauf zu
ĠC ECAF
Ġmit einander
sp rach
ahr t
sen s
rÃ¼ cke
eg ow
Ġab stimmen
Er ste
pf ul
ert o
ĠHer bst
ec kt
ĠBar nier
ez unge
Ã¤nger ung
imit ri
ĠFol ge
Ġherr scht
ĠZentral bank
9 18
H och
R Ã¼ck
g ot
ĠS en
ĠF unktionen
ĠV en
Ġge halten
ĠSt ein
err aum
sen den
AL M
ĠDank e
ĠKon text
ĠÃľber setzung
Auf schlÃ¼sselung
So zial
ĠGrund sÃ¤tze
wor te
ĠOr igin
Ġwahr scheinlich
Ges undheit
Ġstark e
ĠGeh eim
ĠWall strÃ¶m
ĠPen sion
ĠPad uraru
Jul i
ĠfÃ¼l len
v iew
z entrum
st Ã¤nde
ir a
Ġn ice
ĠP ack
ĠP aul
ĠV AL
ĠT H
ĠL ab
Das selbe
ĠSt ar
ver lÃ¤ss
nt ag
Ein fach
Ġa pp
Ġzum indest
St immerklÃ¤rungen
ĠMar c
BE K
sb uffet
Am er
Ġgest ern
Ã¶ch st
ĠAnd roulla
ĠAt mo
Ġvert rau
Ġexist iert
Ġverlan gt
ĠWeiÃŁ buch
zusammen arbeit
H ilfe
M art
P ROGRAMM
z ellen
ĠP AR
mm e
ĠB anner
Ã¶ ten
ĠR SS
ĠH ilf
ĠW elche
ĠW Ã¼nsche
ĠAn lass
Ġp o
Ġe ffizien
Ġ5 3
ĠPrÃ¤sident schaft
Ġbet reffend
Ã¤hr t
setz ungen
ĠAp art
201 2
weg ische
ĠGrÃ¼n buch
ĠFahr t
ĠEinw ohner
ĠHin weis
Ġerg reifen
ĠPart eien
old au
ĠSchwer punkt
svor sitz
Ġinstall ieren
Ġprakt isch
ĠVerÃ¤nder ung
klus ive
Invest itionen
ZOLL UNION
ritann ien
W ohnung
b ritannien
m on
p or
Ġ Ã¤ndert
ĠB ru
ĠB ek
Ġz entral
ĠK ontroll
ĠF euer
Ġg l
ĠV inc
eit ag
ĠT un
ĠSt ano
ĠÃ¼ber prÃ¼fen
wer be
An zahl
Bei spiele
rat e
IL ITÃĦ
ĠKon vent
arbeit s
ĠAm ts
Ġverst anden
ain t
bo x
ĠVide os
gn or
Ġkor rekt
ĠFOL GEN
egow ina
H elen
M EMO
e ffizienz
p e
Ġm eist
ĠM ic
Ġh ave
ĠT radition
ĠL ang
Ġbe en
Ġbe zeichnet
ĠAn reg
Sch on
ĠAng riff
SP ROGRAMM
ha ber
Ġwieder holen
ĠÃĸffent liche
ĠSystem s
Je den
75 2
ĠTechn ische
Ġlau ten
ĠKop enhagen
ĠerwÃ¤h nen
ĠWest eren
SO ZIAL
ASS NAHMEN
ĠMIT GLIED
ĠTor res
Ġauss ehen
angeb ote
Ġil leg
ĠPrem ierminister
ĠMasch inen
Empf eh
ĠGemÃ¼ se
B ahn
M er
O ktober
m asch
z in
ei de
Ġs k
ge f
ĠA g
Ġn ieder
ĠE vent
ĠM B
ĠK ol
ĠF arb
Ġk lin
ĠW esent
ĠL ad
ah nen
Ġj unge
Ġum gehend
TE LE
end es
Er fahren
ken nt
ĠProdu kten
Ġger ing
VER FAHREN
ĠRei hen
ĠVER FAHREN
Ġverk auft
wie sen
Ġqu e
Handel s
Ġtechn ischen
ogra ph
Ġgesp ielt
ĠKategor ien
Jon athan
ĠAnstreng ungen
A ST
L ib
W eil
c is
in vest
ĠM el
ĠF ac
ot h
Ġst aat
Ã¼n ter
Ã¼hr t
ĠGen ehmigung
Ġaktu alisiert
ĠAu ge
ĠSk i
son sten
Ġgro ss
ĠÃ¤hn lich
rÃ¤nk ungen
sprÃ¼ che
lag a
A s
S B
S ID
V org
f a
m el
er lei
ie h
ĠS how
ĠP et
Ġz weit
ra chte
ĠD ub
ĠW ell
ab gabe
ĠT Ã¤tigkeit
ann ung
ĠSt offe
om in
iv es
In tegr
Ã¶r en
oh in
amm t
ISCH EN
Ãľber blick
Ġ6 2
Ġeinfach er
ĠBet rag
Ġverst Ã¤rkt
ĠGer Ã¤t
ĠTechn ologien
ĠEinw anderung
ĠpersÃ¶n liche
programm e
68 9
leb nis
ĠKonfl ikt
ĠAnhÃ¶r ung
Inn ovation
M AN
T V
T atsÃ¤chlich
Y I
d atei
l eit
Ġd einen
ar io
ĠR ob
ĠD atum
ĠG VO
Ġl og
ĠAn forderungen
ĠJ ack
anz ler
Ġe ur
Ã¶l le
Ġen orm
ĠBest e
weis ungen
ations abkommen
zÃ¼ ge
Ġ27 34
Bes sere
Mittel meer
ĠStandard s
ĠAugen blick
ĠSon ne
Ġide ale
ĠKomp eten
ĠProf il
ĠCamp ing
ĠOrganis ation
ĠTats ache
Ġbeispiel sweise
( %
C E
M ob
b te
l eiter
p rechen
z te
ĠS ohn
Ġs m
Ġun mÃ¶glich
ĠP ER
ĠB itte
Ġz unehmen
ĠG E
ĠV Ã¶lker
ĠW ik
ind lich
Ġer mut
Ġbe ziehen
Ġaus w
ru cken
lau ben
ĠUm fang
kehr t
Ġpro blem
Ġ199 3
Vor sitz
Ġbed auer
ĠHaupt stadt
rÃ¤n ke
Ġjeden falls
fÃ¤l len
Ġdenn och
Ġfr iendly
ĠNov ak
Ġch ines
ĠWebs ites
organis ation
ĠTod d
ĠAnmerk ung
Ġinstall iert
ĠAss ozi
serv ice
ÃĦM PFUNG
C I
b ieten
f o
f est
Ġ Ã¼
st eh
an lagen
Ġv olle
ĠI t
ĠL ied
rei de
ĠRe ferenz
Ġ- -
Ġaus ges
ĠEr holung
all as
Ġ4 7
ĠAus fÃ¼hrungen
oh annes
Ġbes itzt
ĠAl c
ĠKon sequ
ma ÃŁen
Ġ199 2
Pro du
ĠMan agement
ĠPal Ã¤st
Ġdeut schen
ĠÃľ b
Ġfinanz iert
Ã¤hl te
Ġgratul ieren
ĠMer c
zÃ¼g igkeit
FER ENZ
koh ol
ĠMITGLIED STAATEN
B URG
J ens
M Ã¤rz
W Ã¼r
W achstum
d re
n es
Ġ che
an at
Ġi mm
Ġm il
ĠP re
ĠE stland
Ġz weiter
Ġh al
ĠF alle
Ã¶ pf
ĠR ab
Ġk ont
Ġk amen
ĠW ichtig
ach ter
Ġge ehrte
ĠN AT
ĠC ard
uss e
rÃ¤ cht
schaft liche
Ãĸ ff
iz za
Er st
Ġc o
Ġc an
ĠMa x
ĠZusammen halt
Ġfor dert
AM P
ĠGew inn
ĠGra d
ĠEl ement
Ġfrei en
Bes onder
ĠMark en
urt eilen
ĠbestÃ¤t igen
Aktion splan
664 30
Ġbegrenz t
b etten
Ã¤ gen
ur m
Ġm ult
Ġn ame
ĠB a
ĠF u
ĠT AGUNG
Ġes sen
ul ation
ic t
ĠMar ia
ĠBild ungs
str ich
Ġhel pful
Jan uar
Ġpriv ate
ĠKir che
Rel ated
cell ent
B ildung
C opyright
K aiser
L iste
M T
M ak
k rise
w irkungen
in frastruktur
ĠS ing
Ġf rÃ¼h
ĠM ART
ig a
ĠL td
ĠZ eile
ĠRe gen
Ġst eigen
sp rache
Ġsch auen
Ġvor gehen
ĠAr znei
RO Z
Ġber aten
ĠProblem s
BE W
ĠPl Ã¤ne
ruf en
Ġausge zeich
ĠEl tern
ĠGesch mack
bed ingungen
fÃ¼l lt
ĠAt t
94 107
ĠGerichtshof es
ĠgefÃ¤hr lich
ĠKomp on
Gru ppen
ĠSal z
ĠOb jekt
ĠstÃ¤r ken
Einzel heiten
Sc ript
Ġbeteil igt
Ġelekt ron
schÃ¤tz ung
Sow eit
. ,
I rina
P rÃ¤
d orf
p asst
u bl
Ġi gnor
Ġv is
Ġb ildet
ĠB SE
ĠK ON
ĠI r
Ġge zeigt
ĠZ ahlung
ĠN o
ĠVer hand
ĠVer besserungen
ĠAn n
Ġt ief
Ġp r
lie gt
eb ook
ieren den
ers eits
Ġber u
Ġ7 00
ĠProblem en
ret ung
Ġher gestellt
Ġbef assen
All gemein
ĠzurÃ¼ck ge
Ã¤uf er
Ġ.. ..
Ġmoder ne
ĠSchul den
iffer enz
ĠFe ed
Ph one
Ġbas iert
ĠSchlaf zimmer
ĠFerr ero
Ġschrift lich
L eit
N at
N etz
N ET
R ed
S QL
T R
b indung
i or
o be
s ichten
y en
te sten
ir l
ĠF L
ĠF ab
ĠH T
ĠH ar
ig ar
ĠL itauen
ĠZ ert
Ġst ay
ĠSch uld
ed ig
ĠAb sicht
ĠBe ach
ĠGrund rechte
ĠQu oten
ac io
KT OR
ip s
86 5
ĠDi am
ĠheiÃŁ en
ĠNetz e
ikan ischen
ĠEuropÃ¤ ischer
Ġausgew Ã¤hlt
ĠVolk s
Ġklein es
Ġehr lich
stra fe
Ġur sprÃ¼n
Ġgrundlegen de
Wald ner
574 84
ĠErwart ungen
TELE KOMMUNIKATION
9 06
A ud
D O
D eleg
K an
S V
Ġ rad
Ġb it
ĠP atten
ĠD AS
de d
ĠL y
ER E
ut h
Ġl ive
ĠC ast
for schung
sp ort
ĠO mbud
grund lage
Ġ4 9
ech te
setz ungs
ĠFl or
ma ÃŁ
Ġhin weisen
Vor schriften
Pro zess
ĠBet rugs
ĠĠĠĠ Ġ
Ã¤ÃŁ t
ĠHand y
Reg el
Wettbewerb s
Ġentscheiden d
Ste uer
ĠKompro m
grenz ung
ĠAmer ika
ĠAlb um
Ġdefin iert
Ġmus ste
zus etzen
Ġgratul iere
* )
E d
J o
P olitische
P resserefer
u he
Ã¤ den
or ten
Ġm on
Ġh and
ĠH inder
de b
le hnen
Ġauf nehmen
ĠVer pack
ĠAn na
ĠRe al
ĠRe volution
eb ast
zu stellen
ste chn
Ã¤nder ung
Ġ0 5
Ġber Ã¼h
zeu ger
Ab bott
hÃ¶r t
ĠVerb ot
ĠCo ok
ĠTechn ik
Ġung laub
Ġersch einen
Ġfinanz iellen
ĠSy mbol
Ġbez ahlt
Ġwesent liche
Ġit alien
Ġaktiv iert
Dennis Abbott
ategor ie
ausen d
ĠGro up
ĠNovak ova
Ġd einer
ĠS ach
Ġun zureichen
Ġm er
Ġf anden
ten eg
ĠK y
ĠV ater
re ck
ĠIn c
ĠVer st
ag o
ĠAb schnitt
Er leben
stell ungs
ĠBe ob
Ġman chmal
ep ar
Frau en
Ġgr enzÃ¼ber
ĠBes itz
Ġ! !
ĠStr eit
ĠRes iden
ĠPrior itÃ¤tsachsen
mitt elt
Ġakzept abel
Ġteil weise
ĠJugend her
Gemein sam
Wor in
Fl ug
produ kte
ĠAust ausch
asc al
bie ter
Ġverpflich tet
ĠShar rock
ĠAtmo sphÃ¤re
Vorg esch
A frika
B ILDUNG
F rieden
G ericht
I de
W est
b and
k Ã¼nd
l or
l etzt
n io
w ind
un ruh
Ġv irt
ĠP rag
ĠW arum
ĠT ax
Ġan melden
ĠN et
Ġt ro
form ular
ĠSch rift
Ġo ur
Ein es
ick s
Ġent stehen
Ġc l
ĠEnt lastung
Ġr uss
ĠKl asse
ĠFr ist
Ġaktu ell
Ġeinge gangen
ĠFrÃ¼hstÃ¼ck sbuffet
Ġgrat is
Ġinform ieren
finanz ierung
Eben so
Ġbeit ragen
ĠJac ques
Ġlegisl ative
R est
a pp
f Ã¶rderung
y e
er g
ich ard
ĠM aus
ĠI WF
ĠG est
de cke
Ġp our
ver genz
ad resse
os lav
ant ast
bl in
IN IS
ĠSp eicher
im p
Ġ5 1
Ġ9 2
inn ern
Ġgew alt
ĠVertreter in
ĠMittel meer
fÃ¤l lig
Ġkompl iziert
Ġglob alen
ĠKan ada
ĠFisch ler
Ġpriv aten
ĠArgum ente
Ap ril
Ju gend
ĠKamer a
tell igen
Ġuntern ommen
Ass ozi
ROZ ESS
B el
G ute
K O
P rÃ¼
T elefon
V oll
V ideo
b rauch
d urch
w achstum
z eige
an walt
Ġw ei
au lt
it o
Ġb ut
ĠM wSt
ĠD ist
op ul
Ġer teilt
Ġan nehmen
ĠZ UM
ĠN iel
Ġver g
ĠAn meldung
Ã¤r ken
ben en
ĠSch atz
Ġum ge
Ġsch afft
ele v
ick e
ĠAr men
Ãĸ N
od es
ĠFinanz mittel
ĠDe fizit
ĠÃĦ gypten
Ġeigen t
ĠWest ern
Ġroom s
ĠGeorg ien
ĠGrenz e
ĠWider spruch
ĠDigit alen
Ġtot al
ĠMÃ¼n chen
ĠgefÃ¶rder t
ĠENT WICKL
val u
Ġren ov
Ã¤mt liche
ĠFISCH LER
B o
F ahr
F RAGEN
H umanitÃ¤re
P A
P al
Z B
b ack
h el
w an
Ġ acht
ur a
ĠP O
ĠE p
ion e
ĠR am
ra y
ĠH Ã¼b
il a
am ing
ĠN utzer
Ġab sur
fahr zeuge
Al b
Ã¤h ler
ĠMa y
ĠMa zed
ĠGes icht
Vor schlag
ĠQu elle
gl icht
Ġgeb oten
Ġte uer
Ġth at
Arbeit sprogramm
ode x
ĠLehr en
Car lo
Information s
ĠDoll ar
Ġregel mÃ¤ÃŁig
ĠLam y
ĠEigent um
ĠKaffe e
918 30
ĠHÃ¼b ner
P ort
c u
h eim
m s
p ool
s ein
u ellen
or aum
ĠA USSEN
Ġf lexib
Ġf roh
ĠK il
ĠH ier
le un
Ġge stellte
us h
ist isch
ist enz
ĠSt ard
gr anat
ang s
Ãĸ R
Ġ4 1
ĠEin heit
Ġr ichten
ett o
Ġlie ber
Qu alitÃ¤t
Ġher zlichen
Ġgel ernt
ĠMin i
Am elia
LA F
ĠRÃ¼ck kehr
ĠEinzel nen
Ber ichterstatter
ĠPal ace
Ġinteress ante
ĠRom a
ĠStruktur fonds
ĠPfl anzen
ĠHerz egowina
mÃ¶ glicht
ĠHeim at
ĠgrundsÃ¤tz lich
M uss
P H
a o
f assen
p te
u alisierung
Ġ ;
Ã¼ gel
el y
ĠB MW
ĠM au
ol den
ĠD ein
ĠG ericht
ĠV ir
ĠT eilen
am in
ĠL ettland
ent wurf
Ġver urs
ehr t
imm en
Ġp lan
ĠSch ne
IN EN
Ġa p
iz e
St aaten
ord nungen
we gt
Ġgen auso
IG KEIT
ĠÃĦ r
okum ent
ĠEx port
ĠVers ionen
Finanz ierung
Ġfort gesetzt
Mein es
ĠEuropÃ¤ isches
bet rag
ĠLeist ungen
ĠnÃ¤h ere
ĠUnivers itÃ¤t
ĠImm obilien
Ġkonzentr ieren
Ġvorber eitet
C c
T err
T reffen
V iviane
W ebs
k urs
ei ern
Ġw est
it ekt
Ġb lau
ĠP rin
ĠF it
ĠF ER
sch auen
ĠR oh
Ġg ra
ĠH an
ig i
ĠW Ã¼r
ĠT om
ĠZ in
ĠC ecilia
Ġst eigt
Ġsch Ã¶nen
est s
bar a
Ġab gesch
An sonsten
Ã¼n den
Ġlie fer
RA G
Ġ8 7
Ġviel es
40 7
Ġen gl
sb edingungen
ĠRo y
Ġend et
Ġern euer
Ġgleich zeitig
mÃ¤ÃŁ igung
reg ion
ĠSer bien
hÃ¤ng ig
ĠStud ien
Ġsel ber
uh l
ĠAir port
Ã¤hl ten
ĠVeranst altungen
Frage stunde
ĠAbstimm ungsstunde
ĠKooper ation
Ġverhinder n
Ġvorange gangenen
ĠNÃ¤ch te
Koh Ã¤sion
ĠnÃ¼tz lich
Kaiser granat
ĠMazed onien
ĠStard oll
C om
I EL
L IS
M in
P ark
T un
T ransparenz
U ER
Ġw Ã¤chst
ur laub
Ġf rag
Ã¼r en
Ã¶ der
ĠD irektor
ro b
re a
ĠN ik
eu ert
ad or
IN E
ĠmÃ¼ s
Sch Ã¶n
tz entrum
me erraum
Ġ9 5
ĠMitglied staat
SCH USS
ĠWort laut
reu en
ĠNeu igkeiten
ĠVerbraucher schutz
ĠPR ESSEMITTEILUNG
ĠOpt im
ĠMiss ion
angeb ot
ĠMand at
Spiel raum
LU FT
Tab elle
546 29
Cc ile
B EL
D IEN
S eien
w affen
Ġ Dies
Ġd is
ĠS tern
ung er
ĠP rakt
ter ung
der ungen
Ġg reat
ĠD ritte
le ger
ĠT rag
op ou
Ġver Ã¤ndern
Er gebnisse
Ġdass elbe
ĠAuss icht
ard o
Ġhin gewiesen
ald o
ĠGen eralsek
ĠâĤ¬ )
ile o
ĠBed roh
ĠFre unden
fÃ¤l lt
Ch ar
ACH ST
ĠPla za
ĠSy rien
Ġwirtschaft lichen
abhÃ¤ng igkeit
eiger ung
Ġbetrach ten
ZusÃ¤tz liche
ĠkÃ¼mm ern
F unktion
M laga
P T
V IS
Z EN
a ste
h op
k u
k omp
r al
in itiative
ie fer
ĠB all
ĠM i
ĠM Ã¶
ĠK rimin
ĠF a
ĠF raktionen
ĠI SO
ss on
ĠH ot
ier er
ĠW echsel
Ġzu letzt
ĠT on
Ġ2 96
ĠAn lagen
si a
Ġvor sichtig
An n
Ver wenden
rie be
pf l
sam keit
Ġ12 0
Nach haltige
Ġletz ter
ĠFr eitag
Ġempf ehle
ĠWei hn
ĠKar l
roso ft
Ġged acht
IO JA
Ur mas
Christ ian
ĠBAL KAN
Ġbeob achten
ĠPA ET
2 15
D K
D R
H IL
M ill
P RO
k ontrolle
m itte
p on
p erson
p Ã¤ck
ie ssen
ĠS aison
Ġs ec
Ġi Phone
Ġb o
ĠD at
ro ht
ĠL I
ut a
eiter keit
ver y
ĠO ut
In dien
RO L
ĠEin richtung
klÃ¤r t
OM IOJA
ĠKon zert
ĠMar okko
reu z
Ġpolit isch
sol id
ĠAbkommen s
ipf elt
87 6
Ġgesp eichert
ĠerhÃ¶ hen
ĠkÃ¼nft igen
ĠJahrh undert
ĠTU OMIOJA
Besonder s
1 01
B eh
C hin
E X
F re
G D
L IK
P ost
T our
Y R
g Ã¤
k Ã¼nft
u ck
at al
ĠA kte
ur teilt
ĠP fer
ĠK allas
ĠF ehl
Ġau ft
ann is
ĠN utz
ĠVer sprechen
Ġp asst
Ġaus schlieÃŁlich
rÃ¤ ft
iel ler
ĠSch nell
Ein er
ÃĦ R
ic al
rie ch
we cke
Ġlie fern
Ġ7 9
Ġges etz
ĠCh em
ĠSo und
okrat ische
ĠFr anzÃ¶sisch
hÃ¶ hung
ĠauÃŁer ordent
haus halt
ĠTest s
Ser bien
eta ill
Ġerweiter t
ĠFakt or
ĠSign al
Stra ÃŁburg
wÃ¤ sche
Prakt ische
ĠHimm el
G o
G lob
S an
S Minister
c am
d igt
k m
u be
ĠP akistan
ĠE B
ĠB ORG
ĠF o
sch iff
ĠR and
Ġbe unruh
Ġl Ã¤ÃŁt
ĠN eben
ĠN ACH
Ġst abil
ri z
ri ent
ĠSch ulen
Ã¤t igung
zu legen
Ġent decken
Ġre ch
wÃ¤rt s
10 2
Ġbet ragen
ĠDe finition
ĠEur ostat
Ġger Ã¤um
ĠGeb urt
ĠEurop ol
ĠMed ia
ĠDisk riminierung
ĠWe sten
rÃ¤um en
Ã¼l len
ĠChar akter
Gleich zeitig
ĠInternation al
sto ÃŁ
Ġvorliegen den
ĠStad tzentrum
Ġoper ation
ĠTex te
689 09
teneg ro
A GEN
E is
G lÃ¼ck
K enn
N ame
W oher
j en
k ont
k enn
p rÃ¤sident
r and
s orge
Ġd auer
on esien
ĠS au
ĠS eg
ĠS terne
Ġs ichtbar
Ġv o
sch ten
ind ik
Ġer b
Ġer geben
ĠZ ur
rei ft
nen nung
sp ar
ver ein
ĠSch ande
Ġsch uld
si b
Ġvor n
Ġvor rang
ĠAb reise
ru cht
Ver st
we der
ĠGe fÃ¼hl
Ġlie ben
vor schlag
ĠFor derung
ĠVert rÃ¤ge
ĠIN TER
ĠzurÃ¼ck kommen
ĠWor k
ĠMont i
Ġwesent lichen
stra ÃŁe
umm ern
Ġoffiz ielle
ĠKredit karte
Selbst verstÃ¤ndlich
ĠGEMEIN SCHAFT
ĠBestand teil
ĠExper ten
bliot hek
ipfelt reffen
G U
G ipfel
H eiterkeit
K ULTUR
M alta
P C
U KT
k ultur
v es
Ġm ache
Ġm elden
Ġv ari
Ġb auen
ĠM eld
ĠK rie
ĠF ang
ĠF leisch
ĠH armon
ĠW are
ĠW under
ĠZ ul
CH EN
Ġsch icken
ang o
Ein leitung
ger Ã¤te
IT AL
ne y
ST IT
ekt ion
og el
Ġ6 4
ĠAuf bau
vor schlÃ¤ge
ĠFl uss
ha i
wor fen
Ġpolit ischer
Ã¤ng st
IM A
ĠFre e
FOR DER
chten stein
fre ie
ĠNord see
ĠOrd ner
Jed och
Ġreag iert
ĠSlow akei
ĠEUROP A
ĠerÃ¶r tert
STRA TEGIE
E lekt
G i
H a
W TO
n o
Ã¤ nen
Ġw ollten
Ġb reakfast
ĠP AL
ĠF Ã¶rder
ĠF ISCHER
ĠD A
Ġzu gelassen
Ġst eckt
sp akt
est ein
atz en
Ġ8 8
SP E
ay s
ĠHer steller
Ġwirk sam
ĠHand lung
ĠFahr zeug
ĠDu sche
Ġerst re
olk estein
vers orgung
ĠMitt ag
ĠCor azza
seit ige
Ġregistr ieren
ĠTats achen
ĠSam stag
Ġers etzt
emal ige
J os
M oder
R ahmen
d io
m inist
o f
s Ã¤chlich
ich ert
ĠS IE
Ġs y
as a
ir ekte
ĠB ra
ĠM L
ĠM uster
ĠF OR
Ġp ark
Ġaus ger
he ber
wei ten
lie b
ant rÃ¤ge
ĠAuf nahme
SP ROZESS
sk i
RE ICH
Pro f
gew Ã¶hn
ĠBet ten
sel ben
fÃ¤h ige
leg ungen
Ma ja
wÃ¼r dig
Ġbem er
ĠAussch Ã¼sse
lad im
ĠBon us
ĠFakt oren
Alex and
ĠKonsequ enzen
B uchen
D on
K omp
R om
T ext
Y STE
b art
g Ã¤n
n Ã¼
u i
z ahlen
Ġd re
ĠB ack
ĠB olkestein
ĠM ir
ĠM erk
ĠM oldau
ĠG ute
ĠG az
ĠW W
Ġge z
ĠC AR
ĠVer m
kl ar
Ġall eine
ĠEin stellungen
Ġre alistisch
OL AF
RA H
SP LAN
ĠÃĸ ff
wirtschaft ung
Vor bereitung
ĠDienst leistungs
ĠVers uch
schied et
Ġderzeit ige
Ġverm ieten
TEL LUNG
atien ten
57 517
Nation ale
atein amerika
kor b
ĠFOLGEN DE
STIT UT
C on
F ast
F INANZ
J apan
K ern
f ass
Ġd esto
an ia
Ġder artige
ĠK ron
ĠK ampagne
ĠK Ã¼nstler
Ġh aupt
ĠF ire
ach er
ĠL ei
ĠL ast
ĠL Ã¤nge
ent s
EN D
ĠN ic
ĠVer pflichtung
ĠRe fer
Ġst re
ĠSch reiben
rau chen
gel d
eschÃ¤ fte
Man che
ĠĠĠĠ ĠĠ
201 1
akte ure
Ġbeant ragt
Ġentscheiden de
Ġentsprechen den
ĠMont ag
Ġpl us
ĠLeist ungs
ĠlÃ¶ schen
meld ungen
Ġbill ige
ĠKor ruption
Geb iet
Ġregion alen
ĠprÃ¤ z
Ġus w
ĠKrank heiten
Ko oper
ĠSant a
ĠReserv ierung
Ġbewer tet
schm utzung
ĠSat ell
wes end
ĠWell ness
ACHST UM
1 97
C atherine
F il
K abeljau
N ord
P aket
p rinzip
ĠS ite
or ah
or ient
or ca
ĠA udio
ĠE ZB
ĠR und
Ġwir kt
op t
Ġl ohnt
ĠC enter
ĠÃ¼ber ein
Ġt rag
Ġst er
Ġaus geschlossen
Ġsein es
aus gaben
uch ten
Ġbes itzen
IG EN
Ġgegen wÃ¤rtig
wend igkeit
ater i
Je an
Ġbeh aup
Ġoffen e
ĠText il
199 7
ĠschÃ¶n sten
Handel skommissar
Ġinst itution
Ġperf ekte
ĠInformations gesellschaft
Ġbekomm t
ĠGesprÃ¤ che
ĠbeschÃ¤ft igt
ĠUrs achen
Or g
ĠTodes strafe
ĠAutob ahn
ĠLandwir te
Ġmil itÃ¤r
8 10
D eb
M O
f red
f urt
r eit
v illa
an gt
Ã¤ g
ar kt
al isten
Ã¼r f
Ã¼r ich
ĠK andid
Ġg o
ĠH ard
ĠL Ã¶
ĠL eu
Ġan gew
Ġt rat
res sen
rau ens
Ġsch einen
ĠkÃ¶n nt
ekt ar
gem Ã¤ÃŁ
Ġgel esen
Ġkomm un
Ġkomm ent
ĠBet eil
iven Ã¶l
ĠBl ut
EC U
ĠBesch reibung
AF O
ĠCas a
produ ktion
Ġmaxim al
Jahres bericht
Res erv
ĠLux us
RAH MEN
D irekt
F I
M ax
S ara
l as
n amen
en er
Ã¼ ge
au r
ĠA bt
ĠP in
ĠE st
Ġein setzen
ĠM iet
ĠM exiko
Ã¼r e
ĠK reis
ĠK oc
et isch
ĠF ischer
Ã¶ ss
ĠW illen
lich keiten
re publik
ĠSt Ã¤rke
ĠC atherine
rÃ¤ glich
ed ia
ĠO ffen
ĠEr werb
IN K
Ã¼n de
Ġ5 4
ĠAng el
amm eln
ĠFor derungen
ĠEn gl
Ġher um
Ġgem Ã¤ÃŁ
amt ierender
Ġ199 0
ium s
ian a
Ġkommen den
Ant eil
Ġgeb aut
ĠSe ele
ott o
Ġbeh alten
walt ung
ĠAut os
ĠDeb orah
ĠHaushalt splan
ĠAkt ien
ativ es
ownlo aden
ĠPart ei
Ã¼t ung
ĠPo wer
-- --
ĠSon ntag
ĠZug riff
mÃ¶ gen
ĠgewÃ¤hr t
ĠÃ¤l ter
ĠIl l
ĠMinder heiten
Ġatt rakt
reist rÃ¤ger
Ġbedauer lich
ĠOmbud sm
D o
g eleg
z on
ie tet
ĠP ers
ĠM P
ĠM Ã¤d
ĠG N
ĠG O
ĠG alerie
isch em
Ġzu lassen
Ġge gangen
ĠU K
Ġbe enden
ĠVer zeichnis
Ġt radition
Ġst artet
Ġaus gel
In form
ÃĦ KI
Ġunter zeichnet
Ġwar tet
bar ungen
ĠRat svorsitz
beit rag
ub le
ĠÃľber blick
ĠAN T
So ziale
Ge org
ĠRei sen
ĠStand ort
ĠHand lungs
ĠBen utz
ĠDem o
ĠLe on
Ġwahr e
88 3
Finanz ielle
ĠBuch st
ĠLuft verkehrs
Ġhinzu gefÃ¼gt
ĠKern el
ĠBeitritt s
anc ic
ĠViel zahl
Ġzuge stimmt
ĠjÃ¤hr lich
Ġsorg fÃ¤ltig
INIS TER
B io
G IEN
I r
O ption
Z iele
b us
p olitische
r um
z ern
ĠS achen
Ã¤ be
or der
ge d
Ġm u
ol i
ĠF RAGEN
ĠR uÃŁland
Ġk napp
ĠG ent
ĠH en
le ge
ĠSie g
Ġer zeugt
Ġer innern
ĠSt ich
ĠC am
ĠÃ¼ber tragen
Ġt ranspar
Ġst ammt
Ġaus drÃ¼cklich
ĠEr ste
ÃĦ SID
ĠSp rach
An dern
Ġbis schen
Ġ9 1
ĠCh arta
SCH RIFT
ĠEur oraum
Ġcom fortable
51 752
ĠHaus es
ĠStimm abgabe
ij ancic
sprogramm e
ĠRegel ungen
Ġbew ir
ĠKÃ¼ ste
ĠMobilt elefon
90 403
ĠBel arus
Europ e
ezif ische
ĠDom ain
ĠAlt stadt
Ġverlan gen
Fol glich
ĠHam burg
ĠWIRTSCHAFTS RAUM
ĠRegistr ierung
C OM
I RA
L ouis
N IER
p ft
in u
Ġw echs
as is
ar ben
Ġun n
Ġf erner
Ġb lo
ĠP hilippe
ĠP otenzial
ĠM ech
ĠF und
Ã¶ gern
ĠD eine
ĠG erichts
ĠH amer
ĠW in
ĠW el
ab t
ĠT re
Ġer leich
EN N
Ġp ath
ul iert
ĠO LAF
Ġvor stellen
lei dung
EU ROP
Ver sion
Ġbis lang
ail and
Ġ9 8
ĠKon sens
ĠKon vergenz
Ġgew innt
Ġnun mehr
so fern
ĠBild schirm
Ge orge
ĠNach frage
LE IST
Ġte sten
ĠAut om
AB ILITÃĦ
Hin weise
INAN ZI
Ġschl imm
ĠFest ival
ĠKont akte
Ġerhe bt
Haushalt s
Nor wegen
wech sel
ĠKoc ijancic
Andern falls
H T
K W
K ommen
P ol
g or
k orea
k anzler
on om
Ġv ia
ĠP r
gen de
ĠF rÃ¼
Ġzu t
Ġan s
ĠC af
om alia
all er
In halt
IN STITUT
Ġgen annten
Ġ6 3
ĠZusammen fassung
ĠQu ellen
ac kt
iet nam
Ġbeh inder
Ġstell te
ĠLie chtenstein
ĠInst anz
IC I
Ġerg ibt
ĠBeh inder
Ġzie ht
!! !
Ġne un
Ins besondere
LI FE
ERS EN
grenz e
techn ologie
ĠBade zimmer
ERK LÃĦRUNG
ĠKatastrop hen
Ġhilf reich
ĠAD D
ĠSÃ¼ den
Ġabsur d
ÃĦSID ENT
6 00
B ed
L UNGEN
M ig
S eptember
S chengen
b is
b anken
s c
u blik
at iver
ĠM eister
ĠK u
Ġk Ã¤mpfen
Ġnicht ig
Ġbe wegt
ot her
sp ir
ĠSch loss
eb e
Ġwar m
An geb
ek ut
ĠAus stellung
olit ischer
Bei spiel
ran se
Ġpro duziert
rit s
schie ben
wor k
Ġgef Ã¤llt
sb Ã¼rger
ue ber
ĠâĤ¬ .
Ġbesch rÃ¤nkt
199 5
ĠVerein fachung
ĠMod elle
ĠWebs eiten
Ġschwier ige
NAH ME
jÃ¤hr ige
vis ion
ĠWohl stand
Ġverab schiedet
ĠTar if
ĠKolleg innen
ĠOrigin al
BEK ÃĦMPFUNG
ĠFac ebook
ĠENTWICKL UNG
ateri alien
K ategorie
N avigation
P lan
P rÃ¤sidenten
T AGUNG
a al
r ichtet
in ar
ĠS Ã¤u
Ġs epar
Ġf a
ĠB Ã¶r
ĠF utter
ĠG AL
ĠG Ã¼ter
ĠL obby
Ġge p
ĠSt u
Ġl angen
ĠC OR
Ġt imes
ver ordnung
Ġj ungen
ant as
Er n
ĠEin fluss
ĠBe zeichnung
Ġ9 6
Ġneue sten
ĠCh inas
Ġle hnen
Ġgew isse
Ġ199 1
ĠVerb rechen
fr isten
Ġausge zeichnet
Ġoffen en
ĠPolitik er
rÃ¤n de
rÃ¤n ken
beh andlung
opp elt
fang s
ĠRE V
ĠAuÃŁen politik
ĠWachstum s
ĠMil itÃ¤r
ĠPu blik
ĠWochen ende
ĠLu c
ĠLiefer ung
Ġunterschied liche
ĠTele kommunikation
ĠBAR NIER
Ġzweif ellos
atib el
7 80
G GA
N IS
R aum
i ale
Ġ ra
Ġ ed
Ġ achten
st a
Ã¼ ste
ĠS OL
ĠE ffizienz
ĠB ord
Ġh ell
ĠH y
ĠV ill
Ġauf s
Ġl eid
ehr en
ĠJ ose
ĠSch affung
ĠO K
Ġe cht
ĠVor feld
uch te
ĠEin sch
St ellen
ĠGe gend
ĠSchl ag
ĠÃľber gangs
ĠRed akteure
ĠArt ik
ĠProj ekten
BE I
Ġfor dere
Ġex p
Ġverw ende
lig ht
Ġweit gehend
ĠAll gemeinen
Ġleben s
ĠVorsitz ender
staat ssekretÃ¤r
Ġfort setzen
ĠRom ano
ĠLog o
Ġor igin
ĠÃ¼brigen s
Ġorganis ieren
Ġjeweil igen
sto ffen
Ġbekomm e
Ġgebe ten
ĠÃ¼berras cht
Ġert eilen
Ġangen ehm
ĠAnreg ungen
ĠFit ness
ĠauÃŁerordent lich
) ?
B ern
F rank
N S
O per
T er
o om
p fen
r ung
an as
Ġs eien
or ia
Ġf e
ĠB ier
ĠH ER
ĠH alle
ĠL A
ĠL ag
Ġge arbeitet
ĠSt ig
Ġver ring
ommiss ion
ĠÃ¼ber t
ĠEr lebnis
os a
Ġr ufen
Ġber echt
gel aden
pl omat
Ġbereit gestellt
Auf bau
Ġwieder um
ĠErgeb nissen
ĠSozial politik
ĠHin weise
ĠHin blick
Ġkonk reten
ĠschlieÃŁ t
Ġbill igt
ĠGott es
ĠAR BEIT
ĠWÃ¤hrungs union
gent inien
vin z
ĠTir oni
ĠFÃ¤h igkeiten
ĠFrem den
Nov ember
ĠNAT O
865 70
Alb anien
Ġster ben
H ans
S ETZUNG
T rans
o ffen
an ische
an gem
is st
ĠA fr
ĠE benen
Ġein geb
ĠB Ã¼cher
em o
ĠK AL
ÃŁ te
ĠIn t
Ġl inken
ell schaften
che z
ĠKommission svor
Ġo ff
Ġum s
ĠO bst
ĠEr st
lie fer
ger e
Hintergrund information
An ders
ST ER
Ġ5 9
Ġr etten
Ã¤ch er
Ġen or
spro blem
ĠAd obe
Ġlei den
Ġumf aÃŁt
Ġgest alten
Ġbesch lieÃŁ
ĠStra ÃŁburg
ĠKat alog
En de
ĠOst see
Ġfre ut
ikan en
ĠRaum s
uman ressourcen
ĠPo sselt
ĠvollstÃ¤nd igen
ĠBot schafter
Ser ver
con om
ĠkÃ¼nft ige
bezogen e
ĠgenÃ¼ gt
IEDEN SPROZESS
Ġhinn ehmbar
tex te
ĠGeldb uÃŁen
4 00
B lau
E Z
N o
R ot
T P
W ittling
Z ul
a ppe
w in
Ġ q
Ġm obil
ter nen
ĠB RO
ĠB urg
ĠB aby
ĠR unde
ro ss
ĠW olf
Ġer mÃ¶glicht
ĠU ser
Ġ( )
Ġan wesend
ist ischen
ĠSt Ã¤rkung
Ġver lie
ah e
ĠJ ourn
Ġum welt
ĠO L
wei le
ĠEr inner
Un ivers
ger ien
Ġent steht
An fragen
Ġgesch ah
ĠAus nahmen
Sch w
qu in
ap est
kehr en
yp en
40 4
ontr ol
USS LAND
ĠGeb Ã¼hren
ĠGemein de
Ġbek annte
ĠSu ites
vent ionen
ren nt
Verein fachung
ĠMod ul
Seit dem
frist ige
erecht igkeit
ĠTrans fer
Ã¤mp ft
Einzel plan
RIT T
Ġbr eit
wÃ¼rd igkeit
ĠKohÃ¤sion spolitik
Andre as
vern ance
Beschl Ã¼sse
ĠEind ruck
ĠWord Press
ĠGeneralsek retÃ¤r
mitte d
D imitri
R ober
S ebast
T A
T REFFEN
t he
Ġd oppel
an y
ĠA C
ĠP ET
Ã¼r zt
Ġh ad
Ġau ÃŁen
ĠD EM
ĠG ang
ĠT sch
ĠL EB
ĠN orm
Ġver fahren
ĠC lan
Ġst elle
An nahme
ĠEnt sp
St ud
Ġde utsch
glich en
ĠKon go
sk odex
Dar f
Ent decke
Ġgeb lieben
Kl eine
Ã¼nd liche
trag ung
Ġentsch lossen
ĠFil ter
bahn hof
ĠGroÃŁ britannien
Ġabge stimmt
ĠzusÃ¤tz lich
Ġgek enn
ĠMÃ¤n gel
Ind ustrie
ausen de
ift ung
Region ale
ĠKatastrop he
FORMATION EN
Ġpol n
H el
P o
j unkt
l esen
o ssen
w art
z ut
in ute
Ġw em
Ġs c
ĠA qu
Ġf amil
ĠP atienten
ĠE ffekt
ĠB osnien
ĠB rief
ĠR uss
ig ner
ĠW LAN
ĠT schech
ĠT Ã¤tigkeiten
ĠL imit
Ġan fÃ¼hren
Ġauf hÃ¶ren
ĠN orden
Ġver sp
ĠAn zeige
imm ung
lo u
iel d
iel ten
ĠO ct
ĠEr kki
In nen
Ġbei des
Ġ5 6
IL EO
ĠGe fahren
Ġ201 6
ap e
ĠKon st
ĠCh at
ĠAN G
ĠEuro barometer
ald irektor
ĠGeb ieten
ĠGew icht
Ġgenau e
sprechen d
rieden heit
ĠDu blin
ĠÃ¶ffent licher
opp en
ĠAnd ris
Kon k
ij a
Ġderzeit igen
Ġru e
FF ENT
ĠER K
ĠEurope an
SF RAGEN
ĠPan or
ĠzustÃ¤nd ig
ĠGesprÃ¤ ch
Ġerle bt
ĠWesent lichen
Ġausges prochen
Chin as
Ġhaupt sÃ¤chlich
LEIST UNGEN
B ek
F est
F Ã¼nf
G eld
T ra
d auer
l ings
s ych
en kt
at ische
Ġun ann
ĠB ilanz
ĠK ann
Ġh oh
Ġh oher
ĠF rits
Ġk Ã¼r
ĠW ACHSTUM
Ġzu lÃ¤ss
ab l
Ġauf grund
Ġt ra
Ġp g
sp ielen
nt her
Ġvor ne
ÃĦ T
ĠSp ass
Ġ5 7
ĠUN TER
Ġlie fert
Ġbes orgt
rin k
sk on
gem inute
Ġhin gegen
per atur
Pro blem
ĠNach folger
BER ICHT
Ent schlieÃŁ
Wo zu
Mehr ere
ĠMob il
Ġgest artet
Ġbesch rieben
ĠGer Ã¤te
Ġunver zÃ¼glich
mer z
ĠAben dessen
ĠBerat ungen
Ġzug ute
ĠAuswÃ¤rt iges
Ġkom fort
Sub mitted
ĠVerh eugen
ĠNachbarschaft spolitik
Ġrenov iert
4 10
J ac
P la
R ei
S D
S ollte
b esch
n i
p al
p apier
Ġ reisen
Ġ ueber
st ab
Ã¼ nther
ĠS ex
ĠS aint
Ġs on
it ar
Ġm ieten
Ġder art
ĠP AT
ĠP ascal
Ġein gesch
ĠB lo
ĠR io
Ġer inner
ĠZ Ã¼rich
ĠIn flation
Ġver stÃ¤nd
Ġsich ern
ungs bereich
akt or
AN I
zu gang
ant rag
Ġc lose
ĠAus bau
we ge
ĠAnt rÃ¤ge
ĠAl pen
ĠÃľber sicht
Ġ19 89
RE EV
51 883
ĠBes orgnis
ĠPl attform
Re de
ĠMittel meerraum
rach ten
AC E
Ġbeh oben
ĠFahr er
ĠÃ¶ffent lich
mÃ¤ÃŁ ige
ĠBundesminister ium
Ġkompl ette
Ġschle chte
ĠPu erto
Ġbem erk
netz e
ĠergÃ¤n zen
Ġmaxim ale
Ġeng ag
Ġbetrach tet
ĠComm un
On line
ĠKlar heit
Tele kommunikation
ĠDub ois
Nat as
Alexand re
INSTITUT ION
A uff
E h
G O
S H
V W
b em
v ar
er z
Ġs ex
ĠA z
ĠA ct
Ġf ur
Ġb i
ĠE D
ĠB ILD
ĠM all
ĠR ande
ĠW Ã¤hler
re y
Ġ1 10
ĠZ w
ĠZ igar
Ġl aut
ĠN ull
ĠVer hÃ¤ltnis
Ġp e
eil er
men Ã¼
iert el
Ġ4 379
Sch wei
oh ne
Ã¤h le
ĠEin kommen
ĠMa ster
Ã¤nder te
ho u
Ġihr es
ĠmÃ¶chte st
Ġ6 7
ĠUm feld
ĠWirtschaft spolitik
Ġwirk liche
gew Ã¤sser
ĠGeb rauch
Ġex cellent
ĠFahr zeuge
Ġerwar te
fÃ¤l l
ly mp
ĠDialog s
ĠBau ern
ĠRis ik
ĠSchwei geminute
ĠLi ikanen
ĠUS D
ĠSa al
seit ig
ĠMy SQL
Ġorganis iert
Bar bara
lant ik
Komm ent
Ġerheb lich
ĠPlen um
ĠÃ¼berras chen
Ġsozial er
ĠUR L
B A
F ebruar
G ehen
L og
h ard
h ause
k rank
w anderung
el te
at hr
Ġm iss
Ġn ennt
ĠM angel
em ische
Ġz eich
ĠK er
sch Ã¶n
ĠR Ã¼
ss ektor
ĠH ahn
ĠW HO
ĠT rop
ĠT reff
um bien
Ġge handelt
ĠAn reise
Ġt oll
ver trag
ver waltung
uf el
Ġvor ge
Ein fÃ¼hrung
os itionen
IS Minister
Ġent standen
fahr er
EM inister
halt igkeit
ĠAnt i
ĠAl kohol
Hier fÃ¼r
SCH EN
ce ption
ĠÃľber n
Ã¤ss ig
ĠVerb indungen
ĠGeb Ã¼hr
ip e
Kl ima
Ġbesser en
Ġumf ang
ĠBed Ã¼rf
laub wÃ¼rdigkeit
bo ok
Ġvert eid
ĠJahres bericht
sekt ors
ĠWerk zeug
ĠkÃ¼nft ig
ĠDoppel zimmer
Ġregistr iert
ĠGet rÃ¤nke
ĠAusgang spunkt
Stand ard
Ho ffentlich
ĠgewÃ¼n schte
Ġleich te
Ġkorrig iert
instrum ente
Bas ed
ĠHaft ung
Ġinvest ieren
Clau de
SOZIAL POLITIK
Ġberu ht
REEV Y
D ank
H omepage
I vo
Y PR
g Ã¤nge
i dent
Ġ Ã¶ffnet
ie den
ĠS AN
Ã¤ se
it iert
ge halt
Ġun ein
ĠP res
ĠE L
ĠB or
ĠB org
ĠM ak
ĠK as
ĠR uf
ĠD rei
ĠH ektar
ĠV ista
Ġge klÃ¤rt
Ġan bieten
ĠSt rategien
Ġal tern
Ġmit ten
etz e
In sofern
la fen
id ay
ĠAl p
Ġet c
OL A
ĠAuf sicht
ĠDe p
ĠAp ost
ĠPl Ã¤tze
16 6
Ġklar stellen
AC K
Ã¼h l
ĠSCH RIFT
ĠVerein ten
miss ion
zip lin
spl Ã¤ne
ĠPlan ung
ĠPR ÃĦSIDENT
ĠNor men
ĠLehr e
Ãĸffent licher
Verwalt ung
ĠMasch ine
ĠEint ritt
ĠLib anon
beauftrag ter
Ġkeines wegs
Ġrie s
Rep ublik
Mart in
Empfeh lung
ĠCook ies
ĠKy oto
Ġrech nen
junkt ur
Ġunann ehmbar
ĠSCHRIFT LICHEN
5 37
L ernen
M Ã¼ndliche
T INI
U p
W AR
Y ER
k reis
k rieg
m ed
r or
st Ã¤nden
Ġw eb
Ġw ohnen
el and
Ġi P
ĠB Ã¼
ĠB ill
ĠM ur
ĠK ammer
ĠR ay
ĠG UCHT
ĠG laubwÃ¼rdigkeit
am ten
ĠL os
ik ations
Ġp rivat
gr Ã¼nd
ĠSch re
Ġsch riftliche
ĠMinister prÃ¤sident
eg elt
art agung
32 2
Ġab hÃ¤ngig
geb Ã¼hren
ess a
ĠAnt onio
IG ER
ĠDe ut
our s
ĠÃĸ k
ĠÃľber legungen
Kommission sprÃ¤sident
Zu erst
ĠBo x
Ġkosten lose
Ġwel ches
Ġunver b
fern ung
Ġeinger eicht
Ġspez iell
ĠÃ¤hn liche
ĠCH F
Car l
Ġhistor ische
Ġunterschied lich
ĠDar lehen
Ġerheb liche
ĠvernÃ¼nft ig
wech s
ĠModer nisierung
ĠVoraussetz ungen
ĠIdent itÃ¤t
ĠVinc ent
ĠBetrugs bekÃ¤mpfung
Wettbewerbs fÃ¤higkeit
ĠMÃ¤d chen
D igit
G et
P UB
R a
S I
T ier
b ro
t i
Ġw ell
te uer
ĠM andel
em pf
ĠK ap
ĠF uss
ĠF RAT
Ã¶ die
Ġin dem
ĠG anze
ĠL eiden
Ġge he
ĠZ ut
Ġl o
Ġt rau
eiter n
ag d
sen dung
gr Ã¶ÃŁe
Ġj ust
wei f
iv ier
ĠUn abhÃ¤ngigkeit
Ãĸ L
fen ster
kl aus
Ġc ont
ĠEin richtungen
Ã¼ck en
od a
ĠAuss age
ĠBe ziehung
ĠReg ierungs
ĠArbeit splan
ĠFinanz ierungs
ĠRecht setzung
ĠEuro zone
eist ungs
ĠOr te
bild ungs
hÃ¶ he
ĠMet hoden
ĠPol ack
ARBEIT SPROGRAMM
ĠGesetz e
ĠGesetz gebung
ĠLog ik
system e
FR IEDENSPROZESS
Ġvorgeschlagen en
Ġprof ession
rÃ¤nk ung
ĠGet reide
Et wa
INTER GRUND
ĠChe ck
Terr or
LUFT VERKEHR
ĠWW U
ĠFRAT TINI
A ug
F ÃľH
I ES
e er
h am
m il
w ard
Ġd rÃ¤n
Ġd ram
st ation
Ã¼ ler
ĠS ur
Ġw eite
at i
ur n
mm en
ĠM und
ĠM osk
ĠK A
et o
ĠR a
Ġg eist
ĠH ong
ĠT it
re gend
ĠL at
Ġge Ã¤
ĠZ ielen
ien s
ien ce
ĠN EU
Ġst Ã¤dt
Ġp art
ungs schreiben
ĠO t
ĠEr satz
im al
Ġam t
Ġber echnet
Ġ6 1
alt h
ĠUm satz
fÃ¼hr ende
wirtschaft liche
ICH EL
Ã¶ÃŁ en
Ġger egelt
15 0
EI RA
co unt
Ã¼h le
anis men
ĠMed izin
ĠHa ar
struktur ierung
ĠSub st
Ser ie
Vertrag sverletzungsverfahren
ONT I
Ko ordin
reform en
ĠgewÃ¼n schten
ĠgÃ¼nst ig
Form at
Ġstren g
ĠAnwend ungen
ĠServ ices
ĠEreig nisse
Ġerstre ckt
Ġtranspar ent
- ,
C or
P erson
P ierre
S AT
U ERUNG
Y ou
_ _
b c
f s
l eiten
l Ã¤ufig
m ien
o annis
ie fe
Ġi dent
Ġn orm
ĠP ri
ĠE P
ĠE le
ĠK en
ĠK ab
ĠF ett
sch ule
ĠT ru
ĠL ouis
Ġge zogen
Ġan gel
ut age
ff ung
ĠÃ¼ber zeugen
ĠJ on
ĠJ ugoslaw
ell o
ĠEr folge
Ġa c
utz e
utz utage
Ver y
Ġr ichtet
ord nungs
AR K
ap ie
Ġviel mehr
Ġon e
olog ischen
fÃ¼gbar keit
ĠPolitik bereiche
ffiz ient
Ġerg riffen
Ġposit iven
Ġfinde st
onn ieren
ĠCl ient
UND HEIT
ĠPort al
ĠSICHERHEIT SPOLITIK
produ kt
yr ne
LIN K
Ġlok ale
ĠTick et
Ġschn elle
ÃĦH R
Ġkultur elle
ukle are
atastrop hen
ĠberÃ¼h m
ĠJugendher bergen
ĠBedroh ung
ĠML LER
1 12
B esch
E mer
F erien
J U
M Ã¶glich
M itglieder
a a
h Ã¤fen
k ontrollen
m ale
o ge
r iere
w Ã¤l
y le
Ġd ynam
ĠS AP
Ġm ang
ĠP IN
ĠP resserefer
ĠB innen
ĠR UP
ĠD ra
ĠD ach
ĠW C
ĠVer ordnungen
ot te
ĠJ es
bar sch
Ġsp p
Ġeinfach en
ĠStaat es
forder n
Mar i
ĠDem okrat
199 6
Ġerst es
hol m
ĠMit entscheidung
Ġfre e
pen sion
Durch fÃ¼hrung
zuf Ã¼hren
Ġkomp atibel
NAH ER
Ġumfassen de
ĠFerien wohnung
ĠEing ang
flÃ¼ gel
Fortsch reibung
GroÃŁ e
ĠFlÃ¼cht linge
KON FERENZ
ĠFA Q
ĠSekt oren
Ġzerst Ã¶rt
ĠMic rosoft
ĠArznei mittel
Presserefer at
deb atte
ĠLI FE
ĠBILD T
B AR
B osnien
E bene
F ahren
G ar
I hnen
M et
M ont
S UD
g us
m ord
Ġd etaill
on ym
ĠS IL
Ã¤ der
el emente
au ern
Ġv ollen
ĠK OR
sch Ã¼sse
ĠR ett
Ġin t
ĠH ome
ab end
il ber
Ġl Ã¤dt
ik al
ot re
ĠJ ung
sp rinzip
ĠSch atten
ed es
In zwischen
Ġunter wegs
lei hen
kl agen
ĠVor der
Er kki
oh a
Ġre c
qu ellen
Ã¶ffent lichung
stellung nahme
Ġgest altet
ĠRes ult
Den ken
ĠWeb cam
ĠGu mm
fel der
Se ete
ĠhÃ¶r t
EV P
Ġangeb racht
komm t
ĠKre atur
Fr anz
ĠWieder aufbau
ĠSw iss
ÃĦnder ung
flÃ¼ ge
ĠZivil gesellschaft
Ġdigit ale
ĠSim babwe
ĠMED IA
ETT BEW
Ġdah in
Ġerh ielt
wind igkeit
ĠNiel son
ĠSchne e
Ġangew andt
INSTITUTION ELLE
ĠRUP EL
Seete ufel
ETTBEW ERB
6 65
? ?
D om
D rogen
E xt
J AHR
R ER
R und
T w
b ur
d liche
d igen
r enn
t a
u ste
w ald
z esse
Ġ rau
an isch
Ã¼ cht
ung al
Ġf antast
ĠP OL
Ġein ander
ĠB re
Ġin cl
Ġin telligen
ĠD U
ĠH aust
ro Ã¶konom
ĠW ett
Ġzu kÃ¼nft
ĠT ief
ĠT ipp
re en
Ġst at
etz ung
be f
eg al
RO RIS
Ġent nehmen
An na
Ġc ent
ĠEin kauf
Ġre chten
ĠAl lt
ĠArbeit sk
ĠLand schaft
ĠMar gar
icher ungs
ĠVert rieb
av en
ec ial
ĠnÃ¤ch stes
spro chen
Ġlang er
Bet eiligung
ĠSu ite
Ġverw ir
ĠFahr rad
ĠFil me
AK P
mitt lungs
HANDEL SFRAGEN
ĠKlima anlage
gn Ã¼gen
Se ezunge
Ġdir ekte
Ne ws
ĠSÃ¼d afrika
ĠNot wendigkeit
ĠhÃ¶ch st
ai wan
Gleich es
ĠArch itekt
ĠExp ress
ĠOrganis ationen
Ger ade
Ro ger
ĠDan iel
Gener aldirektion
Ġanerk annt
ĠglÃ¼ck lich
ĠHT ML
opou lou
ĠBeteil igten
1 96
C o
C ode
D amals
K K
L O
L etzt
W alter
Z EU
b ieren
b utt
c ast
h y
k unden
m ung
m or
s etzt
z ung
Ġ eleg
Ġ rÃ¼ck
Ġ arbeite
Ġs an
ĠP au
ĠB rian
ĠK r
ĠK inn
ĠK orea
ĠI R
ĠR ue
Ġin tensiv
ĠV ari
ier ra
ĠW urz
Ġge pf
op ien
ut es
ĠN izza
ĠC row
ĠAn bieter
Ġp ara
land s
Ġunter st
ru ckt
Ġso weit
Ġab gerufen
Ġr at
ĠBe werb
qu enz
ĠÃľber gang
ĠmÃ¶glich en
ĠBet rug
VER BRAUCHER
sb est
esse d
eig net
Ġerforder n
yn or
ĠLie bl
ĠPh Ã¤n
Ġunterb rochen
ĠTra ynor
Ġbestimm en
Ġbestimm ter
sent ation
Ġmoder nen
Europ ol
ĠSchul z
ĠWaren korb
ĠGener ation
Ġeinzig artig
Ġbeteil igen
Ġnied rig
AuÃŁen beziehungen
pla y
ĠMik ro
Ġkontroll iert
ĠVerz Ã¶ger
ĠErwachsen e
Ġkonst rukt
906 77
215 48
PUB LIK
4 50
H ar
H and
H allo
K or
N O
N IK
P a
S IS
S yr
X EM
c s
f as
Ġd ownloaden
ei ro
ĠA U
ir g
hr t
ĠB OT
ĠB utt
ĠM as
ĠK OS
ĠK DE
ĠK reuz
ĠF al
Ġg riech
ĠG F
ber echt
ĠV ia
ĠL eid
ĠZ wecke
ĠAn h
ik te
Ġp ost
rÃ¤ der
AN IEN
ok raten
ger echt
Ġzur zeit
enn is
ĠSp ielen
ST LEISTUNGEN
ĠBe weis
Ġber uh
rt eile
ystem e
fl Ã¤chen
20 7
ĠTeil nehm
ĠDokument ation
ohn ungen
Ġgest Ã¤rkt
ĠStr ing
ĠFrei zeit
Ġeinge halten
Ġeinge tragen
Ġfrei will
Neu es
plan ung
ME ER
AD T
HEIT EN
Ġteil t
ikan er
ĠPla y
ĠGu inea
ĠUS B
ĠzusÃ¤tz lichen
ĠChar lie
ĠKrank heit
ĠeuropÃ¤ isches
Ġhistor ischen
apaz itÃ¤ten
VIII c
ĠGal ileo
ĠEmiss ions
ĠunabhÃ¤ng ig
Ġspan ischen
Produ kte
ĠHinder nisse
Ide al
valu ierung
ĠRoy al
D UNG
F EN
M al
R ICHT
U kraine
c in
m Ã¤cht
u is
v ollen
Ġ QU
st euern
Ġs ervice
it iv
Ġun w
ĠA st
ur teilung
Ġb us
Ġn ett
Ġein geben
ĠB yrne
ĠK atzen
ĠF assung
ĠF air
ĠR EH
ĠG A
ĠG U
ĠG erechtigkeit
ĠH Ã¤nde
ĠH Ã¤nden
ier bar
lich ten
ĠT im
Das s
Ġver ste
Ġver urteilt
ĠC re
ik alien
Ġst e
Ġst Ã¤rk
sp reis
ĠEr zeuger
IS E
ru he
Ġe ure
ĠVor stellung
ĠRat s
Ġc ar
Ġc ity
ĠEin fuhr
ord anien
itglie dern
OR EN
IG ES
pro jekte
ĠMar s
rit erien
SA B
ĠHer berge
Ġwieder holt
oc kt
oten t
Ġausge fÃ¼hrt
ĠSozial fonds
ĠFlug zeug
itiat iven
Ġu se
gemein schaft
Ġne w
ĠZug es
fiz ite
ĠStart seite
ĠFÃ¼hr er
ĠRest riktive
Gegen wÃ¤rtig
Nation aler
Ġdemokrat ische
ynam ik
ĠFrank furt
Emiss ionen
ieh lt
Komment are
RORIS MUS
8 00
H INTERGRUND
I nt
N euer
N AFO
O st
S ervice
T ar
W eiÃŁ
n ame
t te
w n
Ġs ub
ĠA cc
Ġm et
ĠB Ã¶
ĠB rem
ĠB lock
Ġh umanit
ĠR inder
ra st
Ġin klusive
ĠG AR
ĠH Ã¤ndler
ĠV on
ĠT O
re b
Ġer halte
ER T
ĠN ick
ĠC OM
ĠÃ¼ber aus
Wir k
Ġp re
Ġsch licht
scha ffen
In frastruktur
ste x
ste uropa
IN O
ru z
Ġa ir
Er klÃ¤rungen
ĠAus stattung
uÃŁ ert
Ġr elev
Ġ6 21
Ġ7 2
Ġ7 4
OM ER
agen da
Ġbet onen
MEN T
ĠRecht smittel
IE DER
Ġbrau che
ĠKl ick
Ã¶ÃŁ t
Ã¤tz t
EC D
ID S
ĠProjekt s
ĠMe tern
ĠschÃ¶n es
ĠPark plÃ¤tze
ĠLehr er
ĠStabilitÃ¤t sprogramm
Frei er
Ġirgend w
ĠAust r
ĠUpd ates
ĠLauf e
ĠBi bliothek
Ġdigit alen
Te am
ĠJahrh under
AKT ION
Menschen rechte
ĠJava Script
ĠerlÃ¤u tern
INS GESAMT
ĠDiam ant
ĠTax i
C hr
R IK
S al
g ier
k und
n eu
w olle
Ġd rau
Ġs ite
te d
ir n
ĠP ay
ĠE v
ion al
ĠK uba
ĠR ein
ro om
ĠL oc
Ġge stattet
ĠC I
Ġim port
Ġst arb
etz te
ĠSch au
ĠmÃ¶ gliche
ĠO H
AN IS
ger Ã¤t
os oph
wer ben
iz es
Ġsp ann
Ġsp eichern
od or
stell ten
ze pte
Ġkl ass
ĠKon k
sk rise
Aus bau
Ġkon sequ
EG F
ĠMon tenegro
ĠX P
Ġange passt
EIN KOMMEN
Ġverl Ã¤nger
Ã¤d te
leist et
ĠGÃ¤ sten
ĠMed ik
ĠauÃŁer gewÃ¶hn
riff e
ix el
gn ose
jahr es
frist ig
ĠgefÃ¤hr det
Ġprakt ische
ĠAlb anien
EF RE
Ġbetreffen den
mod ell
Ġav ec
ĠRel ig
App artement
Ġeingel eitet
Ġacc essed
ĠMO EL
wirk ung
ĠSTE IN
nor men
ĠTrain ing
mech anismus
Ġbit tet
XEM BURG
7 85
H Ã¶
W EI
W ELT
b an
b iz
d y
s an
u elles
Ġ ass
en se
in uten
Ġd ans
Ġd rÃ¼cken
an fÃ¼hrungs
it im
Ġm erk
Ġz ahlt
Ã¶ tet
Ã¶ tz
ĠR ing
ĠR EG
ĠD ial
ĠW art
ĠW ild
ĠL iter
Ġ1 12
ĠSt ufe
ĠAn rei
lo ser
ĠPro vinz
iel te
ĠSch icks
nt h
Ã¶n nen
ĠmÃ¶ gen
ÃĦ SS
Sch affung
ĠJahr z
Ã¤nder ungen
Ãľber wachung
ĠArbeit sprogramm
ĠRecht sstaat
Ã¤lt igung
KT ION
Ġkosten losen
Ã¼h len
Ar ch
ortug ies
Ġempf angen
ĠFrÃ¼h jahr
ire ct
Ber eich
OU Minister
ĠFischerei politik
UST RIE
ĠMark eting
ĠPla ya
ĠFest pl
wir ken
ĠHo hen
ĠDiskuss ionen
ĠBeschl uÃŁ
Euro barometer
ĠRECH TS
ÃĦN DER
aud it
Ġverhinder t
ĠSchn itt
Ġrest riktive
ĠHol iday
ESTE UERUNG
Ġbrit ische
Helen e
Kan ada
Ġeigent liche
ĠKrimin alitÃ¤t
Ġwechs eln
sbÃ¼rger schaft
ĠgeÃ¤ uÃŁert
Ġnorm ale
ĠKinn ock
K einer
M i
N ATION
S C
T om
W ind
W ahr
d r
f ekt
f Ã¤nger
g leichen
h l
j er
s uchen
er maÃŁen
ĠS et
Ġw ettbewerb
or ial
ĠA H
Ġb lieb
Ġn Ã¶r
ĠP utin
ĠE b
ĠB rit
ĠM assen
ĠM ode
Ġz er
ĠG ehm
ĠH um
ĠH und
ier s
ĠT schechische
il den
Ġt olle
och e
ver folg
Ġo ver
ĠO lymp
ĠAb fÃ¤lle
be wertung
Ġab lehnen
ak ische
im um
ĠUN O
ĠÃ¼bern immt
AL D
od ge
ĠBe wert
qu al
Ġ6 6
Ġkl Ã¤ren
Ġ10 40
ĠUnter staatssekretÃ¤r
Ã¶l n
ED ING
ĠPl us
Ġgeb raucht
UR CH
ĠInter vention
sst rategie
ĠLe der
Ġunver Ã¤ndert
ĠInf o
stehen de
ĠKonsult ationen
Ġeinzel ne
ight s
ĠTer mine
Ġspez iellen
ĠFern seh
ĠFe atur
Zeit punkt
ĠErd gas
Ġwert voll
ĠgewÃ¤hr leistet
Ġmus sten
Mir oslav
ĠlÃ¤nd liche
Ġvorliegen de
ĠÃ¶ k
Ġexist ieren
ifik ationen
Ġbedau ere
ĠEint rÃ¤ge
Ġmittler e
WEST LICHE
ĠNahr ungsmittel
ĠSchÃ¶n heit
ĠLied texte
Deleg ation
1 10
B C
H ein
K at
L as
S am
W aren
a fe
c le
l ern
o ter
r us
on ie
as ien
as zin
ar es
ge kommen
Ġv al
Ġv ierte
Ġf il
Ġf ehl
Ġb on
Ġb eschÃ¤
ter ungen
ĠE T
ĠE CH
ĠE SP
ĠM ix
ĠM Ã¼l
ĠK UK
et ische
ĠI ST
sch wer
Ã¶ hnen
ĠR od
Ġg reift
kt op
Ġan sehen
ann o
ĠSt ufen
ĠN iveau
ik ett
ĠO rient
ĠMinister s
Ġc ategor
Wie so
Sch war
99 780
St att
ĠGe ber
Ġ6 8
Ġ6 9
Ġ9 00
OL M
Ġ8 4
ĠTh ailand
Ġon ly
per i
AG FL
All ein
16 2
Ġklar en
Ġern annt
ĠMein ungs
LICH ER
88 9
Finanz audit
Ġinteress ieren
Ġkompl iz
ĠCO STA
ĠLebens qualitÃ¤t
LÃĦ NDER
Ġar ab
52 407
ĠMig uel
Ġwunder bar
REG ION
Ġmed izin
ĠGeneral anwalt
ĠLeg isl
ĠExt rem
Ġkorrig ieren
ĠBla ck
ĠbemÃ¼ hen
ĠKompeten z
ĠRab att
strich en
UKT UR
2 10
7 16
B ilder
r asse
w ig
Ġ rei
er te
st uhl
Ġw id
ge ht
te k
Ġm ut
Ġm ass
Ġb aby
ĠP ir
ĠE hre
Ġein iger
ĠF er
ĠF le
ĠG eschÃ¤fte
ĠW ol
ent wick
len a
Ġl ike
ĠC ont
ri p
Ġhab t
wei len
be ziehung
Dies em
uch s
Ver l
ges s
ĠReg ulierung
ĠGe f
ĠGe pÃ¤ck
ap el
ĠAnt nio
Ġ9 7
Ġbet rÃ¤cht
ĠMar got
Ġgem Ã¼t
Dar lehen
ater ini
ĠEx ekut
ĠFr ont
ile mma
ĠBen utzung
ĠMarkt wirtschaft
Ġschw ed
Ġeinge stellt
ĠThe or
IC E
ĠSan chez
fÃ¼l len
Dem okratische
Ã¼lt ige
Ġschwier iger
ĠKont inent
bet rieb
organis ationen
mÃ¶glich en
Ġerz ielen
ĠApp l
ĠEntwicklungs zusammenarbeit
ĠCO W
ĠCor por
ĠPf ad
Schluss antrÃ¤ge
ĠVorgehen sweise
greifen de
ĠAuftrag s
ĠBud apest
Datei en
Ġhervorragen d
ĠVar ian
Ġklin gt
Allgemein es
ĠFlor enz
HIL FE
ĠJugoslaw ien
ĠREH N
ĠGehm inuten
1 000
A ik
B ut
F rd
K apit
f acht
i fe
j ekten
p ret
r asch
s Ã¤tzen
ich ern
ĠS av
al em
Ġm ore
Ġm omentan
Ġb u
ĠP e
ĠM eg
ĠM ON
ĠM ALM
ĠM otto
ĠK m
ĠK ompl
ĠG eg
ach bar
um in
ĠL ob
ĠL IND
ĠL szl
ĠU MW
ĠSt amm
ige m
ĠKommission smitglied
Ġum gehen
ul ieren
wei st
ĠAb rufe
Er ster
Ver handlungen
id d
id sch
ĠMa ÃŁe
rat is
Ġre form
Ġre duziert
Ġzwei erlei
ĠAl ias
Ġkein em
ĠKl icken
Kommission smitglied
ĠNach mittag
itu ationen
zeug nissen
Ġbek Ã¤mpfen
Ġbesonder er
Ġbesch leun
Ġkurz em
ĠAnd re
OV A
ĠKÃ¶nigreich s
ĠGegen stand
Ber at
ĠSer ie
ĠZugang s
Durch schnitt
ĠSchwei zer
ĠKÃ¼ sten
ĠGo vernance
ĠfÃ¶rder t
ITÃĦ T
Ġunge w
Komm unikation
ĠBef ehl
Ol li
ĠStre cke
Ġleich ter
RECH T
Ġnachhalt igen
yan mar
ĠnatÃ¼r liche
ĠWa ite
Ġausw Ã¤hlen
ĠKompon enten
Ġumge kehrt
Ġflexib el
ĠKil ometer
ĠmÃ¼s ste
ĠBenutz ern
ĠGent oo
Ġberecht igt
ĠClan cy
ĠERK LÃĦRUNG
ĠMall orca
C ecilia
D ownload
H ow
M yanmar
N A
N et
S ollten
T ief
e ct
h len
k ette
m acht
r s
Ġd unk
Ġs orgt
ĠP riv
ĠE du
ĠB YR
ĠM os
Ã¼r gen
ĠK ombin
ĠR enten
Ġin kl
Ġk enne
ĠD O
ĠD R
ĠW and
ĠW ille
Ġan halten
ĠSt immerklÃ¤rungen
Ġbe ab
Ġl as
ĠN O
ĠC R
Ġst ruktur
sp olitische
Ġsich ere
ul den
Ġsch Ã¤tzen
Ġvor zu
RO M
Ġe chten
ĠVor stand
Ġab end
Ġab out
Ġnach denken
ST ADT
ĠEin lad
gra d
ĠAl m
ĠFinanz ausschusses
Ġ8 81
rin ken
ux ur
ĠWelt wirtschaft
ĠAN D
20 20
ian ce
ĠBest Ã¤tigung
Ent sch
98 8
ĠY ou
ĠMan ager
Ġinternation aler
Ġhoch wert
ĠRechts grundlage
ĠBilder n
Ġschl immer
Ġaufge fÃ¼hrt
Ġmitt el
ĠPu bl
ĠStellung nahmen
ĠEd ition
duz ieren
Ġext ra
Ġerweiter n
ĠGas peri
ĠAltern ativen
lÃ¤nd ischen
rekt ur
ĠPlen artagung
ĠTick ets
ĠzustÃ¤nd ige
ĠZert ifik
ĠgrenzÃ¼ber schreiten
ĠTrag Ã¶die
ĠKommissionsvor schlag
ĠApost ola
665 65
Aik aterini
ĠUMW ELT
C ard
C rist
H ast
I TE
M obil
R Ãľ
l assung
r olle
s abkommen
z ehn
Ġd ur
Ġm essen
Ġf lieÃŁ
ĠP op
ĠP RE
Ġein bezogen
den z
et tet
sch ulen
ĠG Ã¼nter
ber ger
eit igung
ĠW Ã¶rter
Ġzu tre
ĠL E
ĠL ateinamerika
Ġ1 30
ĠN a
ĠAn leitung
for d
err y
Ġt rans
ĠJ er
eiter t
ag te
men gen
Ġsch wei
Ġsch warz
In wie
be ben
Ġbei gefÃ¼gt
Ġc omm
ak is
fahr zeugen
olit ischen
id s
ĠKon figur
ĠMitglied schaft
rit ter
ĠKl aus
ĠVorschl Ã¤gen
Pro jekte
gehen de
stÃ¤nd ig
spiel er
ĠBÃ¼r okratie
Ġgute m
achst an
199 4
Ġzusammen arbeiten
Ġempf iehlt
ĠSchw imm
ĠAll ah
th i
Ġfort fahren
ĠVerteid igungs
verb ot
lÃ¤ss lich
get ragen
ĠhÃ¶ here
jÃ¤hr igen
ĠBud get
Ġgerecht fertigt
ĠMcC REEVY
Ġtr ennen
ĠZuf all
ĠParad ies
ĠbeglÃ¼ckw Ã¼nsche
ĠAlc ide
ĠAustr alien
A gentur
B us
D agegen
G EM
P I
i im
l ager
st eigen
ĠS H
ar r
Ġm aÃŁ
Ġf Ã¤hrt
ĠE DS
ĠB ON
ĠB lau
ĠM AT
ĠK R
ĠH IER
ĠV ene
ĠT eu
Ġge plan
ĠZ onen
ann i
Ġbe stellt
Ġbe arbeiten
ĠN A
Ġst ammen
In nov
An der
nah m
gra de
Hier bei
Ġ8 6
stÃ¼tz t
gar ten
ĠFor st
ĠTh un
Ã¤l ter
ĠVert retung
ĠSo ft
ĠSo fort
ha ften
sm an
ĠBes onder
Ġex klus
sb eh
ĠSu iten
Zur zeit
ĠRÃ¼ck en
Bes ondere
ĠTour en
ĠPart y
Ġentscheiden der
Ã¤um en
Ġernst haft
Ġgesp annt
Sol idaritÃ¤t
ĠFuÃŁ ball
Ġgek auft
ĠGed uld
ĠKre bs
ĠMA Y
ĠDeleg ationen
ĠArbeitspl atz
OW SKI
ĠAgentur en
ĠVerl Ã¤ngerung
ĠKur se
Is rael
Ġbedau ern
Ġperson en
ĠEmiss ionen
Ġstrateg ische
nor wegische
ĠPil ot
Ġmor al
ĠVen edig
Leit linien
kenn st
ĠWork sh
Syr ien
ĠSchicks al
Frd ric
A ben
C B
C P
G S
G EB
L aden
L EITUNG
W ur
W eb
k Ã¼rz
n g
u ver
v y
w ender
Ã¼ ben
ĠS D
ĠS end
au b
au te
or es
ar ge
it ies
Ġm ak
ĠP ia
Ġein schlieÃŁlich
ĠM S
ĠM ol
sch Ã¼re
Ã¶ scht
ĠR AH
ĠR ennen
ĠH or
ĠV isa
ĠV ietnam
isch t
Ġwir st
ĠL AND
Ġer kl
Ġer setzen
Ġan schlieÃŁen
ĠN H
ĠN RO
ĠN euer
ĠAn sichten
ĠPro zeÃŁ
ort h
oll t
Ġj eg
men s
ĠEr lÃ¤u
bl er
An ne
Ġc re
uÃŁ t
AL IS
ges p
Ãľber mittlung
ĠUm frage
Ġbes eit
ĠArbeit geber
iger e
ĠTh omas
okum ente
Ġcom p
Ġbed roht
Ġverst eht
ĠRo bert
ĠSk andal
ĠVER BRAUCHER
ĠGer ichte
Staat sminister
ĠVers orgung
IC A
ĠPal acio
ĠWissen s
ĠerwÃ¤h nte
ĠSy mb
ĠKar el
ĠAben teuer
ĠEntwicklungs fonds
verstÃ¤nd nis
ĠPrÃ¤ vention
verb rauch
Ġruh ige
ĠWohn ungen
ĠZust Ã¤nd
ĠKrank en
Ã¶hn lich
Fran co
Ġpassen de
Ġangegeben en
Ġlok alen
ĠAbstimm ungen
Partner schaft
ĠSOZIAL POLITIK
ĠenttÃ¤u scht
ĠbeglÃ¼ckw Ã¼nschen
DIEN STLEISTUNGEN
Ġbemer kte
ĠOmbudsm ann
Ġkomfort abel
FÃľH RUNG
F ern
F Ã¼hr
I OU
K L
L in
N Ã¤ch
O ST
O bst
P edro
R u
R ub
S ir
S pro
W ahl
W Ã¤re
c z
c ial
d av
d ay
h ua
k ord
s burg
w ahlen
z ahlt
Ġs itzen
Ã¼r k
ol as
sch alten
ĠR eich
Ġk op
Ġk ombin
ĠH ow
ĠH Ã¼ter
ĠH Ã¶chst
ĠV ogel
ĠT ib
Ġwir ken
am i
Ġver grÃ¶ÃŁ
ĠC ab
ĠC ap
ĠC our
for um
ĠRe aktionen
och ter
inist err
ĠSch Ã¼ler
Ġj etz
Ã¤t te
all el
Ġvor schlagen
ĠUn sinn
AN A
lei d
ES CU
Ġent deckt
ĠVor rang
Sch nell
St ar
id as
Ġber eitet
ĠDe utsche
25 0
pu y
Ġ15 5
gesch rieben
ichte te
ĠSpiel s
one y
OV I
Ber eits
ĠIs lam
ĠAt om
ĠRE PUBLIK
Ġvert rauen
Gemein samer
ĠKop ie
ĠEs c
Ġaktiv ieren
KÃ¶n nten
Ġsel ben
ĠWerk e
ĠDownload s
je ct
Ben ita
ĠPrivat sphÃ¤re
ĠGleich gewicht
Sh op
ĠEing abe
ĠDar stellung
ĠbefÃ¼r worte
ĠZahlungs fristen
ĠRub rik
Ġunters ucht
Mitt woch
ĠgenÃ¼ gend
ĠTool s
Ġreserv ieren
ilater ale
ĠnatÃ¼r lichen
ĠPlug in
invest ition
Vorsitz ender
ĠFeed back
Vorgesch ichte
Ġplan en
876 24
gÃ¤ ste
ĠzulÃ¤ss ig
Ivo ire
ĠDeut schen
ĠMandel son
ĠMosk au
B au
B rasilien
J ust
J ose
O pt
P P
R is
S IM
b ogen
e y
k at
p ol
u eller
Ġ ),
an er
ĠS ammlung
el de
at om
is c
Ġv ous
Ġb reite
em and
ĠK alender
ĠF ans
ĠI mpf
ĠI KT
ĠR oll
ĠD ek
ĠD oha
ĠG ES
ĠH inter
ĠH tel
ĠH orizont
ĠV o
ĠW Ã¤l
ab len
ĠL esen
Ġan geben
ĠZ eilen
ĠZ USAMMENARBEIT
us ionen
rei ter
Ġver geben
Ġver gangenen
ff ekte
sp aket
UN TER
ank a
ont o
ÃĦ gypten
ĠVor lage
id ad
ĠGe orge
acht ungs
ap ur
Ġbet ont
ĠProgramm en
ilt on
Ġgel iefert
ib r
reu ung
Mar ie
Ġakt ive
ĠEnergie effizienz
16 1
Th omas
OS LA
Ġpolit isches
86 4
ĠRo ck
ĠUr heber
Kon sult
Ġentsch uld
Bis lang
ipf els
verb indung
ĠSa una
ĠPerspekt ive
auss icht
Ġkur zen
Ġzentr alen
ĠBeruf s
Ġgarant ieren
UG OSLA
ĠRech ner
ĠergÃ¤n zt
ĠbeschÃ¤ft igen
ĠKenn zeichnung
Ġeffekt iv
Ġrespekt ieren
ĠÃľb rigen
Ãĸff nen
Ġverurs acht
Eis enbahn
ĠHarmon isierung
ladim ir
ĠEDS B
B uch
P art
R echn
T RAG
Y S
k om
s bek
Ġ enden
Ġd Ivoire
un sten
ĠS ehen
ĠS IM
Ġm achte
ĠE conom
ĠB RA
ĠM ah
ĠM eilen
ĠM iÃŁ
ĠK abel
Ġk re
ĠD EL
ĠG utsch
ĠH AL
ĠH unde
ĠT u
ĠL ohn
ind fleisch
ann a
ĠC AM
Ã¼ber trag
ff end
ĠRe ader
ĠJ UGOSLA
Ġst ehe
Ġp or
Ġp reis
scha ffung
anz ig
ĠEr kennt
Ġvor genommen
Ġ3 50
AN ST
bl ig
ĠSp ir
ĠSp iegel
ek ter
zi a
we ckt
ĠReg ime
Ġ7 3
Ġ8 3
pro zess
Ġle er
war tet
ĠMar io
Aus bildung
entr ale
Ġhin ein
ĠQu e
Ġger ichtet
46 1
Ġgemein t
AC OV
Ġoffen bar
Ġgest iegen
ĠverfÃ¼gbar en
Ġsag ten
ĠGÃ¤ st
hol e
ĠTÃ¼r en
ĠJu an
yn n
ĠAUS SCHUSS
Ġch amb
ĠRom puy
ĠBus h
87 166
ief st
bien te
Ġentsp annen
ĠErn st
ĠIm age
Noch mals
Ġauss prechen
Ġverein bart
ĠCent re
ĠGlob al
Is land
ĠLiber alisierung
Ġenor me
Schwei z
537 73
ĠSchre yer
ĠAllt ag
ĠPhÃ¤n omen
Ã¶tz lich
ĠGeg ner
thi opien
B i
C onn
F ree
M us
M ED
b our
i h
k ampf
y th
z io
ie ur
ie ter
Ã¼ ten
ĠS IS
ĠS MS
ein richtungen
ar ischen
is ion
ĠB ran
ĠM itgliedern
em iss
ĠK apazitÃ¤t
ĠF ont
ĠR Ã¤ume
Ġg ingen
ĠD ok
ĠH D
ĠH al
ĠH Ã¤user
ĠV it
ĠT ask
ĠT auch
Ġ( *)
ĠZ it
EN B
Ġt at
Ġp a
Ã¤r Ã¶
ungs maÃŁnahmen
ĠVor beh
Ġneu este
EU GEN
Sch aden
og ar
Kontakt ieren
qu elle
ĠEuropa fragen
Ġ8 1
ĠDe ck
GEN D
ĠgroÃŁ em
Ab fall
ou p
ĠBet rÃ¤ge
BER EICH
ĠAp onte
stat ten
iet ung
ĠInd ik
Ġbed anken
Ġverb reitet
Ġern ste
Ġfal schen
ĠSchw eine
ĠThe ater
com e
IV E
gn osen
Ġerfolg te
wir d
Ġschle chter
Ġmitt eilen
Ġind ustr
ĠhÃ¶ch sten
ĠVis um
Geb Ã¤ude
ĠEd el
ĠEng land
ĠImp ul
ograf ie
Ġuntersch eiden
Ġko ordin
RECH TE
ĠUrs ache
tent wicklung
ĠKolleg in
Entwicklungs kommissar
ĠausfÃ¼hr liche
ĠGesundheits wesen
ĠFein d
ĠjÃ¼ng sten
ĠUrspr ung
ĠVERH EUGEN
Amer ikas
ĠTun esien
ĠVerhand lungs
Mill ionen
Org anis
order ungsschreiben
Ġzut iefst
Dimitri j
grÃ¼nd ung
C he
D isk
D etails
E du
K AR
K Ã¼nft
M B
N eben
O Y
P M
R ein
T ro
W ichtige
b ten
f ul
Ġ ol
Ġ Ã¤r
er a
in Ã¤r
Ġd Ã¤n
Ġd ringen
Ġw eisen
Ġs ystem
as p
ar if
Ġun a
ĠP ul
ĠB rÃ¼
ĠM aterialien
ĠD or
ĠD iv
ĠD enk
ĠG B
ĠG ibt
ĠV IS
ĠW il
ĠT ochter
am as
00 01
ĠL ok
ĠL ust
Ġer hoben
ER LINK
Ġan gesehen
ĠVer d
ĠVer fÃ¼gbarkeit
ĠAn der
ĠAn ruf
ĠJ av
form at
oll ar
ĠSch warz
UN FT
wei ch
ing EU
Ġvor Ã¼ber
ÃĦ hn
Dies bezÃ¼glich
Ġe ffizient
Ġent weder
An g
ug nisse
ĠAus rÃ¼stung
ST AND
io v
Ġr eine
lan gen
ĠAuss ichten
IL ÃĦ
we cken
qu oten
Ġman che
erk unft
ĠCh a
Sp ort
ĠÃĦ uÃŁer
AND LUNGEN
IP F
ĠHer stellung
Ġkon figur
Ġwill st
AM A
Ġbeg eister
ĠPl at
kon g
Ã¤uf e
ĠRes pekt
ĠEN ERGIE
asch utz
ĠEmpf ang
enk ung
Wor auf
ĠGar ant
ĠSteuer ung
system s
ĠOb jekte
Ben utzen
ĠGener aldirektion
retar y
ĠergÃ¤n zte
Region al
Ġers ucht
Ġstand ard
egel ung
eier liche
Mil ch
bereit ungen
ĠFÃ¼ le
Leben smittel
Ġlangfrist ige
kur se
ĠInnov ations
YP ERLINK
ĠGRA SS
masch ine
Red ingEU
Ġunglaub lich
Webs eite
Ġabgesch afft
ĠprÃ¤z ise
ĠStu denten
ĠGeneralanwalt s
B AL
B IP
F reuen
G ad
H EN
H Ã¤ufig
K om
M omentan
P OL
P fl
P CD
R en
S enden
V err
W ohin
W ALD
c os
d rÃ¼ckt
k le
p hen
r end
v ie
w ohnungen
Ġd id
on str
ĠS V
ein haltung
or derung
Ġb aut
ĠE hr
Ġh eil
ĠR ichter
ĠR einigung
Ġg eil
Ġg elegt
ĠD ynamik
ĠH A
ĠH oll
isch ung
ĠT rÃ¤ume
ĠSie he
Ġ1 01
Ġan fangen
ĠZ auber
Ġver altet
ĠVer arbeitung
ri o
ĠSch eide
Ġum setzen
TE Q
Ġvor legen
ang aben
ĠBer t
Ġe en
ĠSp itze
Ġc ool
ak u
Ã¼ck e
Bei des
ĠAnt arkt
ĠUm gang
ler nen
ĠAuf preis
Aus wirkungen
11 1
ĠKl assen
Pro tokoll
ĠQu art
gesch ichte
spro zeÃŁ
ĠzurÃ¼ck zu
ĠBes ser
ĠSu mme
Ġausge fÃ¼llt
ĠBo ut
Wo j
ĠBesch werden
LA V
Dem okratie
AK IS
ĠTour isten
ĠBeh Ã¶rde
ĠLuft fahrt
!! !!
ĠBinnenmarkt es
ĠBus quin
Gemein schafts
ĠPol y
fre ut
For um
For schungs
ĠgefÃ¤hr licher
ĠÃĦnderungsant rÃ¤gen
ĠBESCH ÃĦFTIGUNG
Ġverein bar
ÃĦnder ungsantrag
Ġbein halten
ĠBER EICH
ĠMass age
ĠElekt ron
Inst all
instrum ent
ĠUrspr ungs
ĠsÃ¼d lich
Ġsm all
Rest riktive
athr oom
Ġkonsequ ent
Spro tte
ANST ALT
PCD D
0 25
6 05
B ES
G ab
J Ã¤hr
K V
K ontakte
N a
R ichard
Z ug
d atum
g Ã¤nger
g riffen
h eil
m eine
r ations
s eig
es a
Ã¤ sst
Ġs ammeln
Ġun zul
ir ol
Ġn u
ter te
ĠM at
Ġz ielt
ĠK AR
ĠK Ã¶ln
Ġh andel
ĠD res
ĠD ay
ber n
ĠH umanressourcen
ĠL aden
ĠL isten
Ġer werben
Ġauf gebaut
ĠN iger
ĠAn leger
ff et
ĠJ A
Ġp f
Ġaus geb
ver schmutzung
ĠKommission sprÃ¤sident
men te
Ġdies elbe
ĠEr Ã¶ffnung
ĠUn gleich
ok ol
ok us
ÃĦ L
iz hou
kl icken
ĠVor sicht
ĠEin fuhren
enz o
OM inister
Ġ8 2
war ten
ĠDe fizite
Ã¤lt igen
ĠÃľber rasch
Ġ14 0
RE FORM
Be achten
ĠEnergie politik
Ġverb inden
ĠDeb atten
ĠgrÃ¶ÃŁ eren
ĠRo om
ORD NUNG
Ġschw ach
ĠErfolg s
ĠAnd ors
ĠRechtss achen
ĠwÃ¼n scht
OU LOS
Ġunver z
ring ung
wesen heit
ĠÃ¼b rig
ĠStat istik
Ġglob aler
amb od
ĠEntwicklungs hilfe
Ġbel Ã¤uft
Ġbevor zu
Ġintegr iert
ĠTal ko
ĠChancen gleichheit
GrÃ¼n de
ĠHu bert
Su per
Ġhinn ehmen
Jn os
Viviane RedingEU
ĠMeld ungen
ĠGN U
ĠErinner ung
sbek istan
Woj tek
B O
D i
J ohannes
N atur
O ber
P le
S y
Y izhou
d is
f ox
j ust
k ennung
n ation
u gt
z z
Ġd achte
Ã¼ ch
Ġs ucht
ĠA ud
Ġm usst
Ġn enne
ĠP edro
ĠB ab
ĠB ranche
ĠM essen
ĠF I
ber ichte
ĠH eiz
Ġzu verlÃ¤ss
le ch
ĠL OU
op her
Ġer gebnis
Ġer wiesen
ĠZ iegen
ĠN AH
ĠVer gnÃ¼gen
ĠAn pass
ik ationen
Ġst ill
Ġp as
ĠSch ritten
ĠEr nennung
lei sten
os h
ĠAr zt
aus stattung
RO U
ĠAus blick
ak a
Al tern
lin es
id ier
Ġdar gestellt
ĠGr Ã¶ÃŁen
Ġ7 6
wÃ¤rt igen
ĠKon sum
zeit raum
Ġpro dukt
ĠFl Ã¤che
11 5
ĠmÃ¶glich st
NEH MEN
Ġ18 0
ander n
ĠInternet seite
Ġbesonder es
ĠHaupt ziele
Ġverw altet
Ġaktu alisieren
CK ER
ativ itÃ¤t
Ber ichte
Schl Ã¼ssel
bo den
ĠPal ma
Ġbestehen den
ĠHo he
haupt stadt
ĠEntwicklungs lÃ¤nder
Ġbel g
Ste uern
Ġumfassen d
61 404
ii i
Inter ess
Ġerk annt
ĠLib yen
ELE GEN
unn el
Ġhervorragen de
ĠTrend s
Ġehrgeiz ig
gest altung
ĠfranzÃ¶s ischen
Handels beziehungen
810 35
ĠKandid aten
Bern ard
Ġverring ert
stex ten
ĠDiamant opoulou
ĠMALM STRÃĸM
dav on
Rechn ungs
B ank
B UCH
C T
G B
H ome
L es
S oll
a e
b rechen
s bereit
er be
ei s
Ã¼ st
ĠS ar
Ġs i
Ġs im
el o
au x
at ent
or i
Ġun e
ĠA T
ĠA ber
Ġm o
Ġf alls
ĠP ixel
ĠE sp
ĠB art
ĠB EL
ĠM uss
ĠI S
ĠI ACOV
ss ig
ĠG ord
um pf
ĠL aufen
Ġer fasst
Ġan zeigen
Ġan passen
ĠZ ahn
ĠIn tern
Ġdes ign
ĠN ero
Ġt here
Ġt ime
Ġt Ã¼rk
Ġst oppen
ĠSch i
he z
Ã¤t ten
Ġsch war
ĠO ze
In itiative
ang er
eb uch
zu ela
ON EN
ĠAr ray
art iges
Ġmehr fach
klÃ¤r te
ĠAuss agen
ast ung
ers atz
ap s
Ġ7 7
ĠFinanz rahmen
ĠSchl acht
Ġgeht s
IE K
ĠSo f
ac in
Mar okko
ĠMon te
spro dukt
Ġex port
sb ildung
ĠWas ch
AH N
Kl ein
Ġsicher en
Ġverb ringen
ĠFahr plan
ĠFlug hÃ¤fen
ĠVER KEHR
ĠVerein barungen
ĠEUROPÃĦISCH E
Bes uch
Programm e
ĠPh otos
ĠLin ien
Ġnation aler
ĠBr un
Ġschwer e
prÃ¤ sent
DEN OV
Ġausgew Ã¤hlten
ĠOrg ane
IND USTRIE
ĠGener aldirektor
Internation aler
ĠStÃ¤d ten
ĠPrinzip ien
ĠgefÃ¶rder ten
ĠZusatz frage
ĠGrÃ¼ nen
ĠDen ken
Ġunmittel bar
ĠSchatz amt
ĠbeschlieÃŁ t
ĠTreff er
Ġwettbewerb s
Schwar zer
ĠRAH MEN
ĠAntarkt is
seig ner
6 99
B EG
B Ã¼ro
H A
L uc
M orgen
M exiko
R IKA
S ICHERHEIT
T here
b ilder
i ol
m Ã¤h
r ele
w en
Ġ art
Ġd iver
un ken
ĠS amm
ĠS yn
Ã¤ m
au ben
ar o
al i
al ys
Ġm ot
Ġm ont
Ġf Ã¶r
ir gt
ĠP ek
ĠB INNENMARKT
ĠM ango
ĠF la
ĠF ried
sch rank
ĠG ange
ĠG olden
ĠV otes
de fizit
ĠT IM
Ġ2 99
il er
um er
ĠL EA
op e
ĠU l
Ġden kt
Ġauf gerufen
Ġl Ã¤ngst
ĠC hal
sen z
Ġaus einander
be ob
ĠBer ge
ant s
ant es
ĠAr me
aus wahl
wer de
Dies mal
iz ieren
Ġso eben
ĠSp ar
ak er
im at
Ver m
ĠEnt fernung
ic ation
Ġgibt s
Ġall zu
Ġdar unter
Ġ9 4
pro jekt
gel eitet
Ġgew issen
ep al
35 9
Mail s
ib le
ink el
Ġange wendet
ĠMittel n
ĠFr isten
ĠHaupt bahnhof
Ġverb leiben
Ġrecht liche
ĠBÃ¼rger meister
Ġverl etzt
ĠFrei zÃ¼gigkeit
ĠMein ungen
ĠPrior itÃ¤tsachse
hol fen
wie gend
Ġunver gess
Ġaufge hoben
regel ungen
Akt iv
ĠPort o
Ġlaufen den
Gleich wohl
sph ase
ĠChrist ian
Ap artment
sichtig ung
Ho he
Fortsch rei
Lie be
Et was
ĠgrÃ¼ ne
Ġneg ativ
Wen iger
ĠEreig nis
IAN OU
Ġunzureichen d
Ġvirt uelle
jen igen
Georg ien
ABILITÃĦ TS
Ġunein gesch
bc d
ĠGef Ã¤ng
ĠLEA DER
9 00
A k
D oppel
G I
H alten
K re
L Ã¶s
M ik
M ad
M Ã¼n
M INISTER
P G
P au
z weck
Ġ Dieses
Ġd ro
ie fen
ĠS un
ĠS ir
ĠS OM
ĠS ource
Ġs a
el er
as on
ar ma
Ġun f
ir bt
Ġn on
ĠP ierre
ĠE C
ĠB irma
Ġin nen
ĠD ingen
ĠH ein
ĠH il
ĠH alte
ĠH Ã¤fen
le hnung
ĠT RAN
re ut
se eland
ĠL och
ĠL im
ĠL odge
ĠZ er
ĠN I
Ġver schl
ĠVer antwort
ĠAn ne
ĠÃ¼ber arbeitet
Ġt our
Ġt rotz
ĠJ UN
ĠJ ohannes
ag ra
ĠEr weiter
ad emie
be weg
end um
aus schuÃŁ
Ġe asy
Ġent stand
Er asmus
geb Ã¼hr
ill igt
Ġsp ort
Ġde aktiv
ett a
ĠUhr zeit
ĠZeit alter
ech ste
ech nung
fe ct
ĠCh i
ĠDe c
IK EL
gem ann
Aus stellung
schie dete
ĠGrund lagen
Ã¶l f
str asse
ĠNach haltigkeit
Ant onio
Ġwissen schaft
sst and
Ġbed anke
Ġbed ienen
Ġis ol
ĠRo ute
ĠLe vel
cen ter
ĠCo unt
ys ik
ĠAkt ualisierung
ĠAbkommen stexten
En dlich
ĠBuch ungen
ĠPh asen
ĠTe e
ĠLuft verkehr
Zusammen fassung
ĠDes ktop
ĠBro t
ĠBr and
obil ie
best Ã¤nde
ĠHoch schul
ĠTeam s
Ġvorgeschlagen e
ĠSec retary
ĠZust ell
ĠmÃ¼nd lichen
ĠExp orte
andt eile
ÃĦnder ungen
ĠLo i
ĠMag az
ĠOl ivenÃ¶l
Zus atz
test et
rab ant
ĠKohÃ¤sion sfonds
ĠDr ittel
ĠRh ein
ĠPhil osoph
ĠVoraussetz ung
ĠMehrwert steuer
ĠJur y
Ġletzt es
ĠApart ament
Ġwest lichen
ĠWeihn achten
ĠGaz a
ĠTschech ischen
ĠOct ober
ĠANG ELEGEN
ĠCommun ity
blig ator
ĠANGELEGEN HEITEN
) -
4 379
B ild
F S
J ur
K arte
K Ã¶nig
M e
S ach
T Z
b eschl
b Ã¼ro
d ialog
e der
g ir
k as
k rÃ¤fte
r ische
s rat
an ter
on ferenz
ĠS TELLUNG
ĠS omalia
Ã¤ ub
Ġw ach
ar ie
Ġv otre
ĠP reistrÃ¤ger
ĠB lan
ĠB atter
ĠM IL
Ã¼r fen
ĠK ale
ĠR i
Ġg rau
ĠD einen
ĠD ritten
ĠG ova
ĠV in
Ġzu zu
ĠT rau
ĠT ennis
am an
Ġer lassen
ĠZ ub
Ġauf gel
ist et
Ġbe geg
Ġl iber
ĠN ICHT
ĠVer sch
ĠAn ge
Ġt op
Ġst ud
imm ing
Ġp ur
ver k
iv stellungnahme
akt oren
Ġso gen
Ġab geben
ĠSp am
ĠSp ann
Ġgesch ickt
ĠAus fuhr
St adt
Ã¤nd liche
ost er
Ã¤nder ten
ail le
ob ile
RA TES
olle ge
ĠCh ile
11 7
Ġgel ingen
Ġgel Ã¶scht
ĠHost el
alen cia
ĠMenschen rechts
Ġvie w
gew ogen
Dar aus
Ġ16 0
VER ANSTALT
Ġget rennt
az ilitÃ¤t
ĠAm b
16 0
Bet rag
ĠSe en
schieden e
Zur Ã¼ck
up ea
Ġro t
ĠBed ien
ĠMill ion
Ġeinz igen
Ġentfer nen
Ġwo uld
handel n
ĠSol ar
IV AL
ĠAt hen
And ris
ĠMus ic
Ġth em
III a
ĠPart nern
Ġwelt weiten
ĠAug ier
Ġversch Ã¤r
Ġerfolg reiche
ĠPR ESS
ĠOb ama
ĠLauf zeit
Ġ43 98
Ġbil ater
Ġkrit isch
Fortsch ritte
ĠBan anen
Wissen schaft
Ġeinheit liche
ĠbemÃ¼ ht
Lib anon
Ġzunehmen d
Ġchines ische
ĠAssozi ationsrat
Ġignor iert
Aud rey
Voll stÃ¤nd
ĠMÃ¶ bel
kont ingen
ĠHandlungs bedarf
ĠBÃ¶r se
Ter min
Auff orderungsschreiben
ĠECH O
Kapit el
ĠGova ert
, -
H R
I van
K MU
L EN
L inks
P U
R IN
S R
Y N
d rucken
i w
i anz
o yer
s et
w est
Ġd eb
an forderungen
ĠS IK
Ġs ont
Ġs ho
Ġun t
Ġv ol
Ġf ac
Ġf eiern
Ġn utzt
ĠE ck
ĠB ungal
ĠB rabant
ĠM W
ĠK a
ĠK ug
ĠK OV
Ġh aren
ĠR auchen
ĠH ugh
ĠV iew
ĠW ende
ĠT ut
ĠT ank
ĠL ot
ĠL ul
op le
Ġer Ã¶ffnen
Ġver hÃ¤lt
ĠC y
ĠVer letz
ĠVer Ã¶ffentlichung
ĠAn weisungen
ĠSch Ã¤tz
Ġj u
Ġj ugoslaw
ul io
TE X
ĠEr f
In ner
ON A
ant eil
wer ken
bar es
ĠVor gang
ĠVor sorge
Ã¶r p
Ã¶r ung
ĠSp alte
lin gen
ĠMa in
glie dert
Ġre al
ho use
ess ler
ap pt
OM ÃĦKI
Sp Ã¤ter
SCH I
ĠMar ch
ĠTh is
IK AT
Ġpro du
Ġgel aden
ĠStÃ¤nd ige
ĠQu ell
Ġeigen er
Ġfest gestellt
Ġverst Ã¤rken
ĠJun cker
LAND VERKEHR
IM M
ĠHa iti
Ġinternation al
IB T
AF RIKA
urr enz
ĠPart ition
ĠMet all
Ġwelt weite
ĠBr utto
ĠFran ce
Ã¤um t
ĠGesamt investition
Le gen
lang es
spruch s
ĠLebens lauf
Ġ00 01
Ġzug unsten
vÃ¶lker ungs
UP O
techn ik
Ur s
ĠInfrastruktur en
Cl upea
Ġeinheit lichen
way s
ĠprÃ¤sent iert
Ġpri ce
gef unden
ĠKomprom iÃŁ
ĠResiden ce
ĠBALKAN STAATEN
ĠGeburt stag
GlÃ¼ck licherweise
indik ator
minist rat
ĠverstÃ¤nd lich
Digit ale
ĠVorder grund
ĠArchitekt ur
785 51
Hein z
umin ium
Ã¼bertrag ungen
Ġharen gus
Ġjugoslaw ische
% -
7 00
B ESTEUERUNG
F otos
H OLM
K risen
N EU
P an
S on
Y T
Z entral
l it
m ach
m eid
n Ã¶ten
t aat
u ay
an ie
ĠS ierra
Ġw us
ar be
ge werbe
Ġm Ã¤cht
ĠP akt
ĠE ss
Ġein stimm
ĠM ASSNAHMEN
em pl
ĠK YPR
et schen
ĠF eiert
ĠI z
sch lie
ab schluss
Ġbe zÃ¼glich
Ġver gleich
ĠC ons
Ġp ubl
Ã¤r enz
ri ppe
ĠPro p
iel les
ĠSch ool
res erv
Ã¶n lÃ¤ndische
si m
be zug
AN U
ON I
iz z
Ġso b
Er d
ĠSp e
ĠAuss p
ges ellschaften
Ġ7 8
fÃ¼hr te
gar antie
Ġgegen wÃ¤rtige
SP AKT
sk a
ĠFl ag
ĠÃľber sch
amen te
forder ung
az z
ĠAm biente
ĠBl u
sver b
Ġgenau er
EC K
ĠWer be
Ġverm ieden
ĠPlan eten
ini que
Ġwesent licher
Ġabge geben
Hotel s
ĠEis en
ĠJa ime
Ġmin im
ausch al
LIN IE
ĠLo unge
ĠTem po
losen quote
ĠbefÃ¼r worten
ĠMail and
ĠSign ale
Ġgeh abt
ĠBan gemann
Mark os
ĠÃ¼berw acht
Br utto
ÃĦH IGKEIT
pa cken
Ġinnov ative
ĠBE ZIEHUNGEN
Ġverschw unden
verlÃ¤ss igkeit
Ġstaat liche
Ġeur os
ĠDist rib
ĠChem ikalien
Ġschuld ig
YSTE M
ĠEngl ish
ĠBuchst aben
Ir gend
ĠAutom obil
ranse uropÃ¤ische
RER O
ĠMAY STADT
ĠCha os
Gad us
ĠSTELLUNG NAHME
H AL
H artmut
L ING
R ID
R ufen
S ogar
T SCH
V ol
Z O
a q
d f
l u
l Ã¶sen
s ort
w ood
z ungen
er klÃ¤rte
ie gt
ein igt
is o
is ierungs
al itÃ¤ten
ir d
ĠP ED
ĠF ertig
Ã¶ te
ĠR ent
ĠD ur
ĠD ilemma
ĠH ab
ĠV el
ĠV ent
ĠV itor
ĠV iertel
le v
ab stimmung
Ġwir ft
ĠL ern
Ġer freut
Ġbe deut
Ġbe arbeitet
Ġbe zeichnen
Ġl Ã¤cher
Ġver urteilen
Ã¼ber einkommen
err it
ĠJ oe
ĠJ ames
sp rÃ¤sidenten
ag a
Ġsch lage
ed o
In flation
ĠBer ater
01 0
Ġent lang
nah mer
auf wand
ges undheit
Ġber eiten
Ġbet rug
Ġdurch schnitt
ĠMar i
ĠMar ina
12 0
wend ungen
ĠÃľber ein
Ġgel ingt
De fin
51 4
Ġglau b
ĠEnergie bereich
Re ales
Ġfest legen
45 6
Ã¤u se
33 10
ĠRo ad
ĠStr asse
ĠSk ript
ain er
ĠNamen s
Ġentsch eidet
STAT IST
Ġwahr en
ari fe
Ġstark en
ĠDurch setzung
Ġendg Ã¼ltig
ĠCar los
ĠgefÃ¤hr liche
ĠGeorg ios
vertreten de
Ġbelie bt
Zeit plan
ĠAmer ikaner
Ġbedeuten de
STR UKTUR
ĠVerl ust
Ġangem eldet
Ġoptim istisch
ĠStock holm
ĠPrem ium
ĠDatenschutz es
sum fangs
Alex ander
Letz ten
Ġpla ce
ĠSn ow
Dan iel
ĠOff ice
Eigen tlich
Ġamer ikanische
Ġmor hua
ĠGraf ik
ĠEvent s
Ġausgezeich nete
Ġignor ieren
ĠzurÃ¼ckge zogen
Ġtro cken
erg eist
ĠWÃ¼r de
FORDER T
Moder nisierung
Sebast ien
Ġbemerk ens
Ġcent re
ĠverlÃ¤nger t
Ġcategor y
Ġzutre ffend
NÃ¤ch ste
ĠBout ique
/ +
5 30
A fghanistan
D irektor
L i
M au
T est
U MEN
b as
j oy
n ummern
o ÃŁen
p m
s u
y b
in itiativen
ĠS Z
Ġs Ã¤mtliche
is ierte
ĠA rab
Ġf aszin
Ġn utz
ĠP rei
ĠB EN
ĠB ang
em p
Ġz ert
Ġh et
Ġh arte
Ġh Ã¤uf
Ġh armon
ĠR au
ĠH orn
ĠH unger
ĠH erkunft
ĠW al
Ġzu gleich
ĠT DI
ĠL EG
eh Ã¶r
Ġan gelegt
ĠC opyright
Ã¼ber wachung
ĠAn im
Ġst ation
ĠPro te
ort s
Ã¤t ter
Ġsch reck
iv a
land sprodukt
si de
ĠAr gentinien
end o
Ãľ D
Er mÃ¤ÃŁigung
Ġnach zu
ĠEin haltung
ĠReg ister
EM AL
ĠFinanz krise
ĠKon d
ĠFl Ã¤chen
Ġhin sichtlich
ink i
Slow akische
Ġto o
Ġex ternen
merk en
Ġsicher er
Ġstimm te
stÃ¼ck e
Ġfrei er
ĠPer u
rans fer
94 889
ĠOn dre
orn o
Ġir re
ifiz ierte
Ġabsol ute
Ġit s
wÃ¼r fe
ĠProzess es
GEMEIN SCHAFT
jÃ¤hr liche
ĠWaren verkehr
ĠNicht einhaltung
ĠEIN EM
ĠNachbar n
ĠImp orte
Ġpassen den
Ġnormal en
FA O
ĠVoraus schau
Ġindivid uell
ĠSTRA TEGIE
SÃ¼d afrika
lÃ¤uf ige
ĠSubsidiaritÃ¤t sprinzip
oler anz
Ġeffizien ter
masch inen
ĠReihen folge
Integr ation
steh end
Ġgra v
Ġecht es
ĠEntsp annung
ĠBedÃ¼rf nisse
Ra im
Terror ismus
ĠRats formationen
biz a
ĠKombin ation
ĠDres den
ĠNAH EN
ĠOndre j
3 10
F INANZI
G ep
G Ã¼nter
G IBT
K ing
M y
R USSLAND
V E
X X
c ar
g at
m aterial
r iel
r unde
z wei
in ens
in landsprodukt
un c
Ã¼ te
Ġi f
ĠA SS
ĠA chtung
Ġf angen
ĠP ress
ĠK la
Ġh alb
ĠF ert
ĠR ou
Ġk an
Ġk Ã¶rper
ĠG ipfeltreffen
eit band
ĠSie ger
Ġge testet
Ġvon nÃ¶ten
ft ig
Ġan wenden
ĠZ eu
EN DE
ĠSt ation
ĠSt iftung
Ġl ust
Ġver an
ĠC ir
ĠC oll
ĠVer g
ĠAn sprÃ¼che
ĠÃ¼ber lassen
ĠÃ¼ber mittelt
Ġmit ge
Ġt ransport
Ġp le
Ã¤r er
sp fl
ver l
ĠSch war
ĠSch ott
Ġo u
ĠO N
ing ung
In itiat
In terne
ĠAb lauf
ĠAb lehnung
eb el
Ein fuhren
Ġe uropa
An passung
Ġgesch eitert
ĠAus wÃ¤rtige
ichtig ung
ak i
Ver Ã¤nderung
AL ITÃĦT
pp osition
AR I
Ġber ichten
ail a
Ġ7 1
ĠUm strukturierung
ĠFinanz mÃ¤rkte
Ġdurch fÃ¼hren
OL O
els inki
ĠMar co
Ġgem eldet
sm od
gesch oss
ĠMin eral
ĠHandel spartner
ĠX ML
minister ium
ĠBl att
lex i
sver handlungen
vent ions
ĠSozial partner
stand s
beh Ã¶rden
Ġeinz eln
rech nung
ij n
reg ionen
bo ard
ĠEmpf Ã¤nger
ĠGu ide
FF E
ĠMet ro
ĠInner en
ĠschlieÃŁ e
wir t
ĠTab ellen
ĠApp le
ĠStruktur en
ĠKoh le
Ġauss er
Ġgro sse
ĠStabilitÃ¤t s
ĠMÃ¤n nern
ĠKn ow
ĠMo unt
Ġdefin itiv
ĠOber flÃ¤che
ĠImm obilie
ĠUntersuch ungen
Ġdein em
ĠCan aria
ĠAc count
Ġnormal erweise
ĠDVD s
ENS MITTEL
Vier tens
ĠDol met
Ġmensch liche
mes ser
Ġliefer te
Ġerneuer bare
ĠAkte ure
Ġauft reten
inisterr at
ĠGord on
VERANSTALT UNGEN
IKAT OREN
ĠGesamtinvestition sumfangs
B L
F Ã¶rder
G ert
H en
K ur
K unst
L ok
N ACH
O ft
W olf
b iet
h Ã¼tung
l ist
o und
s achen
s aison
s wÃ¼rd
an b
on es
Ã¼ hen
Ã¼ mer
Ã¤ ger
ein heit
ar elli
ĠA uch
ĠP I
ĠP ast
ter s
Ġh Ã¤ngen
ĠR em
ĠD un
ĠG n
ĠG essler
ĠH EM
ĠH IV
ĠH Ã¶lle
ro v
ĠT ieren
ĠSie d
Ġer mÃ¶glichen
ĠIn fl
ĠIn dex
ĠC ruz
ĠVer mÃ¶gen
ah me
sp apier
Der artige
che ster
ĠKommission s
Ġo k
Ġum geben
men ge
ĠO ECD
ĠEr ik
be cken
ĠBer ichten
Ġbei behalten
igen de
ĠAr m
Ġda vor
An wendung
ĠAus maÃŁ
ic i
St Ã¤nd
itz er
auf gaben
Ġre ally
Ġdar gelegt
EH EN
ert um
ĠAl s
ĠCh amp
ĠAuf hebung
Ġle be
ĠMitglied s
ĠUnter richt
Ã¤l lig
ĠÃľber arbeitung
ha f
Des ign
VER H
VER S
ĠSicherheit spolitik
Ġget ragen
Ġgeb Ã¼hrt
Ã¶t igen
ĠInd onesien
Ġfest zulegen
ferenz en
ĠgrÃ¶ÃŁ ter
En g
ĠAktion s
RAN K
ssystem s
ĠFran cis
KÃ¶n nte
ĠAuft rÃ¤ge
IST AN
ĠCO ST
Verb rauch
Ġar ch
ĠBas el
Ġbill igte
Gesamt kosten
ĠInstitut ion
inger ung
ĠImm un
ĠTem peratur
ĠWeiter en
Ġerken nt
Ġdemokrat ischen
Ġverab schiedete
Stat istiken
ĠGEMEIN SA
MITTEL MEER
ZusÃ¤tz lich
Beg innen
ĠDre h
ĠSzen ario
ĠfranzÃ¶s ische
Verbraucher schutz
wissen schaften
ĠTH E
ĠPAR LA
Ġzweit es
datei en
Frieden sprozess
ĠFER RERO
fass ungs
ĠPublik um
ĠPanor ama
Eh emalige
otent ial
ĠAH ERN
Tief se
Rub rik
WALD NER
STATIST IK
+ ?
: :
D ON
F amil
F ehler
H orizont
M EI
M ANN
N ah
S ST
T T
g eschÃ¤ft
k ern
l Ã¶
n Ã¤chst
u gen
ie hen
ĠS af
ĠS udan
au ff
al m
Ġb athroom
ĠP est
ĠE th
ĠB ucht
ĠM id
et it
Ġh ere
Ġh undert
sch end
Ġin terne
Ġk oh
ĠG errit
ĠW he
le bt
ab et
ĠT E
ĠT enden
and ro
ĠL ektion
Ġge holfen
op ol
ser t
ĠN ur
ĠN ote
ĠC te
Ġp opul
sp art
etz ugang
Ġum zusetzen
Ġsch m
Ġsch Ã¼tzt
hal le
ĠEr hÃ¶hung
Ein heit
ĠBer eit
iz enzen
Ġe very
ĠVor gaben
ĠAus fahrt
ĠAus bildungs
id la
id met
tre ffen
ĠMa j
ord s
stell bar
ĠBe sten
ĠGe fangen
ark e
ark o
EL D
Ġbes orgnis
IG U
eid igung
ĠMar a
inder ung
org an
org os
Aus fÃ¼hrungen
ĠZu ge
ĠAN DER
if ikation
Ġwieder hole
ĠRicht ige
ac o
fr ont
Ġwissen schaftliche
Ġsol ide
ĠAd am
Ġange kÃ¼nd
Ġverb indet
ĠBÃ¼rger innen
UM WELT
stand ards
bei hilfen
ĠMob ile
17 2
unter laden
Ġerst aun
ĠVerein igte
ĠschÃ¶n er
ĠMan a
ĠBesuch s
Bes ser
AK ET
ĠPresse konferenz
ĠJugend liche
Se el
ĠBr enn
Ã¤rk ten
Ġschwer en
Wel cher
Mittel Ã¼bertragungen
ĠTr ump
ĠCom fort
LI ESS
ART IKEL
ĠAbgeordne ter
ĠZoll union
IND IKATOREN
Ġherunter geladen
Ġoptim al
ĠÃ¶ sterreich
ĠTick er
problem e
Ġerle digt
schafts abkommen
Ġbeit reten
ÃľBER EINKOMMEN
ĠElekt riz
Ġunters uchen
Ġmark iert
ĠAppartement s
Gesch rieben
Ġproblem atisch
ĠFire fox
Ġkomment ierte
Ġrau s
ĠPay Pal
ĠFestpl atte
716 07
ĠEinlad ung
ĠForst wirtschaft
ĠApartament os
ĠKale vi
Ġbesorgnis er
A grar
C R
D VD
F ang
F eed
G el
G REN
L iber
S M
S Ã¤mtliche
T o
W ALT
b it
b ilanz
d an
h ost
k w
k ar
s orgung
y k
in sel
st art
st Ã¤rke
ei r
ei rat
Ã¼ tlich
ĠS L
Ġs eid
or o
Ġun best
ĠA F
Ġf ein
Ġf iel
ir st
ĠE cht
Ġein sehen
ĠK lo
ĠF ische
ĠF REN
ĠI biza
ĠR enn
ĠR OS
ĠV N
ĠW eine
ĠW ALL
ĠT reib
Ġ2 95
re ad
len d
ĠC E
ĠC all
ĠC anc
ĠAn wender
eu x
ĠÃ¼ber setzt
uss en
Ġp al
Ã¤r me
Ġsch lafen
ed a
ĠO ett
wei chen
Ġvor nehmen
Ġvor gestellt
ant a
ES TER
bl es
ĠVor bild
Ġgesch afft
ĠAus gleich
Sch n
ĠEin schÃ¤tzung
Ġsp rachen
reich ung
Bei hilfen
schl Ã¼sse
Ġman chen
Ãľber prÃ¼fung
ail able
ĠAnt on
Ġlie f
OM E
ĠUm stÃ¤nden
ĠFinanz ielle
OL K
.) .
ĠFor ce
Minister ium
pl or
pl ement
35 0
Ġgel assen
Ab stimm
okum enten
Ġakt iven
ph ase
ĠBest euerung
Ent scheidung
Ġange kommen
Ġgeb unden
ott i
ĠHand buch
ĠFr on
hil f
ĠKultur en
ĠDi kt
ĠMod ule
mÃ¤ÃŁ igen
frei ung
SE KTOR
rid ge
Ġru ft
28 5
ĠDes igner
ĠfÃ¼ gt
Se e
ĠReise fÃ¼hrer
ĠKontakt formular
ĠStat ut
bek annt
Arbeit sweise
STA AT
ĠBeitritt sstaat
STE UER
ĠGed anke
Weiter fÃ¼hrende
ĠEt agen
ĠFlÃ¼ ge
0000 0000
zus agen
ĠTier schutz
PE Z
ĠWar nung
reib ungen
Ġober en
Ġnied r
ĠVerhalten skodex
ĠUnternehm er
ĠausfÃ¼hr lich
Emiss ions
Beschl uss
Ġspezif ischen
ĠInnov ationen
ĠVerhand lung
ĠVerpack ung
Bel arus
ĠRefer endum
ĠTextil waren
Ġbewir ken
ĠKatastrophen schutz
ĠArtik eln
Ġdram atisch
ĠRechtsstaat lichkeit
ĠAuftrags wesen
ĠHEM ILÃĦ
ĠOett inger
A IT
A uft
B irma
C as
D irekte
F Ã¼gen
G eh
K os
K rise
P atri
S ektor
W N
Y L
Z A
f ield
g i
n de
n itten
s umm
Ġ ut
er er
st ud
Ã¼ g
ich e
Ġs elt
ĠA hr
Ġf liegen
ir land
ĠB AK
ĠM IK
Ġg reifen
ĠD einer
ĠD ata
ĠG anz
ĠH om
ĠV alle
ig el
ĠW agen
ĠT aiwan
re den
re ens
ĠL UPO
Ġge teilt
Ġ( %)
ĠN IC
nen nungen
ĠC ra
Ġt rain
ĠJ ar
Ġp idla
sp unkte
ri ck
Ġaus gesetzt
ĠSch alt
Ġj ung
Ġsch Ã¤d
Ġsch ief
ĠO ne
ad et
ĠUn recht
Ein fuhr
be vÃ¶lkerung
ick er
lei ste
IT T
aten te
io x
pp er
auf sicht
ĠBe zahlung
ĠReg ul
EM ONTI
halt iges
12 1
12 2
leich terung
ĠZu hause
EUROPÃĦISCH ES
AS E
ib ik
zeich nungen
olog ischer
Zu cker
RAT ION
Gen ehm
az ier
ĠBl ue
Ġgemeinsam es
ĠJun e
ĠBesch werde
Ġbesch rÃ¤nken
opp ing
ĠheiÃŁ e
ĠWei s
ĠAll es
Ġch ar
ĠRE ACH
Reg istr
schn itte
ĠGu est
Gr enzÃ¼ber
ĠInvestition s
Ġpl at
ERNENN UNG
ĠKoh len
Ġprof itiert
Kar in
ĠDruck er
Ġjem als
ĠAuff orderung
Sh ir
Rechts verfahren
Ġoffiz iellen
Cl aus
ĠRot h
Ġgener ell
ĠUR BAN
ĠTR EMONTI
ĠKart ell
Ġlangfrist ig
Ġbrit ischen
ĠjÃ¼ng ste
ĠBru der
invest itionen
Mob ilt
ĠWichtig ste
ĠBeob achter
haushalt splan
sib il
onom ie
ĠFrÃ¼ chte
ĠJourn alisten
ĠPAT TEN
Ġweite m
ĠTipp s
ĠLiebl ings
ĠBewert ungen
ĠKUK AN
ĠLegisl ativ
ĠGÃ¤st ebuch
ambod scha
ĠAussp rachen
Initiat ivstellungnahme
swÃ¼rd igkeiten
B B
C arm
F in
M o
N ic
P f
T I
Z weiter
c er
d el
d ate
d isk
f amil
h u
h Ã¤ngen
i ation
i for
i qu
n ot
s werte
t eile
w ettbewerb
st uf
at lant
ur es
Ġm uch
Ġf ert
Ġf eiert
ir gend
ĠP or
ĠE X
ĠM es
ĠM ach
ĠM att
ĠM OR
ĠK Ã¤ufer
Die go
Ġau dio
sch icht
Ã¶ cke
ĠR indfleisch
Ġg lie
ĠD arf
00 3
ĠL PEZ
Ġan gehen
ann y
Ġl ohnen
Ġver mitteln
ĠC at
ĠVer ring
ĠAn zeichen
om aten
och t
ĠSch uhe
he b
ungs los
Ġsch ade
ad em
rÃ¤si d
ant o
ES F
IN DER
Ġe chter
Ġab onnieren
ĠEin leitung
gra ben
Ġsp ezial
AL OG
ĠBe grÃ¼ndung
ess or
aat gut
Ġges ucht
ĠAl gerien
fÃ¼hr end
Ġgew idmet
11 9
ĠKl Ã¤r
ĠMenschen recht
Ġbef asst
Ã¤ss ern
Man uel
ĠMon ats
ide os
16 3
ĠInter view
Ġbesser es
ĠSe ezunge
TER RORISMUS
Ġklar es
ĠBo ok
ĠBo ard
atte gat
prÃ¼ f
ĠMob ilf
Kon zept
hol z
Ġzusammen ge
Ã¤mpf e
Staat liche
amer a
mÃ¤ÃŁ igkeit
ĠAt lant
mer zen
ĠWirtschafts wachstum
ĠDon au
ement s
Ġbestehen de
ĠDurch schnitt
ĠSteuer zahl
vers icherung
best immungen
ĠRussland s
ĠNor mal
Jan ez
CO ST
ĠBerlin er
such ung
ĠFern sehen
ĠWohn zimmer
ĠFe der
ĠGeh Ã¶r
ĠMiss brauch
ĠfÃ¼h lt
ĠLebensmittel n
ĠClub s
Ġregel n
Ġoffiz iell
ĠIns gesamt
asc ript
ĠKooper ationsabkommen
Invest ition
Ġober ste
ĠGut es
Ġnachhalt ig
App l
Ġeingel aden
Ġkn nen
Mitt ler
Ġkeines falls
Ġamer ikanischen
ĠFRE IVAL
Ġermut igend
WÃ¼r den
Ġelektron ische
Regel ung
ĠmilitÃ¤r ische
Inform ieren
klaus el
Aug ust
Ġmang elt
ZEU G
ĠTeilnehm ers
schwer punkte
864 33
699 21
Seel achs
ĠFREIVAL DS
H E
H inter
K op
L oc
M elden
M ÃĦSS
P r
R K
S itz
S ollen
S etzen
Z ahlen
b Ã¼r
c m
c ling
d acht
f ischerei
u en
u ter
w all
Ġ om
er ste
ĠS ad
it err
Ġun ivers
Ġein laden
ĠB our
ĠM em
ĠM use
ĠK rÃ¤
ĠR EDING
ĠH euch
ĠfÃ¼r chte
ro he
ĠW ellen
il i
Ġan spruchs
ser ba
ĠSt ill
Ġl eiten
ĠN av
ĠC i
ĠC ON
ot ten
ĠÃ¼ber sch
Ġt od
ĠRe par
Ġp sych
ĠPro t
gr unde
he ken
Ġdies mal
ĠO s
ĠO pposition
wei ger
ĠEr be
ĠEr gÃ¤n
Ġvor wÃ¤rts
ĠBer gen
ger ichts
ant i
Ãľ CK
ĠSp itzen
Ver besser
ic ante
geb ieten
ĠEin z
St abilitÃ¤t
ĠBe werber
Ġ9 207
rin t
SCH LIESS
ud es
Ġ10 6
ĠEntsch uld
FT A
ĠÃľber tragung
entr en
ay a
Pro dukt
Ġkon sult
str Ã¶
str and
ĠmÃ¶glich erweise
zeich nete
zeich neten
ĠBet a
ĠBet reiber
ĠBar s
LE X
Ġverst Ã¶ÃŁt
ĠHand t
Ġnah men
ĠdÃ¼r ften
achst and
ĠBesch rÃ¤nkungen
Ġho ffentlich
red ite
Ber uf
ĠSan ter
fÃ¼l lung
reg ister
TS U
ĠLa sten
ĠTra vel
Ġir ischen
ĠÃ¤uÃŁer te
ĠGroÃŁ teil
ASS NIK
ĠPrÃ¤ sentation
ĠPf lege
zentr en
Ġwor um
ieg elt
Ġerlau ben
Vers uchen
ĠErd Ã¶l
Derzeit ige
ĠInternation ale
Ġerk enn
Lie fer
WE IS
ĠendgÃ¼lt ige
ĠInnen stadt
ĠAnteil seigner
Welt weit
ĠunabhÃ¤ng ige
ĠPL ASSNIK
ĠMinder heit
Inst itut
ĠMik kel
Ġmittler weile
ĠBerichtig ungen
ĠLab or
ĠCamping platz
ĠKomprom isse
Ġitalien ischen
Gemeinsam es
ĠHan sen
ĠOptim ismus
Ġvari ieren
ITAL IEN
ĠMech anismus
ĠFremden verkehr
ĠTsch etschen
Ġverteid igen
Koordin ierung
Ġhumanit Ã¤ren
idsch an
Ġbegeister t
Verr ingerung
Ġergebnis offen
ĠGefÃ¤ng nis
ĠFREN DO
ĠMobilf unk
serba idschan
ĠMikkel sen
A ust
A chtung
D ress
G eschÃ¤ft
G ood
G ipfeltreffen
K ol
L one
S ek
W ert
f els
f unktion
l s
m ie
n ik
p orte
r ichtig
s eiten
in er
Ġd ist
st Ã¤dte
ei ste
ĠS ort
Ġs em
is on
ĠA gr
Ġm l
ir men
ĠP S
ĠE IS
ĠM E
ĠM r
ĠM im
ĠM auer
ĠF Ã¤hr
ĠR ichard
ĠH I
ĠH Ã¶r
ig o
ĠW ittling
lich em
le gend
ĠT anz
il s
ĠL ind
ĠL anka
ĠZ e
ĠZ ALM
ut ins
Ġl angem
Ġal ter
ĠRe kord
Ġp ages
sen det
Ġaus gehen
lo ad
ungs voll
Ein richtung
wer ten
Ġ4 50
ĠSp anisch
An merk
la ÃŁ
ĠAus flug
ic y
uÃŁ e
St arten
St immen
St eigerung
AL LI
Ġre staurant
ĠBe arbeitung
Kontakt adresse
ran ten
10 5
Ġ12 5
Ã¤ch eln
Ġviel fÃ¤ltig
Ġweiter gegeben
fÃ¼hr ten
Ġ% ).
ĠGes am
ĠFl asche
ay sia
Kommission s
ac ion
Ġvoll em
Ent sp
ack s
Ġget Ã¶tet
ĠĠĠĠ ĠĠĠ
iff ern
Ġausge geben
Ġklar er
ĠBo hez
Ġte mp
ĠII a
Ar b
Ġbesch reiben
WIRTSCHAFT S
Kon text
rech ten
Ã¼b ig
ire ctor
ij k
En d
And or
Ġeindeut ige
vers ammlung
ĠLi fe
ĠSon gs
UK UNFT
Ġklein ere
ĠhÃ¶ re
ĠKomp lex
ĠAL L
ĠIm per
Ġbill ig
ĠFern se
Ġlaufen de
FAH RT
Ex terne
Ġgeeig nete
Ind onesien
ĠBef ugnisse
Ġav ailable
ĠStraÃŁen verkehr
will igen
handels abkommen
ĠKonfl ikte
ĠfrÃ¼her en
Ġfair en
ĠRub iano
ĠgrÃ¼ nen
ĠKart off
Dienst ag
Ġspezif ische
ĠFÃ¤h igkeit
Ġletzt lich
MAN S
ĠPalÃ¤st ina
ĠBesitz er
PrÃ¼ fung
Tun esien
ĠZur Ã¼ck
Ġpark ing
ĠOffen heit
ĠHen ri
Blau er
Rot barsch
Jac ques
Natas ja
Ġzeich net
SAT Z
ĠEle ct
ĠWurz eln
ĠSehen swÃ¼rdigkeiten
ĠGutsch ein
ĠJUGOSLA WI
Ġunverz ichtbar
mÃ¤h lich
Urs ula
ĠlÃ¤cher lich
ĠBeitrittsstaat es
1 45
9 13
B ud
B log
F Ã¼llen
I ZI
K aufen
L V
M wSt
N ummer
P ia
P rem
S eiten
W echsel
Z UG
a ÃŁnahmen
b eu
d ing
f unk
h le
j et
k il
r ump
Ġs chen
Ġs ort
Ġs ign
el ei
ar at
ge fÃ¼hl
Ġf ind
ĠE AD
ĠE valuierung
Ġein stellen
ĠB reakfast
em arie
Ġz og
Ġh alt
ĠF Ã¶der
ĠR ollen
ĠR Ã¼big
ĠD J
ĠG RO
ĠV ul
ĠV ict
ĠW i
Ġzu ges
Ġzu grunde
ĠT in
il lo
ĠL au
ien e
ĠC A
ĠC entral
ĠVer stoÃŁ
ĠAn sprechpartner
Ġt au
ĠJ enn
Ġp od
gt on
ĠInformation ssystem
AN O
Ġuns icher
IN C
wer tet
kl asse
rie s
fahr zeug
tz o
AL ER
ges prÃ¤
ISCH TER
OR SKI
ĠGe flÃ¼gel
ech nen
Ġstatt gefunden
Ġlie ÃŁ
Ġges amt
Ġbes etzt
Ġet h
ĠKon zern
Ġmein t
SCH LUSSFOLGERUNGEN
ĠUnter haltung
ĠEn ter
AND RE
ĠAN TSU
ĠStaat liche
ĠQu ote
Ġwirk same
ĠVerb reitung
alis ierte
ĠBet riebe
ĠBest Ã¤nde
ĠGen f
ĠGen uss
Ġbek rÃ¤ft
zess ion
mut lich
199 3
Her aus
Ġerst mals
Ġeinge treten
ĠTechn olog
Umwelt schutz
Ġunver meid
Programm s
ĠHeraus geber
Ġne ed
Ġres ult
ART NER
nd or
Ġinner e
Best euerung
STE U
vol umen
Schluss folgerungen
ĠEt ikett
Ġse e
Ġanzu wenden
ĠCD s
Frei zÃ¼gigkeit
abil isierung
ĠgewÃ¤hr leisten
ategor ien
Ġwunder schÃ¶n
ONT ROL
ĠInformations austausch
ĠWider stand
Ġniemand em
ograf ische
Ġeinzig artige
inst itut
itution elle
Pet itionen
Vert rauen
ĠElekt ro
664 70
ĠBalkan staaten
ĠZuf riedenheit
ĠKlim aschutz
Sim babwe
ĠGeheim nis
Ġapp ell
ĠSing le
ĠSalz burg
Informations gesellschaft
ĠZin ss
Ġerb aut
Komp on
ĠKron zeugen
Pol izei
fÃ¤ll ige
ĠHong kong
ĠPresserefer ent
ĠArbeitsk rÃ¤fte
ĠRelig ion
ĠSTEIN MEI
ĠAnrei ze
Statt dessen
ĠTib et
emiss ionen
ĠIndik atoren
ĠPhilosoph ie
ĠZub ehÃ¶r
plor er
ĠNIC OLA
ĠVerring erung
ĠSTEINMEI ER
) )
1 30
B EN
C ont
D r
D ringlichkeit
G olf
H L
H ER
I ran
I RAN
I oannis
M ic
M ult
S en
T yp
T Ã¤tigkeit
V al
Z EIT
a ppen
b Ã¼cher
g elt
l et
n y
n iveau
p ot
p unkten
p ackt
v as
v ed
er ium
er klÃ¤rung
st rah
an os
ĠS C
Ġw h
Ġs onn
Ġs itzt
au ert
as i
it at
Ġm obile
Ġv ort
Ġf ragt
Ġn or
ĠP od
ĠP aar
ĠE ier
ĠB y
ĠM IF
ĠK och
ĠF igur
ĠR ud
ĠR ehn
Ġg Ã¤be
ĠD ifferenz
ĠG Ã¼nther
ĠH yp
ĠH istor
ĠV e
ĠW esen
ĠW Ã¼nschen
ab or
ĠT EN
ĠT reiber
um e
ĠL ar
ĠL ud
ĠL Ã¤rm
op pt
ind ungs
ind liche
Ġer zeugen
ĠZ one
Ġbe achtet
ĠC L
ĠVer n
ĠAn stieg
eu cht
ĠRe port
ĠJ ungen
ĠJ ak
ri co
Der mot
ĠPro be
ĠPro zesse
ver m
ver kauf
Ġj apan
anz ar
ĠO m
ĠAb fahrt
ĠAb schaffung
akt ive
ad el
ger icht
Ġbei der
Ãĸ k
Ġe vent
ĠAus fÃ¼hrung
ĠAus grenzung
ne ter
ne ct
Ver halten
Ã¼ck sichtigung
Ġsp Ã¤te
amm elt
qu ier
ĠGe werbe
ĠFinanz dienstleistungen
Ġ8 9
ret a
SP ANIEN
ĠgroÃŁ zÃ¼g
ĠVert eilung
Ġgem Ã¼tlich
Ġgel eitet
ĠBet racht
rateg ische
ĠMon itor
ĠGemein den
ĠBes uche
Ġex terne
sb et
oten z
ĠAd ressen
ahn sinn
Ġgeb ucht
ats on
ĠPreis liste
one ct
ĠGrÃ¼n dung
Ã¤d igung
eig ern
ĠDienst leistung
Ġfrei gegeben
Ġob jekt
hÃ¶ rige
ĠRE Y
Ġhervor ge
Ġschwier igen
ĠGar den
Le on
inen ser
Ġkomp eten
ĠLog in
ĠEigen mittel
Ġhinter lassen
ĠSÃ¼d t
wach ungs
zur ufen
Ġeh emal
Ben utzer
ĠPrivat isierung
Ġdefin ieren
Ġregistr ierte
ĠAktionsplan s
ÃĦN D
ĠDigit al
Ġnahe zu
schw ung
Ġuntersch eidet
ĠBO EL
ĠGlÃ¼ckw Ã¼nsche
Ġangemessen e
Ġneg ative
Ġland wirtschaft
ĠOR G
ĠLeiter in
ĠKol umbien
Ġitalien ische
Vorgesch lagen
hel m
ĠWeihn acht
ĠSatell iten
ĠLuftverkehrs dienste
Ġerleich tert
antas ie
ĠWolf gang
Ġpoln ischen
Ġerinner t
ETTBEWERB SF
Ġgepf legt
ĠTheor ie
ĠLIND H
RÃľ SST
ĠVene zuela
Edu ard
Pfl anzen
605 67
ĠKOV CS
ĠTut orial
mach ung
taat ssekretÃ¤r
Ġeinstimm ig
ĠVitor ino
ĠOndrej ika
Ġbesorgniser regend
Dringlichkeit s
! .
0 20
9 24
A le
B ro
B ay
D ollar
F RE
G EL
G ran
K as
K art
M iss
M indest
M Ã¼ssen
M ASSNAHMEN
P rivat
T her
V is
Z eigt
b i
b ele
g ibt
l em
m und
m ont
m anden
r ungen
s is
v it
v iele
Ġ ten
Ġ eignet
st eine
st liche
st ritten
Ã¼ bung
ĠS Ã¤
Ã¤ gung
Ġw ohin
at on
ar ier
Ġf lo
Ġder selben
Ġb ro
Ġb uch
Ġb inden
Ġb ook
Ġb lock
Ġb rachte
ĠP rÃ¤sid
ĠE i
ĠE mp
ĠE cke
ĠE SF
hr er
ĠB om
ĠM EN
ĠM om
ĠK L
ĠK AT
Ġh aus
ĠF IN
ĠF ord
Ã¶ gel
Ġk auf
Ġk alt
ĠG rau
ĠH AB
ĠW atson
re al
um b
Ġan n
Ġbe zogen
Ġl uxur
ĠN iederlan
ĠN ice
ĠN ukle
ĠN epal
ĠÃ¼ber geben
sp rachen
form en
Ġsch ien
ĠO hr
IT I
iz en
Ãľ b
bar go
ĠVor red
ĠSp eisen
ĠRat sprÃ¤sidenten
Ġc urrent
Ã¼n ften
im or
ic ars
Sch reiben
ill er
ill es
Ġsp Ã¼ren
Ġr et
ĠPar lam
ap olitik
ws ki
Ġbes iegt
ĠAl uminium
RA K
Ġviel er
Ġweiter machen
Ġweiter geleitet
Sp ielen
ĠMen gen
ĠEn des
12 5
12 8
ĠÃľber setzungen
low ing
ib iot
ED SB
Art is
ĠGemein samer
die s
Ġgemeinsam er
schlieÃŁ ende
ĠDi agn
Ġung erecht
ĠMod us
Ġdort hin
ehe cht
Ġnotwend ige
Ã¼lt igkeit
Ġmei stens
ager rak
Ġne ut
ĠPo ul
Ġdir ekten
Ġbisher igen
ĠErw Ã¤gung
anc er
Ġor ient
ĠKor rektur
Ġruh igen
ĠMot iv
ĠKre ativitÃ¤t
Frei heit
Ġverein facht
OD R
Ġsauber e
Ġunterschied lichen
ĠbefÃ¼r wortet
Ġzuge hÃ¶rt
Binnenmarkt kommissar
ĠStre et
Ġzw Ã¶lf
REG EL
osk ana
ĠRechnungshof s
Zwischen ruf
Ġkonzentr iert
ĠQual ity
ĠPAP ANDRE
beauftrag ten
ĠHu ber
Ġbeob achtet
CCCC CCCC
Dienst leistungen
ĠKlar stellung
deck ung
Ġmensch lichen
Ġerf reu
ĠAlex and
ĠAmts blatt
Ġchines ischen
Ġruss ischen
Port al
Ġliefer bar
ĠPfer d
ĠHard ware
EUROP A
ĠGAL ILEO
NIS SE
ĠLimit ed
Klima wandel
Ġunverb indlich
ĠLeiden schaft
Tw itter
But te
Ġbeab sichtigt
Inwie fern
OY ANN
ĠSIK ORSKI
ĠKYPR IANOU
ĠGEMEINSA MEN
ĠWALL STRÃĸM
ĠBAK OYANN
SCHLIESS UNG
ĠMIF SUD
ĠNiederlan den
9 3310
B ald
B rian
C omm
D is
M aÃŁ
N ick
P unkt
R ON
c ard
d rÃ¼cken
g Ã¼nst
h Ã¤ndler
j an
k apital
m ant
p le
w enn
z za
Ġ {
Ġ reif
st h
ĠS onst
ĠS ANT
Ġs ach
at ischen
as ste
or ben
al ina
it as
Ġun ber
Ġun halt
ĠA h
Ġm i
Ġf in
Ġf ern
ir es
ĠP ositionen
ter min
ĠB ou
ĠM eine
ĠM ul
ĠM OL
ĠK le
ĠK rat
Ġh eim
ĠD IM
ĠD OK
ĠD URCH
ss ache
ĠH all
ĠH AN
ĠH elen
ĠH YPERLINK
ĠfÃ¼r s
ĠV ED
ab eth
ĠT RA
ĠT rad
ĠT rink
am o
00 4
ĠL AN
Ġer wor
eh nte
Ġan schauen
us z
ĠSt off
Ġbe zug
Ġbe urteilen
Ġl Ã¶st
ĠVer sp
ĠAn zeigen
Ġt u
Ġt rinken
ĠRe chen
ĠJ U
ĠJ AHR
und i
ag g
ahr ung
ĠSch le
Ġsch reibt
ed t
ĠAb wasser
lei h
os aw
ant wortet
ru ktion
Ġent f
im o
Ver schiedene
ic an
Wie viel
Sch au
Ġr t
ĠUN S
Ġgen annte
Ġgen iessen
Ãľber sicht
ĠGr ande
ov i
ĠAnt idumping
ob ald
Ġges enkt
Ġbet reibt
ĠCh ic
ĠAuf lagen
Sp ezifische
ĠFor scher
ĠUnter lagen
Ġpro gramm
fl ikt
11 6
ĠÃľber zeugung
ma x
ke pt
fr ikanische
Ġger aten
ec a
AM AN
ĠRei fen
Ġange ht
Bet rachten
EIN LA
ĠInvest oren
ĠAut oren
Ġinter nen
OV O
leg ungs
ĠST A
IC ES
Ġbew Ã¤ltigen
ĠRechts rahmen
ĠDeutschland s
ĠPresse dienst
Ġqu iet
ĠWirtschafts raum
ĠRaum fahrt
ĠWe ger
wir rung
ĠMont oyer
ĠSon g
Daten schutz
EK O
ĠUp grade
Ġor dent
Ġerhe ben
Ġare a
Ġverh Ã¤ngt
ĠMig rations
Geb iete
UP PE
Weiter hin
Ġanzu zeigen
ĠFÃ¼hr ungs
techn ische
Ġjem anden
ĠAB l
GES UNDHEIT
ĠhÃ¤ufig sten
ĠGR UND
ĠStad tentwicklung
ERB undesminister
yt es
TH ER
lÃ¶s ungen
Ġbewer ten
ĠjÃ¼n ger
Ġbegl eiten
ĠTa ste
freund lich
ĠUnternehm ergeist
Ġhilf sbereit
Gem isch
ĠerlÃ¤u tert
ĠBaum wolle
Sicher lich
Ġgewiss er
ĠprÃ¤sent ieren
Ġrespekt iert
mech anismen
Sim on
ĠWik icars
ĠPalÃ¤st inenser
KohÃ¤sion spolitik
pfl anzen
Kabeljau Gadus
SCHRIFT EN
Oper ation
ĠErst bezug
ĠZigar etten
ĠRett ung
IEDER LAND
Ġarab ischen
ĠExekut ive
GEM ISCHTER
Ġentschuld igen
BEG RÃľSST
Pau la
gir das
aq un
spfl icht
Ġkoh Ã¤r
ĠJUGOSLAWI EN
anzar ote
ETTBEWERBSF ÃĦHIGKEIT
EINLA DUNG
. /
4 75
5 01
8 24
D U
E AGFL
F O
K E
K ont
K ontrolle
L Ã¤ndliche
N C
P OLIT
R olle
S w
S ard
b aum
f i
f ace
g asse
g Ã¼ter
k r
k re
k aufen
l io
r ennung
s recht
y o
y ssen
Ġ rÃ¼
Ġ ult
ch mark
ie ÃŁ
un ikations
ĠS ter
ĠS icher
ĠS ack
Ġs etzte
el ine
ĠA ward
te am
Ġf ood
Ġein t
ĠB it
ĠB ol
ĠB rÃ¼cke
ĠB usse
ĠM u
ĠK ok
ĠK ino
ĠK UB
ĠK RIS
ĠK rÃ¤fte
ĠR ang
ra w
ĠG EN
ĠH ilton
ig ter
ĠL AM
ent sprechend
ĠZ um
ĠSt raft
Ġbe weisen
Ġl v
Ġl ov
Ġver sprochen
ĠC in
ĠC lo
ĠC rist
Ġt Ã¶
Ġt ausend
Ġt iefer
Ġst irbt
Ġp ortugies
Ġaus gesch
ver anst
ver teilung
ĠSch Ã¤den
ĠSch eitern
ul f
In strum
Ġdem nÃ¤chst
ad ia
AN Y
Ã¶r g
ĠSp recher
Ver wendung
pf el
od y
ĠBe fÃ¼r
ĠBe wirtschaftung
ze denz
ĠGr Ã¶
ob oda
Ġkl imat
Ġges ichert
Ġbet reiben
Ġbet onte
ĠArbeit sm
Ġ12 3
fach en
II US
ĠUnion sbÃ¼rgerschaft
eben e
Aus gaben
ESS E
ĠKl ang
kunft s
ED ER
Um frage
olog na
VER EIN
Gen iessen
ĠBest immung
sb ilanz
ĠAp ache
ĠAd d
Ã¶t ige
LE ICH
Ġfest gesetzt
ĠSe villa
201 4
ĠSte u
ĠY acht
Zum indest
Zwei te
ĠStra fe
LA GEN
ain s
fÃ¤h igen
Ġvers agt
Ã¤mpf er
Ġfrei lich
ĠJu den
Ġfr isch
Ã¤chst es
struktur en
ĠArbeits zeit
Ġbew ahren
SE E
Hin zu
ACH UNG
ĠfÃ¼ gen
OP ACE
Durch fÃ¼hrungs
Ġerz Ã¤hlen
ĠEntwicklungs lÃ¤ndern
Ġgrund legend
met hoden
ĠRess ource
Ġruh iger
Ġdo uble
ĠSw oboda
ĠInternation alen
ĠBi om
ĠHoff nungen
Ġintegr ierte
Ġpar lament
ĠFR ÃľH
ĠFR IEDEN
Europas che
Ġag ain
ĠgÃ¼nst igen
Stat istik
Nor wegische
Ġindivid uelle
Ġert eile
ĠSem inar
Ġkultur ellen
ĠLas er
ĠenttÃ¤u schend
ĠBla ir
ĠLU XEMBURG
ĠVAL ION
mel de
ĠKompeten zen
Ġhal be
Ã¶pf e
Mig ration
ĠTarif a
ĠBRO WN
Univers itÃ¤t
FFENT LICHE
ĠiP od
ĠRegierungs konferenz
ĠKen ia
Mari ann
ĠGumm i
roÃ¶konom ische
ĠAcc ess
Ġkompliz ierter
Berat ungen
Ġchamb res
bour g
ĠScheide weg
ĠHugh es
ĠREY NDER
/ -
A g
A ner
A UF
D C
D iam
G ro
G AR
K al
M ac
P aul
S ION
S udan
T s
V C
W A
a ele
b eugen
f ab
f aktor
k al
k redit
n as
n ische
p ap
u es
y g
Ġ arm
Ġ old
er zeugnissen
ĠS ituationen
Ã¤ mm
ein gang
Ġs eg
el dete
ge halten
Ġm ost
Ġm achbar
Ġb ack
ĠP ic
ĠP ump
ĠE VP
ĠE cu
ĠK ing
Ġh olen
ĠF oster
ra me
Ġk Ã¼nd
ĠG ir
ĠG om
ĠG RE
ĠH on
ĠH elsinki
ĠV ie
ĠT ap
ĠT ener
ĠL is
ĠL ine
ĠL ay
iss on
Ġden k
Ġdes wegen
Ġl eistet
ĠC le
Ã¼ber nahme
ĠVer w
ĠAn aly
ot a
ĠÃ¼ber leben
Ġst euer
rÃ¤ t
ĠSch ein
ĠSch okol
ĠO zon
ĠAb s
be ut
be wirtschaftung
ick ets
Ġent h
ĠmÃ¼ ÃŁte
Er folg
ĠSp alten
Ver gessen
Sch iff
geb Ã¤ude
id ar
OR E
qu id
acht ungen
Hier mit
pro fil
gem aÃŁnahmen
11 3
ĠWelt bank
Wer fen
Mar y
AG ER
olog isch
ĠSpiel zeug
Ã¶glich keiten
ĠEx plorer
ĠInter im
Ã¤u schen
ĠBl umen
hin gton
kon sum
Ġverl Ã¤uft
ĠJul y
Ġkurz er
Ġern euert
ĠDi pl
ĠEinzel fall
LICH ES
ij us
ernen ergie
AD O
Ġbew uÃŁt
Ġch emische
StaatssekretÃ¤r in
ĠKar riere
ake ten
EV A
ĠCl assi
ART H
ĠAG B
ĠAL MUN
ĠPat ch
Ġkor re
Ġgro ssen
Ġrel igi
ĠGleich stellung
Ġpositiv es
cks ilber
ĠPH ARE
ĠStad ium
ĠGro ss
ampag nen
stre ben
ĠĠĠĠĠĠĠĠ Ġ
Ġbelieb ig
Gu ido
Ġgener iert
Leben s
Letz te
ĠBern ard
Ġstrateg ischen
Ġdah inter
ĠSchm id
ĠFu E
ĠSing apur
Ġunzureichen den
Ġruss ische
SchÃ¶n e
ĠPrakt iken
solid ierung
Don nerstag
ĠÃĸff nung
geleg te
Ġerleich tern
Angeb ot
Ġgep rÃ¤gt
ĠÃ¼bert rieben
STER REICH
bem erk
ĠÃľbern achtung
JU GEND
wÃ¤l te
bur ger
ĠVerzÃ¶ger ung
ĠAnh Ã¤nger
Ost see
ĠJahrhunder ts
HÃ¶ he
Verl Ã¤ngerung
ĠZertifik at
sman agement
Ġpersonen bezogen
Ã¤rÃ¶ ische
KÃ¼nft ige
iov anni
ĠLaufen den
eirat et
ĠSteuerzahl er
ĠTschetschen ien
ĠEIS ENB
IEDERLAND E
ĠALMUN IA
6 10
B leiben
F C
F akten
G al
H OR
I rak
K R
K atastrophen
N OS
N orm
S yn
T rotz
W h
Z ust
a unt
b eschÃ¤ftigung
f ft
f aden
f ried
g ab
h Ã¤nge
k y
k ann
m pt
n och
w ehr
z weite
en sen
Ġd ran
ie ÃŁt
st ande
ĠS ab
ĠS ind
ĠS ri
Ã¤ ft
Ã¤ gliche
Ġw eib
Ġs eiten
el ben
or sch
Ġun ab
Ġun um
ĠA ro
ĠA PS
ĠA KTION
Ġf ehler
Ġf lexi
ir us
ĠP av
ĠP iet
ĠB ig
ĠB enz
ĠB EK
ĠF ass
ĠF okus
ĠI sol
ĠR iesen
Ġin spir
ĠD ick
ĠD RITT
ĠG ER
ĠG elt
ĠG ucht
ĠG lauben
ĠV eter
ĠW u
de uten
le d
ab ile
Ġ2 30
re gen
ĠL ANG
ent in
Ġge wartet
Ġ( âĤ¬
Ġan y
Ġan merken
ck te
ĠZ ag
ĠIn spekt
us a
Ġauf geben
rei be
Ġbe denken
ĠN OR
Ġver weisen
ik ative
Ġt reiben
ag on
Ġaus gebaut
ĠPro v
gr Ã¼nde
ĠSch e
Ġo bligator
Ġj ahr
ĠO p
ĠAb schluÃŁ
lei tet
ĠAr sch
ĠVor jahr
ĠSp azier
ĠRat sd
fol io
ST O
ĠEin nahmen
Ġr isk
AR S
zi ffer
ess el
sam es
alt ungs
Ã¤hr leistung
ĠProblem atik
ĠKon junktur
Ġle hne
Sp rechen
Sp recher
ĠKommissar s
ĠÃĦ thiopien
pl Ã¤ne
Ġpro p
ux e
ĠFl aschen
if ic
Be f
ĠGrund stÃ¼ck
MER MANS
Mar got
Ge walt
ĠRei s
Ġnie manden
Ġfest halten
Ġfest stellen
EIN E
Am t
Ġverw alten
Ġverw Ã¶hnen
ĠPolitik en
ransp orte
sol v
Ġnotwend igen
ĠRahmen programm
Ġhe utzutage
ĠWirk samkeit
III d
ĠFest ung
Ġir ische
Ġstark es
Gr Ã¶ÃŁ
Ġne ar
ĠPrÃ¤ zedenz
ĠLog istik
ĠEigen schaften
ĠOper a
ĠHe ad
Kar l
ĠProf ession
rang ige
ĠFerien haus
ÃľSS EL
vis uelle
Haushalt splan
Ãĸffent liches
ĠGener ationen
ĠEng ine
ĠChrist opher
ĠEIN E
ĠErd beben
ĠKind es
Ġwider sp
Ġwider sprechen
Ġerweiter te
Ġloc ated
ĠBestell ungen
ĠRatsprÃ¤sident in
ĠOl li
Gest ern
Ġerle digen
grÃ¶ÃŁ te
Ġlegisl ativen
Ġkontroll ieren
ĠGel Ã¤nde
Ġverschw inden
leit ungen
Ġche ck
ĠGest altung
Ġbeunruh igt
Ġvo or
Verst Ã¤rkte
nÃ¼ pft
Rober t
EntschlieÃŁ ung
ĠJes us
Har ald
ockt ail
AKTION SPLAN
ĠPubl ic
uver Ã¤n
ĠLAND WIRTSCHAFT
ĠNeuer ungen
ĠWÃ¤l der
ĠIACOV OU
ĠTIM MERMANS
ĠangekÃ¼nd igt
strÃ¶ me
A genda
D EM
D ialog
D okument
F eierliche
G ott
G reat
I J
L auf
M r
N ormal
R C
S m
V M
V en
V IT
Z U
a iste
h te
h undert
i u
l te
n oten
n utzung
p rise
t on
ch i
in kt
in ing
Ġd ont
ie m
st ock
Ã¼ ckt
ĠS QL
Ġf uhr
ĠP OP
ĠE mb
Ġein treten
ĠB A
ĠB EIT
ĠB utter
ĠM LA
ĠK eu
ĠK im
ĠK Ã¼hl
ĠF ie
ĠF ur
ĠF inger
ĠI C
Ġg eile
Ġg Ã¤ng
ss l
ĠG riff
ĠG ÃľN
ĠG irl
ĠV eg
ĠV IT
re ter
am ar
ĠL Ã¼cke
ind izes
Ġauf schieben
ser ver
ĠSt urm
Ġl oben
Ġl eidet
ĠN V
ĠN u
ĠN un
Ġver halten
Ġver ehrte
ĠVer wirrung
ĠAn rufe
ik um
ot or
ĠÃ¼ber legen
ĠÃ¼ber flÃ¼
err en
ĠRe c
ĠJ emen
Ġst anden
eil le
ĠSch lieÃŁ
Ã¤t igen
ĠO ld
In g
Ġ3 60
ick a
ant al
art h
Ġab geb
ek ul
Ver w
Ver antwort
pf ung
St ahl
St udio
EH EMAL
ov iel
ob el
Ġges und
10 49
Ġ9 001
ĠAuf zug
ĠAuf stieg
our os
eid ungs
Ġwen de
12 7
Ġher z
Ġbest and
SA AL
35 5
ICH TE
ĠKl ass
Ġgef asst
Ġger inger
ĠZiel setzung
ater ie
AH L
Ġausge drÃ¼ckt
201 5
kon zept
SS EN
Ġrecht zeitig
Ġem p
ĠSozial schutz
Ġverw aiste
UM AN
ĠSCH WAR
ĠForm ul
Ġfol gte
ĠFahr rÃ¤der
Her z
Her anfÃ¼hrungs
ĠSchw Ã¤chen
ĠFrÃ¼h ling
ĠStimm ung
LICH KEIT
ĠProdukt ivitÃ¤t
Ġbew Ã¤hr
Ġdeut liche
staat liche
ons or
ĠTra ck
ĠKern kraft
ĠSport s
Ġtechn ologische
Gr enz
fre ies
ĠPass ag
Kurz um
ĠGroÃŁ en
Ġpl ant
Abkommen s
ĠRede zeit
ĠHoch schulen
Ã¼l le
Ġvorhanden en
Ġeh emalige
Fusionskontroll verordnung
Ġzentr aler
ĠLu is
Ġbevor zug
ĠTur n
ĠBeruf sbildung
Ġoptim ale
Rechts vorschriften
ĠKredit karten
ĠBio technologie
ĠÃ¤l tere
ĠTo uch
ĠMÃ¼n zen
ĠEigent ums
Struktur fonds
ĠHam as
Hering Clupea
Ġter rit
ĠErwachsen en
ĠBerichtig ung
sprach igkeit
Amer ika
ĠHilf s
Jeden falls
Mob ilitÃ¤t
Mak rele
Ġmon at
ĠgerÃ¤um ig
Ġstre ben
Ġbehaup ten
geleg ten
ĠFund ament
ĠkÃ¼r zlich
ĠdrÃ¤n gt
JAHR STAGUNG
ĠPau lo
Ġunterst reichen
Ġass ozi
ĠFeatur es
ĠHAL ONEN
ĠElektron ik
Ġzert ifiziert
ĠSchott land
Patri ck
reens h
ĠSÃ¼dt irol
Dringlichkeits debatte
ĠMLA DENOV
0 30
6 45
G AL
H z
L S
L o
M ES
P ass
P EL
R yan
U l
V N
W AND
a ber
b or
g ipfel
j ana
m ir
o on
p an
p zig
r Ã¶
r att
s icher
v ille
x x
z em
Ġ len
Ġ other
Ġ egal
an gehen
ĠS omm
ĠS ah
ĠS enkung
Ġs inken
ar in
ur er
ur onect
Ġm ain
Ġf rucht
ĠE ffekte
Ġein fÃ¼hren
ĠB rie
ĠB OG
ĠB OLK
ĠM itteilungen
ĠK rist
ĠK ULTUR
ĠF EKO
ĠR ODR
ra els
ĠD OM
ĠG all
ĠG EM
ĠG uten
ĠH arb
ĠV IL
ĠW IN
ĠW arn
le z
ĠT ast
ĠT UR
and s
and ouros
ĠL iv
Ġge treten
Ġge ziel
ĠIn form
ser klÃ¤rung
ĠSt rÃ¤nde
Ġl eistungs
ĠN ap
Ġver eint
Ġver anst
ĠC SS
ĠC amer
ĠVer fassungs
ot ograf
ĠRe den
ĠJ etzt
ĠJ ordanien
Ġst il
Ġst ieg
itt le
ri ca
Ġaus fÃ¼llen
lo v
ĠSch afe
ĠEr haltung
ĠUn sicherheit
ĠUn gleichheit
Ġ3 88
ÃĦ UB
Ġunter richtet
IN IST
Ãľ F
Ġab ges
An schlieÃŁend
uch er
Ġnach drÃ¼cklich
Ġam b
St avros
Ã¤nd ig
ass ismus
ĠMa ast
ord net
ĠBe amten
AR L
qu are
ĠGr ill
Ġlie b
Ġges unde
ĠUm stellung
ĠUm stÃ¤nde
Ġgegen wÃ¤rtigen
Ġ10 4
IK AS
Ġgem essen
Ġgel angt
ktion ismus
Ġ: :
40 9
Ġkomm erz
EG A
BE EK
Ġger ettet
ĠZiel setzungen
Ge fÃ¤hr
Gen eral
ĠX I
stat us
Ġbek Ã¤mpft
raum s
ĠGesch windigkeit
UM SETZUNG
ĠMarkt es
ĠRo ss
rem e
Ã¤ng liche
ENT R
under te
Ġfol lowing
Ġeinz iges
zÃ¼ gliche
Ġwo fÃ¼r
Ã¼ssel dorf
sz entrum
Viel es
Viel mehr
reg ierung
erst att
ĠJugend lichen
ĠBro k
ĠBro schÃ¼re
dienst stellen
ĠpersÃ¶n liches
Se villa
ĠBr eitband
ĠKar ibik
ĠBu ffet
Ġheraus greifen
Ġmitt els
ĠMeer blick
GEMEIN E
ICHT IG
ĠTerror isten
Best ellen
ĠFern ando
ĠEt appe
ĠUnivers ity
Stell vertretender
Ġirgend wo
ĠSelbst zweck
ĠSw imming
ĠDoppel bett
ĠVerl uste
ĠSil ber
Ġbl icken
Ġav ast
ELL SCHAFT
ĠTo il
handels organisation
spartner schaft
ree vy
ĠBundes republik
ĠUnternehm ertum
ĠHalb pension
ĠLU FT
Ġinvest iert
Ġstaat lichen
ĠRob oter
ĠWichtig keit
Ġco uld
Ġfrag te
Ann emarie
ĠPfer de
Glob ale
ĠSau li
Elekt ron
Ġbehaup tet
Ġfa ire
Ġhoh em
Ġumfang reich
Mont ag
ĠSIL VA
Ġfreiwill ig
ĠBrem en
ĠOH NE
ĠKonfigur ation
ĠSchwimm bad
ĠZustÃ¤nd igkeit
ĠCour t
Ple uronect
Ã¼st et
Ġsob ald
Ġglie dert
ĠEntschuld igung
quier do
Ġhervorge hoben
ĠParlam ente
ĠRatsd okumenten
Pleuronect es
1 95
2 20
A ch
A ir
B reakfast
C y
C ur
D ein
E E
E ck
F ING
F actsheet
G AP
H ilf
H alb
H Ã¶chst
L Ã¤ndern
N IEN
S il
S obald
T aste
W ein
W ISCHEN
a ire
b ahnen
h ar
h lt
j i
m itteilung
m ond
n ur
r el
s ucht
t l
y ana
z id
Ġ Ã¶rt
er d
ch o
Ġd ownload
Ġd ella
Ã¼ he
ĠS erien
ĠS egel
ĠS achstand
Ġw ebsite
Ġs ing
at em
it ute
ĠA ch
ĠA ma
Ġf inn
Ġf rem
Ġf Ã¤ngt
Ġb elegen
Ġb irgt
ĠB L
ĠB ir
ĠB il
ĠB ET
ĠB ytes
ĠM I
ĠM AG
et was
Ġh orizont
icht ung
ĠF ed
ĠF AC
ĠF usion
ĠR un
ĠR ica
Ġk rank
ĠD ell
kt or
Ġ2 40
00 2
ĠL oy
Ġbe acht
Ġl ook
Ġl imit
Ġver laufen
Ġver senden
ĠC e
ĠC EO
ĠVer lauf
ĠAn sÃ¤tze
err t
Ġt own
ĠRe v
ĠJ ust
ĠJ ud
Ã¤r ten
ag ne
ĠSch merz
rau t
Ġsch ritt
Ġvor aussicht
ĠAb bau
ĠAb hilfe
ad d
ON IS
ES EN
IN N
IN AKIS
Ġda y
aus bildung
kl ang
Er haltung
Er gÃ¤n
ĠRat e
ĠRat ing
ĠRat ifizierung
la va
ak en
ak ademie
Ġnach voll
Ver kauf
oh le
ill on
ekt ionen
ĠEin beziehung
enz a
od ik
Ġre chte
ĠBe weise
elegen heiten
Ãľber prÃ¼fen
ret anien
SCH N
ĠÃĸ konom
ĠTh yssen
arb on
sk osten
Ġeinfach es
yp rian
richt linien
Ġ11 6
per aturen
ou v
hÃ¤lt nisse
ĠX X
ĠSpiel raum
ĠbegrÃ¼ ÃŁte
AC ON
ĠVertrag sverletz
Ġem eta
ĠBÃ¼rger initiative
nehm ern
Zwei f
ĠNeu seeland
ĠAnd ree
ĠCo ver
ĠSh utt
ĠIndustrie politik
ator ium
ĠRahmen bedingungen
kommissar in
Ġvert ritt
enk ilde
ĠPo int
haft ung
ĠMIT TEL
ĠPrÃ¤ senz
Ġausgew Ã¤hlte
ĠOrg an
ĠKoh Ã¤renz
Ġdisk rimin
QU E
ĠKre aturen
Internation ales
Fr anzÃ¶sisch
Ġherr schen
Ġwert volle
ĠOber grenzen
EF A
vel op
ĠPan ik
Ġbetroffen en
Men Ã¼
Fran ois
ĠÃ¤l testen
ĠZeitraum s
ĠDo uble
Tab ak
ĠgrÃ¼n dlich
Ġkomplex e
GrÃ¼n buch
ĠMcC reevy
ĠSem in
ĠSem ester
Gem eine
Ġreserv iert
ĠBay ern
Ġqual it
YP ERN
ĠVAL INAKIS
ĠApart hotel
Empfeh lungen
Lib yen
ĠMART IN
Flug hafen
Ġwei ss
person en
verein barung
ĠMittag essen
Ġinstitution ellen
Stud ie
ĠBlo gs
ĠGAR RID
Ġdrau ÃŁen
ĠKonk urrenz
Ġval ue
ĠESP ERSEN
anno ver
LÃĦNDER N
Ander erseits
Ġbeseit igt
Konsult ation
ĠImpul se
ĠBert aud
ĠPek ing
Ġwach sam
Wolf gang
ĠAhr enkilde
Ġplat essa
Ġerkenn bar
GAL ILEO
yprian ou
ĠAndree va
ĠGARRID O
- /
7 22
A lt
A IDS
B u
B ESS
C te
C lub
E ing
F rans
H olen
K rank
K arten
K raft
K ontroll
M att
M ina
M EHR
O h
O JA
S oviel
W enden
Y our
b iegen
e arch
f ax
f Ã¤nge
n s
p osition
s or
s uche
t agung
v ir
v om
z irk
z immern
Ġ eu
Ġ ordnungs
Ġd Ã¼n
Ġd oppelt
un er
un ahme
an schluss
Ã¼ bt
ĠS kl
au g
ĠA ff
ĠA tem
Ġm g
Ġf lie
Ġn atur
Ġn ette
ĠP y
ĠP ier
ĠB V
ĠB Ã¤r
ĠB reite
ĠM ICHEL
Ġz eig
ĠK yprianou
ĠF as
ĠF ISCHEREI
Ã¶ pft
ĠR I
Ġin tern
ĠD imitri
ĠD idier
ss itz
ĠG ood
ĠH ANDEL
ĠW ood
ĠT ER
ĠL ED
ĠL ight
ent o
Ġvon einander
Ġer richtet
iss es
ĠZ y
ĠZ imm
ĠZ Ã¤h
ĠSt ille
ĠN avigation
ĠN etto
ĠC Z
ĠC ocktail
ik es
ff ic
Ġwer fen
om a
Ġt ag
Ġst ron
sp otenzial
ort eile
he d
Ġj unger
Ġsch ock
ĠO f
ĠEr m
ing o
lie derung
Ġvor ank
ĠAb onn
AN EN
eg arn
ON DS
IN IERUNG
kl ick
ĠSp ekt
Ã¼n g
ST I
Ġmehr mals
Ġall mÃ¤hlich
AT H
ĠAng abe
IL A
ĠGe fÃ¼h
Ġges onder
her z
ĠAl ler
inn ing
Ġweiter entwick
ĠKon g
Ġle gte
Sp ez
Sp rachen
ĠFor en
our en
ĠMar ie
Ġgew ahrt
ĠÃĦ ng
Ġpro duzieren
ĠgroÃŁ artige
org ungs
Aus fuhr
Aus schuÃŁ
ĠQu ad
ac a
ED EN
Mar o
ĠZimmer service
Ant rag
ĠIN D
ĠWas hington
16 15
Ġfest e
Kl ar
OS NIEN
Ġausge zahlt
sver kehr
Mehr wert
22 9
Ġrecht lich
Ġrecht lichen
Ġverl iert
LAND SSON
ĠRo berto
man ager
ĠMÃ¤r kten
Ġbesch eiden
ĠVER EIN
af el
ĠSchw ellen
ĠRechtss icherheit
Ber lin
Ġop en
ĠFischerei fonds
Ġdeut licher
eres a
fert igung
log gen
OT H
ollte xt
ĠPlan et
Ġglob al
ĠER LANDSSON
ĠUrlaub s
Zahl reiche
usst sein
ĠSee verkehr
sh op
seit igen
Ġverein baren
ĠForum s
ĠgewÃ¤hr en
ĠAktiv itÃ¤t
oss ier
ĠIrland s
Ġfreund lichen
System e
ĠÃ¶ konom
Ol iver
ĠImp ort
Ho ffen
Gu ide
ĠÃ¼berw inden
ĠBundes kanzler
agentur en
ĠChe f
ĠjÃ¤hr liche
Par lament
Ġindivid uellen
Letz ter
Ġmark ierten
ĠkÃ¼mm ert
Offen sichtlich
ĠTher apie
ĠBildungs wesen
Ġvis it
ĠursprÃ¼n gliche
ĠArmen ien
ÃĸR DER
ĠPflanzen schutz
Ġap artment
BEL GIEN
Char lie
Prof itieren
ĠAbt eilung
liefer ung
Rober to
Konk ret
Ġengag iert
MÃ¶glich erweise
Letzt lich
ĠGA SP
ĠCOW ENMinister
Entsch eiden
ĠWorksh ops
MED IA
ĠVorbeh alte
Ġuneingesch rÃ¤nkt
ĠIz quierdo
ĠKommissions dienststellen
VERH ANDLUNGEN
arko zy
ĠDarf ur
ĠHeuch elei
ĠEAD S
ĠKronzeugen regelung
( *)
4 20
8 33
A A
A ustr
C asa
D AS
D okumente
F i
F IZ
H istor
H Ã¶ren
K ompl
K rist
K ÃľN
L u
L eistungs
N IEDERLANDE
T UNG
U rteile
W il
W ER
W Ã¤hrungs
Z EG
Z entrum
b eile
c ess
e ar
g art
h st
h ei
h Ã¤user
i Ã¶se
l is
n isch
p y
r ze
v ia
w el
z lo
Ġd A
an ischen
ĠS ens
ĠS icherung
Ã¤ le
Ġw ind
Ġw eich
Ġw alk
ein g
Ġs ektor
Ġun klar
ĠA ra
Ġb ien
Ġn Ã¼tzliche
Ġn avigation
ĠP ed
ĠE den
ĠE he
den kt
ĠK it
ĠK Ã¤se
Ġh ielt
ol ay
ĠF C
ĠF INANZI
sch ungen
ĠR et
ĠD IN
ĠD amit
ĠG ÃĸN
ber at
ĠH Ã¼gel
ĠW ur
ĠW ater
ĠW Ã¤rme
le ute
ab teilung
ĠT au
ĠL Ã¤cheln
Ġge werb
Ġge strichen
Ġ1 35
op ie
ĠU M
iss au
Ġauf greifen
Ġver gangen
Ġver arbeitet
Ġver sehen
ĠC S
ĠAn al
ik i
ot al
ĠRe vision
ĠJ ungs
Ġst r
Ġst et
Ġst arte
und s
Ġp ool
ag ask
ĠSch ad
ĠSch uh
res st
TE G
ĠEr stellung
ĠEr hebung
ĠEr mÃ¤ÃŁigung
Ein mal
AN OV
ok e
ĠAr ena
Ġhier mit
kl ass
ĠAus weg
Ġnach dem
EU RO
EU TSCH
Ġ22 0
io us
enz eichen
ĠBe vÃ¶lkerungs
Ġzwei mal
ast et
ĠGr em
EH T
Ġ201 7
EM BER
EL LER
Ġges endet
ĠAuf nahmen
ĠAuf ruf
ĠAuf lÃ¶sung
vor rat
vor gaben
our ismus
Ġmein te
IE TE
ĠEn gel
Ġpro te
ritt s
ĠEntwick ler
ĠDie ser
ĠSo uth
Be w
Be ob
ĠHer man
ĠBÃ¼r os
ĠGeb ot
Ġget renn
Ġgeb illigt
riv e
Ġoffen kund
Ġro b
Ã¶ch ent
ĠWettbewerb spolitik
ond o
ĠNov otel
Ġgleich ermaÃŁen
67 456
ĠPh ot
UB B
ĠBeh aupt
Ġersch ien
ĠÃľ bung
ĠBinnenmarkt s
Prior itÃ¤tsachsen
ĠCas h
ĠBal ance
ĠDurch bruch
ĠSpanien s
Ġpl Ã¶tzlich
LAN T
Ġanges ichts
ĠFrieden s
ĠSc ript
ĠwÃ¼nschen swert
IR L
IR LAND
Ġwor auf
ĠCon tent
ĠStabilitÃ¤t spakt
duz ierung
lav ier
Ġirgend wie
Ġzahl reichen
ĠKn opf
OW INA
ĠProduktion s
VII a
ÃĦnder n
ĠVerl ierer
ĠDritt staaten
ĠReserv e
ERB IEN
ĠWar schau
ĠMor al
Ġzw anzig
ĠMass nahmen
Fischerei abkommen
Ġbewer ben
Stra ÃŁen
Ġunbe grenz
ĠKenn wort
Ġkomplex er
ĠGedanken austausch
Ġrest rikt
ĠHO TEL
ĠPrÃ¼f ungen
ĠJob s
RIE FING
Eigen mittel
ĠVol umen
ENTWICKLUNG SPOLITIK
Ġeffizien te
ĠBek annt
ĠPER EIRA
WÃ¼r de
Ġausgezeich neten
ĠursprÃ¼n glich
Assozi ationsrat
Ġengl ische
ĠDies el
schiff e
ĠMiet wagen
ĠIll usion
Ġausgel iefert
Ġblo ÃŁ
ĠSÃ¤u len
ĠEinsch rÃ¤nkungen
Ġq m
Ġgekenn zeichnet
ĠWACHSTUM SPAKT
ĠÃ¼berraschen d
Ġrat ifiziert
ĠKOS K
Wind ows
ĠnÃ¶r dlich
verfolg barkeit
Aben dessen
ĠJav ascript
ĠGarant ien
ĠOze an
ĠNI INIST
ĠDec ember
ĠverschÃ¤r ft
King a
Tiefse egarn
Nah ost
ĠPest iz
913 82
ĠspÃ¤te stens
ĠGÃľN THER
FIZ IT
ĠGÃĸN CZ
agask ar
B an
B ru
B undes
C AR
D or
F uÃŁ
G ESCH
G Ã¼nther
J ak
J Ã¼rgen
K az
L eiter
L ars
M rt
N GL
P riv
P ROGRAM
P PE
R uÃŁland
R echte
T ur
T Ã¤glich
T onio
V ENT
W UR
Z entrale
b ach
h end
m ess
u ge
w Ã¶rter
ch ange
Ġd os
Ġd rucken
st Ã¤be
an spruch
ĠS W
Ã¤ uÃŁer
au rant
as ant
ar re
is ation
Ġm a
Ġf arb
Ġf ried
ĠP E
ĠP AB
ĠP opul
ĠE ast
ĠB J
ĠB ell
ĠB ritt
ĠB EW
ĠB Ã¤ume
ĠM ahl
ĠK eine
ĠK Ã¶n
ĠK leidung
Ġh ar
ĠF E
ĠF un
ĠF rans
ĠF TP
ra fen
Ġg olden
ĠD irector
ĠG ipfels
ber ater
ĠV aler
ro g
ro st
ĠW erner
Ġzu hÃ¶ren
ĠT ok
ĠT ime
Ġ2 10
Ġge gliedert
ĠZ eich
ĠZ iffern
ĠIn gen
ser aum
ist ischer
Ġl auf
ĠN Ã¤chstes
ĠC ur
ĠC ACH
om er
Ġt rop
rÃ¤ te
ul in
Ġsch aut
Ġdies elben
ĠEr b
ĠAb frage
Ġ3 000
ok raft
Ġunter liegen
elt a
zu cht
ON YI
lei der
IN Mitglied
IT H
Ġe v
Ã¶r ungen
Er nennung
ĠAus flÃ¼ge
Al fred
Al gerien
lin k
St Ã¶
St aff
Ġre prÃ¤sent
og o
EL OS
her stellung
RA FT
ĠKon gress
ĠLand haus
Ġle ere
halten der
ĠUnter kÃ¼nfte
ĠEn rico
Ġimmer hin
11 8
ĠÃľber setz
ĠZu verlÃ¤ssigkeit
ĠEur e
Ġ19 80
Vor schlÃ¤ge
gien e
ib a
Ġgr Ã¶s
ris iken
Ġen dete
ec ut
alis ierten
Ġ16 15
ĠMon d
ĠGew inne
Ent wurf
Ġlei tet
HALT IGE
Ġbeh err
ĠInvest ment
Ġverb indlich
ĠSozial modell
ĠRo se
Ġro te
ĠverfÃ¼gbar e
trag bar
LA K
OV SK
laub nis
ren der
Ġob liegt
OU L
OU RA
ĠAll iance
ĠRechts akte
ĠDE FIZIT
haus gas
ĠAktion sprogramm
ĠJanuar y
OP OULOS
ĠMil cher
ĠNord korea
EB RIEFING
Le ft
Auss er
Akt uell
ĠLog os
ĠCar lo
Ġdi plomat
komm unikations
Ġauss ieht
arn ing
ĠGeh irn
vert rÃ¤glich
vert eidigung
ĠEt age
Ġad d
beg inn
ĠTelefon nummer
ĠtÃ¤glich en
ĠTrans l
sprÃ¼ ch
ĠTerrorismus bekÃ¤mpfung
Ġfreund liche
Ã¤cht nis
Ol ivenÃ¶l
Pl atz
sprozess es
ĠStock werke
Ġbas ieren
Ġintegr ierten
Ġbelieb testen
Teil nehmer
ĠWIRTSCHAFT SPOLITIK
Ġgeh eim
Ġverbunden en
Ġbedau re
fil m
Andre j
ĠvernÃ¼nft ige
Mod us
Sk agerrak
schuld ung
ĠSTRA F
ĠFlÃ¼cht lings
schreiten de
Ġunters agt
freund liche
tell vertreter
Gem Ã¤ÃŁ
Ġvorber eiten
Ġbeein fl
ĠenttÃ¤u schen
Ġspan ische
ĠES VP
arbeits losigkeit
Ġilleg alen
ĠLad y
As ien
ĠMART ONYI
Ġwei se
Tour ismus
inu ier
Ġunn Ã¶tig
Ġhoh es
ĠJon as
ĠResult at
ĠBewerb ung
RICHT LINIE
SAB KOMMEN
RIK S
ĠBYR NE
Crist ina
Wur de
ĠvergrÃ¶ÃŁ ern
LAV ANY
ĠIntern etzugang
ĠArme e
Ġbegeg nen
kontingen te
Inner halb
Vol umen
530 70
Li isa
ĠImmun itÃ¤t
ĠWhe eler
Shir in
gerichts hof
ĠMim ica
Aner kennung
Ġaufschieben de
ĠBOLK ESTE
ĠFAC ULT
Zweif ellos
ZEG OWINA
ĠPAB RIKS
1 35
6 17
A c
B anken
B SE
B AU
C amp
G ra
G IPF
H abe
I gor
K EN
M OD
N utzung
P u
R ec
U ANA
W erk
Z EK
Z ahlung
Z USAMMEN
b elt
c at
c ian
d iz
d ia
e ak
f utter
k g
l isten
m at
p rior
p reisen
r l
r ennen
r iken
s ive
z Ã¤hl
Ġ \
er gebnisse
in ation
an frage
an alyse
Ġw oher
Ġw hat
Ġs low
el ung
at ell
or ry
is ierten
Ġun aus
ĠA y
ur o
Ġm t
Ġb rechen
Ġb innen
ĠE mot
ĠE ICHEL
ĠB ah
ĠB onn
Ġz ivil
Ġz Ã¶gern
ĠK ernenergie
ĠF uer
Ġin formation
Ġk e
ĠD Ã¼
ĠG ol
ĠG AMA
ĠG LAVANY
ber uf
ber eichen
ĠH EL
ĠV assilio
ĠW O
ĠW AL
ĠW IR
lich te
de ga
le chter
ĠT ol
ĠT ran
ĠT aschen
ĠT oskana
ĠL IG
ĠL anzarote
ent sch
Ġge folgt
Ġan klicken
Ġauf zunehmen
ser mÃ¤cht
ann ter
ĠSt ate
ĠN orth
Ġal arm
ĠC ala
ĠC annes
ĠAn wesenheit
Ġt aten
ĠRe zession
ĠJ EL
itt a
Ġaus genommen
gr Ã¼n
ĠSch u
UN KT
Ġum stritten
Ġsch Ã¤
anz eiger
Ġvor hin
eb o
Ein satz
Ġunter en
Un ten
eg ion
ON NER
... ]
01 4
Ġa ct
Ġe f
ĠVor h
Ġab sch
Ġc or
im edia
Al p
St immt
pp y
ĠGe werk
ĠZeit ung
EM ARK
Ġges orgt
10 9
ROP HEN
ĠCh in
GEN DA
pl Ã¤tzen
Ġ19 88
Be vor
So ftware
zen de
ib or
Ġbesten s
ĠBet reuung
Ġ17 0
ĠBest andteile
ĠAd el
Ġange fangen
ander s
ĠEx istenz
PR ÃľF
Re fer
Bet rieb
EIN LEITUNG
Ġbed Ã¼rfen
Wo fÃ¼r
EC A
Ġseit dem
up s
Ġro mant
ĠBed ingung
Ar mut
ĠForm el
beh alt
ĠSchw ach
ĠRÃ¼ck gang
ĠLie b
ĠGer Ã¤ten
IV EN
ĠST UBB
AB AK
Ges etz
Seit her
ĠLa pt
ĠFest stellung
Mich le
ĠNacht eile
ommer ce
Du an
prÃ¤ mien
zuf riedenheit
ĠApp ell
Ġpl atz
ĠErw Ã¤g
ĠGesetz es
Ġbel aufen
Ne w
utt gart
ĠverÃ¶ffent lichen
ĠHoch zeit
ĠPf eil
ĠSa fe
ĠNot fall
jÃ¤hr iger
Ġmin utes
ĠZus agen
ĠAust ria
Ġbedeuten der
ĠAss oc
ĠÃ¤l teste
ĠAK VIS
ĠhÃ¶her en
FrÃ¼ her
ĠgewÃ¼n scht
KAN EN
ĠBAR RO
Generalsek retÃ¤r
Ġuner lÃ¤sslich
Eben falls
rim Ã¤r
ĠTar ja
Entwicklungs zusammenarbeit
ĠLeg itim
seh bar
Ġform uliert
Ġph ys
wirk lichung
ĠAnwend ungsbereich
Ġangen ehme
ssp rachen
Dan uta
ĠKe y
Ġanerk ennen
ĠMult i
AST ROPHEN
ĠÃ¼ ben
ĠMerc ure
Ġrad io
ĠLy on
stechn ologien
Kenn zeichnung
ĠZul assung
ĠLei pzig
ĠSatell it
ĠLeu ten
ĠSÃ¤u le
ĠSOL BES
ĠVill age
Ġverwende ten
ĠSAN TER
Ġries ige
ĠstÃ¤dt ische
ĠTru ppen
Ġste cken
ĠWart ung
ĠOrient ierung
Ġwid men
ĠVarian te
ĠMcCREEVY Minister
ĠSymb ole
Mus ik
KV EL
ĠÃľberrasch ung
Ġbelg ischen
ĠHalte stelle
KÃ¶nig reich
ĠPRESS EBRIEFING
ĠWende punkt
ĠDistrib ution
ĠASS O
ĠKlo ster
ĠWeis heit
ĠRepar atur
STEU ERN
Vorgeschlagen e
ĠSANT OS
ĠVersp Ã¤t
ĠFRÃľH JAHRSTAGUNG
ĠPrÃ¤zedenz fall
ĠSCHWAR ZEN
ĠMaast richt
Ġvoraussicht lich
ĠNIINIST Ãĸ
ĠCACH IA
ĠVassilio us
0 50
1 40
8 22
A udio
B EH
C our
D G
D ifferenz
G rÃ¼
K n
L izenz
M P
P hil
S ite
S uche
b indungen
e e
g Ã¤ng
h ein
j u
k Ã¼r
k rie
p est
z err
en ce
Ġd ritter
st Ã¤tigkeit
Ã¼ sselt
ĠS v
ĠS ehr
ĠS ud
ĠS ELL
ein bar
Ġs ome
ar ium
al p
Ġdie jenigen
ĠA RT
ur teil
Ġm s
Ġv e
Ġv ideo
Ġf ing
Ġf ix
Ġb ig
Ġb elegt
Ġn ukleare
ter dam
mm nisse
Ġein gebracht
ĠM asse
Ġz Ã¼g
ĠK RO
ĠK apazitÃ¤ten
icht ungs
ĠF IL
sch ern
sch ub
sch uhe
Ã¶ pfen
ĠR Ã¶
ĠR IS
ra ct
ĠD IEN
ĠD Ã¼sseldorf
ss eite
ĠH AUSHALT
ĠV ier
ĠV alencia
Ġzu viel
ĠT asche
ĠL II
ĠL ack
ÃŁ ig
ĠU rteile
eh ne
EN P
Ġbe ach
Ġl ine
Ġl ese
Ġver passen
Ġver handeln
ĠC op
ĠC av
ĠVer mittlungs
eu ten
ĠÃ¼ber sehen
Ġt ue
ĠJ oh
ahr scheinlich
sen d
gr Ã¶nlÃ¤ndische
Ġo g
Ġo hn
ul ator
Es kil
scha d
ĠUn sere
ok ia
IS U
32 6
Ġe Mail
Ġent fallen
Ġab schlieÃŁend
Ġab warten
Er hÃ¤lt
ĠAus fuhren
AT A
AT T
Ã¤h nung
ord nen
Ġde ckt
ĠBe urteilung
ess andro
ob ias
lam en
Ġges unden
Ġbet rieben
Ġbet rachte
ĠFrage bogen
Sp iele
Ġgegen seitig
Ġgew ohnt
Ġ10 5
Qu al
inder t
ehm igungen
Presse stelle
av ier
ĠZu sch
ĠWelt raum
amen s
Des sen
Ġmorgen s
Ã¤ss e
ĠUmwelt fragen
ĠZimmer preis
Ġen joy
des ign
Ant anas
ĠIN FORMATION
ĠAd al
ĠInd ustr
Ġbek am
Ġbed ient
Ġbeh eben
14 2
riv io
ID ES
ĠY ves
NE W
Ġdarauf hin
ĠLe v
Ġweit aus
sol e
auer licherweise
wie gen
ĠAuÃŁen minister
mitt ler
Ġposit iver
schn eiden
ĠMehr sprachigkeit
old ing
Ġbez weckt
ĠKontakt daten
ĠMad eira
sent wicklung
ĠMaÃŁ stab
daten bank
ĠCor bett
ĠErn euerung
ĠHe alth
ĠFel sen
ĠÃľBER MÃĦSS
Umweltkommissar in
ĠArbeitspl Ã¤tzen
Ġad idas
ĠAmer ikas
ĠSE O
verkehrs abkommen
ĠMy th
ĠFortschritt sbericht
Ġhistor ischer
ĠImp ress
Pl attform
ĠAc rob
ĠAlter s
Ġhei sst
sf Ã¶rderung
ĠDis play
rot t
beauftrag te
ĠerÃ¶r tern
ĠVersand kosten
ĠMcC art
ĠBett wÃ¤sche
ĠDol omit
ĠKlim apolitik
ĠSzen e
ĠPhil ipp
ĠParad ox
geg riffen
ĠBerichtig ungs
Ġvertrau lich
Integr ierte
ĠReferenz en
Ã¶pf ung
ĠNet work
Ġverg leichen
ĠmÃ¼s sten
komp eten
ĠFehl ern
kont o
Ġdauer te
ĠSeg ment
ĠMeld ung
Ġdre ht
Ġinstitution elle
Deb ian
Bed auerlicherweise
Natas ha
Ġpe ople
Ġtrau rig
Ext ra
Letzt es
ĠEmissions handel
Ġmedizin ische
Ġdunk el
KL IMA
Lin ux
asp ekte
ĠUrsprungs regeln
Altern ativ
Ġmot iv
Ġdeaktiv iert
Ġaufgel istet
ĠLul ling
ĠProte ktionismus
ĠkÃ¶rper liche
ĠZeu g
ĠMount ain
anb ul
Mobilt el
Kol umbien
Kompon ente
ĠVorred ner
MaÃŁ nahme
ĠLay out
ratt us
ĠTast atur
sermÃ¤cht igungen
ĠLII KANEN
2 12
B rauchen
B issau
C a
D rÃ¼cken
E g
E st
E nder
F ach
F ri
F ord
G P
H S
J emand
K AS
L issabon
L aila
M el
M emo
O ffiz
T u
V illa
Z ehn
a ard
a ine
d h
f z
k atastrophen
l us
n b
n it
o steuropa
r ischen
t ag
Ġ euer
en en
Ġd rast
st eu
ĠS Y
ĠS j
ĠS ul
Ġs itu
at ing
ĠA le
Ġm oment
Ġb indet
ĠP as
ĠP OLITIK
ĠP EK
Ġein sch
Ġein schl
Ġein nehmen
ĠM ang
ĠM inisterrat
em b
em enten
ĠK am
ĠK aiser
ĠK reta
Ġh igh
ĠF rucht
sch ritt
ĠR U
ĠR ivier
Ġin tens
ĠD K
ĠD rag
ĠH alt
ĠV IP
ĠW ann
ĠW eitere
de hnung
Ġzu kommen
Ġzu kunfts
ĠT i
ĠT iefe
ĠT arife
se bene
00 32
ĠL O
ĠL Ã¼cken
Ġan bringen
ĠZ ellen
ien te
Ġauf gestellt
Ġl agen
Ġl ade
ĠN E
ĠN L
Ġver handelt
ĠC ot
ĠC oup
Ã¤n n
ĠRe chten
Ġp rag
lo ÃŁ
lo ok
ver halten
ĠSch ie
ĠO Conn
rÃ¼ ger
iv ile
ele ct
est a
si gen
ad y
ad ge
ad ox
Ġunter teilt
Un ternehm
ru hen
ru str
art igen
Ãĸ l
RO B
RO K
ĠVor bereitungen
Ġ4 60
Er lauben
Er hÃ¶hung
ĠSp ecial
la ck
im ale
Sch atz
fahr ten
99 6
ĠEin klang
ass ungen
ĠBe achtung
US D
Kontakt daten
EL ER
ap ans
Ġlie bt
30 2
Ġle ug
vor haben
GEN Z
ĠÃĦ ra
Ġpro test
sk raft
SA CHEN
ĠEur atom
if ul
AS TEL
ungsant rÃ¤ge
zen ten
ĠNach druck
Ant worten
VER GENZ
Ġbeg reifen
ĠRei cht
ET A
sb as
ĠAp r
Ġange stre
Ġglau bt
ats Ã¤ch
ĠGesch ichten
ied lung
UM S
ĠSCH ÃĦUB
ĠText es
ĠPRO GRAM
17 0
ĠAusw eitung
ĠSk ip
Ġerst aunt
IM MT
Ġvier ten
Ġzusammen fassen
ĠWer ten
ys q
hÃ¶ rigen
sprogramm en
ĠVerbraucher vert
voll stÃ¤nd
TO P
th ing
ĠNetz es
ose v
Ġhinzu zufÃ¼gen
fert igen
Ġaufge geben
Ġkonk reter
Wor an
Ġbez weif
Ġschwer er
Ġversch oben
Ġmoder nis
ĠFrankreich s
Ġglob ales
ĠMont age
ĠDiskuss ions
ĠVerteidigung spolitik
ĠErw Ã¤hnung
ĠPrÃ¤ z
met hode
ĠSc reensh
Fl ash
ĠPf lichten
out h
ĠTor re
ĠChar les
con i
ĠKan al
folge dessen
ĠFol ter
ĠGolf platz
ĠSP A
ĠTur nier
ĠBetrieb s
Vertrag s
Kein es
Bar celona
Ġbein ahe
ÃĦN EMARK
ĠAsyl politik
ĠStellen angebote
ĠVerkauf s
bew Ã¤ltigung
nungs zeiten
Ã¤us ern
ĠLandes verteidigung
ĠMensch heit
ierend es
Ġko ennen
HAUSHALT S
ĠDI ALOG
Ġmodern es
ĠENT SCHLIESSUNG
Mod ell
atri x
ĠGrÃ¼ nder
ĠHO YER
lÃ¤uf e
BAN IEN
ĠSekt ors
Ġuntern immt
ĠGel der
He utzutage
ĠEF OVI
ĠHigh light
ĠGeldb uÃŁe
ĠFRE DER
Ġsen ken
Rad osaw
Med ien
ĠursprÃ¼n glichen
Rest aurant
Ġoperation elle
Ġsy mbol
Ġdre hen
ĠIll usionen
Ġbewir kt
ĠArtik els
Ġeingeb unden
wart ung
ĠUNTER NEHMEN
Problem e
Ġsex y
ĠKas achstan
ĠBÃ¼ hne
Ġgeist igen
ĠOt to
ĠSubst anzen
ĠMargar eta
Ġair port
Ġrelev ant
Ġirgendw ann
Chr is
odor os
Las zlo
ĠMÃ¼l l
ĠVerteidigungs agentur
Ġgeplan ten
sbeh Ã¶rde
ĠSIM ON
Che ck
ĠNiger ia
ĠAnpass ungen
Ġdeb att
ĠMana vorrat
Kos ovo
Appl aus
Ġkonsult iert
Arb eiten
ĠFÃ¶der ation
ĠDOK UMEN
Ġrt ige
ĠWIN BERG
Ġvorank ommen
ĠFACULT AD
ĠSELL AL
ĠAcrob at
ĠOConn or
ĠSCHÃĦUB LE
2 18
4 13
A TE
B S
B on
D el
D re
G lauben
H r
H ol
J E
K en
K EA
K ampagne
L EIT
L ene
M io
M acht
M asch
O US
P ER
P osit
P akistan
S terne
S ERBIEN
V ern
b org
d lichen
f it
g ing
g anda
h or
k ammer
m l
s bekÃ¤mpfung
s icherung
Ġ ungen
Ġd an
Ã¼ ss
ĠS ender
ein schlieÃŁlich
Ġs al
at uz
ar ischer
Ġun re
ĠA AR
ĠA ction
Ġm oney
Ġn ord
ĠP M
ĠP ersÃ¶n
ter a
ĠE LER
ĠE mma
ĠB AS
ĠB Ã¼nd
ĠB rivio
ĠM AN
ĠM AV
ĠK Ã¤
ĠK av
et ag
Ġh eilen
Ġh Ã¼b
Ġh ace
Ġund er
ĠR ap
ĠR olf
Ġin halt
Ġin ternet
Ġk ehren
ss aldo
ĠG ame
ĠG EB
ĠH ung
ĠH uss
ĠV izep
ĠV iviane
ab les
ĠT reu
ĠT oten
am te
am onn
ĠL en
ĠL izenzen
ĠL EHT
op olo
ĠU lt
ĠU fer
ĠSt k
ĠSt ick
ĠSt Ã¤rken
ĠSt eigerung
Ġbe wiesen
Ġl asse
ĠC ontrol
ĠAn fÃ¤nger
ot yp
om la
ĠJ h
Ġst orn
Ġp df
Ġp otenz
ell igen
Ġj ur
Ġsch lie
ed ps
ĠO d
ĠO steuropa
wei ÃŁ
ĠEr zeugung
ĠAb hÃ¤ng
ad s
be finden
Un ion
wer fen
Ãĸ STERREICH
Ġent s
ĠVor abend
Ġ4 98
Er stellen
ĠSp ur
Ġc e
Ġc ons
ĠAus nahmer
fol gend
ak ultur
Ver Ã¶ffent
Ver anst
ic z
ĠEin igkeit
ust in
Ġr em
ĠAuss ehen
rat s
Ġre ale
Ġre alist
og a
ov on
wÃ¤r mung
ĠFinanz minister
gar age
Ġ% ,
rin ge
IK SEN
sk arte
ĠFl ynn
fl uÃŁ
ĠÃľber legung
ĠSchluss folgerung
if est
ĠÃĦnder ungs
Unser er
ris iko
Ġger man
verfahren s
los es
Zu schuss
spro jekte
Ġbeg leitet
ĠOr ten
ĠStand orte
stat istiken
ĠGeld wÃ¤sche
Ġbek annten
97 1
euer bare
Ġverw irk
Ar gentinien
ĠForm ate
ĠPartner schaften
ĠKat al
ĠKat he
OV ISU
ĠVerein igtes
ĠMit arbeit
Ch antal
ĠThe ato
ĠSchutz maÃŁnahmen
ĠVers icherungs
ĠAll ianz
ichterstat tern
Finanz hilfe
Ġersch ienen
Ġletzten dlich
ring lich
Hin fÃ¤llige
III bcd
ĠBro ek
Ã¼t te
urt eile
ĠDurch messer
Ġerz ielte
ĠApp artment
ĠKapit alismus
Ġernst hafte
zif ik
woch e
Ġwirtschaft lich
Ġzufrieden stellen
zentr ale
NAH OST
Ġzug reifen
ĠEd itor
Ġperf ekten
ĠUnivers itÃ¤ten
beg riff
nach haltige
Ziel setzung
Verkehr s
ĠÃ¶ fter
ĠAndor ra
Ġ$ .
Ġerreich te
ĠKapital verkehr
Ġperson al
ĠGerman y
ĠTyp en
ĠBegriff e
ĠNieder lage
Ġacc ess
ĠPflicht felder
yd ro
ĠGrÃ¼ ne
aktiv itÃ¤ten
ĠMotor rad
ĠOS ZE
ĠDirekt zahlungen
ĠChr is
denk lich
ĠAlex ander
ĠMarc opolo
ĠBru st
Ġgl Ã¤n
ĠVerpack ungs
ĠFISCHLER Mitglied
KohÃ¤sion sfonds
ĠFa vor
spar ungen
Text il
ĠMerk male
Max ime
ĠBuchst abe
ĠBehinder ungen
ĠFutter mittel
ĠAfr ikas
Ġverlie hen
Ġdoppel te
ĠLat ex
Ġamt ierenden
Cor azza
ĠDra ht
Ġgriech ische
berecht igung
Wahr scheinlich
Ġbon us
Ġkop ieren
ĠDek or
ĠQue cksilber
ĠBran chen
nation ale
ĠBEL GIEN
ĠSpann ungen
ĠBedien ung
VollstÃ¤nd iger
ĠMari anne
Defin iert
Ġmitge teilt
ĠPARLA MENT
ĠElektriz itÃ¤t
ĠMuse en
Prem ierminister
ĠMom ente
ĠDiagn ose
ĠTrink wasser
Ġerwor ben
Austr alien
ecut ive
render gast
Ender gebnis
ĠRivier a
ĠFREDER IKSEN
ĠLEHT OMÃĦKI
2 11
5 20
B ra
B ett
D ES
D ritt
E amonn
F Ã¼hren
H AT
K OV
K OH
O TEN
P ersÃ¶n
P AKET
S ex
S omalia
V inc
Y B
b on
b eln
b Ã¼rger
d ar
j s
k apit
p r
r ar
s ub
w ider
z eiger
en falls
ch ron
in al
in ts
Ã¼ s
ĠS org
Ġw ant
Ġw ild
Ġs ech
ar me
is er
is istan
it ime
ge fÃ¤hr
Ġun lau
ĠA serbaidschan
Ġn ow
Ġn irgend
ĠP rendergast
ĠB ib
ĠB REN
ĠB ull
ĠB ologna
ĠM INISTER
ĠM Ã¼he
den a
ĠK attegat
ĠK lavier
Ġh ol
Ġh ot
ĠF ri
ĠF lie
ĠF unk
ĠI TER
ĠR ol
ĠR USSLAND
ĠD al
ĠD Ã¶r
ĠG aller
ĠH at
ĠH ill
ĠH IL
ĠH Ã¤ufig
ig sten
Ġzu folge
Ġzu stande
ĠT ausend
il y
um ent
um ul
ent halte
Ġan zunehmen
ĠZ unahme
len g
ser satz
ĠN ight
ĠN AV
Ġver Ã¤nderte
ĠC V
ĠC lau
ĠC ollege
ik ale
ĠÃ¼ber denken
ĠJ agd
und et
Ġp ag
Ġp ort
sp ezifische
Ġaus geben
ver hÃ¼tung
nt ags
ĠO omen
ĠEr halt
In f
ĠAb sichten
ĠUn it
Ġbei ge
Ġbei getragen
ick et
ES CO
IN FORMATION
IT ION
Ġso zusagen
Ġent fern
ĠVor schau
Er zeugnisse
ĠSp annung
la c
ĠAus richtung
ST ABILITÃĦTS
ic us
geb oren
Ġsp iegelt
St re
ĠMa p
lan te
Ġre f
Ġdar stellen
OR K
Ġ... ?
ĠAnt ibiot
ob yl
Ġkl ug
Ġges c
10 6
10 8
Ġbet raf
ĠKon zepte
Ġgew achsen
ĠUnter zeichnung
Ġdu mm
sk ontrolle
Aus wahl
ĠÃľber setzungs
ICH TS
Ġben annt
Ġhin ten
Ab sol
ĠWirtschaft liche
ĠWirtschaft skrise
ĠHer unterladen
gl Ã¼ck
ĠBild es
gesch ritten
Ġbegr Ã¼nden
Ã¶ff nete
ĠX L
46 4
Ġsol ea
Ġget appt
ember auben
13 8
aut iful
ĠfÃ¼hr enden
ĠKomm ando
Kl aus
Kl icke
sitz ung
Ġro ten
recht lich
ĠMill an
Ġeinz uf
Ġwo zu
weit es
Ġvers uche
ĠSchw anz
ij ten
Ġwahr haft
ĠEinw ander
ĠArbeits losen
Ġat emberauben
ĠBuch ungs
Gew inner
staat s
Ġunterb reiten
Ġbeant ragen
ĠKern punkte
ĠMet rop
OP ER
ĠerwÃ¤h nten
Ġentscheiden den
Ġversch lech
ĠGar age
DEN BURG
ĠNord irland
use ppe
ĠLi quid
Akt ualisierung
verb and
mo us
CO STA
ĠHÃ¶ hen
ĠÃ¤hn lichen
Ġel f
techn ologien
Ġalt es
ĠNicht raucher
Ġwider sprÃ¼ch
OD A
GES ELLSCHAFT
ĠCan on
ĠWohl fahrt
yt la
Sicherheit s
Ġag ieren
ĠTri b
ungsk alender
Stat us
Ġme an
ÃľBER SETZUNG
Ġberuf lichen
vern ment
Partner schaftsabkommen
ĠCa fe
Ġkn ow
Ġ46 07
Ġehrgeiz ige
ĠFein de
ony mous
ĠFin anc
ĠFort setzung
ĠHeil butt
ĠVERH AGEN
Sozial er
ĠAmts zeit
ĠLang zeit
Ġsk andal
As yl
ĠKompon ente
Ġgewalt ige
ĠTUOMIOJA Minister
ĠNutz ungs
Ġbeunruh igend
ĠPAL AC
Ġausger ichtet
ladim r
Ġkomment ieren
aur ent
ABILITÃĦ T
Angeb ote
ĠOL DENBURG
Konk rete
Ġeingesch rÃ¤nkt
mil ch
Ġdetaill ierte
ĠstÃ¤rk ere
ĠSchau spieler
NATION ALE
ĠET IEN
ĠCorpor ate
Ġreform iert
ĠGES UNDHEIT
ĠSpir itu
ĠSchi ffen
MÃ¼n zen
Ġunf air
ĠMagaz in
Ġfac il
ĠCons ult
ĠÃľbersch reitung
haf tet
WALT UNG
ĠKlÃ¤r ung
Aust ausch
Verhalten skodex
ĠORG ANIS
ĠPrÃ¤sid ium
ĠPAPANDRE OUMinister
ĠSchokol ade
Normal erweise
ĠHarb our
EUTSCH LAND
ĠFuer te
ĠSCHWARZEN BERG
B ill
B rit
D auer
E m
G ed
J es
J ordanien
K r
K lagen
K EI
K rieg
M and
M ON
P ter
P il
P len
R U
S echs
T i
T ube
U sbekistan
W em
b leiben
b ranche
c as
c us
c ons
f u
k n
m ass
m Ã¤rkten
o ÃŁ
o ugh
t ra
w ur
y on
z ell
er zeugung
in gend
Ġd un
Ġd roht
un ch
st ern
ei be
on ia
Ã¼ tern
ĠS K
ĠS ER
ĠS ho
Ġw a
ein stellung
Ġs w
ar ien
it rea
ge gangen
ĠA IDS
ur y
Ġm ake
Ġb Ã¼r
Ġb ra
Ġein st
Ġein gesehen
ĠM US
ĠM ov
ĠM ahn
gen er
Ã¼r n
ĠK G
ĠK ris
ĠK rem
ĠK abeljau
ĠI B
ĠI H
ĠR eiter
ĠR ic
ĠR ib
Ġk ommission
ĠD am
ĠG or
ĠG ard
ĠH J
ĠH he
ĠH ass
ĠH obby
ĠV ald
ĠV irt
ĠV olltext
de p
Ġzu gewiesen
le cht
ab fÃ¤lle
se hr
ĠL or
ĠL om
ĠL ake
Ġge statten
Ġge antwortet
ĠU t
ĠIn telligen
us alem
Ġbe ster
ĠAn bau
ĠAn kÃ¼nd
ĠAn laÃŁ
ĠÃ¼ber setzen
ĠÃ¼ber mitteln
uss ion
Ġt oler
Ġst ra
Ġst rah
sp rÃ¤
sp eicher
ag ua
ver folgen
ul i
men d
Ġsch aden
Ġsch merz
ed s
ed et
ĠAb schnitte
ad m
ad es
ad ier
ad os
ĠUn fall
ĠBer ichterstattern
AN Z
AN ÃľBERSETZUNG
stimm igkeit
lei bt
ru e
Ġwar nen
aus genommen
01 1
iz er
Ġab gewiesen
enn avigation
ĠSp A
ĠSp uren
Ġc ache
Ġc arte
Ver fÃ¼gbar
att ini
99 9
St ren
lossen heit
ĠMa is
Ġde p
ett i
qu ip
ob ahn
10 4
ĠAl ten
Ġher bei
Ġbest raft
ow ie
ĠKl uft
Ġ11 5
Vor ab
Vor jahr
De finition
Ġwirk lichen
ĠVerb and
Ġen ge
Ant wort
Ġsol ch
Nach stehend
ĠInd ivid
Ġverst Ã¤rkte
hang hai
iver si
ĠGrÃ¼n d
ĠDem onstr
Unter stÃ¼tz
mp ath
man s
ĠText ilien
ENT WUR
ĠForm ulierung
ĠFrei er
ĠMed ina
ĠMed aille
ÃľR KEI
ĠSchw ung
ĠSchw Ã¤che
leg ale
Ch ile
ĠWei zen
IC S
AB KOMMEN
Ġhoch laden
ĠVorsitz ende
ĠWachstum spakt
ath em
ĠNatur a
Ġunterb reitet
ĠRom an
programm s
ĠStud ium
ĠFir st
Ã¤rk ere
Ã¼t ter
ĠSchwei gen
ĠJahres zeit
EST IMM
ingt on
ĠLi ft
ĠBel astung
eister ung
ĠSchiff bau
ĠCar l
fiz ierung
ĠFerien wohnungen
ĠWissenschaft ler
Energie effizienz
ĠDesign s
ĠÃ¤hn liches
lass ungen
ĠSek retariat
Ġprakt ischen
fÃ¼h len
ĠDom in
eiger t
Ġus er
ULT ANÃľBERSETZUNG
ĠBetrieb ssystem
ĠPan el
ĠBon ino
ECspokes Corazza
ĠDritt lÃ¤nder
Ã¤st inens
zw ungen
Fran c
ĠWeiter bildung
DI OVISU
Ġkrit isiert
Ġerk unden
ĠStre cken
Ġzw ingend
Pet r
Pet ras
Ġsonst ige
Aut o
Mil itÃ¤r
ĠMAR KT
Ġgrundlegen den
schÃ¤tz ungen
ĠRichtlinien vorschlag
ĠStraf gerichtshof
ĠBern d
Ġbeein fluss
ĠSÃ¼ ds
ĠEF RE
ĠSm art
ĠComp any
ĠFrem d
ĠNahr ung
ĠVerk Ã¤ufer
ĠRos a
Ġvertrau t
ĠIr rt
ĠberÃ¼h mt
Post ed
AGEN DA
indik atoren
ĠKrie ges
Ġpark en
Kooper ationsrat
ĠÃ¤lter en
ĠGAL EA
sproblem e
Ġpoln ische
Bek annt
Ġfur cht
Ferien wohnung
ĠDemokrat ien
mor al
ĠCrow ley
ĠGF P
neu e
ĠWol ken
Ġschwed ischen
Ġbeschleun igt
ĠTeu fel
kÃ¼rz ungen
Ġcre ated
ĠKranken haus
Ru ijten
Ġjetz igen
SIM ULTANÃľBERSETZUNG
ĠÃĦuÃŁer ungen
Regional politik
aku um
Doppel zimmer
ĠHil fen
smod ell
StÃ¤nd iger
ĠPATTEN Mitglied
ĠErgÃ¤n zung
ĠVul kan
Ġehemal igen
Ġseiten s
ĠKeu lung
Ġordnungs gemÃ¤ÃŁ
Ausser dem
atuz zo
ĠHuss ein
/ /
1 75
A bt
B em
B eschÃ¤ft
C omp
C ons
D ÃĦNEMARK
F U
G ast
G LEICH
J er
L eg
M ass
M einen
N AT
N AS
R unde
R eisen
S agen
S ec
T ap
T RA
T eilen
W arten
W under
Y C
a ac
c io
d etails
i Ã¶s
o i
r und
s agte
t au
w ards
w inkel
Ġ ei
Ġ arbeits
Ġd ek
es p
Ã¼ gt
Ã¼ sten
ĠS AS
Ġw Ã¶chent
el ess
au e
ar l
Ġi ran
Ġun end
ĠA UB
Ġv s
Ġf Ã¤llig
Ġb al
Ġn ext
ĠP T
ĠP osit
ĠP auschal
ĠE hren
ĠE asy
ĠB I
ĠB un
ĠM otel
ĠM ONT
ĠM ischung
em bargo
ĠK lau
ĠK lagen
et ch
ĠF AB
ĠR eit
ĠR assismus
ra xis
Ġk atastrop
ĠD ALLI
ĠG EW
ĠH annover
ĠW Ã¤
ĠW enn
ĠT s
ĠT IER
il es
and te
re de
ĠL ieder
op ing
eh nten
Ġan wend
ĠZ en
ĠSt aff
ĠN ase
ĠN ummern
Ġver deut
Ġver rÃ¼ckt
Ġver zeichnen
Ġver haftet
ĠC r
ĠC oc
ĠC up
ĠÃ¼ber gehen
om an
Ġt re
Ġt ollen
Ġt raf
Ġp oss
CH T
ĠPro test
nt ax
Ġo ffer
rau ben
Ġum zu
ĠO ran
ĠEr schein
ĠEr krank
ĠEr fÃ¼llung
ing ham
est ro
Ġvor gegriffen
ad ing
Ġunter liegt
zu stand
os ur
ant in
ES VP
art s
art ikel
Ġso viel
Er nennungen
ug o
Ġc al
ĠAus lÃ¤nder
Ã¼n scht
Ġsp iel
St rategische
id em
Ġr Ã¶m
ĠPar c
qu el
Ãľber all
wick elt
ĠGr Ã¶n
acht eil
Ġviel fÃ¤lt
ĠCh emie
ĠDe v
ĠDe press
gel te
zie he
ĠMar y
Ġgew ann
ĠUnter stÃ¼tz
arbeit ungs
ĠFl ucht
wend ig
SA US
35 1
Be werber
eln de
ĠHer angehen
Ġcom es
Ġper fect
ou ver
ition s
ĠEntwicklung spolitik
gesch windigkeit
ĠStell vertretende
EG E
EG RO
ĠDaten banken
Ġger inge
ĠMin imum
15 5
ultur e
ĠBar n
Man agement
ĠIN S
ĠBest es
ĠGew issen
ĠBes sere
ĠBes eitigung
Ġex per
Ġgeb ildet
ĠGra b
ĠGra z
ĠfÃ¼hr ende
Kl asse
Ġausge stat
sver sorgung
ĠHand werk
ĠFr attini
hand lung
Ġis lam
ĠBen chmark
ransp aren
Ar ten
199 2
ĠSk ige
Ġinter kultur
ĠAnd al
ĠLe one
ĠweiÃŁ e
Ġ* **
ĠFre quenz
rech ter
ĠHa ag
spekt iven
Verein igte
19 4
OH N
ĠvÃ¶l l
ĠAuÃŁen grenzen
voll es
Reg eln
ĠAntrag s
IER UNGS
ĠWirtschafts entwicklung
ĠKrit erium
ĠKraft fahrzeugen
TEN EGRO
Ġaufge treten
Ġaufge teilt
ĠBr ett
Ġkompl etten
ĠFran co
ĠMaÃŁ stÃ¤be
VOR SCHRIFTEN
ffizien te
Akt ionen
Ġpl Ã¤d
best and
ĠCl ip
ĠKonferenz en
Ġernst es
Ġschle chten
verb indungen
schein end
ĠMann schaft
MÃ¶ ge
zentr ation
47 3
weil ig
ĠMig ranten
ĠChar me
ĠCon c
ĠMot oren
ĠHandels beziehungen
arn s
56 172
MIT T
lad esch
ĠChrist os
rug uay
ĠSP E
ĠTur m
sprÃ¼ fer
ĠfÃ¼h le
ĠÃĸsterreich s
Ġwunder bare
Ro om
mod us
Ob wohl
Ġkrit ische
cy cling
RIT TS
Grund sÃ¤tze
arch iv
Ġverz auber
ĠgÃ¼nst ige
GroÃŁ britannien
hÃ¤ltnis mÃ¤ÃŁig
ĠQual ifikationen
ĠPAP A
Ġstren ge
GrÃ¼n dung
Ġkom fortable
ĠAnwend ungs
ĠerlÃ¤u terte
ĠSn acks
Ġbeein druck
ssp iel
ĠWh ite
Dan eben
ĠVerbrauch ern
Immer hin
WEST LICHER
Ġproblem los
ĠMerc osur
Ġkont inuier
ĠJugendher berge
imp orte
Assozi ation
ĠVir us
ĠFo und
Ġoperation elles
Ġbemer kt
ĠDienstleistungs verkehr
FINANZ DIENSTLEISTUNGEN
ĠLeistungs fÃ¤higkeit
ĠLeu cht
Ġbehinder ten
plomat ie
Ġbi ologische
ĠÃľbern achtungen
Get reide
ĠHaust iere
Ġberuh igen
ĠVarian ten
Ġisol iert
Ġwus ste
Ġglaub wÃ¼rdig
ĠANDER EN
Ġniedr iger
ĠRegul ierungs
ĠKartoff eln
ĠZinss Ã¤tze
ĠZag reb
Cur ie
ĠGefÃ¼h le
ĠÃĦng ste
Mrt i
ĠErwÃ¤g ungen
ASTROPHEN SCHUTZ
Ġkatastrop hal
0 32
3 12
4 11
A ct
A UT
B Ã¼r
B end
C EL
E ner
F anny
H EL
K auf
K EL
K unden
K reis
K lage
L IT
L ange
N adge
P re
P ek
T ipp
T ranseuropÃ¤ische
U RE
V ald
W ien
W erner
Z Ãľ
Z EMBER
b aus
b ringung
d own
f ig
f lich
f rau
g in
g rippe
j ah
k ompl
l ia
l Ã¤nge
m useum
m Ã¤ssig
p ut
t t
w ein
w Ã¤hrung
x y
z gl
} :
er ei
st ige
an wÃ¤lte
ĠS el
ĠS ac
ĠS Ã¤tze
ĠS EK
ĠS IX
ein satz
Ġun ent
Ġun vor
ĠA V
te ch
Ġm ade
Ġb ot
Ġb ild
Ġn ov
Ġn ull
ĠP ur
ĠP IE
ĠP ause
ĠE u
ĠE CO
ĠB alt
em on
Ġz weck
Ã¼r zen
ĠK off
ĠK aut
ĠK ors
ĠF EN
ĠF ell
ĠF lex
ĠR oc
ĠR oten
ĠR auch
Ġg n
Ġg Ã¼ltige
Ġk Ã¼rz
ĠD unk
ĠG au
ĠG Ã¼ltigkeit
ĠH it
ĠH av
ĠH itze
ĠV ASS
ĠW elten
de ten
ab schÃ¤tzung
ĠT hr
re j
re aktion
ĠL an
ĠL us
ĠL IS
ĠL amp
ĠL abel
ĠL eicht
Ġge ograph
Ġ( ).
Ġan kommt
Ġan zurufen
ĠZ Ã¶lle
ĠZ Ã¼ge
ien ds
Ġauf richtig
ser ie
ist ent
Ġl ittle
ĠC res
ĠVer de
ĠVer markt
ĠAn zahlung
ĠAn onymous
Ġt raum
Ġt Ã¶ten
ĠJ am
ĠJ ozi
ĠJ azz
ag li
eil t
esch Ã¶n
CH N
Ġaus fÃ¼hren
etz ten
ver arbeitung
ĠSch ienen
he er
ĠO pf
ĠEr hÃ¶he
all i
iv ien
si bel
ĠAb stand
ok apital
ste ckt
Ġe w
bar d
ĠSp rung
An gel
ST OWSKI
Al berto
IL IOU
AR N
Ġstatt f
ĠUm setzungs
ĠAl arm
Ġdurch zufÃ¼hren
Ġ12 7
eite te
Ġle bte
ĠDe fr
Da ÃŁ
SCH W
Ġgew Ã¤hlte
ce pt
sk o
gem acht
Ġbest anden
Aus fuhren
35 3
Ġgel ang
Ġ14 5
Ġ19 87
ĠHost al
geben d
ĠTag ungs
De utsch
Ġkon vert
sm Ã¶glichkeiten
ĠEuro just
Mar co
ĠNe apel
Ġen c
Ġen glisch
Ġger echnet
ĠGeb ur
Ġwissen sbas
ET ISCH
ĠX III
Ġsol ange
ĠEx empl
ĠEx change
ĠEx ecutive
ĠInter ess
ĠInter pret
Ġfest gehalten
Ġgemein schaft
co ver
ĠSe pp
Ġ28 4
ĠRegion ale
ĠY ah
ĠMal i
rakt iken
ĠKultur erbe
ĠweiÃŁ en
ĠFre ie
EMO K
19 1
eren c
amer as
67 359
port al
Ġch o
frei en
ĠPh oto
ATION S
Ġzie he
ĠKraft fahrzeuge
Ġgelten den
spl attform
Ġwe ek
ĠWert papier
Ġfinanz ieren
oper ation
oper abilitÃ¤t
prÃ¤ vention
ĠÃ¼b lich
ĠMich aele
55 9
ĠLes er
EV IIUS
-- -
Techn ologie
Ġwirtschaft licher
rimin alitÃ¤t
ĠBESCH LUSS
Ġverh eiratet
bert rand
Energie kommissar
Stell ung
Ġherr lichen
Ġirgend etwas
ĠHaushalts ordnung
Ur laub
sprÃ¼ fung
ĠLiefer anten
ĠTem pel
Ġoptim iert
stre cken
ĠRumÃ¤nien s
sÃ¤tz lich
Ġverab schieden
ĠEigent Ã¼mer
Ġeinzu gehen
Ġschn ellen
Aut omat
Par is
ĠEmiss ion
ĠTa sten
ĠDre wes
Ġbeein drucken
ĠDa bertrand
Ġeffekt iver
Bl ick
ĠAnreg ung
Ġilleg ale
ĠWesent liche
Ġermut igen
Ġelektron ischen
ĠFab rik
acio us
ĠVerst Ã¤rkung
fassen de
ĠDat ent
Beh andlung
Ġvorrang ige
ĠFISCHER E
Deb atte
ENN T
Schengen er
ĠHER ZEGOWINA
Ġgekenn zeichneten
Ġfamil i
ÃĦT ZE
pal ette
hard t
ĠÃĸk os
Person al
Ġident isch
ĠberÃ¼hm te
ĠKOR KEA
ĠDial oge
Arch iv
Sam uel
ĠCorpor ation
Ġschwei gen
ĠErlÃ¤u terung
ĠErlÃ¤u terungen
ĠErkennt nis
Schaden ersatz
Ã¼ch tern
ĠMW St
ĠhÃ¤uf iger
ĠDun ne
ĠCanc n
Carm el
Verbesser te
ĠRud olf
Ġlandwirtschaft lichen
924 21
Kas achstan
Ġportugies ischen
ĠVALION IS
ĠClassi c
ĠEISENB ARTH
rze j
Ġstet ig
Ġoffenkund ig
ĠÃľbersetz er
vertrÃ¤glich keit
Ġef ovi
ĠAssoc iation
ĠAAR TS
ĠSorg falt
ĠJozi as
ĠDefr re
ĠKORKEA OJA
+ +
2 33
6 33
A u
A tzo
B G
B ur
B ilaterale
D ora
F P
F RA
G ren
L SSON
M at
M ol
N G
N OR
N ieder
N LAND
O ff
P ay
S n
S ei
S ituation
S TELLUNG
T op
T RE
T obias
V and
V isa
V EST
Z w
Z ert
Z UR
b innenmarkt
g ten
g ro
h ab
h us
h os
k op
l uft
l Ã¤uft
m uster
p ost
w id
Ġ Ã¶st
ch a
Ġd ei
st il
st abilitÃ¤t
st Ã¤tte
ĠS or
ĠS ternen
ĠS quare
Ġw eshalb
au kas
it Ã¤re
Ġi rak
ĠA f
Ġm ysq
Ġn ight
ĠP i
ter er
ĠE V
Ġein tragen
ion i
ĠB in
ĠB IS
ĠB Ã¤der
ĠB jer
ĠM iete
em s
ĠK lin
ĠK ult
ol ution
sch on
ĠR aven
Ġk ost
Ġk Ã¶st
ĠD uft
ss lich
ĠG ON
ĠG ames
ĠH eute
ĠV at
ĠV ot
ĠV AJ
ig ste
ier st
ĠW ettbe
ab a
ĠT oleranz
ach lÃ¤ss
um a
ĠL KW
ent a
op fer
Ġer ho
eh in
Ġan geschlossen
Ġan gewiesen
ĠIn g
ĠSt ore
ĠSt uttgart
ĠN am
Ã¼ber sicht
ĠVer schmutzung
Ġt a
Ġt el
Ġt auchen
Ġst Ã¼tzt
Ġst abile
imm te
Ġp fl
ell ung
ri j
ri ct
Der k
Ġaus lÃ¤ndische
lo cken
ver zeichnis
res h
Ġj ene
ĠO hren
ĠEr nte
rÃ¼ st
Ġvor anz
Ġvor zulegen
ĠAb fÃ¤llen
ad i
Ġunter nehmer
ger Ã¤ten
eg a
ht el
Ġwie viel
heit s
ĠSp lit
An haltender
la in
Ġc our
ak s
im er
ĠEnt k
Sch ul
Al ter
Ġsp ringen
AL IEN
auf nahmen
qu er
ech ten
Ġstatt dessen
EM EN
EM ENT
Ġ6 50
Ġ7 50
alt ar
ild ing
Ã¤hr en
Ġviel erlei
ollen dung
fach e
Ġganz es
pro gnose
ĠAuf wand
Ġle b
Sp ezial
Ġgegen seitige
ken nen
Ġgew iÃŁ
inder n
net te
ĠÃľber leben
ĠWelt markt
Wer te
tok olle
ĠMenschen handel
mus ik
ĠQu ark
teil s
Ġgr Ã¶ss
Ġger edet
irk ung
ĠIN FORMATIONEN
stat istik
zeug nis
ohn ern
ĠAut omat
Ġem ail
86 7
Unter suchung
Ġangenommen e
ĠRo jo
Ġfol glich
ĠPRO D
ĠKultur hauptstadt
Ġbesch reibt
Ġkurz fristig
ĠFrei heiten
ĠFrei handel
Ġjeder mann
eig nen
ren ner
ĠRÃ¼ck verfolgbarkeit
ĠAkt u
ĠJuni or
ĠST AND
AD A
ierungs abkommen
ĠPal m
Richt linien
olk s
Ġvert eilen
Gemein schaft
ĠGu y
ĠBeg eisterung
Wor k
ĠItalien s
unt u
ĠÃ¼b lichen
ven ue
Ġbisher ige
ĠSon y
Ġbel assen
ĠKonsult ations
Ste fan
Ġumfassen den
ĠKennt nisse
ĠstÃ¤r kt
ĠAmt ssprachen
Ġerweiter ten
ĠGleich stellungs
ĠEing liederung
Ġorganis ierte
ĠKommun ikations
ĠTem peraturen
ĠSil ver
System s
ĠStÃ¼ck e
ĠBi okraft
Russland s
ĠWohl befinden
Teil nahme
ĠPlen ars
Ġfl ach
viel falt
Ġleich ten
FA Q
ĠUpdate Star
ĠFÃ¼ ssl
ĠDel uxe
atri um
ĠIst anbul
znei mittel
ĠChr isten
ĠKe arns
ĠServ ic
ĠSm ith
Ġland wirtschaftliche
part nern
kennt nisse
906 25
stechn ologie
ĠSach ver
reck end
ĠEB WE
Verst Ã¤rkung
ĠKrie gs
SPE KTE
Ġmu y
ĠEinsch rÃ¤nkung
Pla yer
Tier prÃ¤mien
bro wser
klaus eln
Ġangel angt
bef ehl
ĠVari able
ĠVari ablen
ĠButt on
Ġspann ende
ĠMedik amente
ĠBenutzern amen
988 51
ĠBRA UN
Organis ation
ĠQuart al
Ġsogen annte
ĠBungal ows
ĠFron ten
ĠSad dam
Entsp annen
Ġschen ken
ĠEnter prise
ĠNukle ar
ĠBAKOYANN I
Nick olay
ĠDIM AS
kre bs
Diam andouros
fab rik
ĠWu ala
GrÃ¶ÃŁ ere
GefÃ¤hr liche
Ġsing le
ĠJud ikative
ĠBekannt gabe
PROGRAM ME
prior itÃ¤ten
Cour riel
ĠMyth os
ĠDolomit en
nb sp
ĠPEK KAR
Ġmean ing
ĠFound ation
EMOK RAT
ĠBjer reg
1 51
B ox
B ORG
C OS
E hr
F el
F eb
G eht
H armon
K ennen
L achs
L ateinamerika
M eth
N EM
O UR
O pel
O rient
P AR
P olitischer
S echste
S ndor
T on
T ragen
T ool
Z iehen
a es
f le
f ehler
f arbe
g io
g reif
k eine
k unde
l im
o in
r ieren
v adia
w ichtig
z Ã¤h
en sion
en ke
Ġd ritt
st age
st rÃ¤ger
Ã¼ m
ich en
ĠS ein
ĠS ag
ĠS urf
ĠS orten
ĠS ÃľD
Ġw ay
Ġw Ã¤hlt
Ġw andern
Ġs Ã¼
is ing
is abeth
al o
it is
it ation
ĠA er
te fan
Ġm org
Ġf it
Ġf act
Ġb reiter
ir kt
Ġn Ã¤he
Ġn amens
ĠP atente
ĠE leg
ĠB ein
ĠB os
ĠM ale
ĠM IRA
Ġz it
Ġz irk
ĠK ant
ĠK ost
ĠK od
ĠK eller
ĠK alia
ĠK idd
ĠK fz
Ġh Ã¤r
ĠF ile
ĠI con
ĠR Ã¤t
ĠR AM
ĠR IEK
Ġg ele
Ġk Ã¼nst
ĠD ampf
ĠD irect
ĠD ritter
ĠG T
ĠG anzen
ĠG PS
ĠG itar
ĠG iovanni
ĠH ustin
ĠfÃ¼r chten
ĠW att
ĠW SA
ĠW ichtige
ĠW ales
ĠW Ã¼ste
le ep
ĠT ELE
am ik
ĠL ade
ĠL ook
ĠL iga
Ġge fertigt
Ġan alys
Ġan streben
us sten
ser wartung
ist o
ist ol
ĠSt op
Ġbe ziehe
Ġl ink
Ġl ock
Ġl ight
Ġl arge
ĠN it
Ġver bl
Ġver mer
Ġver schieben
ĠC er
ĠC atal
ĠVer arbeiten
ĠAn weisung
Ġim p
om et
Ġt ier
Ġt schech
Ġt atsÃ¤ch
Ġst rikt
Ġst eigern
Ġp rior
Ġp osition
sp erson
sp reise
ahr er
ri be
ĠSch lei
Ġum so
hal ter
ĠEr rungen
Sie gel
Ġsie hst
ĠAb weich
Ein t
Ġunter zeichnen
32 0
rag ona
Ġ4 73
ĠSp r
ĠSp amb
ĠSp ezif
ne z
Ġ22 2
rie bene
99 0
Ġsp Ã¼r
Bei hilfe
ĠAng ola
ost ra
ord an
AL A
lan a
Ġde cken
ett el
we sten
Ġgen auen
sam t
ert a
Ġ12 6
Ã¤hr ungen
olle kt
ĠCh ir
vor aussetz
onder ful
ĠMar n
Ġgew Ã¤hlten
IE CHEN
ĠgroÃŁ artig
sk arten
12 6
ĠSo c
leich ung
Ġ19 86
Vor aus
ĠHer anfÃ¼hrungs
So fort
werb ung
ĠVerb indungs
gew ichte
reichen de
ĠBes atz
aut omaten
ip end
Kl im
ĠâĤ¬ /
ĠFr onte
Ġverb ieten
The y
ations leiter
ĠSte fan
ĠDem okraten
bei spiel
nehm bar
antwort lich
ORD INIERUNG
ron ius
ĠFlug sicherheit
ĠFlug gast
ĠNeu heiten
ichter stattung
ĠFrei handelsabkommen
ĠKat ze
ĠWer kt
ĠDi agra
ĠGegen satz
ĠSol ana
07 0
ĠVers icherung
Ġwahr lich
reg or
ĠIde al
ĠIde ologie
staat lichen
ath on
Ġunterb rechen
Ġanders wo
Ġtechn isch
ĠKÃ¼ chen
ww w
bet eiligung
Ġerz Ã¤hlt
ĠAsp ekten
halte stelle
ART A
ĠSchul ung
Ġhinter her
ĠSÃ¼d osteuropa
Sol ea
ĠRad isson
Ġar men
Ġar me
IR C
ĠSolidaritÃ¤t sfonds
ĠKunst stoff
seit igkeit
Ġvern achlÃ¤ss
Ġged uld
.... ....
ĠNicht mitteilung
ĠErd geschoss
gegeben e
MW St
ĠMart ine
Ko finanzierung
Ph ysik
Ger ald
ĠSil va
UG AL
ĠUrteil s
Ol ivier
Ġangegeben e
ĠNah ost
hotel s
cl us
ĠKoordin ation
ELL EN
Ġdemokrat ischer
ĠPa are
ĠEner gy
inst all
ationsrat e
Te sten
ÃľN BUCH
Ġreich lich
ĠSOZIAL ES
Bundesminister in
Ġvorange kommen
Luft verkehrsabkommen
ĠBew Ã¤ltigung
ilater alismus
ĠKurz information
Ġnieder lÃ¤ndischen
omin iert
ĠRob in
Ġlog isch
ĠJack son
Ġimm obilien
ĠArznei mitteln
Ġeigent lichen
LIS E
ĠNik on
komp on
ĠSchnell indikator
orient ierte
opt ionen
inu itÃ¤t
angem essen
Ġums onst
ĠLEB ENSMITTEL
Po wer
Ġvorge gangen
Ġumfang reiche
ĠstÃ¤dt ischen
ĠberÃ¼hm ten
SUD AN
Ġintelligen te
ĠVerzÃ¶ger ungen
Ġverste ckt
Ġirgendw elche
WEI Z
ĠJahrz ehnt
qual ifikationen
ĠBYR NEM
ĠTeu fels
ĠThun fisch
Ġexklus iv
Ġmoral ische
ĠEconom ic
ĠdÃ¤n ische
vie ws
dis ziplin
Ġschwar ze
Sach g
Ġbilater ale
ĠCy ber
ĠEcht zeit
ĠTreib hausgas
GrenzÃ¼ber schreitende
Ġfert igen
ĠHandt Ã¼cher
ĠSort iment
beu gung
ĠVern unft
ĠLINDH Ministerin
bele bung
Ġneut ral
ĠSonst ige
Ġunhalt bar
ĠSack gasse
ĠGRE TH
Katastrophen schutz
ĠVIT OR
ĠÃ¼berflÃ¼ ssig
ĠRODR IGU
Ġschritt weise
Ġlauf end
dega ard
PRÃľF UNG
ĠVerbrauchervert rauens
Ġverwirk lichen
Ġverschlech tert
Ġbeeindruck end
ĠFEN ECH
Vand na
aukas us
ĠVAJ GL
ĠBjerreg aard
ĠHustin x
IECHEN LAND
ĠFronte x
ĠBYRNEM itglied
3 35
4 01
? !
B LA
D ale
F en
I f
L od
L aut
N AN
O C
P DF
P utin
S etzt
U Z
W eg
W END
Z im
Z Ã¶gern
] .
b ra
c raft
d ass
d okument
f euer
f arben
g elegen
h orn
k ung
k ina
k Ã¼ste
n ia
n isses
r n
v ist
z eilen
Â £
en gl
in ten
st rom
an satz
es sim
ĠS EM
ĠS auber
Ã¤ udes
Ġw hen
Ġw ho
Ġw illen
Ġw uchs
Ġs imp
el ing
is ierter
ĠA cht
Ġm as
Ġder gleichen
Ġb itter
ĠP el
ĠP ho
ĠP kw
ĠB IL
ĠB ow
ĠM un
ĠM ex
ĠK rak
ĠK ALL
Ġh ome
ĠF ut
ĠF EST
Ã¶ hnt
ĠR ichtig
ĠR AP
ĠR ING
Ġin m
ĠD L
ĠD iox
ĠD ITH
ĠG L
ber eiten
ĠH U
ĠH ir
ĠH ed
ĠH elden
ig u
ĠW eile
ĠW ette
ĠW affe
ĠW ahnsinn
de v
Ġzu wenden
Ġzu hause
ĠT aj
re z
ĠL uxem
ĠL eitung
Ġge zwungen
Ġer mittelt
Ġan k
Ġan hand
ĠZ elt
ann el
Ġl it
Ġl achen
ĠN erv
ĠN IEL
Ġver wechs
ĠC ann
ĠC ohn
ĠC onst
ĠAn melde
ik ed
Ġt hr
Ġt reu
ĠRe duzierung
Ġaus Ã¼ben
ĠO fen
ĠEr reich
In fo
Ġdem nach
ad ies
be zÃ¼gliche
ĠBer echnung
Ġunter halten
lei den
ĠAr c
wer bst
kl icht
ĠVor stellungen
Ġab schlieÃŁende
Ġab biegen
An lagen
Ġneu em
Ġgesch Ã¤tzt
Ġc enter
ne e
Ver gleich
Ġ5 000
Al girdas
AT Z
AT IS
tz immer
St reit
ost a
AL EN
lan ge
Ġre alisiert
Ġre alisieren
Ġgen ieÃŁt
Ġber echnen
ech ter
Ġet hn
Ġet abl
Ġbet reut
ĠArbeit nehmern
Ġviel ver
IG RATION
war n
Sp eichern
Da cian
SCH OP
ĠMar b
ud a
Ġ10 2
ĠGes ellschaften
ĠFl ach
Ġthe y
ĠGrund prinzip
ĠGrund sÃ¤tzen
ĠTag s
Ġper man
wor tete
Ġbef ried
Ã¤ss ige
Ġen ger
15 7
ĠPerson als
ax i
az a
ĠGra mm
ĠgehÃ¶r te
Ġbesser er
74 3
ile g
Ġrecht fertigen
Ġverw iesen
ĠSte ck
recht liche
ĠMal aysia
ĠSCH IL
ron om
ĠFahr ten
ĠRes earch
ĠSk y
ĠFrei en
eint rÃ¤cht
ĠRAT S
ĠMed ium
Ġvers andt
Ġvers ichern
rig itte
ĠGegen stÃ¤nde
Ġhel p
sz iele
CC C
frei er
ĠKo al
ĠAktion splÃ¤ne
ĠNatur schutz
36 0
ifiz ieren
oper ationen
ivers itÃ¤t
Wel ch
unt a
ĠBal i
ĠEG KS
Recht ssache
ĠER WEITERUNG
Ġhotel s
Ġbel ow
ĠBeitritt sverhandlungen
Ġabge halten
lang us
lang ius
Ġgesp alten
ĠWerk zeuge
ĠgefÃ¤hr lichen
ĠFrieden sprozess
ĠVolk es
Ġklein ste
LÃĦ R
ĠAL LE
GR UPPE
Ġbill iger
ĠSal v
ĠSub ventionen
Ġwor Ã¼ber
ĠAv iv
Ġgeeig neten
gum ent
Ġged auert
ĠGeh Ã¤use
Ġanzu sehen
ĠlÃ¤nger e
ĠKos met
ĠAmer ican
ĠTur in
kraft treten
ĠRatsprÃ¤sident schaft
ĠfrÃ¼ hen
ETZ E
Komm t
ĠTem pl
stre cke
ĠWall is
Ġkrit ischen
ĠMail ing
ĠRot terdam
wÃ¼rd ige
Ġextrem e
Zwischen rufe
ĠRel ax
ĠMeeres politik
ĠBand s
Ġsozial es
ĠDis ziplin
ĠSuper ior
ĠTir ol
Luft verkehr
Ġinnov ativer
ĠPolizei akademie
tensiv ierung
Ġna iv
Ġunmittel barer
Mer langius
PrÃ¤ vention
Netz werk
Aud ronius
ĠHinder nis
Ġmer langus
Gi ulio
IRA K
Ġschlimm sten
spir ation
ĠBÃ¶r sen
Ġverwende te
Ġorigin al
ĠNorm ung
ĠEntsp annen
Ġderart igen
Ġaltern ative
Dom inique
ĠzukÃ¼nft ig
Ġverwir klicht
KK B
Ġeleg ant
ĠKatzen berger
Int elligen
Wirk lich
ĠauÃŁergewÃ¶hn liche
ĠCOW EN
Ġbeschleun igen
kÃ¼rz ung
ĠPia zza
Ris iko
Ġstandard mÃ¤ÃŁig
BAL GS
LÃ¶s ung
ĠJUN CKER
ĠBatter ien
ĠKug el
ĠBrutto inlandsprodukt
Letzten dlich
ĠBEN SCHOP
ĠHerkunft s
ĠLEG LISE
ĠFrancis co
ĠTenden z
ĠNote book
Abstimm ungsstunde
ĠGanz es
famil ie
Ġspezial isiert
Gemisch ter
ĠKUB I
ĠClo ud
bemerk ung
ĠFie sta
ĠSwimming pool
ĠLoy ola
velop ment
berat ung
ĠLIG I
Ġprag m
Ġbeeinfluss en
Bend it
ZÃľ GE
ĠPIE BALGS
ĠOpf ern
ĠYah oo
Ġvermer kt
ĠSpamb ots
ĠGRETH ENMinister
ĠRING HOLM
C ON
D eine
D ruck
E vent
F TE
H eiÃŁ
I US
I ts
J I
J ÃĦHR
K P
K e
M I
M ris
N iger
N ICI
N IMMT
P at
P EN
S ich
S ign
S iim
T ut
T ON
U E
V ED
V ladimir
W ei
W ohl
W hat
Y CK
Z eigen
Z ivil
b u
c n
d ial
k apazitÃ¤t
n etzen
o z
p olitischen
r ol
s ammlung
u in
w ell
w ander
w unsch
w anne
w jet
Ġ Ã¤rm
er hebung
Ġd ates
ie fung
st unden
ei hen
ĠS ep
ĠS ven
Ġw it
al in
Ġun ert
Ġun schuld
te mp
Ġm ess
Ġf irst
ĠP otential
Ġein halten
ĠB j
ĠB is
ĠB ast
ĠB ob
den s
ĠK ÃĸN
ol is
ĠF TE
ĠF our
ĠF ood
ĠF ull
Ã¶ h
Ġin fo
Ġk Ã¤
Ġk ap
ĠD ien
ĠD ing
ĠD est
ĠD AN
ĠD ays
ĠH Y
ĠH eid
ĠH allo
ĠH olding
ĠV il
ĠV AIT
kt is
ĠT A
ĠT W
ĠT ausende
re staurant
ĠL ong
ĠL ehne
Ġer ober
ft ung
eh er
Ġan schlieÃŁend
Ġan zum
ĠZ ell
ĠIn haber
ĠN AS
ĠN okia
ĠC ho
ĠC ore
ĠC OU
ĠAn schluÃŁ
ik on
ik ten
ot ische
Ġt ur
ĠRe aktoren
ĠJ I
Ġst Ã¼tzen
Ġst raf
Ġst euern
Ġp ay
Ġp ack
Ġp rinzip
sp f
sp olitischen
form ance
ri um
Ġaus gelegt
lo d
ver lauf
Ġo d
ungs wesen
ĠEr ziehung
Sie ben
si o
ĠAb u
ĠBer Ã¼cksichtigung
ON IEN
32 1
Ġhier Ã¼ber
Ãĸ FFENTLICHE
RO V
Ġnoch mal
Ġab schlieÃŁen
Ã¶r n
Ã¶r dliche
ĠmÃ¼ h
ĠmÃ¼ sse
Ġ4 000
Er ik
ĠAus legung
Ġnach lesen
ĠEnt tÃ¤u
ĠHotel zimmer
att le
Al ba
ĠEin stimmigkeit
Ġr asche
stell ern
ĠAuss en
Ġre duzieren
ĠBe grenzung
Ġgen etisch
ĠAnt ti
ob a
OL OG
Ġ12 8
pro be
ĠAuf schwung
Sp am
ĠDe f
ĠMar ine
ĠUnter gebiete
setz bar
yp al
ĠVert rÃ¤gen
ĠVert rauens
ĠEntsch Ã¤digung
Ġgem ietet
ma ster
schie bung
ĠEur os
ĠEur ob
Ġben utze
ĠThem e
gie b
ate ur
Ġgef angen
ĠUmwelt kommissar
15 8
Ã¶ff nungs
irk ka
reichen d
eist ung
ax e
VER SCH
EI RO
Ġex klusive
ĠSpiel ern
ĠSpiel regeln
KT ER
13 7
Ġsicher es
Ġsicher stellen
Ã¤u den
sst ruktur
Ġausge stellt
sver ein
ĠBo sse
ĠFr anzÃ¶s
inde x
ĠHaupt problem
ĠVerkehr smittel
33 7
Unter stÃ¼tzt
ĠMarkt organisation
ĠAu ktion
Ġgest orben
amp ere
under n
unter richt
ĠAusw irkung
Ġ21 000
Ġvers ichert
Ġerforder lichen
Ch ancen
red o
ĠbenÃ¶t ige
ond ition
ond rej
bo a
bo ot
ĠIs raels
Finanz dienstleistungen
ĠAt lantik
Ġhe bt
ĠOst se
ĠLuft raum
ĠÃľ bel
ows ki
Ġaufge fordert
ĠfÃ¼ ge
ĠFest stellungen
ĠBau gewerbe
Se ehecht
Wor ld
Ġtechn ischer
OT ON
Ã¼t t
ĠEG F
Ġne ws
ĠGesamt kosten
ven ient
ĠbegrÃ¼ÃŁen swert
ĠZwei te
Ġanges agt
zer te
rÃ¤um t
ĠHe degaard
ĠStruktur reformen
Ġserv ieren
ĠhÃ¶ch stens
Fusionsk ontrolle
ĠAir bus
ĠPaket s
Ġgesprochen e
Ex cellent
Ġse a
Ġpriv ater
ĠSek unde
ĠTrans aktion
Ind ivid
ĠKonsultation spapier
Ġleg al
mÃ¶ gliche
ĠSicht weise
WEIT ERE
ĠWider sprÃ¼che
ĠKir chen
finanz iert
ANN IS
ram es
Ġpar allel
ĠBade gewÃ¤sser
ĠRot ary
Christ os
Ġko oper
Ġabzu lehnen
Ġschn eiden
LU XEMBURG
VP I
Br uss
ĠWandel s
ĠdiesbezÃ¼glich en
ĠExt ra
Mitt ag
ĠPrÃ¼f ungs
Sonder beauftragter
Ġinnov ativ
ĠBew ohner
ĠSm all
Ġmar kt
arbeite te
At lantik
War schau
Rad io
Ġausgewogen e
ĠNational park
SL OW
Ġilleg al
ĠLad ron
ograph ie
ĠGE GEN
ĠZert ifizierung
hel fen
ĠVir en
Fre ie
rÃ¤ft ig
ĠFire wall
ĠMinderheiten schutz
Europe an
Ġsepar at
ĠbeschlieÃŁ en
ĠBRO EK
Ġbekannte sten
ĠTsch ern
Ġzeich nen
ĠRÃ¼ ckt
SCHEN RECHTE
ĠNEU E
ĠSubst anz
ĠPresserefer ats
Gar antie
ĠRett ungs
ĠResult ate
Ġgriech ischen
ĠFair ness
ĠEv ans
Ġimport ieren
ÃĦNDER UNGEN
ĠBrit en
ĠbetrÃ¤cht liche
ĠgemÃ¼t liche
Ġschwed ische
ĠEdu ardo
ĠmaÃŁ geb
ĠBON NICI
Just ice
kat alog
achtungs stelle
ĠCAM PS
Ġunzul Ã¤ssig
Ġdro hen
ĠAnim ation
Ġirre fÃ¼hrend
Gep lante
list ung
Ġpopul Ã¤r
ĠHEMILÃĦ Minister
sibil isierung
Loc ation
Ġunvermeid lich
ĠStraft aten
ĠREYNDER SMinister
Ġkorre kte
Gal ileo
ĠVeter inÃ¤r
solv enz
Ġwidersp richt
ining rad
ĠBEIT RITTS
EHEMAL IGES
ĠKlass iker
ĠCamer on
Ġlieb sten
EGA ARD
Ġgetrenn te
ĠValer o
StÃ¶ cker
Ġbeeinfl usst
Volumen indizes
ĠGLAVANY Minister
ĠSatellit ennavigation
Ġeinschl Ã¤g
Ġleug nen
Ã¼rn berg
Vorab entscheidung
Gren adier
ĠRODRIGU ES
ĠDITH MER
ondrej icka
3 99
C ES
E uropÃ¤ischen
F Ã¤l
F uer
F ID
F erenc
H AR
H AM
I RE
I hm
K u
N OV
N ahe
P unkte
R auchen
S ommer
S ICHT
S orry
T C
T D
U U
V ous
W ed
W esent
Z YPERN
a ver
b reite
d ra
g an
g roÃŁ
h em
j ubl
k opf
k riterien
k Ã¶nnen
m itglieder
r einigung
s l
t yp
u it
w al
x it
z eile
er ing
in fo
Ġd r
an bieter
ĠS M
ĠS S
ĠS us
ĠS Ã¤nger
ĠS aatgut
ĠS hanghai
Ġs yn
Ġs how
Ġs ize
ge ts
Ġun angen
te ten
Ġm ssen
Ġv ar
Ġf und
Ġb reiten
ĠP ok
ion ale
ĠB elie
ĠB rÃ¼cken
ĠM ONTI
em in
Ġz iel
ĠK amin
et or
Ġh arten
ĠF rag
ĠF ERN
ĠF eiern
Ã¶ hne
Ã¶ hnung
ĠR OM
Ġg ru
Ġg raf
ĠD os
ĠD rachen
ĠG a
ĠG KKB
ĠH i
ĠH Ã¼r
ĠH art
ĠV ic
ĠV iol
ĠW E
ĠW oh
Ġzu ver
ab schied
ĠT en
ĠT own
ĠT unnel
omm e
and ten
re chn
ĠL av
ĠL angen
ĠL ange
ĠL achs
Ġer hol
Ġan stellen
Ġan fordern
ĠZ erst
ĠZ WISCHEN
ĠIn tel
EN E
EN SEN
us k
Ġauf einander
Ġauf bew
len n
ĠSt Ã¼tz
ĠN ie
ĠN az
Ġver sion
Ġver mutlich
ĠC ro
ĠAn bindung
.. ...
om o
Ġmit machen
Ġt ho
Ġt ran
Ġt wo
ĠJ ub
ĠJ unge
Ġst art
Ġp res
Ġes p
ag ert
ell fisch
ri pte
ank ierende
Ġsch rieb
iv o
Ġ3 65
AN ISTAN
Ġzur echt
ste ck
IN T
IN FORMATIONEN
aus rÃ¼stung
art iger
wer ter
01 6
01 9
Ãĸ S
Ġe urop
Ã¶r tlich
ĠmÃ¼ de
ĠSp eed
An alyse
Ġgesch Ã¼tz
ek e
la mm
Ġc as
Ġc onst
ĠAus kunft
im ate
Sch icken
AT IVE
ĠEin heiten
Ġr g
ĠPar ken
ĠUN ESCO
AL ES
rat es
og dan
Ġber ichtet
Ġber Ã¼hrt
ap ter
lau bt
Ġges unken
ĠFinanz hilfe
Ġdurch setzen
Ã¤ch ter
Ġle ck
Im age
Ġgew Ã¶hn
Ġgew Ã¶hnlich
icher ungen
GEN ETISCH
Minister konferenz
ĠUnter scheidung
Qu ote
eschÃ¤ ften
Ġgem isch
av o
11 4
ĠZu cht
ĠZu schlag
ĠWelt handelsorganisation
25 3
RE YER
Be zeichnung
IP S
Ġthe or
esen de
ĠRicht ungen
Ġkon solid
ib an
Ġgr and
str eit
Ġbef Ã¶rder
Mar gar
ĠUmwelt agentur
ĠNe v
ian er
Ġen ergie
tens itÃ¤t
sb ed
50 6
ĠAd minist
13 4
UR IS
Ġfest zustellen
ĠLÃ¶s ungs
Ġstimm ten
14 7
18 7
Ġverb reiten
22 1
vent ura
ĠEl isabeth
ĠRo hr
ĠMal aria
ĠSCH MIT
ĠSCH REYER
Ã¤ng ern
199 0
ĠAnd r
Ġverk nÃ¼pft
af tet
zug s
Ġempf Ã¤ngt
ĠMit wirkung
ĠGegen wart
Ġsele kt
ĠSol daten
ĠwÃ¼n schte
Bes eitigung
ĠEinzel betten
64 450
ĠFischerei sektor
ĠDE ZEMBER
ĠPh arma
ĠBeh and
Ġqu ite
dien sten
28 2
ĠMet h
ĠPol o
Ġstark er
air o
ĠBr istol
Ġoft mals
AUS KA
Ġentwick elten
ISS EN
druck s
ĠBeitritt sk
ĠPrÃ¤ ferenz
ox id
ĠRef lex
ĠHe ath
Ġgek Ã¼rzt
ĠhÃ¶ch ster
ĠBerat ungs
ĠFern and
Ġregion aler
QU ER
Mon tenegro
lass ungs
fÃ¤hr t
ĠEIN LEITUNG
ĠTrans it
ĠSE KTOR
ĠOber grenze
kraft wagen
ĠGleich behandlung
Ġempfehlen swert
ĠGR YB
ĠOrganis men
Ġjeweil ige
Aktion sprogramm
Is aac
Fran cis
ĠMand aten
BESCH LÃľSSE
Gu inea
Ġgeh ei
Schwer punkte
osk op
ĠGEMEIN SAME
ĠJo omla
Ġbegrenz te
ĠZwischen zeit
ival ent
ĠFlÃ¼cht ling
ĠStraf verfahren
SÃ¼d liche
ĠMuseum s
Ġlangfrist igen
ĠSpezial isten
ĠWIRTSCHAFTS INDIKATOREN
ĠHalb insel
ORT UGAL
Ã¶ger t
atastrop he
ĠHel fer
Ġerf unden
Ġtyp isch
Scholle Pleuronectes
FIN NLAND
GH ANISTAN
Ġimm ens
Ġberu hen
Jo aqun
West liche
ĠPO OS
ĠÃĦr zte
Ġblau en
ĠPrin t
HIL FEN
876 38
sib le
Ġgez ahlt
Ġdeutsch er
Standard mÃ¤ÃŁig
ĠPres seraum
ĠdrÃ¤n gen
__ __
ĠDemokrat isierung
Ġstat istische
irg itta
ĠMedik ament
ratis lava
Ġungew Ã¶hnlich
Ġgeplan te
Ġjeg liche
mens ionen
Ġindustr iellen
ĠWil helm
ÃĦhn liche
Ġbevorzu gen
ĠBab ys
ĠSof ia
Ġdiver se
ĠSamm el
ĠErweiter ungen
Ġwissenschaft lichen
Mau ri
unc il
ĠRou ten
ĠColl ins
Ġerstaun lich
Fang mÃ¶glichkeiten
STAAT LICHE
Mittler weile
ZEUG NISSE
GeschÃ¤ft s
Andor EU
ĠFernse her
ĠVict oria
gesprÃ¤ che
ĠEtikett ierung
Ġobjekt iv
Ġblock iert
Instrum ent
Ã¤mm ung
ĠHon ig
ĠProfession al
ĠGirl s
ĠVeg as
645 44
ĠBOG AR
Ġweiterentwick elt
Spez ielle
ĠQuad rat
Mehrwert steuer
ÃĸRDER UNG
Priv ate
Pu erto
ĠWAL SH
ĠImpress um
Schatz kanzler
Laszlo AndorEU
Ġunre alistisch
ĠwidersprÃ¼ch lich
ĠFinanc ial
ĠIrrt um
agli ari
ĠPlenars aal
ĠRIEK STI
ĠTELE KOMMUNIKATION
Fen ster
Lod de
ĠTschern obyl
jubl jana
ĠGRYB AUSKA
! /
, ...
2 95
3 01
5 95
A chten
B ACH
C AD
C enter
D D
D AP
F isch
F lexibilitÃ¤t
G UT
H ost
H olz
H umanressourcen
I OR
I CK
J AK
K rit
K ampf
L edig
M eg
M ay
M USSEN
R em
T ech
V ia
V ROU
V ideos
V ladimr
W S
W ICHTIG
Z one
b rÃ¼
b rief
b untu
c ol
f rÃ¼
g ol
j k
m att
p ul
r er
r ent
r oll
z ys
in burg
in tegr
st all
on ome
ĠS z
ĠS ei
ĠS um
ĠS her
ĠS ession
ĠS arkozy
el ang
au ÃŁer
ar ing
it enk
Ġi d
Ġun bekannt
ĠA lav
Ġm es
Ġf Ã¼nfte
Ġf otograf
Ġb ele
Ġb log
Ġb lieben
ĠP ion
Ġein satz
Ġein schlagen
ĠB ele
ĠB eleg
ĠB ike
ĠM ust
em e
Ġz hlt
ĠK ell
ĠK AN
ĠK Ã¤l
ĠK ambodscha
et hoden
ĠF arm
ĠF RAN
ĠI oannis
Ã¶ mm
ĠR ov
Ġk rie
Ġk ategor
ĠD C
ĠG and
ĠG ratis
ber eitet
ĠH ei
ĠH ex
ĠV as
ĠV iz
ig ration
ĠW etten
ĠW alter
ĠW anderung
ĠT L
ĠT an
ĠT ul
ĠT ech
Ġ2 35
ĠSie mens
ĠL aut
ĠL ID
ent fÃ¤llt
Ġ1 32
Ġer mord
ĠU sbekistan
Ġan ger
Ġden selben
ĠIn land
ĠSt ress
Ġbe gehen
Ġbe zahl
Ġl t
Ġl ernt
Ġl iked
ĠN id
ĠN ass
ĠN ORD
Ġver ank
Ġver heer
Ã¼ber weisung
ah a
ah le
ehr ten
eu en
ĠRe vol
ĠJ USTIZ
und as
Ġp m
sp raktiken
ag ing
Ġaus wirken
lo sion
ĠPro teste
gr em
ĠSch ock
Ġsch adet
Ġdies bezÃ¼gliche
ĠO ase
ĠEr ster
Ġvor behalt
ĠAb w
ĠAb st
ok o
eg o
zu heben
bl icken
Ġhier von
Ġe wig
ĠSp enden
An a
Ġc i
Ġc at
ĠAus stellungen
ĠAus steller
Wie viele
Ġmehr erer
pf eiler
AT UNGEN
AT IEN
ĠEin nahme
ĠEin stieg
ĠEin fluÃŁ
Ġr ation
Ġr ight
ost ars
od ore
auf enthalt
schl Ã¤gen
og alerie
we en
OR F
ĠUhr en
Ãľber arbeitung
EM ANN
Ġges undheit
ĠAl ber
Ġ12 1
RA INE
ĠParlament arier
ĠKon s
ĠKon ten
Sp ezif
ud get
ĠÃĸ FFENT
ĠÃĦ hn
IE T
Ġpro v
inder nisse
gem einer
12 3
12 4
ĠBei spielen
ĠBei hilf
ĠZu wanderung
Ġ19 79
ex istenz
Ab satz
Ab onnieren
ĠWort meldung
ĠZusammen schluss
wert ige
Ġcom e
ke y
40 8
Ġkon zip
ib us
Ġeigen em
SON EN
Ġakt iver
gew alt
15 3
15 4
eist ern
ĠHandel spolitik
RAT IS
ierte m
Ġbeg annen
Ġex zellen
ĠAd ress
ĠOr chester
ue ck
ĠEx cel
LE B
LE ISCH
45 9
45 410
ĠSe gen
ĠBl itz
Ġbede ckt
sprechen de
ĠVerkehr spolitik
ĠPreis ver
ens u
Ġoffen er
Ġverl ang
95 824
ĠRo sen
Ġgest oppt
ĠDu an
ĠFrei willigen
Ġerst klass
ĠLe gende
Kon junktur
ĠDienst es
ĠAngeb oten
ĠDi mensionen
Ġob wohl
ond a
ĠVers uche
ĠFischerei abkommen
ĠEinw ohnern
ĠArbeits gruppe
Ġbew Ã¤hrt
Ġwenig sten
ĠPal ast
ĠWahl beob
voll er
ĠLuft qualitÃ¤t
rigen s
27 8
UCH EN
Ġth an
ĠInitiat iv
Ã¼nst igten
ĠRom e
ĠMark et
Ġverm issen
Ġaufge worfen
ĠMet al
ĠStud ios
ĠFran ois
Ġmoder ner
bet reiber
For dern
Ġentwick elte
Ad am
ĠAugen merk
ASS UNG
Beit rÃ¤ge
STA VROU
Ġbel ohnt
Ġbel astet
Ġmitt ags
ash ion
ĠSÃ¼d korea
Verb ot
wach s
Fl Ã¤che
Ġide aler
ĠGonz lez
STE IN
FAH R
ĠVis ionen
ĠCon nect
Ġad min
ĠZus age
fÃ¼h lt
ĠAktiv a
Ġbedeuten d
sprÃ¼ chen
Sh irt
ĠZentral banken
zus prechen
ĠArb eiter
alisiert es
Ġdein es
onik i
ĠKlimawandel s
Ġabgel aufen
ĠStock werk
ĠAc quis
ĠWeiter gabe
ĠMenÃ¼ s
Ġkrit isieren
Ġbr and
Ġlok aler
ĠKooper ationsrat
OB ODA
Ġuntersch Ã¤tzen
Ġverz ichten
Aid s
ĠGal ax
ĠBO CK
grÃ¶ÃŁ en
ĠGut achten
ĠFÃ¼ ÃŁe
Ġnachhalt iger
Ju ha
ĠNieder gang
Ġrest lichen
gu in
ĠVergleich s
Zoll union
Ġschrift lichen
deck te
Ġverpflich ten
geg nung
ĠTrain ings
Arbeits zeit
Gesundheit s
ĠMic ro
infrastruktur en
Ġaktuell sten
ĠDefizit verfahren
ĠRam ada
opou los
ĠNACH BAR
Ġdauer haft
GU Y
Kern punkte
ĠNic olas
ĠOmbudsm annes
Ġtradition elle
ĠBeitritts lÃ¤nder
Blau leng
ĠAqu akultur
Ġversp richt
Rei se
Ġtoll es
ĠZut eilung
ĠWurz el
fas ser
Ġeingetragen e
Ġunw ahrscheinlich
Ġbus iness
ĠstÃ¤rk sten
dr ale
ĠHum ank
Ġanhalten der
Ġabend s
ĠYou Tube
ĠSD L
ĠSend ung
Jose f
ĠdÃ¤n ischen
ĠSV OBODA
ĠHoll and
JÃ¤hr liche
ĠtÃ¼rk ische
Ġexport iert
ĠPhotos hop
beschl uss
gewogen heit
Ġsho wer
Raim undas
ĠÃ¶sterreich ischen
summ e
Ġerfreu lich
ĠRechen schaft
Ġordent lich
DU KTE
ĠLAM Y
Ġklimat isiert
DurchfÃ¼hrungs maÃŁnahmen
ĠBiom asse
ĠSchmid t
Ġunab ding
atem ala
ĠBundeskanzler amt
Kaz im
ĠBritt an
Ġohn ehin
ErhÃ¤lt lich
ĠReicht um
Ġzufriedenstellen d
ĠBREN NAN
ĠSpiritu osen
ENTWUR F
ĠPAPA STAVROU
SCHW EDEN
ĠGleichstellungs fragen
ĠVerarbeiten des
ĠKALL AS
Ġzuver sichtlich
Ledig lich
ĠAlav anos
Ġermord et
0 46
5 50
B I
B AB
B OT
C ity
E v
F al
F ertig
F oto
G ANG
G raf
H ot
H NE
J ar
J oh
K orea
K opf
N T
P utins
S ing
S OL
T F
T it
T ransport
T eresa
U EN
W ÃĦ
W EIN
W ELLE
W oche
Y K
Y VI
a cken
b lock
b asis
c ir
c ted
d om
e f
f ia
f reu
f ile
f ix
g Ã¼ltige
h ier
r ite
s zeit
w ing
w ord
w achsen
z im
Ġ org
er kt
er folg
Ġd ick
Ġd irect
ie k
ie ÃŁe
st em
st ad
st ahl
ei se
ĠS I
ĠS eu
ĠS eil
ĠS SL
ein stellungen
Ġs n
Ġs uch
au ten
as ht
or ges
is mo
ĠA hnung
ĠA SPEKTE
Ġm ech
Ġm ay
Ġf ahr
Ġb iz
ir s
Ġn os
Ġn umer
ĠP ag
ĠP ub
ĠP osten
ĠE ver
ĠE IG
ĠE AGFL
ĠE arth
ĠB ret
ĠB AJ
ĠK ul
et tern
Ġh ow
ĠF ast
ĠF eier
ĠI F
ĠI ren
sch Ã¶nen
Ġg eilen
ĠD AR
ĠD ossier
ĠG rÃ¤
ĠH ut
ĠH als
ĠH allen
ĠH ebel
ĠV b
ĠV Ã¶gel
de utet
de utsche
Ġzu geben
ab u
ab is
ĠT EM
ent al
Ġan im
ation alisierung
ĠZ UKUNFT
us ien
ĠSt orn
ĠSt ift
Ġbe ds
ĠN ehmen
Ġver packt
ĠC la
ĠC urs
ĠC orn
ĠC AST
ĠVer folg
ĠAn fahrt
ĠÃ¼ber fÃ¤llig
ĠÃ¼ber wiegend
Ġst ring
Ġst reiten
Ġp u
[...]
