{
  "version": "1.0",
  "truncation": null,
  "padding": null,
  "added_tokens": [
    {
      "id": 0,
      "content": "<|endoftext|>",
      "single_word": false,
      "lstrip": false,
      "rstrip": false,
      "normalized": true,
      "special": true
    }
  ],
  "normalizer": null,
  "pre_tokenizer": {
    "type": "ByteLevel",
    "add_prefix_space": false,
    "trim_offsets": true,
    "use_regex": true
  },
  "post_processor": {
    "type": "ByteLevel",
    "add_prefix_space": true,
    "trim_offsets": false,
    "use_regex": true
  },
  "decoder": {
    "type": "ByteLevel",
    "add_prefix_space": true,
    "trim_offsets": true,
    "use_regex": true
  },
  "model": {
    "type": "BPE",
    "dropout": null,
    "unk_token": null,
    "continuing_subword_prefix": "",
    "end_of_word_suffix": "",
    "fuse_unk": false,
    "byte_fallback": false,
    "vocab": {
      "<|endoftext|>": 0,
      "!": 1,
      "\"": 2,
      "#": 3,
      "$": 4,
      "%": 5,
      "&": 6,
      "'": 7,
      "(": 8,
      ")": 9,
      "*": 10,
      "+": 11,
      ",": 12,
      "-": 13,
      ".": 14,
      "/": 15,
      "0": 16,
      "1": 17,
      "2": 18,
      "3": 19,
      "4": 20,
      "5": 21,
      "6": 22,
      "7": 23,
      "8": 24,
      "9": 25,
      ":": 26,
      ";": 27,
      "<": 28,
      "=": 29,
      ">": 30,
      "?": 31,
      "@": 32,
      "A": 33,
      "B": 34,
      "C": 35,
      "D": 36,
      "E": 37,
      "F": 38,
      "G": 39,
      "H": 40,
      "I": 41,
      "J": 42,
      "K": 43,
      "L": 44,
      "M": 45,
      "N": 46,
      "O": 47,
      "P": 48,
      "Q": 49,
      "R": 50,
      "S": 51,
      "T": 52,
      "U": 53,
      "V": 54,
      "W": 55,
      "X": 56,
      "Y": 57,
      "Z": 58,
      "[": 59,
      "\\": 60,
      "]": 61,
      "^": 62,
      "_": 63,
      "`": 64,
      "a": 65,
      "b": 66,
      "c": 67,
      "d": 68,
      "e": 69,
      "f": 70,
      "g": 71,
      "h": 72,
      "i": 73,
      "j": 74,
      "k": 75,
      "l": 76,
      "m": 77,
      "n": 78,
      "o": 79,
      "p": 80,
      "q": 81,
      "r": 82,
      "s": 83,
      "t": 84,
      "u": 85,
      "v": 86,
      "w": 87,
      "x": 88,
      "y": 89,
      "z": 90,
      "{": 91,
      "|": 92,
      "}": 93,
      "~": 94,
      "¡": 95,
      "¢": 96,
      "£": 97,
      "¤": 98,
      "¥": 99,
      "¦": 100,
      "§": 101,
      "¨": 102,
      "©": 103,
      "ª": 104,
      "«": 105,
      "¬": 106,
      "®": 107,
      "¯": 108,
      "°": 109,
      "±": 110,
      "²": 111,
      "³": 112,
      "´": 113,
      "µ": 114,
      "¶": 115,
      "·": 116,
      "¸": 117,
      "¹": 118,
      "º": 119,
      "»": 120,
      "¼": 121,
      "½": 122,
      "¾": 123,
      "¿": 124,
      "À": 125,
      "Á": 126,
      "Â": 127,
      "Ã": 128,
      "Ä": 129,
      "Å": 130,
      "Æ": 131,
      "Ç": 132,
      "È": 133,
      "É": 134,
      "Ê": 135,
      "Ë": 136,
      "Ì": 137,
      "Í": 138,
      "Î": 139,
      "Ï": 140,
      "Ð": 141,
      "Ñ": 142,
      "Ò": 143,
      "Ó": 144,
      "Ô": 145,
      "Õ": 146,
      "Ö": 147,
      "×": 148,
      "Ø": 149,
      "Ù": 150,
      "Ú": 151,
      "Û": 152,
      "Ü": 153,
      "Ý": 154,
      "Þ": 155,
      "ß": 156,
      "à": 157,
      "á": 158,
      "â": 159,
      "ã": 160,
      "ä": 161,
      "å": 162,
      "æ": 163,
      "ç": 164,
      "è": 165,
      "é": 166,
      "ê": 167,
      "ë": 168,
      "ì": 169,
      "í": 170,
      "î": 171,
      "ï": 172,
      "ð": 173,
      "ñ": 174,
      "ò": 175,
      "ó": 176,
      "ô": 177,
      "õ": 178,
      "ö": 179,
      "÷": 180,
      "ø": 181,
      "ù": 182,
      "ú": 183,
      "û": 184,
      "ü": 185,
      "ý": 186,
      "þ": 187,
      "ÿ": 188,
      "Ā": 189,
      "ā": 190,
      "Ă": 191,
      "ă": 192,
      "Ą": 193,
      "ą": 194,
      "Ć": 195,
      "ć": 196,
      "Ĉ": 197,
      "ĉ": 198,
      "Ċ": 199,
      "ċ": 200,
      "Č": 201,
      "č": 202,
      "Ď": 203,
      "ď": 204,
      "Đ": 205,
      "đ": 206,
      "Ē": 207,
      "ē": 208,
      "Ĕ": 209,
      "ĕ": 210,
      "Ė": 211,
      "ė": 212,
      "Ę": 213,
      "ę": 214,
      "Ě": 215,
      "ě": 216,
      "Ĝ": 217,
      "ĝ": 218,
      "Ğ": 219,
      "ğ": 220,
      "Ġ": 221,
      "ġ": 222,
      "Ģ": 223,
      "ģ": 224,
      "Ĥ": 225,
      "ĥ": 226,
      "Ħ": 227,
      "ħ": 228,
      "Ĩ": 229,
      "ĩ": 230,
      "Ī": 231,
      "ī": 232,
      "Ĭ": 233,
      "ĭ": 234,
      "Į": 235,
      "į": 236,
      "İ": 237,
      "ı": 238,
      "Ĳ": 239,
      "ĳ": 240,
      "Ĵ": 241,
      "ĵ": 242,
      "Ķ": 243,
      "ķ": 244,
      "ĸ": 245,
      "Ĺ": 246,
      "ĺ": 247,
      "Ļ": 248,
      "ļ": 249,
      "Ľ": 250,
      "ľ": 251,
      "Ŀ": 252,
      "ŀ": 253,
      "Ł": 254,
      "ł": 255,
      "Ń": 256,
      "en": 257,
      "er": 258,
      "ch": 259,
      "in": 260,
      "Ġd": 261,
      "ie": 262,
      "un": 263,
      "st": 264,
      "ei": 265,
      "an": 266,
      "es": 267,
      "on": 268,
      "Ã¼": 269,
      "ich": 270,
      "ĠS": 271,
      "Ã¤": 272,
      "Ġw": 273,
      "ung": 274,
      "ein": 275,
      "Ġs": 276,
      "el": 277,
      "au": 278,
      "at": 279,
      "as": 280,
      "or": 281,
      "ar": 282,
      "is": 283,
      "al": 284,
      "it": 285,
      "ge": 286,
      "Ġi": 287,
      "Ġun": 288,
      "Ġdie": 289,
      "ĠA": 290,
      "te": 291,
      "ur": 292,
      "Ġm": 293,
      "Ġv": 294,
      "Ġf": 295,
      "Ġder": 296,
      "Ġb": 297,
      "ir": 298,
      "Ġn": 299,
      "ĠP": 300,
      "ter": 301,
      "ĠE": 302,
      "mm": 303,
      "hr": 304,
      "Ġein": 305,
      "ion": 306,
      "ĠB": 307,
      "ĠM": 308,
      "ten": 309,
      "gen": 310,
      "den": 311,
      "Ġist": 312,
      "em": 313,
      "Ġz": 314,
      "Ã¼r": 315,
      "ĠK": 316,
      "et": 317,
      "Ġh": 318,
      "ol": 319,
      "Die": 320,
      "icht": 321,
      "Ġund": 322,
      "ĠF": 323,
      "ĠI": 324,
      "Ġau": 325,
      "sch": 326,
      "Ã¶": 327,
      "der": 328,
      "ĠR": 329,
      "ra": 330,
      "Ġin": 331,
      "Ġg": 332,
      "Ġk": 333,
      "ĠD": 334,
      "ss": 335,
      "ĠG": 336,
      "ber": 337,
      "ĠH": 338,
      "ĠfÃ¼r": 339,
      "ĠV": 340,
      "ig": 341,
      "ier": 342,
      "eit": 343,
      "ro": 344,
      "isch": 345,
      "ĠW": 346,
      "lich": 347,
      "de": 348,
      "Ġzu": 349,
      "le": 350,
      "ab": 351,
      "kt": 352,
      "ĠT": 353,
      "Ġ2": 354,
      "omm": 355,
      "Ġwir": 356,
      "il": 357,
      "ĠSie": 358,
      "and": 359,
      "re": 360,
      "ach": 361,
      "se": 362,
      "am": 363,
      "um": 364,
      "00": 365,
      "ĠL": 366,
      "ent": 367,
      "Ġge": 368,
      "Ġdas": 369,
      "Ġ1": 370,
      "ÃŁ": 371,
      "op": 372,
      "Ġvon": 373,
      "ind": 374,
      "Ġer": 375,
      "ft": 376,
      "ĠU": 377,
      "Ġ(": 378,
      "Das": 379,
      "ER": 380,
      "eh": 381,
      "Ġan": 382,
      "Ġnicht": 383,
      "iss": 384,
      "ation": 385,
      "Ġden": 386,
      "ck": 387,
      "ĠZ": 388,
      "ut": 389,
      "ĠIn": 390,
      "EN": 391,
      "us": 392,
      "ien": 393,
      "Ġauf": 394,
      "rei": 395,
      "len": 396,
      "ser": 397,
      "urop": 398,
      "ist": 399,
      "Ġdes": 400,
      "ann": 401,
      "ungen": 402,
      "ĠSt": 403,
      "Ġbe": 404,
      "Ġl": 405,
      "ĠN": 406,
      "Ġver": 407,
      "nen": 408,
      "Ġal": 409,
      "ĠC": 410,
      "Ã¼ber": 411,
      "ĠVer": 412,
      "ĠAn": 413,
      "Ġim": 414,
      "ah": 415,
      "ommiss": 416,
      "Ã¤n": 417,
      "ik": 418,
      "ff": 419,
      "ot": 420,
      "Ġsind": 421,
      "..": 422,
      "for": 423,
      "ehr": 424,
      "Ġwer": 425,
      "ische": 426,
      "eu": 427,
      "ĠÃ¼ber": 428,
      "err": 429,
      "om": 430,
      "Ġeine": 431,
      "uss": 432,
      "Ġmit": 433,
      "Ġt": 434,
      "ĠRe": 435,
      "ĠJ": 436,
      "Ġst": 437,
      "Wir": 438,
      "imm": 439,
      "und": 440,
      "Ġp": 441,
      "Ã¤r": 442,
      "ben": 443,
      "sp": 444,
      "Ich": 445,
      "och": 446,
      "Ġwerden": 447,
      "Ġes": 448,
      "eiter": 449,
      "Ġ-": 450,
      "ag": 451,
      "ahr": 452,
      "ĠKommiss": 453,
      "eil": 454,
      "esch": 455,
      "itt": 456,
      "uropÃ¤": 457,
      "sen": 458,
      "ell": 459,
      "form": 460,
      "ri": 461,
      "Ġsich": 462,
      "Der": 463,
      "CH": 464,
      "chen": 465,
      "Ġhab": 466,
      "Ġaus": 467,
      "lo": 468,
      "Ġwird": 469,
      "rÃ¤": 470,
      "cht": 471,
      "ĠPro": 472,
      "Ġich": 473,
      "etz": 474,
      "iel": 475,
      "ort": 476,
      "gr": 477,
      "ver": 478,
      "inist": 479,
      "oll": 480,
      "inister": 481,
      "ĠSch": 482,
      "nt": 483,
      "ige": 484,
      "res": 485,
      "UN": 486,
      "che": 487,
      "ĠKommission": 488,
      "Ġo": 489,
      "eine": 490,
      "he": 491,
      "formation": 492,
      "Ġj": 493,
      "ssen": 494,
      "ank": 495,
      "rau": 496,
      "Ġum": 497,
      "Ã¶n": 498,
      "gt": 499,
      "sten": 500,
      "ungs": 501,
      "Ġauch": 502,
      "ul": 503,
      "TE": 504,
      "men": 505,
      "Es": 506,
      "Ã¤t": 507,
      "Ġsch": 508,
      "scha": 509,
      "ĠmÃ¶": 510,
      "ed": 511,
      "ern": 512,
      "Ġdies": 513,
      "anz": 514,
      "Ġhat": 515,
      "ĠO": 516,
      "ĠInformation": 517,
      "wei": 518,
      "hal": 519,
      "ĠEr": 520,
      "rÃ¼": 521,
      "ont": 522,
      "all": 523,
      "Sie": 524,
      "iv": 525,
      "ele": 526,
      "Ġsie": 527,
      "ing": 528,
      "Ġhaben": 529,
      "land": 530,
      "Ġ200": 531,
      "In": 532,
      "ĠEU": 533,
      "est": 534,
      "lie": 535,
      "uf": 536,
      "Ġdem": 537,
      "schaft": 538,
      "bt": 539,
      "uropÃ¤ische": 540,
      "si": 541,
      "ischen": 542,
      "eitere": 543,
      "Ġvor": 544,
      "ang": 545,
      "ĠAb": 546,
      "eb": 547,
      "akt": 548,
      "eiten": 549,
      "age": 550,
      "ad": 551,
      "ĠUn": 552,
      "Ein": 553,
      "be": 554,
      "ĠmÃ¶ch": 555,
      "ommen": 556,
      "Ġ3": 557,
      "ĠBer": 558,
      "ĠInformationen": 559,
      "AN": 560,
      "ok": 561,
      "ÃĦ": 562,
      "Ġuns": 563,
      "Ġunter": 564,
      "stimm": 565,
      "ner": 566,
      "Un": 567,
      "ĠMinister": 568,
      "ĠIhr": 569,
      "inter": 570,
      "ger": 571,
      "Ġzur": 572,
      "Ġbei": 573,
      "Ġals": 574,
      "UNG": 575,
      "dent": 576,
      "ick": 577,
      "rÃ¤si": 578,
      "eg": 579,
      "elt": 580,
      "zu": 581,
      "ON": 582,
      "lei": 583,
      "os": 584,
      "ant": 585,
      "...": 586,
      "Herr": 587,
      "ES": 588,
      "liche": 589,
      "igen": 590,
      "ĠkÃ¶n": 591,
      "IS": 592,
      "iert": 593,
      "grund": 594,
      "ste": 595,
      "ĠAr": 596,
      "bl": 597,
      "IN": 598,
      "Ġda": 599,
      "rÃ¤sident": 600,
      "end": 601,
      "Ġsein": 602,
      "ru": 603,
      "Ġwar": 604,
      "aus": 605,
      "Ġunser": 606,
      "art": 607,
      "wer": 608,
      "Dies": 609,
      "tern": 610,
      "01": 611,
      "Ġkann": 612,
      "intergrund": 613,
      "ress": 614,
      "Weitere": 615,
      "IT": 616,
      "32": 617,
      "Ġa": 618,
      "tet": 619,
      "ĠHerr": 620,
      "otel": 621,
      "Hintergrund": 622,
      "Ġhier": 623,
      "Ãĸ": 624,
      "iz": 625,
      "ht": 626,
      "RO": 627,
      "fÃ¼": 628,
      "Ġe": 629,
      "fen": 630,
      "Ãľ": 631,
      "ibt": 632,
      "Ġ.": 633,
      "Ġso": 634,
      "rag": 635,
      "kl": 636,
      "bar": 637,
      "EuropÃ¤ische": 638,
      "ieren": 639,
      "Ġwur": 640,
      "Ġwie": 641,
      "Ġent": 642,
      "ĠVor": 643,
      "Ġnoch": 644,
      "heit": 645,
      "keit": 646,
      "ĠkÃ¶nnen": 647,
      "Ġab": 648,
      "Ã¶r": 649,
      "ĠmÃ¼": 650,
      "enn": 651,
      "Ġ4": 652,
      "Er": 653,
      "Ġdiese": 654,
      "itteil": 655,
      "ĠSp": 656,
      "An": 657,
      "uch": 658,
      "Ġneu": 659,
      "ĠRat": 660,
      "beit": 661,
      "Ġgesch": 662,
      "ehen": 663,
      "ug": 664,
      "ek": 665,
      "la": 666,
      "Ġc": 667,
      "ĠAus": 668,
      "aten": 669,
      "ichtig": 670,
      "Ã¼n": 671,
      "fol": 672,
      "ak": 673,
      "Ġnach": 674,
      "utz": 675,
      "EU": 676,
      "im": 677,
      "rage": 678,
      "ne": 679,
      "itteilung": 680,
      "Ġzum": 681,
      "ĠmÃ¼ssen": 682,
      "Ver": 683,
      "lt": 684,
      "hen": 685,
      "ĠEnt": 686,
      "ĠHotel": 687,
      "ST": 688,
      "Ġ22": 689,
      "ic": 690,
      "Was": 691,
      "Wie": 692,
      "uÃŁ": 693,
      "ontakt": 694,
      "Ġgibt": 695,
      "ressem": 696,
      "Sch": 697,
      "geb": 698,
      "inden": 699,
      "Ġnur": 700,
      "Ġsehr": 701,
      "nah": 702,
      "Ġ5": 703,
      "Ġeinen": 704,
      "Ġmehr": 705,
      "rie": 706,
      "oh": 707,
      "pf": 708,
      "att": 709,
      "fahr": 710,
      "ill": 711,
      "ĠJahr": 712,
      "pt": 713,
      "Ġall": 714,
      "itÃ¤t": 715,
      "ekt": 716,
      "Al": 717,
      "etzt": 718,
      "Diese": 719,
      "99": 720,
      "AT": 721,
      "Ã¤h": 722,
      "tschaft": 723,
      "nis": 724,
      "lin": 725,
      "Ġoder": 726,
      "Ġsoll": 727,
      "tz": 728,
      "ĠEin": 729,
      "itte": 730,
      "ressemitteilung": 731,
      "olit": 732,
      "io": 733,
      "stimmung": 734,
      "Ã¼ck": 735,
      "Ġ(+": 736,
      "gra": 737,
      "Ġam": 738,
      "Ġsp": 739,
      "St": 740,
      "unkt": 741,
      "ust": 742,
      "Ã¤nd": 743,
      "klÃ¤r": 744,
      "achten": 745,
      "kommen": 746,
      "ielen": 747,
      "id": 748,
      "uropa": 749,
      "rache": 750,
      "reich": 751,
      "ale": 752,
      "tre": 753,
      "ĠmÃ¶chten": 754,
      "ionen": 755,
      "lossen": 756,
      "fall": 757,
      "Bei": 758,
      "Ġr": 759,
      "ĠPar": 760,
      "urch": 761,
      "ĠAng": 762,
      "ĠPrÃ¤sident": 763,
      "ffen": 764,
      "hnen": 765,
      "ass": 766,
      "amm": 767,
      "ĠMa": 768,
      "enz": 769,
      "ragen": 770,
      "ĠUN": 771,
      "Ġ229": 772,
      "ost": 773,
      "itz": 774,
      "inanz": 775,
      "ord": 776,
      "glie": 777,
      "Ã¤nder": 778,
      "ĠÃ¼bern": 779,
      "AL": 780,
      "pp": 781,
      "Ġdass": 782,
      "od": 783,
      "Wann": 784,
      "Ġwurde": 785,
      "Ġwas": 786,
      "ĠAbstimmung": 787,
      "ehmen": 788,
      "heiten": 789,
      "itglie": 790,
      "lan": 791,
      "stell": 792,
      "Ġkeine": 793,
      "Ġdieser": 794,
      "ĠAuss": 795,
      "indet": 796,
      "auf": 797,
      "Ġbis": 798,
      "fer": 799,
      "Ġde": 800,
      "rat": 801,
      "prache": 802,
      "Ġre": 803,
      "IL": 804,
      "ster": 805,
      "lung": 806,
      "glich": 807,
      "gramm": 808,
      "ĠBericht": 809,
      "ĠBe": 810,
      "elegen": 811,
      "eich": 812,
      "Ġander": 813,
      "ges": 814,
      "ett": 815,
      "nung": 816,
      "Ġfinden": 817,
      "olgen": 818,
      "Ġdar": 819,
      "AR": 820,
      "Ã¼tz": 821,
      "irtschaft": 822,
      "ierung": 823,
      "ISCH": 824,
      "ĠÃ¼bernachten": 825,
      "zi": 826,
      "ze": 827,
      "Ġzwei": 828,
      "ho": 829,
      "schl": 830,
      "Ġihr": 831,
      "og": 832,
      "we": 833,
      "ĠDank": 834,
      "OR": 835,
      "Ġmuss": 836,
      "assen": 837,
      "Ġgeschlossen": 838,
      "ĠĠ": 839,
      "andel": 840,
      "me": 841,
      "ĠUhr": 842,
      "US": 843,
      "iele": 844,
      "ite": 845,
      "Kontakt": 846,
      "ellen": 847,
      "ia": 848,
      "ĠAussprache": 849,
      "qu": 850,
      "ĠReg": 851,
      "ahl": 852,
      "Ġman": 853,
      "ĠGe": 854,
      "itglied": 855,
      "ĠZeit": 856,
      "ark": 857,
      "ast": 858,
      "ers": 859,
      "ĠmÃ¶chte": 860,
      "Ġ0": 861,
      "ssel": 862,
      "Ġgen": 863,
      "Ġdiesem": 864,
      "Ġber": 865,
      "Ġ...": 866,
      "ess": 867,
      "Ãľber": 868,
      "Ġeiner": 869,
      "wick": 870,
      "atz": 871,
      "ech": 872,
      "ĠGr": 873,
      "Ġstatt": 874,
      "Ġhabe": 875,
      "Ġ|": 876,
      "EH": 877,
      "ail": 878,
      "aat": 879,
      "Ġ201": 880,
      "ĠAngelegen": 881,
      "EM": 882,
      "elle": 883,
      "halt": 884,
      "blem": 885,
      "ov": 886,
      "resse": 887,
      "ebs": 888,
      "ĠIhre": 889,
      "EL": 890,
      "Ġalle": 891,
      "acht": 892,
      "schen": 893,
      "wÃ¤r": 894,
      "fahren": 895,
      "ap": 896,
      "treter": 897,
      "Ġ6": 898,
      "ĠAnt": 899,
      "ĠIhnen": 900,
      "ffent": 901,
      "Ġlie": 902,
      "ob": 903,
      "Ġ7": 904,
      "lau": 905,
      "OM": 906,
      "wÃ¤rt": 907,
      "uropÃ¤ischen": 908,
      "sam": 909,
      "200": 910,
      "eute": 911,
      "ION": 912,
      "alt": 913,
      "ammen": 914,
      "ran": 915,
      "ĠDER": 916,
      "ws": 917,
      "lam": 918,
      "Ġfindet": 919,
      "olitik": 920,
      "ild": 921,
      "ĠAngelegenheiten": 922,
      "Ġkl": 923,
      "Ġges": 924,
      "10": 925,
      "her": 926,
      "ert": 927,
      "kte": 928,
      "ittel": 929,
      "ĠUm": 930,
      "Ġaber": 931,
      "rt": 932,
      "30": 933,
      "Ġbes": 934,
      "agen": 935,
      "Und": 936,
      "ĠAl": 937,
      "ĠEuropa": 938,
      "FÃ¼r": 939,
      "Ġet": 940,
      "lichen": 941,
      "Ġeinem": 942,
      "Ġkein": 943,
      "Ġ9": 944,
      "erk": 945,
      "Ġbet": 946,
      "Aber": 947,
      "ive": 948,
      "ub": 949,
      "inn": 950,
      "ROP": 951,
      "Hier": 952,
      "ĠArbeit": 953,
      "ĠFinanz": 954,
      "iger": 955,
      "Ġdurch": 956,
      "OL": 957,
      "Ġ12": 958,
      "RA": 959,
      "Ã¤hr": 960,
      "du": 961,
      "Ġfolgen": 962,
      "Ġneue": 963,
      "Ã¤ch": 964,
      "Ġ8": 965,
      "ĠSchl": 966,
      "Ġviel": 967,
      "fe": 968,
      "ĠProblem": 969,
      "lament": 970,
      "lieÃŁ": 971,
      "mmer": 972,
      "ard": 973,
      "ler": 974,
      "ischer": 975,
      "igung": 976,
      "roÃŁ": 977,
      "nahmen": 978,
      "ĠFrage": 979,
      "rÃ¼ssel": 980,
      "Ġweiter": 981,
      "ollen": 982,
      "ret": 983,
      "IG": 984,
      "ĠParlament": 985,
      "eite": 986,
      "Ġjed": 987,
      "Ġdiesen": 988,
      "stÃ¼tz": 989,
      "ĠKon": 990,
      "rif": 991,
      "ĠLand": 992,
      "fach": 993,
      "olle": 994,
      "Ġganz": 995,
      "Ġmich": 996,
      "fÃ¼r": 997,
      "mal": 998,
      "eht": 999,
      "ĠCh": 1000,
      "ebsite": 1001,
      "wort": 1002,
      "KTE": 1003,
      "fÃ¼hr": 1004,
      "gar": 1005,
      "pro": 1006,
      "ĠAuf": 1007,
      "Ġle": 1008,
      "vor": 1009,
      "ĠFrau": 1010,
      "wÃ¤rtige": 1011,
      "war": 1012,
      "ÃĦISCH": 1013,
      "ROPÃĦISCH": 1014,
      ".)": 1015,
      "issen": 1016,
      "Sp": 1017,
      "Ġgeht": 1018,
      "Vielen": 1019,
      "Ġgegen": 1020,
      "Ġwichtig": 1021,
      "Ġje": 1022,
      "ĠDe": 1023,
      "ĠKommissar": 1024,
      "UNKTE": 1025,
      "ĠFor": 1026,
      "gel": 1027,
      "Kommiss": 1028,
      "Ġunsere": 1029,
      "immer": 1030,
      "ĠEuropÃ¤ischen": 1031,
      "SP": 1032,
      "ĠPUNKTE": 1033,
      "halten": 1034,
      "ine": 1035,
      "zie": 1036,
      "ĠMen": 1037,
      "our": 1038,
      "els": 1039,
      "Ġmein": 1040,
      "RT": 1041,
      "Ġ%": 1042,
      "rin": 1043,
      "Pressemitteilung": 1044,
      "ĠMitglied": 1045,
      "onder": 1046,
      "Da": 1047,
      "Beifall": 1048,
      "igt": 1049,
      "ĠauswÃ¤rtige": 1050,
      "Ġetw": 1051,
      "unden": 1052,
      "SCH": 1053,
      "yst": 1054,
      "eid": 1055,
      "Ġ+": 1056,
      "zeit": 1057,
      "kehr": 1058,
      "ĠMar": 1059,
      "MEN": 1060,
      "ult": 1061,
      "Eine": 1062,
      "ken": 1063,
      "achen": 1064,
      "Ġtun": 1065,
      "eld": 1066,
      "TEIL": 1067,
      "ÃŁnahmen": 1068,
      "Im": 1069,
      "II": 1070,
      "Ġgew": 1071,
      "ud": 1072,
      "Ġ10": 1073,
      "icher": 1074,
      "GEN": 1075,
      "halb": 1076,
      "utsch": 1077,
      "usammen": 1078,
      "ĠUnion": 1079,
      "ĠÃĸ": 1080,
      "eigen": 1081,
      "ystem": 1082,
      "ĠÃĦ": 1083,
      "ĠRecht": 1084,
      "000": 1085,
      "ĠTh": 1086,
      "ep": 1087,
      "Minister": 1088,
      "ct": 1089,
      "arb": 1090,
      "Ġjetzt": 1091,
      "folger": 1092,
      "ĠUnter": 1093,
      "IK": 1094,
      "ĠGes": 1095,
      "igkeit": 1096,
      "ce": 1097,
      "alien": 1098,
      "IE": 1099,
      "pl": 1100,
      "Ġvom": 1101,
      "ere": 1102,
      "ĠEn": 1103,
      "Ġpro": 1104,
      ").": 1105,
      "eben": 1106,
      "ĠgroÃŁ": 1107,
      "Ġwen": 1108,
      "Qu": 1109,
      "welt": 1110,
      "ritt": 1111,
      "inder": 1112,
      "ehm": 1113,
      "Ġimmer": 1114,
      "urg": 1115,
      "Ġdu": 1116,
      "setz": 1117,
      "nisse": 1118,
      "orgen": 1119,
      "aben": 1120,
      "Ġdieses": 1121,
      "Presse": 1122,
      "ĠEntwick": 1123,
      "nder": 1124,
      "arbeit": 1125,
      "AND": 1126,
      "ĠProgramm": 1127,
      "ericht": 1128,
      "sk": 1129,
      "Ġeinfach": 1130,
      "Ġnun": 1131,
      "ux": 1132,
      "org": 1133,
      "Auch": 1134,
      "ĠUND": 1135,
      "ina": 1136,
      "ĠPressemitteilung": 1137,
      "Ã¤l": 1138,
      "ĠFl": 1139,
      "gem": 1140,
      "12": 1141,
      "gend": 1142,
      "rit": 1143,
      "Ġheute": 1144,
      "yp": 1145,
      "eschÃ¤": 1146,
      "ĠVert": 1147,
      "ĠEntsch": 1148,
      "Ġher": 1149,
      "ĠerklÃ¤r": 1150,
      "Ġgut": 1151,
      "lichkeit": 1152,
      "Ġjedoch": 1153,
      "osten": 1154,
      "wend": 1155,
      "ĠBei": 1156,
      "ĠSitz": 1157,
      "FT": 1158,
      "Ġbest": 1159,
      "ĠDie": 1160,
      "fl": 1161,
      "Ġalso": 1162,
      "bst": 1163,
      "Ã¼hr": 1164,
      "anien": 1165,
      "Ġgem": 1166,
      "chte": 1167,
      "ĠVertreter": 1168,
      "wirtschaft": 1169,
      "BrÃ¼ssel": 1170,
      "burg": 1171,
      "zeu": 1172,
      "Ã¤lt": 1173,
      "Aus": 1174,
      "ĠSo": 1175,
      "leich": 1176,
      "rechen": 1177,
      "av": 1178,
      "ieder": 1179,
      "net": 1180,
      "SA": 1181,
      "Ġbrau": 1182,
      "frage": 1183,
      "11": 1184,
      "ĠÃľber": 1185,
      "Ã¤re": 1186,
      "ilt": 1187,
      "Ġetwas": 1188,
      "35": 1189,
      "UNGEN": 1190,
      "ma": 1191,
      "folgerungen": 1192,
      "ow": 1193,
      "ĠZu": 1194,
      "Ġwenn": 1195,
      "Ġgel": 1196,
      "arum": 1197,
      "EIT": 1198,
      "ICH": 1199,
      "aher": 1200,
      "ESS": 1201,
      "schie": 1202,
      "ĠSchluss": 1203,
      "Ġ14": 1204,
      "Ġbereit": 1205,
      "ĠEur": 1206,
      "ĠWelt": 1207,
      "Ġ19": 1208,
      "nahme": 1209,
      "off": 1210,
      "Ġben": 1211,
      "low": 1212,
      "fon": 1213,
      "ĠHost": 1214,
      "ĠKl": 1215,
      "ĠAN": 1216,
      "ute": 1217,
      "amt": 1218,
      "richt": 1219,
      "ĠStÃ¤nd": 1220,
      "entr": 1221,
      "Wer": 1222,
      "rank": 1223,
      "eschÃ¤ft": 1224,
      "25": 1225,
      "ex": 1226,
      "if": 1227,
      "amit": 1228,
      "amen": 1229,
      ".:": 1230,
      "bes": 1231,
      "pu": 1232,
      "retÃ¤r": 1233,
      "talien": 1234,
      "Ġ11": 1235,
      "reis": 1236,
      "ĠVorschl": 1237,
      "RE": 1238,
      "ha": 1239,
      "ilfe": 1240,
      "Be": 1241,
      "mar": 1242,
      "alen": 1243,
      "stellt": 1244,
      "Ġhin": 1245,
      "ktion": 1246,
      "EUROPÃĦISCH": 1247,
      "Ġ20": 1248,
      "IP": 1249,
      "aaten": 1250,
      "tok": 1251,
      "Ab": 1252,
      "Auf": 1253,
      "ĠÃĦnder": 1254,
      "Ġdazu": 1255,
      "Des": 1256,
      "Ġbitte": 1257,
      "eln": 1258,
      "eiÃŁ": 1259,
      "Ġ199": 1260,
      "Ġsollte": 1261,
      "okum": 1262,
      "Ã¶s": 1263,
      "Ġthe": 1264,
      "Frau": 1265,
      "ĠWort": 1266,
      "ĠHostels": 1267,
      "geben": 1268,
      "ĠWirtschaft": 1269,
      "elche": 1270,
      "Ġliegt": 1271,
      "innen": 1272,
      "ternehmen": 1273,
      "ĠStaat": 1274,
      "ĠMenschen": 1275,
      "ay": 1276,
      "Vor": 1277,
      "tokoll": 1278,
      "Ġ:": 1279,
      "emein": 1280,
      "ĠHer": 1281,
      "Ġweitere": 1282,
      "Ġwurden": 1283,
      "icherheit": 1284,
      "ekretÃ¤r": 1285,
      "ĠThem": 1286,
      "ĠFragen": 1287,
      "forder": 1288,
      "AS": 1289,
      "Ġon": 1290,
      "So": 1291,
      "utschland": 1292,
      "ĠGrund": 1293,
      "ssekretÃ¤r": 1294,
      "uft": 1295,
      "Ġ15": 1296,
      "ĠSchlussfolgerungen": 1297,
      "ĠTag": 1298,
      "Unser": 1299,
      "ĠSitzung": 1300,
      "unft": 1301,
      "ĠFall": 1302,
      "Ġdrei": 1303,
      "ucht": 1304,
      "auen": 1305,
      "ĠRed": 1306,
      "Ġsollten": 1307,
      "ĠProdu": 1308,
      "ungsant": 1309,
      "gien": 1310,
      "per": 1311,
      "ĠZusammen": 1312,
      "ĠRates": 1313,
      "ĠerklÃ¤rte": 1314,
      "erson": 1315,
      "De": 1316,
      "wert": 1317,
      "Ġwieder": 1318,
      "sicht": 1319,
      "atÃ¼r": 1320,
      "Ġcom": 1321,
      "esen": 1322,
      "Ġmir": 1323,
      "rifft": 1324,
      "uchen": 1325,
      "Ġper": 1326,
      "51": 1327,
      "linie": 1328,
      "sion": 1329,
      "ĠProtokoll": 1330,
      "fÃ¼g": 1331,
      "ĠFinanzen": 1332,
      "erv": 1333,
      "ache": 1334,
      "ĠRicht": 1335,
      "ĠErgeb": 1336,
      "ĠNr": 1337,
      "gie": 1338,
      "cher": 1339,
      "dem": 1340,
      "MER": 1341,
      "hne": 1342,
      "aupt": 1343,
      "ĠMaÃŁnahmen": 1344,
      "ikel": 1345,
      "unde": 1346,
      "Ġmorgen": 1347,
      "ou": 1348,
      "ordnung": 1349,
      "werb": 1350,
      "elbst": 1351,
      "ternet": 1352,
      "mus": 1353,
      "):": 1354,
      "rift": 1355,
      "Pro": 1356,
      "kunft": 1357,
      "Mail": 1358,
      "ition": 1359,
      "ĠQu": 1360,
      "20": 1361,
      "anke": 1362,
      "Ġmeine": 1363,
      "stimmt": 1364,
      "ke": 1365,
      "Ã¶l": 1366,
      "Ġ/": 1367,
      "ĠEntwicklung": 1368,
      "Ġbin": 1369,
      "zen": 1370,
      "abei": 1371,
      "Kommission": 1372,
      "ĠArt": 1373,
      "40": 1374,
      "Ġkon": 1375,
      "hÃ¶r": 1376,
      "so": 1377,
      "Ġkomm": 1378,
      "Ġ,": 1379,
      "are": 1380,
      "blik": 1381,
      "ib": 1382,
      "ERTE": 1383,
      "hof": 1384,
      "Ġeigen": 1385,
      "ĠDokum": 1386,
      "ĠHaus": 1387,
      "ĠUNION": 1388,
      "Ġsiehe": 1389,
      "wor": 1390,
      "Ġwirk": 1391,
      "satz": 1392,
      "ink": 1393,
      "teil": 1394,
      "zial": 1395,
      "gl": 1396,
      "ate": 1397,
      "Ã¶ÃŁ": 1398,
      "ĠBild": 1399,
      "Ġ2009": 1400,
      "Ġins": 1401,
      "gehen": 1402,
      "ekte": 1403,
      "Ġgef": 1404,
      "Ġgr": 1405,
      "sterreich": 1406,
      "oren": 1407,
      "str": 1408,
      "atÃ¼rlich": 1409,
      "ĠunterstÃ¼tz": 1410,
      "Ġbie": 1411,
      "Ġsteht": 1412,
      "ac": 1413,
      "sm": 1414,
      "Ġbef": 1415,
      "ĠÃĸffent": 1416,
      "wischen": 1417,
      "Ġdann": 1418,
      "uxem": 1419,
      "ED": 1420,
      "SON": 1421,
      "Warum": 1422,
      "mpf": 1423,
      "ium": 1424,
      "cken": 1425,
      "Ã¶rder": 1426,
      "uten": 1427,
      "ĠTeil": 1428,
      "ial": 1429,
      "Ġwollen": 1430,
      "elgien": 1431,
      "OMMEN": 1432,
      "Ġmachen": 1433,
      "gesch": 1434,
      "Slow": 1435,
      "ĠmÃ¶glich": 1436,
      "artner": 1437,
      "rland": 1438,
      "NEH": 1439,
      "immt": 1440,
      "Mit": 1441,
      "zieh": 1442,
      "reu": 1443,
      "uxemburg": 1444,
      "Ġand": 1445,
      "Alle": 1446,
      "adt": 1447,
      "ĠPunkt": 1448,
      "olen": 1449,
      "Ã¤ndern": 1450,
      "Um": 1451,
      "Ã¤ss": 1452,
      "ĠStell": 1453,
      "ris": 1454,
      "ĠEuro": 1455,
      "Ġschon": 1456,
      "ald": 1457,
      "Dieser": 1458,
      "nergie": 1459,
      "ĠVerb": 1460,
      "urz": 1461,
      "EG": 1462,
      "Website": 1463,
      "fr": 1464,
      "Ġalles": 1465,
      "ĠDaten": 1466,
      "ÃŁen": 1467,
      "ment": 1468,
      "Ġblei": 1469,
      "Mar": 1470,
      "enden": 1471,
      "Ġeinige": 1472,
      "stÃ¤nd": 1473,
      "Italien": 1474,
      "ĠErklÃ¤r": 1475,
      "Ġbrauchen": 1476,
      "unkte": 1477,
      "spiel": 1478,
      "ontr": 1479,
      "ĠUmwelt": 1480,
      "NEHMER": 1481,
      "ĠNe": 1482,
      "abe": 1483,
      "Ġgilt": 1484,
      "ĠZimmer": 1485,
      "alitÃ¤t": 1486,
      "publik": 1487,
      "ustiz": 1488,
      "ZI": 1489,
      "setzung": 1490,
      "hÃ¤lt": 1491,
      "ĠAntwort": 1492,
      "aum": 1493,
      "Ġihre": 1494,
      "AG": 1495,
      "Ġakt": 1496,
      "Dieses": 1497,
      "TEILNEHMER": 1498,
      "ettbe": 1499,
      "hn": 1500,
      "ĠÃĸffentlichkeit": 1501,
      "Ġvie": 1502,
      "ĠEuropÃ¤ische": 1503,
      "ppe": 1504,
      "weden": 1505,
      "folg": 1506,
      "angen": 1507,
      "ĠSeite": 1508,
      "Spanien": 1509,
      "vest": 1510,
      "ĠProj": 1511,
      "icken": 1512,
      "lage": 1513,
      "iederlan": 1514,
      "Ġsagen": 1515,
      "ian": 1516,
      "ienst": 1517,
      "ĠInn": 1518,
      "staaten": 1519,
      "Ġandere": 1520,
      "BE": 1521,
      "USS": 1522,
      "gew": 1523,
      "ĠLage": 1524,
      "Ġbesten": 1525,
      "ettbewerb": 1526,
      "Ġkommen": 1527,
      "zept": 1528,
      "Ġbegr": 1529,
      "agt": 1530,
      "Ġen": 1531,
      "line": 1532,
      "WI": 1533,
      "Ġsehen": 1534,
      "ĠLeben": 1535,
      "Ġger": 1536,
      "ĠMin": 1537,
      "iederlande": 1538,
      "weise": 1539,
      "Ġviele": 1540,
      "Ġneuen": 1541,
      "emark": 1542,
      "licher": 1543,
      "des": 1544,
      "zeich": 1545,
      "Ġ2007": 1546,
      "15": 1547,
      "ote": 1548,
      "bung": 1549,
      "ec": 1550,
      "verfahren": 1551,
      "alten": 1552,
      "Ġbereits": 1553,
      "ĠZiel": 1554,
      "innland": 1555,
      "ph": 1556,
      "eile": 1557,
      "alis": 1558,
      "ĠANGEN": 1559,
      "ĠBet": 1560,
      "genommen": 1561,
      "ungsantrag": 1562,
      "ĠANGENOMMEN": 1563,
      "rÃ¼n": 1564,
      "ĠUnternehmen": 1565,
      "ĠdafÃ¼r": 1566,
      "Ã¶ff": 1567,
      "Ġviews": 1568,
      "ĠRepublik": 1569,
      "lagen": 1570,
      "Deshalb": 1571,
      "itter": 1572,
      "unktion": 1573,
      "Ge": 1574,
      "irk": 1575,
      "Ihr": 1576,
      "Ã¤nemark": 1577,
      "schuss": 1578,
      "rukt": 1579,
      "rateg": 1580,
      "ultur": 1581,
      "Dar": 1582,
      "Belgien": 1583,
      "Ġwill": 1584,
      "ĠPerson": 1585,
      "ĠBÃ¼r": 1586,
      "reichen": 1587,
      "ĠBar": 1588,
      "eist": 1589,
      "Ġ16": 1590,
      "ĠwÃ¼r": 1591,
      "Ġ18": 1592,
      "los": 1593,
      "Man": 1594,
      "olog": 1595,
      "ĠNach": 1596,
      "ĠGeb": 1597,
      "irekt": 1598,
      "ax": 1599,
      "Zu": 1600,
      "Ã¶ffent": 1601,
      "ĠnÃ¤ch": 1602,
      "ÃĸRT": 1603,
      "Ġfor": 1604,
      "ĠMon": 1605,
      "tens": 1606,
      "Ġunserer": 1607,
      "ĠANGENOMMENE": 1608,
      "Ant": 1609,
      "Ġfolgende": 1610,
      "Ġeines": 1611,
      "keiten": 1612,
      "AM": 1613,
      "VER": 1614,
      "ĠHandel": 1615,
      "ÃĸRTERTE": 1616,
      "Art": 1617,
      "ahlen": 1618,
      "Welche": 1619,
      "spro": 1620,
      "Ġanderen": 1621,
      "punkt": 1622,
      "ente": 1623,
      "Ġto": 1624,
      "All": 1625,
      "SCHA": 1626,
      "ĠGemein": 1627,
      "zel": 1628,
      "Doch": 1629,
      "ERÃĸRTERTE": 1630,
      "Ġvoll": 1631,
      "EI": 1632,
      "ade": 1633,
      "ĠVorschlag": 1634,
      "ĠwÃ¤re": 1635,
      "iven": 1636,
      "oc": 1637,
      "rior": 1638,
      "nte": 1639,
      "ĠmuÃŁ": 1640,
      "ĠIN": 1641,
      "RAT": 1642,
      "ierte": 1643,
      "Ġof": 1644,
      "ange": 1645,
      "Ġbeg": 1646,
      "Gen": 1647,
      "ĠThema": 1648,
      "atur": 1649,
      "Ġ17": 1650,
      "Ġnichts": 1651,
      "ĠzurÃ¼ck": 1652,
      "Ġwirklich": 1653,
      "ings": 1654,
      "reise": 1655,
      "Ãĸsterreich": 1656,
      "ĠJahre": 1657,
      "ĠEurop": 1658,
      "ice": 1659,
      "ĠBest": 1660,
      "Ġgestimmt": 1661,
      "DER": 1662,
      "Luxemburg": 1663,
      "âĤ": 1664,
      "âĤ¬": 1665,
      "ĠMinisterin": 1666,
      "SCHAFT": 1667,
      "lub": 1668,
      "markt": 1669,
      "ĠRei": 1670,
      "Irland": 1671,
      "Ġwissen": 1672,
      "ĠGew": 1673,
      "ruktur": 1674,
      "ide": 1675,
      "politik": 1676,
      "ĠBes": 1677,
      "ALT": 1678,
      "STIG": 1679,
      "ichte": 1680,
      "elefon": 1681,
      "ET": 1682,
      "Ġex": 1683,
      "Ġgeben": 1684,
      "fte": 1685,
      "96": 1686,
      "ĠX": 1687,
      "OLIT": 1688,
      "ĠJustiz": 1689,
      "SONSTIG": 1690,
      "sb": 1691,
      "vertreter": 1692,
      "46": 1693,
      "Ġstehen": 1694,
      "Ġsol": 1695,
      "iste": 1696,
      "Niederlande": 1697,
      "ĠSicherheit": 1698,
      "ritte": 1699,
      "ĠSpiel": 1700,
      "BER": 1701,
      "Ġselbst": 1702,
      "ziehungen": 1703,
      "eter": 1704,
      "ĠAp": 1705,
      "isk": 1706,
      "ĠTw": 1707,
      "Ġerste": 1708,
      "50": 1709,
      "chn": 1710,
      "annt": 1711,
      "ĠdaÃŁ": 1712,
      "Ġ2010": 1713,
      "Ent": 1714,
      "ika": 1715,
      "oten": 1716,
      "ternation": 1717,
      "Wenn": 1718,
      "ĠWebsite": 1719,
      "DÃ¤nemark": 1720,
      "Finnland": 1721,
      "Schweden": 1722,
      "Ġ13": 1723,
      "Ġlang": 1724,
      "ack": 1725,
      "ĠAd": 1726,
      "Ġange": 1727,
      "Ġ2008": 1728,
      "weiter": 1729,
      "Ġlei": 1730,
      "ĠLandwirtschaft": 1731,
      "schutz": 1732,
      "Deutschland": 1733,
      "Ġget": 1734,
      "von": 1735,
      "ĠWas": 1736,
      "ĠPl": 1737,
      "Ġglau": 1738,
      "Ġnie": 1739,
      "iat": 1740,
      "einen": 1741,
      "ĠOr": 1742,
      "ahn": 1743,
      "ue": 1744,
      "ember": 1745,
      "Bitte": 1746,
      "ater": 1747,
      "stellung": 1748,
      "KT": 1749,
      "ĠWeg": 1750,
      "az": 1751,
      "offe": 1752,
      "ds": 1753,
      "stag": 1754,
      "13": 1755,
      "aut": 1756,
      "ĠEnergie": 1757,
      "ĠStand": 1758,
      "ĠHerrn": 1759,
      "ĠZukunft": 1760,
      "OLITIK": 1761,
      "ĠAm": 1762,
      "16": 1763,
      "98": 1764,
      "gabe": 1765,
      "ĠTwitter": 1766,
      "omp": 1767,
      "isches": 1768,
      "ander": 1769,
      "stat": 1770,
      "Ġgeb": 1771,
      "ĠInternet": 1772,
      "Ġseine": 1773,
      "ismus": 1774,
      "arten": 1775,
      "rankreich": 1776,
      "ĠZusammenarbeit": 1777,
      "Ist": 1778,
      "ĠMio": 1779,
      "Ã¶glich": 1780,
      "Ġ!": 1781,
      "arte": 1782,
      "iet": 1783,
      "Ġeinmal": 1784,
      "rÃ¤ge": 1785,
      "PrÃ¤sident": 1786,
      "ĠGra": 1787,
      "ĠĠĠĠ": 1788,
      "itu": 1789,
      "Nach": 1790,
      "okrat": 1791,
      "echn": 1792,
      "ichtige": 1793,
      "besser": 1794,
      "Ã¶t": 1795,
      "ĠEx": 1796,
      "ĠStaatssekretÃ¤r": 1797,
      "AH": 1798,
      "Pressek": 1799,
      "Th": 1800,
      "UR": 1801,
      "merk": 1802,
      "ĠEntschlieÃŁ": 1803,
      "ruf": 1804,
      "Ġwaren": 1805,
      "Ġzus": 1806,
      "sche": 1807,
      "ip": 1808,
      "ĠInd": 1809,
      "asst": 1810,
      "orden": 1811,
      "ĠMitgliedstaaten": 1812,
      "PR": 1813,
      "uÃŁer": 1814,
      "gang": 1815,
      "deut": 1816,
      "ĠIhren": 1817,
      "ĠInter": 1818,
      "ase": 1819,
      "Tel": 1820,
      "ĠHilfe": 1821,
      "stellen": 1822,
      "ĠfÃ¼hr": 1823,
      "ĠgehÃ¶r": 1824,
      "ĠGeld": 1825,
      "Ġaller": 1826,
      "ĠKomm": 1827,
      "LE": 1828,
      "uer": 1829,
      "Re": 1830,
      "Ġfest": 1831,
      "ationen": 1832,
      "ĠIch": 1833,
      "ennen": 1834,
      "ĠGen": 1835,
      "Kl": 1836,
      "minister": 1837,
      "eichen": 1838,
      "utzen": 1839,
      "ĠâĤ¬": 1840,
      "Anfrage": 1841,
      "Ġletz": 1842,
      "Ã¤tz": 1843,
      "ĠLÃ¶s": 1844,
      "ommissar": 1845,
      "Ġgemein": 1846,
      "otes": 1847,
      "Ġohne": 1848,
      "Ġdabei": 1849,
      "zeug": 1850,
      "ĠKinder": 1851,
      "09": 1852,
      "ĠMittel": 1853,
      "Ġsicher": 1854,
      "stÃ¼tzung": 1855,
      "ĠEnde": 1856,
      "45": 1857,
      "Ã¤u": 1858,
      "Unsere": 1859,
      "Ġgern": 1860,
      "anden": 1861,
      "ĠSystem": 1862,
      "Bet": 1863,
      "eigt": 1864,
      "aufen": 1865,
      "Ã¤ten": 1866,
      "EIN": 1867,
      "ferenz": 1868,
      "lungen": 1869,
      "anken": 1870,
      "co": 1871,
      "falls": 1872,
      "EUROPÃĦISCHEN": 1873,
      "aden": 1874,
      "iff": 1875,
      "mittel": 1876,
      "HALT": 1877,
      "sst": 1878,
      "Ġbesser": 1879,
      "riften": 1880,
      "02": 1881,
      "ohl": 1882,
      "elie": 1883,
      "raft": 1884,
      "ilitÃ¤t": 1885,
      "Ġallen": 1886,
      "ĠDokument": 1887,
      "ĠbegrÃ¼": 1888,
      "ĠSe": 1889,
      "schieden": 1890,
      "Ġbek": 1891,
      "Ã¤ÃŁ": 1892,
      "TER": 1893,
      "OS": 1894,
      "ĠBeit": 1895,
      "aler": 1896,
      "ĠDES": 1897,
      "raum": 1898,
      "Ġdanke": 1899,
      "Ġbed": 1900,
      "ĠBl": 1901,
      "rach": 1902,
      "ĠErgebnisse": 1903,
      "ĠStÃ¤ndigen": 1904,
      "97": 1905,
      "Ġkommt": 1906,
      "03": 1907,
      "ĠSu": 1908,
      "lex": 1909,
      "Ġausge": 1910,
      "ext": 1911,
      "Je": 1912,
      "Ġverst": 1913,
      "ott": 1914,
      "Ġklar": 1915,
      "AC": 1916,
      "Am": 1917,
      "rategie": 1918,
      "sver": 1919,
      "ĠVertreters": 1920,
      "iges": 1921,
      "undheit": 1922,
      "SONSTIGE": 1923,
      "ĠBo": 1924,
      "Ġbeh": 1925,
      "garn": 1926,
      "Ã¤hlen": 1927,
      "schriften": 1928,
      "eidung": 1929,
      "Ã¤tze": 1930,
      "Ġte": 1931,
      "Ġbeim": 1932,
      "nell": 1933,
      "fort": 1934,
      "hang": 1935,
      "oder": 1936,
      "Ġeben": 1937,
      "ĠHand": 1938,
      "Bericht": 1939,
      "iver": 1940,
      "Ġnah": 1941,
      "RTSCHAFT": 1942,
      "ĠFr": 1943,
      "Ġpolit": 1944,
      "hin": 1945,
      "euer": 1946,
      "bau": 1947,
      "uage": 1948,
      "inde": 1949,
      "Ġdaher": 1950,
      "Ġstimm": 1951,
      "Wo": 1952,
      "atei": 1953,
      "Ġgenau": 1954,
      "Ġgute": 1955,
      "erichts": 1956,
      "Damit": 1957,
      "rÃ¼h": 1958,
      "Ġbesonder": 1959,
      "assung": 1960,
      "reicht": 1961,
      "ĠdÃ¼r": 1962,
      "14": 1963,
      "Ġvotes": 1964,
      "Ã¼nd": 1965,
      "ohn": 1966,
      "ĠVertrag": 1967,
      "eiden": 1968,
      "sel": 1969,
      "Ġ30": 1970,
      "18": 1971,
      "Ġwerde": 1972,
      "Ġzwischen": 1973,
      "74": 1974,
      "ĠHaupt": 1975,
      "ypern": 1976,
      "die": 1977,
      "Ġnimmt": 1978,
      "Artikel": 1979,
      "Mehr": 1980,
      "Dann": 1981,
      "ĠJahren": 1982,
      "ez": 1983,
      "licht": 1984,
      "201": 1985,
      "fÃ¼gbar": 1986,
      "352": 1987,
      "kon": 1988,
      "eilen": 1989,
      "Ġerhalten": 1990,
      "SS": 1991,
      "itÃ¤ten": 1992,
      "Ġbede": 1993,
      "75": 1994,
      "ĠInvest": 1995,
      "weis": 1996,
      "ats": 1997,
      "walt": 1998,
      "Ġverb": 1999,
      "club": 2000,
      "eitet": 2001,
      "ile": 2002,
      "ĠAut": 2003,
      "riv": 2004,
      "TEILUNG": 2005,
      "Ġja": 2006,
      "ĠStadt": 2007,
      "Kommissar": 2008,
      "22": 2009,
      "ĠErklÃ¤rungen": 2010,
      "vent": 2011,
      "Ġgemeinsam": 2012,
      "Daher": 2013,
      "sprechen": 2014,
      "Ġrecht": 2015,
      "ĠVerkehr": 2016,
      "Ġdoch": 2017,
      "sitz": 2018,
      "ĠPreis": 2019,
      "undes": 2020,
      "schech": 2021,
      "ĠRedner": 2022,
      "achst": 2023,
      "IEN": 2024,
      "one": 2025,
      "ĠEl": 2026,
      "Ġem": 2027,
      "ĠnatÃ¼rlich": 2028,
      "ĠII": 2029,
      "ituation": 2030,
      "Ġfolgenden": 2031,
      "ĠwÃ¼rde": 2032,
      "Ġ28": 2033,
      "Ġ25": 2034,
      "ITTEILUNG": 2035,
      "ĠeuropÃ¤ische": 2036,
      "enien": 2037,
      "EC": 2038,
      "Ġgehen": 2039,
      "rieden": 2040,
      "33": 2041,
      "ens": 2042,
      "ften": 2043,
      "The": 2044,
      "Bucht": 2045,
      "ĠGesch": 2046,
      "ĠBeispiel": 2047,
      "fragen": 2048,
      "weg": 2049,
      "ĠPunkte": 2050,
      "ations": 2051,
      "arbeiten": 2052,
      "ÃŁe": 2053,
      "86": 2054,
      "hand": 2055,
      "ESSEM": 2056,
      "Denn": 2057,
      "ID": 2058,
      "Zur": 2059,
      "ogen": 2060,
      "ĠHostelsclub": 2061,
      "ESSEMITTEILUNG": 2062,
      "Ġseit": 2063,
      "stens": 2064,
      "ĠBereich": 2065,
      "lungs": 2066,
      "ĠBÃ¼rger": 2067,
      "Siehe": 2068,
      "ĠSozial": 2069,
      "ichten": 2070,
      "Ġverw": 2071,
      "Ġoffen": 2072,
      "Ġis": 2073,
      "Ġ000": 2074,
      "Ġaktu": 2075,
      "ustrie": 2076,
      "Ġdamit": 2077,
      "asse": 2078,
      "ied": 2079,
      "ĠPolitik": 2080,
      "reffen": 2081,
      "Ġnot": 2082,
      "ĠBen": 2083,
      "esse": 2084,
      "ity": 2085,
      "Ġkosten": 2086,
      "ĠGrÃ¼n": 2087,
      "Ġglaube": 2088,
      "ĠSte": 2089,
      "ign": 2090,
      "inks": 2091,
      "min": 2092,
      "erichtshof": 2093,
      "UM": 2094,
      "ient": 2095,
      "ransp": 2096,
      "ĠDeb": 2097,
      "ruck": 2098,
      "ĠRegion": 2099,
      "Ġverl": 2100,
      "hil": 2101,
      "stÃ¼ck": 2102,
      "rÃ¤n": 2103,
      "ĠY": 2104,
      "treten": 2105,
      "ĠDem": 2106,
      "ĠJan": 2107,
      "stand": 2108,
      "lig": 2109,
      "up": 2110,
      "Ġumf": 2111,
      "95": 2112,
      "Ã¼h": 2113,
      "Unter": 2114,
      "ĠProbleme": 2115,
      "atte": 2116,
      "bei": 2117,
      "ĠEUR": 2118,
      "ĠgrÃ¶ÃŁ": 2119,
      "Ġbesteht": 2120,
      "ĠStÃ¤ndiger": 2121,
      "ĠRichtlinie": 2122,
      "ĠStellvertreter": 2123,
      "NEN": 2124,
      "ĠJun": 2125,
      "verkehr": 2126,
      "Ã¶nig": 2127,
      "Ġdarf": 2128,
      "prÃ¼": 2129,
      "stland": 2130,
      "ĠMarkt": 2131,
      "anis": 2132,
      "Ġangenommen": 2133,
      "amil": 2134,
      "schung": 2135,
      "LAND": 2136,
      "worten": 2137,
      "itauen": 2138,
      "ĠAu": 2139,
      "iere": 2140,
      "etail": 2141,
      "Zum": 2142,
      "ĠRo": 2143,
      "aren": 2144,
      "Ġro": 2145,
      "gesamt": 2146,
      "Ã¤sser": 2147,
      "Pressekontakt": 2148,
      "DF": 2149,
      "ettland": 2150,
      "umÃ¤n": 2151,
      "spolitik": 2152,
      "ulgar": 2153,
      "recht": 2154,
      "mp": 2155,
      "aff": 2156,
      "schlieÃŁ": 2157,
      "ĠMob": 2158,
      "itionen": 2159,
      "Ġgest": 2160,
      "riftliche": 2161,
      "),": 2162,
      "zess": 2163,
      "ĠBed": 2164,
      "ĠMal": 2165,
      "ZIEH": 2166,
      "bild": 2167,
      "ĠJul": 2168,
      "ichtigt": 2169,
      "Ġbietet": 2170,
      "rem": 2171,
      "ischerei": 2172,
      "Ã¤uf": 2173,
      "Ġunseren": 2174,
      "ĠWor": 2175,
      "ĠMill": 2176,
      "amp": 2177,
      "man": 2178,
      "Ġfreu": 2179,
      "ĠverfÃ¼gbar": 2180,
      "mut": 2181,
      "nehm": 2182,
      "antwort": 2183,
      "ĠSCH": 2184,
      "CK": 2185,
      "Polen": 2186,
      "dings": 2187,
      "ĠSituation": 2188,
      "inge": 2189,
      "ĠText": 2190,
      "izep": 2191,
      "Ã¤d": 2192,
      "Ar": 2193,
      "ĠVerfahren": 2194,
      "ugang": 2195,
      "Ġdavon": 2196,
      "uÃŁen": 2197,
      "ĠUnterstÃ¼tzung": 2198,
      "umÃ¤nien": 2199,
      "Ã¤ng": 2200,
      "Ã¶ch": 2201,
      "ZIEHUNGEN": 2202,
      "Meine": 2203,
      "Ã¤ge": 2204,
      "ENT": 2205,
      "isten": 2206,
      "ĠForm": 2207,
      "under": 2208,
      "Ġfol": 2209,
      "ĠIhrer": 2210,
      "Ġkeinen": 2211,
      "Europa": 2212,
      "affen": 2213,
      "rakt": 2214,
      "Ġonline": 2215,
      "Ġy": 2216,
      "ortsch": 2217,
      "Ġ23": 2218,
      "SPOLITIK": 2219,
      "NE": 2220,
      "ORD": 2221,
      "ulgarien": 2222,
      "ĠBesch": 2223,
      "wertung": 2224,
      "ĠPRO": 2225,
      "ĠUr": 2226,
      "ortug": 2227,
      "schechische": 2228,
      "eitung": 2229,
      "essen": 2230,
      "ĠMÃ¤r": 2231,
      "ĠKultur": 2232,
      "sse": 2233,
      "ker": 2234,
      "ron": 2235,
      "Ġbesch": 2236,
      "ĠKÃ¶nig": 2237,
      "ĠGesundheit": 2238,
      "ielt": 2239,
      "gaben": 2240,
      "Ġschnell": 2241,
      "ĠgroÃŁe": 2242,
      "199": 2243,
      "Ġsag": 2244,
      "Mitglied": 2245,
      "beh": 2246,
      "AP": 2247,
      "Ungarn": 2248,
      "Ġschw": 2249,
      "Ġ?": 2250,
      "ĠKro": 2251,
      "PRESSEMITTEILUNG": 2252,
      "Ġby": 2253,
      "Ġkurz": 2254,
      "Ġerstellt": 2255,
      "ĠFahr": 2256,
      "nehmen": 2257,
      "erien": 2258,
      "ĠBrÃ¼ssel": 2259,
      "Nun": 2260,
      "ĠFlug": 2261,
      "Ã¶rderung": 2262,
      "itiat": 2263,
      "ĠDu": 2264,
      "ans": 2265,
      "17": 2266,
      "Her": 2267,
      "Zwei": 2268,
      "alte": 2269,
      "ĠNeu": 2270,
      "ĠPrÃ¤sidentin": 2271,
      "Ġdarauf": 2272,
      "Dazu": 2273,
      "ĠStr": 2274,
      "Lassen": 2275,
      "ĠGl": 2276,
      "Ã¤nger": 2277,
      "lob": 2278,
      "ca": 2279,
      "trag": 2280,
      "unter": 2281,
      "fÃ¼hrt": 2282,
      "WIRTSCHAFT": 2283,
      "ĠÃ¶ffent": 2284,
      "ĠErfolg": 2285,
      "izeprÃ¤sident": 2286,
      "ilder": 2287,
      "Will": 2288,
      "ĠPartner": 2289,
      "opp": 2290,
      "achstum": 2291,
      "Ġend": 2292,
      "Ġfunktion": 2293,
      "mb": 2294,
      "akei": 2295,
      "ĠRes": 2296,
      "ĠKommissarin": 2297,
      "ichter": 2298,
      "ĠAusw": 2299,
      "Ġgesagt": 2300,
      "ĠSk": 2301,
      "ĠÃĦnderungsantrag": 2302,
      "ĠFrei": 2303,
      "zahl": 2304,
      "ril": 2305,
      "folgt": 2306,
      "Ġinter": 2307,
      "reibung": 2308,
      "eint": 2309,
      "Ġla": 2310,
      "ĠRAT": 2311,
      "Ã¤nde": 2312,
      "BEZIEHUNGEN": 2313,
      "uld": 2314,
      "Ã¤ndert": 2315,
      "ringen": 2316,
      "Slowenien": 2317,
      "ĠStra": 2318,
      "Ġlassen": 2319,
      "ppen": 2320,
      "Von": 2321,
      "abel": 2322,
      "Ġerst": 2323,
      "enten": 2324,
      "Ġnehmen": 2325,
      "ĠVER": 2326,
      "Ġjeder": 2327,
      "Ġern": 2328,
      "Ġdenke": 2329,
      "ĠAnd": 2330,
      "ielle": 2331,
      "Ġ24": 2332,
      "ame": 2333,
      "Schriftliche": 2334,
      "ĠPDF": 2335,
      "ĠKat": 2336,
      "04": 2337,
      "Ġmacht": 2338,
      "Ġeinz": 2339,
      "ĠBem": 2340,
      "Ġbetrifft": 2341,
      "ĠdÃ¼rfen": 2342,
      "fang": 2343,
      "Ã¶ffnet": 2344,
      "LA": 2345,
      "OV": 2346,
      "Ġersten": 2347,
      "Ġerwar": 2348,
      "ĠLe": 2349,
      "Ġjeden": 2350,
      "Estland": 2351,
      "stau": 2352,
      "ĠweiÃŁ": 2353,
      "laub": 2354,
      "ckt": 2355,
      "ĠLÃ¶sung": 2356,
      "ĠWoch": 2357,
      "rise": 2358,
      "ies": 2359,
      "ĠEN": 2360,
      "Litauen": 2361,
      "Lettland": 2362,
      "Ġbleibt": 2363,
      "Jetzt": 2364,
      "Zypern": 2365,
      "leist": 2366,
      "asch": 2367,
      "ĠGru": 2368,
      "IM": 2369,
      "Kon": 2370,
      "ende": 2371,
      "Ġ21": 2372,
      "ain": 2373,
      "ĠMein": 2374,
      "ĠGeschÃ¤ft": 2375,
      "USSEN": 2376,
      "Ġihn": 2377,
      "innenmarkt": 2378,
      "Ġweit": 2379,
      "omb": 2380,
      "This": 2381,
      "Ġvier": 2382,
      "rad": 2383,
      "05": 2384,
      "ore": 2385,
      "Ġentfer": 2386,
      "06": 2387,
      "ĠGÃ¤": 2388,
      "Ġtelefon": 2389,
      "24": 2390,
      "ima": 2391,
      "Ġeinge": 2392,
      "ĠkÃ¶nnte": 2393,
      "ĠProjekt": 2394,
      "ĠRegionen": 2395,
      "formationen": 2396,
      "ĠÃ¤": 2397,
      "ĠMe": 2398,
      "raucher": 2399,
      "cen": 2400,
      "ĠWettbewerb": 2401,
      "ĠNamen": 2402,
      "Gibt": 2403,
      "ĠPrior": 2404,
      "Ġhoffe": 2405,
      "ehler": 2406,
      "ĠVerein": 2407,
      "enzen": 2408,
      "ctor": 2409,
      "Ġsagte": 2410,
      "fÃ¤h": 2411,
      "Ġ*": 2412,
      "einer": 2413,
      "ikation": 2414,
      "sol": 2415,
      "zÃ¼": 2416,
      "Ġwo": 2417,
      "Ġsprechen": 2418,
      "eig": 2419,
      "Heute": 2420,
      "ĠEUROPÃĦISCH": 2421,
      "own": 2422,
      "ĠFre": 2423,
      "Ġverk": 2424,
      "ffiz": 2425,
      "INHALT": 2426,
      "Tschechische": 2427,
      "Ġtelefonisch": 2428,
      "ortugal": 2429,
      "ĠReform": 2430,
      "EMO": 2431,
      "weit": 2432,
      "Ġfal": 2433,
      "auer": 2434,
      "rteil": 2435,
      "21": 2436,
      "ren": 2437,
      "ĠMed": 2438,
      "Ġvers": 2439,
      "tem": 2440,
      "ĠDinge": 2441,
      "Ġ2000": 2442,
      "Ġ@": 2443,
      "Ġ27": 2444,
      "hol": 2445,
      "ĠTÃ¼r": 2446,
      "ÃŁer": 2447,
      "ĠDienst": 2448,
      "ĠTel": 2449,
      "Ġverschieden": 2450,
      "ÃľR": 2451,
      "Ġzusammen": 2452,
      "Frankreich": 2453,
      "Ġworden": 2454,
      "wegen": 2455,
      "ĠHaushalt": 2456,
      "Nicht": 2457,
      "Lang": 2458,
      "af": 2459,
      "rig": 2460,
      "ober": 2461,
      "Ã¤mpf": 2462,
      "ĠEntscheidung": 2463,
      "ĠWer": 2464,
      "ahmen": 2465,
      "liches": 2466,
      "rÃ¤gt": 2467,
      "eschÃ¤ftigung": 2468,
      "34": 2469,
      "ĠProdukte": 2470,
      "zug": 2471,
      "ware": 2472,
      "Ġreg": 2473,
      "fÃ¤l": 2474,
      "ool": 2475,
      "Ġzweite": 2476,
      "Ġempf": 2477,
      "Ġfrei": 2478,
      "splan": 2479,
      "ĠschÃ¶n": 2480,
      "Ġ&": 2481,
      "wie": 2482,
      "ĠSl": 2483,
      "ĠJu": 2484,
      "Ġpage": 2485,
      "ĠnÃ¤chsten": 2486,
      "Ġgerne": 2487,
      "etails": 2488,
      "Ġmod": 2489,
      "ĠZiele": 2490,
      "utet": 2491,
      "Ġbefindet": 2492,
      "ĠMit": 2493,
      "rech": 2494,
      "fÃ¼gung": 2495,
      "Ihre": 2496,
      "okratie": 2497,
      "ĠunterstÃ¼tzen": 2498,
      "onnen": 2499,
      "elegt": 2500,
      "Ġerforder": 2501,
      "Ġerreichen": 2502,
      "ĠSchw": 2503,
      "ĠKolle": 2504,
      "ĠCo": 2505,
      "ĠAngeb": 2506,
      "DE": 2507,
      "Ġstell": 2508,
      "ĠHotels": 2509,
      "EuropÃ¤": 2510,
      "hm": 2511,
      "ĠDi": 2512,
      "ĠRolle": 2513,
      "ĠHa": 2514,
      "Ġdenn": 2515,
      "ĠRÃ¼ck": 2516,
      "Ġfr": 2517,
      "ĠMan": 2518,
      "ĠVerfÃ¼gung": 2519,
      "apit": 2520,
      "Ġentfernt": 2521,
      "Ġwenden": 2522,
      "ĠPersonen": 2523,
      "yn": 2524,
      "ys": 2525,
      "EHR": 2526,
      "ative": 2527,
      "ĠheiÃŁ": 2528,
      "Ġlange": 2529,
      "spekt": 2530,
      "Ġentsch": 2531,
      "ĠHerren": 2532,
      "ĠKÃ¶nigreich": 2533,
      "reiben": 2534,
      "andelt": 2535,
      "Ġ100": 2536,
      "ĠBesuch": 2537,
      "ĠAkt": 2538,
      "ides": 2539,
      "Neu": 2540,
      "gangen": 2541,
      "Ġstellen": 2542,
      "handel": 2543,
      "Ġwel": 2544,
      "Verein": 2545,
      "undesminister": 2546,
      "leg": 2547,
      "Ġ2006": 2548,
      "303": 2549,
      "prochen": 2550,
      "Ã¼d": 2551,
      "Ġsieht": 2552,
      "ĠMai": 2553,
      "Slowakei": 2554,
      "hilfe": 2555,
      "ĠFrÃ¼h": 2556,
      "ĠListe": 2557,
      "ĠLie": 2558,
      "Ġbleiben": 2559,
      "Ch": 2560,
      "ĠDamen": 2561,
      "utzer": 2562,
      "UT": 2563,
      "entrum": 2564,
      "ĠGegen": 2565,
      "Ã¤chst": 2566,
      "Ġsele": 2567,
      "Ġinternation": 2568,
      "ĠGer": 2569,
      "Staat": 2570,
      "Nur": 2571,
      "ĠThe": 2572,
      "iken": 2573,
      "ĠLÃ¤nder": 2574,
      "ĠIhrem": 2575,
      "na": 2576,
      "tegr": 2577,
      "ĠlÃ¤": 2578,
      "Ġ50": 2579,
      "ativ": 2580,
      "ialog": 2581,
      "ĠArtikel": 2582,
      "Ġnahm": 2583,
      "37": 2584,
      "Ġho": 2585,
      "igkeiten": 2586,
      "red": 2587,
      "zieht": 2588,
      "ĠbenÃ¶t": 2589,
      "Betrifft": 2590,
      "19": 2591,
      "ino": 2592,
      "ĠWei": 2593,
      "ĠZahl": 2594,
      "ĠTechn": 2595,
      "ĠSol": 2596,
      "Ġihnen": 2597,
      "Ġung": 2598,
      "Ã¼b": 2599,
      "07": 2600,
      "ĠInst": 2601,
      "achr": 2602,
      "ĠFamil": 2603,
      "ĠDatei": 2604,
      "ĠStimm": 2605,
      "Ġob": 2606,
      "Ġrichtig": 2607,
      "ĠRechtss": 2608,
      "Ġbieten": 2609,
      "Kann": 2610,
      "Ġhel": 2611,
      "uar": 2612,
      "ĠwÃ¼n": 2613,
      "bank": 2614,
      "hows": 2615,
      "ontroll": 2616,
      "ĠWasser": 2617,
      "ĠGraph": 2618,
      "Bes": 2619,
      "ĠFot": 2620,
      "leicht": 2621,
      "Ġbedeutet": 2622,
      "NER": 2623,
      "plan": 2624,
      "ond": 2625,
      "Ġfolgt": 2626,
      "hÃ¶": 2627,
      "kei": 2628,
      "ĠNov": 2629,
      "ANDEL": 2630,
      "Ã¼ssel": 2631,
      "ĠKosten": 2632,
      "com": 2633,
      "arf": 2634,
      "ĠAUS": 2635,
      "oine": 2636,
      "Ġdirekt": 2637,
      "urs": 2638,
      "miss": 2639,
      "ure": 2640,
      "osit": 2641,
      "ĠSchutz": 2642,
      "Ġunserem": 2643,
      "weiterung": 2644,
      "ĠJuni": 2645,
      "ĠMod": 2646,
      "fÃ¼hrung": 2647,
      "ĠEUROPÃĦISCHEN": 2648,
      "aÃŁ": 2649,
      "Ġdort": 2650,
      "Werde": 2651,
      "ĠauÃŁer": 2652,
      "fonds": 2653,
      "ĠAbkommen": 2654,
      "ĠÃ¤ndern": 2655,
      "ire": 2656,
      "cke": 2657,
      "ĠEinzel": 2658,
      "ĠChina": 2659,
      "IV": 2660,
      "IZ": 2661,
      "Ã¼nft": 2662,
      "LICH": 2663,
      "Ġhierzu": 2664,
      "Ġ4303": 2665,
      "Ber": 2666,
      "gleich": 2667,
      "rom": 2668,
      "ĠEURO": 2669,
      "ĠEuropas": 2670,
      "IB": 2671,
      "ette": 2672,
      "legen": 2673,
      "CESS": 2674,
      "Wichtig": 2675,
      "ĠST": 2676,
      "ĠSh": 2677,
      "ĠWORD": 2678,
      "ĠOrt": 2679,
      "ĠGraphik": 2680,
      "ider": 2681,
      "aket": 2682,
      "Ġgetan": 2683,
      "ĠgehÃ¶rt": 2684,
      "Ġsozi": 2685,
      "nehmer": 2686,
      "struktur": 2687,
      "ĠPer": 2688,
      "Einige": 2689,
      "STAT": 2690,
      "Schl": 2691,
      "ĠBildung": 2692,
      "ĠPROCESS": 2693,
      "ĠPROCESSED": 2694,
      "Den": 2695,
      "ĠVers": 2696,
      "rechte": 2697,
      "ehe": 2698,
      "ance": 2699,
      "Antoine": 2700,
      "OU": 2701,
      "eren": 2702,
      "Ġhatte": 2703,
      "ĠSlides": 2704,
      "achrichtigt": 2705,
      "amer": 2706,
      "Ġmeiner": 2707,
      "ij": 2708,
      "ĠKunden": 2709,
      "Ġgleich": 2710,
      "Ġbenachrichtigt": 2711,
      "Ġmodif": 2712,
      "ock": 2713,
      "64": 2714,
      "67": 2715,
      "ondere": 2716,
      "teilt": 2717,
      "IC": 2718,
      "mÃ¤ÃŁ": 2719,
      "sz": 2720,
      "unikation": 2721,
      "AB": 2722,
      "Viel": 2723,
      "80": 2724,
      "AUSSEN": 2725,
      "ernen": 2726,
      "etzen": 2727,
      "ĠGemeinschaft": 2728,
      "Bulgarien": 2729,
      "ĠSlideshows": 2730,
      "Ġak": 2731,
      "ĠFrauen": 2732,
      "ME": 2733,
      "bed": 2734,
      "Ġop": 2735,
      "eleg": 2736,
      "OH": 2737,
      "ras": 2738,
      "arm": 2739,
      "Ġgar": 2740,
      "Ġkm": 2741,
      "ĠIndustrie": 2742,
      "ĠeuropÃ¤ischen": 2743,
      "Ġwahr": 2744,
      "wendung": 2745,
      "Ġnotwend": 2746,
      "RumÃ¤nien": 2747,
      "rant": 2748,
      "ĠvÃ¶l": 2749,
      "Ġerw": 2750,
      "Ġ2001": 2751,
      "blick": 2752,
      "ĠSan": 2753,
      "fÃ¼l": 2754,
      "KEHR": 2755,
      "ĠFischerei": 2756,
      "ussland": 2757,
      "ĠEinw": 2758,
      "Ġebenfalls": 2759,
      "NatÃ¼rlich": 2760,
      "ĠKroes": 2761,
      "port": 2762,
      "AD": 2763,
      "ĠAll": 2764,
      "ĠFÃľR": 2765,
      "ellschaft": 2766,
      "CC": 2767,
      "akte": 2768,
      "ĠFehler": 2769,
      "Language": 2770,
      "als": 2771,
      "Ġhoch": 2772,
      "Ġselector": 2773,
      "orm": 2774,
      "ĠProdukt": 2775,
      "ĠFortsch": 2776,
      "Ġ32": 2777,
      "Als": 2778,
      "andeln": 2779,
      "ĠerhÃ¤lt": 2780,
      "rans": 2781,
      "sprogramm": 2782,
      "ĠTage": 2783,
      "reg": 2784,
      "gelegt": 2785,
      "ierungs": 2786,
      "gesetzt": 2787,
      "Ġlast": 2788,
      "Ġbeiden": 2789,
      "schied": 2790,
      "ĠHin": 2791,
      "ĠArbeits": 2792,
      "ĠVersion": 2793,
      "schaften": 2794,
      "ĠRegel": 2795,
      "bo": 2796,
      "Ġbew": 2797,
      "88": 2798,
      "dern": 2799,
      "riff": 2800,
      "ĠMinuten": 2801,
      "ĠBemerk": 2802,
      "En": 2803,
      "ĠGÃ¤ste": 2804,
      "FOR": 2805,
      "Ġwenig": 2806,
      "gemeine": 2807,
      "merksam": 2808,
      "Dem": 2809,
      "ierten": 2810,
      "ESCH": 2811,
      "Umwelt": 2812,
      "ĠEntschlieÃŁung": 2813,
      "ly": 2814,
      "ĠhÃ¤t": 2815,
      "ompl": 2816,
      "nten": 2817,
      "itut": 2818,
      "ervice": 2819,
      "Ġch": 2820,
      "Ã¤ter": 2821,
      "CHE": 2822,
      "UNGS": 2823,
      "ĠPark": 2824,
      "ĠFil": 2825,
      "Ġpass": 2826,
      "ungsverfahren": 2827,
      "AUSSENBEZIEHUNGEN": 2828,
      "ĠunterstÃ¼tzt": 2829,
      "reifen": 2830,
      "ĠStrategie": 2831,
      "Ã¤mpfung": 2832,
      "ator": 2833,
      "letz": 2834,
      "yl": 2835,
      "ĠIs": 2836,
      "liegen": 2837,
      "ĠInnern": 2838,
      "ĠSer": 2839,
      "ĠRahmen": 2840,
      "Ġat": 2841,
      "ĠEW": 2842,
      "ingungen": 2843,
      "Ġliegen": 2844,
      "ĠJuli": 2845,
      "ichterstat": 2846,
      "ĠMeinung": 2847,
      "ais": 2848,
      "ĠDIE": 2849,
      "Finanz": 2850,
      "ĠAs": 2851,
      "Ġallem": 2852,
      "ĠAt": 2853,
      "ISCHER": 2854,
      "Ġfreuen": 2855,
      "Ges": 2856,
      "tlich": 2857,
      "ĠPal": 2858,
      "ĠMÃ¶glich": 2859,
      "Ġ2003": 2860,
      "Ġleben": 2861,
      "frei": 2862,
      "ĠvÃ¶llig": 2863,
      "zember": 2864,
      "Ġhe": 2865,
      "ĠVerbraucher": 2866,
      "AK": 2867,
      "ĠRechts": 2868,
      "ĠdarÃ¼ber": 2869,
      "Ġunver": 2870,
      "Ġvielen": 2871,
      "ĠBuch": 2872,
      "Ġ2005": 2873,
      "ĠErgebnis": 2874,
      "UST": 2875,
      "ias": 2876,
      "ĠIde": 2877,
      "ĠDer": 2878,
      "ĠRE": 2879,
      "vorschriften": 2880,
      "mer": 2881,
      "ĠTour": 2882,
      "werk": 2883,
      "Ġderzeit": 2884,
      "Ġca": 2885,
      "rieb": 2886,
      "HEIT": 2887,
      "olf": 2888,
      "Programm": 2889,
      "ĠAuÃŁen": 2890,
      "ĠDE": 2891,
      "ĠDisk": 2892,
      "ĠWahl": 2893,
      "Ġ..": 2894,
      "aritÃ¤t": 2895,
      "ĠPh": 2896,
      "ĠPreise": 2897,
      "Ġgemacht": 2898,
      "ĠTe": 2899,
      "Ġerreicht": 2900,
      "ĠSache": 2901,
      "ĠFolgen": 2902,
      "ĠDeutschland": 2903,
      "kommissar": 2904,
      "ĠKo": 2905,
      "denten": 2906,
      "SE": 2907,
      "eral": 2908,
      "ĠDialog": 2909,
      "ersÃ¶n": 2910,
      "ĠBilder": 2911,
      "UB": 2912,
      "ĠLin": 2913,
      "Ġerg": 2914,
      "ĠCol": 2915,
      "ani": 2916,
      "Ã¼lt": 2917,
      "ĠSchritt": 2918,
      "ATION": 2919,
      "Ġmodified": 2920,
      "gs": 2921,
      "voll": 2922,
      "Ġ26": 2923,
      "ĠOst": 2924,
      "ĠVorsitz": 2925,
      "94": 2926,
      "ĠMEMO": 2927,
      "Ġ99": 2928,
      "TO": 2929,
      "And": 2930,
      "Ġ2015": 2931,
      "ĠWachstum": 2932,
      "ologie": 2933,
      "ĠSeiten": 2934,
      "Ġwichtige": 2935,
      "egor": 2936,
      "Ã¼nf": 2937,
      "Gew": 2938,
      "mitt": 2939,
      "Dabei": 2940,
      "onst": 2941,
      "Ġfre": 2942,
      "ĠBeh": 2943,
      "ption": 2944,
      "uhr": 2945,
      "Ġersch": 2946,
      "Ġletzten": 2947,
      "esent": 2948,
      "ĠPresse": 2949,
      "ĠLuft": 2950,
      "Ġdeut": 2951,
      "Wichtigste": 2952,
      "th": 2953,
      "eres": 2954,
      "arbeitet": 2955,
      "ĠVorschlÃ¤ge": 2956,
      "Ma": 2957,
      "Reg": 2958,
      "70": 2959,
      "haus": 2960,
      "ring": 2961,
      "ĠEmpf": 2962,
      "Ġzie": 2963,
      "ovation": 2964,
      "ĠProjekte": 2965,
      "ana": 2966,
      "ĠAntrag": 2967,
      "HANDEL": 2968,
      "ĠRichtung": 2969,
      "fung": 2970,
      "Ġ2004": 2971,
      "ichterstatter": 2972,
      "Hin": 2973,
      "Ġqu": 2974,
      "abkommen": 2975,
      "ĠUSA": 2976,
      "Ġstellt": 2977,
      "rop": 2978,
      "bene": 2979,
      "Bis": 2980,
      "Ġ2002": 2981,
      "Ġgenug": 2982,
      "ĠMÃ¤rz": 2983,
      "ĠTerr": 2984,
      "Ġinsgesamt": 2985,
      "VERKEHR": 2986,
      "Seit": 2987,
      "ump": 2988,
      "endet": 2989,
      "ĠApril": 2990,
      "ĠRechtssache": 2991,
      "GER": 2992,
      "ĠNetz": 2993,
      "rigen": 2994,
      "IER": 2995,
      "Richt": 2996,
      "staat": 2997,
      "ĠAktion": 2998,
      "ĠDemokratie": 2999,
      "ĠWebs": 3000,
      "ruch": 3001,
      "fÃ¼gt": 3002,
      "ĠAufgabe": 3003,
      "Klicken": 3004,
      "ĠMillionen": 3005,
      "staurant": 3006,
      "Ġakzept": 3007,
      "ja": 3008,
      "Ã¼sse": 3009,
      "ĠWissen": 3010,
      "Wirtschaft": 3011,
      "eschreibung": 3012,
      "igtes": 3013,
      "ts": 3014,
      "va": 3015,
      "etten": 3016,
      "buch": 3017,
      "ennt": 3018,
      "Ġmei": 3019,
      "schluss": 3020,
      "255": 3021,
      "zlich": 3022,
      "schrift": 3023,
      "bericht": 3024,
      "spiele": 3025,
      "besondere": 3026,
      "gestellt": 3027,
      "27": 3028,
      "UCH": 3029,
      "Zusammen": 3030,
      "fin": 3031,
      "Ġfort": 3032,
      "Ġseiner": 3033,
      "rufbar": 3034,
      "RAN": 3035,
      "fter": 3036,
      "ĠAusschuss": 3037,
      "atten": 3038,
      "etter": 3039,
      "ĠWind": 3040,
      "zip": 3041,
      "mals": 3042,
      "TS": 3043,
      "ichtet": 3044,
      "ownlo": 3045,
      "dien": 3046,
      "bereich": 3047,
      "altung": 3048,
      "ĠQualitÃ¤t": 3049,
      "eim": 3050,
      "DafÃ¼r": 3051,
      "ath": 3052,
      "Ġbesonders": 3053,
      "MAR": 3054,
      "Ġposit": 3055,
      "Anhang": 3056,
      "ĠMus": 3057,
      "rachen": 3058,
      "ĠDas": 3059,
      "ĠWie": 3060,
      "Ġth": 3061,
      "ĠWirtschafts": 3062,
      "ĠDebatte": 3063,
      "tur": 3064,
      "achsen": 3065,
      "ĠLa": 3066,
      "ĠInf": 3067,
      "ĠNatur": 3068,
      "Ġihren": 3069,
      "erst": 3070,
      "rid": 3071,
      "Ã¤hlt": 3072,
      "ieten": 3073,
      "INAN": 3074,
      "linien": 3075,
      "deutung": 3076,
      "ranspar": 3077,
      "ix": 3078,
      "Ġru": 3079,
      "unk": 3080,
      "ĠDon": 3081,
      "Wettbewerb": 3082,
      "ons": 3083,
      "AF": 3084,
      "AuÃŁer": 3085,
      "eider": 3086,
      "2001": 3087,
      "ari": 3088,
      "!!": 3089,
      "ĠKrit": 3090,
      "ĠKraft": 3091,
      "schn": 3092,
      "EMEIN": 3093,
      "same": 3094,
      "28": 3095,
      "ĠEUROSTAT": 3096,
      "ĠÃľ": 3097,
      "ĠOn": 3098,
      "Ja": 3099,
      "ĠBeschÃ¤ftigung": 3100,
      "ĠHeraus": 3101,
      "ACH": 3102,
      "ose": 3103,
      "Ġteil": 3104,
      "Ġabrufbar": 3105,
      "08": 3106,
      "29": 3107,
      "Ġsollen": 3108,
      "ĠKom": 3109,
      "ĠWirk": 3110,
      "Ġunterb": 3111,
      "frika": 3112,
      "racht": 3113,
      "Ġ3255": 3114,
      "Ġentzieht": 3115,
      "ikan": 3116,
      "Ġhinzu": 3117,
      "ftware": 3118,
      "ufen": 3119,
      "Ġ75": 3120,
      "antwortung": 3121,
      "ĠInitiat": 3122,
      "zimmer": 3123,
      "ĠWeb": 3124,
      "ĠFrÃ¼hstÃ¼ck": 3125,
      "StaatssekretÃ¤r": 3126,
      "za": 3127,
      "zogen": 3128,
      "Ġihm": 3129,
      "rieben": 3130,
      "strum": 3131,
      "bildung": 3132,
      "ĠJugend": 3133,
      "31": 3134,
      "36": 3135,
      "ĠRechte": 3136,
      "Ã¼nst": 3137,
      "to": 3138,
      "ĠBinnenmarkt": 3139,
      "agegen": 3140,
      "utzung": 3141,
      "Ġgelten": 3142,
      "Ġinteress": 3143,
      "Tag": 3144,
      "ano": 3145,
      "elli": 3146,
      "alisierung": 3147,
      "ĠRom": 3148,
      "EW": 3149,
      "stelle": 3150,
      "ĠMark": 3151,
      "ĠTra": 3152,
      "Ġgeschehen": 3153,
      "ĠErklÃ¤rung": 3154,
      "ĠBedeutung": 3155,
      "ĠGeschÃ¤fts": 3156,
      "NÃ¤h": 3157,
      "Ġverm": 3158,
      "TES": 3159,
      "Ġschl": 3160,
      "ANG": 3161,
      "III": 3162,
      "ĠBus": 3163,
      "olk": 3164,
      "ĠDes": 3165,
      "Ġvert": 3166,
      "weck": 3167,
      "isa": 3168,
      "ĠPla": 3169,
      "26": 3170,
      "Press": 3171,
      "ement": 3172,
      "scht": 3173,
      "dere": 3174,
      "ĠVort": 3175,
      "Ġ29": 3176,
      "ors": 3177,
      "Ġhalte": 3178,
      "Ġwichtigsten": 3179,
      "ets": 3180,
      "Ġgab": 3181,
      "fert": 3182,
      "maÃŁnahmen": 3183,
      "tember": 3184,
      "Ġnotwendig": 3185,
      "Gemein": 3186,
      "Portugal": 3187,
      "ager": 3188,
      "sverletz": 3189,
      "ĠRaum": 3190,
      "Ġbeant": 3191,
      "Ġanders": 3192,
      "ĠVide": 3193,
      "ĠWir": 3194,
      "stunde": 3195,
      "urr": 3196,
      "ĠMinisterium": 3197,
      "Ġenthalten": 3198,
      "Ġmeinen": 3199,
      "seite": 3200,
      "uman": 3201,
      "BEIT": 3202,
      "Urteil": 3203,
      "ows": 3204,
      "Ġu": 3205,
      "ĠGu": 3206,
      "TEL": 3207,
      "Ġarbeiten": 3208,
      "folgen": 3209,
      "stagung": 3210,
      "Ã¼ndet": 3211,
      "SPRA": 3212,
      "Ġfunktioniert": 3213,
      "wicklung": 3214,
      "ĠJanuar": 3215,
      "ĠBundesminister": 3216,
      "leben": 3217,
      "ĠKlima": 3218,
      "Ġhelfen": 3219,
      "raktion": 3220,
      "Ġstimmen": 3221,
      "TEN": 3222,
      "ions": 3223,
      "cker": 3224,
      "entral": 3225,
      "FF": 3226,
      "ĠBro": 3227,
      "Ġihrer": 3228,
      "dienst": 3229,
      "ood": 3230,
      "Ġaufge": 3231,
      "ĠInteresse": 3232,
      "ĠheiÃŁt": 3233,
      "Richtlinie": 3234,
      "orn": 3235,
      "son": 3236,
      "ĠKern": 3237,
      "ĠpersÃ¶n": 3238,
      "log": 3239,
      "eptember": 3240,
      "Rue": 3241,
      "Ġbestimm": 3242,
      "wendet": 3243,
      "handlungen": 3244,
      "ĠTÃ¼rkei": 3245,
      "ĠfÃ¼": 3246,
      "fern": 3247,
      "Ġsolche": 3248,
      "Ġlau": 3249,
      "Vereinigtes": 3250,
      "di": 3251,
      "atien": 3252,
      "ktober": 3253,
      "hÃ¤ng": 3254,
      "stehen": 3255,
      "ĠPart": 3256,
      "ĠMet": 3257,
      "fahrt": 3258,
      "Ġ]": 3259,
      "ĠFest": 3260,
      "rauch": 3261,
      "ĠRatstagung": 3262,
      "Ġweniger": 3263,
      "skommissar": 3264,
      "eiche": 3265,
      "Ġir": 3266,
      "ĠBenutzer": 3267,
      "OP": 3268,
      "pen": 3269,
      "ith": 3270,
      "REN": 3271,
      "ĠMehr": 3272,
      "igit": 3273,
      "indung": 3274,
      "riechen": 3275,
      "platz": 3276,
      "SPRACHE": 3277,
      "europa": 3278,
      "Internet": 3279,
      "Ġhalten": 3280,
      "klÃ¤rung": 3281,
      "Ġallerdings": 3282,
      "ĠspÃ¤ter": 3283,
      "ĠForschung": 3284,
      "ĠAUSSPRACHE": 3285,
      "ipf": 3286,
      "unÃ¤chst": 3287,
      "ĠBeg": 3288,
      "schlag": 3289,
      "programm": 3290,
      "Beziehungen": 3291,
      "38": 3292,
      "Danke": 3293,
      "ĠPol": 3294,
      "ehlen": 3295,
      "IGUNG": 3296,
      "istr": 3297,
      "Ã¤ren": 3298,
      "auft": 3299,
      "rÃ¤sidenten": 3300,
      "assil": 3301,
      "enk": 3302,
      "IA": 3303,
      "KOM": 3304,
      "UL": 3305,
      "Ġnation": 3306,
      "old": 3307,
      "ĠRele": 3308,
      "ĠVielen": 3309,
      "ssystem": 3310,
      "Ġstark": 3311,
      "Ġ)": 3312,
      "ĠStud": 3313,
      "Ġetwa": 3314,
      "Ġhervor": 3315,
      "ĠSport": 3316,
      "Ã¤he": 3317,
      "Leider": 3318,
      "jekt": 3319,
      "sult": 3320,
      "ĠKop": 3321,
      "ĠParlaments": 3322,
      "ĠerwÃ¤h": 3323,
      "fel": 3324,
      "gn": 3325,
      "ĠRestaurant": 3326,
      "spl": 3327,
      "itglieder": 3328,
      "Ġgerade": 3329,
      "ĠEntschlieÃŁungsantrag": 3330,
      "Ġschwier": 3331,
      "Ġganze": 3332,
      "ichtigen": 3333,
      "agement": 3334,
      "pflicht": 3335,
      "Ġentscheiden": 3336,
      "ĠZugang": 3337,
      "Ġbraucht": 3338,
      "Ġmeisten": 3339,
      "Mich": 3340,
      "setzen": 3341,
      "smittel": 3342,
      "usion": 3343,
      "ĠNacht": 3344,
      "ica": 3345,
      "ĠHerausforder": 3346,
      "ĠNeelie": 3347,
      "ĠBeitrag": 3348,
      "Ġwe": 3349,
      "ars": 3350,
      "ommer": 3351,
      "ĠErweiterung": 3352,
      "Ġbekannt": 3353,
      "ĠFir": 3354,
      "Ġgesam": 3355,
      "illa": 3356,
      "ĠWert": 3357,
      "ĠInner": 3358,
      "65": 3359,
      "87": 3360,
      "Ġ02": 3361,
      "ifiz": 3362,
      "Ġkonk": 3363,
      "Du": 3364,
      "ĠfÃ¼nf": 3365,
      "ĠBau": 3366,
      "reten": 3367,
      "here": 3368,
      "ĠVerteid": 3369,
      "ches": 3370,
      "alle": 3371,
      "Ġglei": 3372,
      "Ġ546": 3373,
      "roffen": 3374,
      "ontrolle": 3375,
      "abilitÃ¤t": 3376,
      "ĠAngebot": 3377,
      "GIE": 3378,
      "Prior": 3379,
      "air": 3380,
      "Ġwohl": 3381,
      "ise": 3382,
      "Ġerfolgt": 3383,
      "Ġfinanz": 3384,
      "ĠMil": 3385,
      "ĠVerantwortung": 3386,
      "aktion": 3387,
      "Se": 3388,
      "fuhr": 3389,
      "ingen": 3390,
      "ĠschlieÃŁ": 3391,
      "Wor": 3392,
      "denken": 3393,
      "ĠItalien": 3394,
      "AGE": 3395,
      "ĠGlÃ¼ck": 3396,
      "aar": 3397,
      "Ġwelt": 3398,
      "ĠBr": 3399,
      "ĠIM": 3400,
      "rak": 3401,
      "Sind": 3402,
      "ona": 3403,
      "ales": 3404,
      "oper": 3405,
      "ada": 3406,
      "glisch": 3407,
      "riechenland": 3408,
      "Handel": 3409,
      "Viele": 3410,
      "esordnung": 3411,
      "ĠBIP": 3412,
      "ĠZahlen": 3413,
      "ĠenthÃ¤lt": 3414,
      "utzt": 3415,
      "ivers": 3416,
      "oment": 3417,
      "Ġeigenen": 3418,
      "ĠRis": 3419,
      "obil": 3420,
      "Ġtechn": 3421,
      "punkte": 3422,
      "auber": 3423,
      "ĠWe": 3424,
      "Ġallein": 3425,
      "ĠVON": 3426,
      "AuÃŁerdem": 3427,
      "ĠRelease": 3428,
      "93": 3429,
      "ook": 3430,
      "ĠSy": 3431,
      "orge": 3432,
      "2007": 3433,
      "ĠReise": 3434,
      "iko": 3435,
      "Ã¤rk": 3436,
      "ko": 3437,
      "Ġrichtige": 3438,
      "hrist": 3439,
      "allen": 3440,
      "Ġseinen": 3441,
      "ĠGeschichte": 3442,
      "MARKT": 3443,
      "zeigt": 3444,
      "Ġdagegen": 3445,
      "ĠAug": 3446,
      "istan": 3447,
      "Ġbez": 3448,
      "Ã¤hrung": 3449,
      "ĠÃ¤uÃŁer": 3450,
      "OT": 3451,
      "ĠKar": 3452,
      "regel": 3453,
      "besserung": 3454,
      "OHNE": 3455,
      "assilio": 3456,
      "Gr": 3457,
      "513": 3458,
      "ĠPlatz": 3459,
      "Willkommen": 3460,
      "44": 3461,
      "Mein": 3462,
      "chten": 3463,
      "Ã¼t": 3464,
      "ĠAnfrage": 3465,
      "itteilungen": 3466,
      "gemein": 3467,
      "Gerichtshof": 3468,
      "Durch": 3469,
      "ollte": 3470,
      "rauen": 3471,
      "Ġschwer": 3472,
      "Wel": 3473,
      "unt": 3474,
      "ĠEuropÃ¤": 3475,
      "ĠFar": 3476,
      "ĠGerichtshof": 3477,
      "ownload": 3478,
      "925": 3479,
      "SK": 3480,
      "ummer": 3481,
      "anst": 3482,
      "ĠWest": 3483,
      "sverletzungsverfahren": 3484,
      "urt": 3485,
      "rotz": 3486,
      "ĠLinks": 3487,
      "ĠCas": 3488,
      "ebru": 3489,
      "Ġsogar": 3490,
      "ĠBal": 3491,
      "ĠKontakt": 3492,
      "INANZ": 3493,
      "fassung": 3494,
      "sehen": 3495,
      "ĠBu": 3496,
      "Ġkompl": 3497,
      "prÃ¤": 3498,
      "ieht": 3499,
      "urf": 3500,
      "able": 3501,
      "Ġrund": 3502,
      "Ã¤hrend": 3503,
      "wesen": 3504,
      "stadt": 3505,
      "ĠSchwei": 3506,
      "Haben": 3507,
      "rastruktur": 3508,
      "ĠColomb": 3509,
      "unsch": 3510,
      "ahren": 3511,
      "ĠSoftware": 3512,
      "ĠThemen": 3513,
      "ebruar": 3514,
      "68": 3515,
      "zuf": 3516,
      "Ġeingehen": 3517,
      "ĠDezember": 3518,
      "Ġversch": 3519,
      "ĠBerichterstatter": 3520,
      "Ġinsbesondere": 3521,
      "elles": 3522,
      "ĠIII": 3523,
      "rah": 3524,
      "bare": 3525,
      "Ġklicken": 3526,
      "Ġweiterhin": 3527,
      "ISCHEREI": 3528,
      "Mittel": 3529,
      "mlich": 3530,
      "Ġzeigt": 3531,
      "ĠKÃ¼": 3532,
      "ĠKont": 3533,
      "ĠFran": 3534,
      "Ġpolitische": 3535,
      "ĠÃ¼b": 3536,
      "Ġeindeut": 3537,
      "Also": 3538,
      "ĠRA": 3539,
      "ĠGar": 3540,
      "itÃ¤ts": 3541,
      "ĠBlick": 3542,
      "Mag": 3543,
      "mand": 3544,
      "ww": 3545,
      "ĠMad": 3546,
      "ĠKrise": 3547,
      "Ġentsprechen": 3548,
      "ICHER": 3549,
      "yer": 3550,
      "isierung": 3551,
      "DarÃ¼ber": 3552,
      "ĠInvestitionen": 3553,
      "Ġroom": 3554,
      "ĠPlan": 3555,
      "ĠStat": 3556,
      "INNEN": 3557,
      "merksamkeit": 3558,
      "ampf": 3559,
      "Ġbestehen": 3560,
      "ĠColombani": 3561,
      "sent": 3562,
      "gesehen": 3563,
      "ĠUmsetzung": 3564,
      "ransparenz": 3565,
      "ĠLÃ¤ndern": 3566,
      "Ġoft": 3567,
      "Ġmoder": 3568,
      "Ġerfolg": 3569,
      "ĠAufmerksamkeit": 3570,
      "bet": 3571,
      "wir": 3572,
      "ĠFÃ¤l": 3573,
      "organis": 3574,
      "60": 3575,
      "DEN": 3576,
      "Ġverbesser": 3577,
      "nerstag": 3578,
      "ohnung": 3579,
      "ĠgroÃŁen": 3580,
      "fre": 3581,
      "ĠInnovation": 3582,
      "ara": 3583,
      "ĠIV": 3584,
      "ĠDurch": 3585,
      "ĠHo": 3586,
      "ime": 3587,
      "EUROPÃĦISCHE": 3588,
      "bek": 3589,
      "AGUNG": 3590,
      "mÃ¶glich": 3591,
      "ĠAnfang": 3592,
      "Ã¶lker": 3593,
      "ĠGruppe": 3594,
      "UF": 3595,
      "Ã¤um": 3596,
      "ĠEG": 3597,
      "ĠTab": 3598,
      "Ġbeendet": 3599,
      "omat": 3600,
      "ĠJahres": 3601,
      "ĠNews": 3602,
      "ĠfÃ¼hrt": 3603,
      "Recht": 3604,
      "informationen": 3605,
      "Ġfinde": 3606,
      "ĠFrankreich": 3607,
      "ĠTr": 3608,
      "ĠCom": 3609,
      "Erstens": 3610,
      "WICK": 3611,
      "Ġsoziale": 3612,
      "23": 3613,
      "xt": 3614,
      "inner": 3615,
      "ĠEIB": 3616,
      "ourcen": 3617,
      "74513": 3618,
      "ĠWoche": 3619,
      "For": 3620,
      "dig": 3621,
      "ĠNord": 3622,
      "Ġspielen": 3623,
      "Ġkostenlos": 3624,
      "ĠMobilt": 3625,
      "Ġne": 3626,
      "EST": 3627,
      "ĠfÃ¼hren": 3628,
      "90": 3629,
      "ini": 3630,
      "haupt": 3631,
      "onn": 3632,
      "Ġdaran": 3633,
      "ĠPo": 3634,
      "Ġerz": 3635,
      "ĠGesamt": 3636,
      "artment": 3637,
      "Ġeigentlich": 3638,
      "Ġbefinden": 3639,
      "irkungen": 3640,
      "ĠInvestition": 3641,
      "USTIZ": 3642,
      "rd": 3643,
      "ĠgeÃ¶ffnet": 3644,
      "stimmen": 3645,
      "ĠSteuer": 3646,
      "AUS": 3647,
      "Ġdanken": 3648,
      "Ġnutzen": 3649,
      "Ġ93": 3650,
      "ĠEWSA": 3651,
      "iete": 3652,
      "Ġscheint": 3653,
      "gessen": 3654,
      "Ã¤ufig": 3655,
      "ingt": 3656,
      "unst": 3657,
      "Ġentwick": 3658,
      "Ġ40": 3659,
      "assiliou": 3660,
      "was": 3661,
      "ĠApp": 3662,
      "rieg": 3663,
      "Bewertung": 3664,
      "ĠvollstÃ¤nd": 3665,
      "Ġleicht": 3666,
      "ĠKapit": 3667,
      "omit": 3668,
      "Ins": 3669,
      "ĠMaÃŁ": 3670,
      "Ã¤chlich": 3671,
      "WICKL": 3672,
      "LAGE": 3673,
      "osition": 3674,
      "uelle": 3675,
      "rinzip": 3676,
      "SO": 3677,
      "bahn": 3678,
      "ĠhÃ¶r": 3679,
      "Ġglob": 3680,
      "Ã¼nfte": 3681,
      "ringt": 3682,
      "oppel": 3683,
      "Land": 3684,
      "VOR": 3685,
      "ĠER": 3686,
      "ĠMont": 3687,
      "Ġhotel": 3688,
      "Ġinst": 3689,
      "roso": 3690,
      "Ġerforderlich": 3691,
      "EuropÃ¤ischer": 3692,
      "Ġdir": 3693,
      "unge": 3694,
      "ĠPass": 3695,
      "vers": 3696,
      "fÃ¤higkeit": 3697,
      "Ġwesent": 3698,
      "ĠMitt": 3699,
      "ARBEIT": 3700,
      "zeichnet": 3701,
      "ĠStandard": 3702,
      "kauf": 3703,
      "innt": 3704,
      "geord": 3705,
      "ĠTod": 3706,
      "ake": 3707,
      "ĠPR": 3708,
      "weisen": 3709,
      "Kurz": 3710,
      "ael": 3711,
      "ĠService": 3712,
      "ause": 3713,
      "Neue": 3714,
      "Ġdetails": 3715,
      "eien": 3716,
      "Ġstimme": 3717,
      "INNENMARKT": 3718,
      "ĠMich": 3719,
      "Ġ2013": 3720,
      "Ġmeinem": 3721,
      "ĠgehÃ¶ren": 3722,
      "elliard": 3723,
      "use": 3724,
      "ĠBelliard": 3725,
      "que": 3726,
      "Ġheraus": 3727,
      "rivat": 3728,
      "ĠEmpfeh": 3729,
      "Ġres": 3730,
      "Ġverwendet": 3731,
      "ĠCost": 3732,
      "ING": 3733,
      "Ġmehrere": 3734,
      "ĠINNER": 3735,
      "55": 3736,
      "EB": 3737,
      "Jeder": 3738,
      "ven": 3739,
      "ĠAnsatz": 3740,
      "Ġabsol": 3741,
      "Arbeit": 3742,
      "ĠStrand": 3743,
      "Le": 3744,
      "kra": 3745,
      "ĠLes": 3746,
      "ĠNÃ¤he": 3747,
      "Ġbisher": 3748,
      "ĠbetrÃ¤gt": 3749,
      "geschlossen": 3750,
      "ode": 3751,
      "inen": 3752,
      "ĠSeptember": 3753,
      "olz": 3754,
      "quis": 3755,
      "Ad": 3756,
      "Ã¼gen": 3757,
      "itel": 3758,
      "Ġfast": 3759,
      "ĠFunktion": 3760,
      "Ġsofort": 3761,
      "LANDWIRTSCHAFT": 3762,
      "FISCHEREI": 3763,
      "Ġkennen": 3764,
      "ĠGroÃŁ": 3765,
      "ehn": 3766,
      "gru": 3767,
      "ĠErfahr": 3768,
      "ĠRegierung": 3769,
      "ĠhÃ¤tte": 3770,
      "EV": 3771,
      "raq": 3772,
      "2000": 3773,
      "Zweitens": 3774,
      "ffizien": 3775,
      "ĠDiskuss": 3776,
      "ĠAsp": 3777,
      "sekt": 3778,
      "Ġjedem": 3779,
      "Ġletzte": 3780,
      "ĠAugen": 3781,
      "ICHERHEIT": 3782,
      "Ġhandelt": 3783,
      "beziehungen": 3784,
      "ISS": 3785,
      "ĠSpanien": 3786,
      "leistungen": 3787,
      "ĠInneres": 3788,
      "ĠINNERES": 3789,
      "Ġit": 3790,
      "ĠIP": 3791,
      "ĠAuswahl": 3792,
      "ĠVerteidigung": 3793,
      "cc": 3794,
      "feld": 3795,
      "sprÃ¤sident": 3796,
      "ĠAngaben": 3797,
      "jahr": 3798,
      "ĠVizeprÃ¤sident": 3799,
      "ĠLi": 3800,
      "ĠBeschl": 3801,
      "urrent": 3802,
      "Ġdeine": 3803,
      "ĠAben": 3804,
      "ĠVerwalt": 3805,
      "echs": 3806,
      "Ã¶st": 3807,
      "Wird": 3808,
      "Ġneues": 3809,
      "ressemitteilungen": 3810,
      "zeugnisse": 3811,
      "--": 3812,
      "84": 3813,
      "Auss": 3814,
      "ĠSon": 3815,
      "ola": 3816,
      "Ġlinks": 3817,
      "lose": 3818,
      "ĠEurope": 3819,
      "ĠbegrÃ¼ÃŁe": 3820,
      "Ġendg": 3821,
      "Akt": 3822,
      "JUSTIZ": 3823,
      "Sehr": 3824,
      "ĠBel": 3825,
      "igten": 3826,
      "Ġpl": 3827,
      "geschlagen": 3828,
      "Daten": 3829,
      "ros": 3830,
      "ĠWeise": 3831,
      "ief": 3832,
      "amb": 3833,
      "ĠErw": 3834,
      "Abkommen": 3835,
      "best": 3836,
      "mail": 3837,
      "wÃ¼r": 3838,
      "ENZ": 3839,
      "ĠCl": 3840,
      "ĠProzess": 3841,
      "ritten": 3842,
      "hafen": 3843,
      "act": 3844,
      "Ġbekommen": 3845,
      "halte": 3846,
      "Ġ2011": 3847,
      "Ġwichtiger": 3848,
      "ASS": 3849,
      "57": 3850,
      "LUSS": 3851,
      "Ġsu": 3852,
      "ĠEs": 3853,
      "ĠVerordnung": 3854,
      "ĠEntwicklungs": 3855,
      "ĠÃĦnderungen": 3856,
      "Ġaktiv": 3857,
      "Beit": 3858,
      "STA": 3859,
      "frist": 3860,
      "ule": 3861,
      "ande": 3862,
      "ERNEN": 3863,
      "Ġgeschieht": 3864,
      "ĠKonferenz": 3865,
      "haft": 3866,
      "Haus": 3867,
      "ling": 3868,
      "ĠRussland": 3869,
      "apan": 3870,
      "ĠGesetz": 3871,
      "LER": 3872,
      "daten": 3873,
      "itten": 3874,
      "Ġmal": 3875,
      "ilf": 3876,
      "sere": 3877,
      "Ġgenehm": 3878,
      "Ġgefunden": 3879,
      "ĠGewÃ¤sser": 3880,
      "ĠNovember": 3881,
      "ĠerhÃ¤ltlich": 3882,
      "Ġbel": 3883,
      "igte": 3884,
      "haltige": 3885,
      "Ġernst": 3886,
      "druck": 3887,
      "Ġvery": 3888,
      "ĠBeitritt": 3889,
      "ĠDonnerstag": 3890,
      "geordne": 3891,
      "LI": 3892,
      "Ġsuchen": 3893,
      "Ġschle": 3894,
      "Ġ1999": 3895,
      "Ġumfasst": 3896,
      "Ġpassiert": 3897,
      "KÃ¶n": 3898,
      "Ne": 3899,
      "ins": 3900,
      "ĠMIT": 3901,
      "reiche": 3902,
      "UND": 3903,
      "ĠWorte": 3904,
      "eister": 3905,
      "Ġvote": 3906,
      "Ġbeste": 3907,
      "Ġwillkommen": 3908,
      "Folgen": 3909,
      "ĠGo": 3910,
      "ausschuss": 3911,
      "1040": 3912,
      "Ġleider": 3913,
      "Ġerwarten": 3914,
      "ĠMusik": 3915,
      "EK": 3916,
      "bien": 3917,
      "ender": 3918,
      "Ġsel": 3919,
      "ĠbegrÃ¼ÃŁen": 3920,
      "haben": 3921,
      "lÃ¤nder": 3922,
      "orte": 3923,
      "verstÃ¤nd": 3924,
      "haltung": 3925,
      "Maria": 3926,
      "schriftlich": 3927,
      "ĠGD": 3928,
      "Ministerin": 3929,
      "UK": 3930,
      "ĠPrÃ¤": 3931,
      "ĠPort": 3932,
      "ĠEbene": 3933,
      "Ġkomp": 3934,
      "Techn": 3935,
      "ki": 3936,
      "lauf": 3937,
      "GewÃ¤sser": 3938,
      "ART": 3939,
      "zÃ¼glich": 3940,
      "Ohne": 3941,
      "uel": 3942,
      "anc": 3943,
      "ĠAuft": 3944,
      "ĠDokumenten": 3945,
      "ĠOrd": 3946,
      "ĠGegenteil": 3947,
      "39": 3948,
      "li": 3949,
      "ĠLog": 3950,
      "Europ": 3951,
      "MU": 3952,
      "IST": 3953,
      "idaritÃ¤t": 3954,
      "ordin": 3955,
      "Ġausgew": 3956,
      "Ġabge": 3957,
      "ĠFortschritte": 3958,
      "ogra": 3959,
      "Ã¶m": 3960,
      "ierungen": 3961,
      "ERS": 3962,
      "Ġmitt": 3963,
      "ĠSchul": 3964,
      "VizeprÃ¤sident": 3965,
      "ĠTest": 3966,
      "ĠBot": 3967,
      "reiten": 3968,
      "ĠOktober": 3969,
      "FÃ¶rderung": 3970,
      "einander": 3971,
      "ĠEigen": 3972,
      "Ġhinter": 3973,
      "ĠRede": 3974,
      "zif": 3975,
      "ĠKommunikation": 3976,
      "ĠVertragsverletzungsverfahren": 3977,
      "Magst": 3978,
      "RI": 3979,
      "Ġwww": 3980,
      "ĠZwei": 3981,
      "Ġgemeinsame": 3982,
      "ĠUS": 3983,
      "reisen": 3984,
      "ular": 3985,
      "adurch": 3986,
      "nd": 3987,
      "woch": 3988,
      "ĠUp": 3989,
      "ĠAntworten": 3990,
      "Vielleicht": 3991,
      "Eur": 3992,
      "bauen": 3993,
      "lang": 3994,
      "Ġinner": 3995,
      "ĠCO": 3996,
      "verb": 3997,
      "Ġentsp": 3998,
      "Ġlanguage": 3999,
      "HANDELSPOLITIK": 4000,
      "ash": 4001,
      "ĠgeÃ¤ndert": 4002,
      "ome": 4003,
      "Ġwarum": 4004,
      "ĠKonsult": 4005,
      "kraine": 4006,
      "ka": 4007,
      "ĠStunden": 4008,
      "Ġgesp": 4009,
      "hilfen": 4010,
      "Ġfalsch": 4011,
      "ĠbenÃ¶tigen": 4012,
      "ERNENN": 4013,
      "partner": 4014,
      "system": 4015,
      "igungs": 4016,
      "Ġerster": 4017,
      "genda": 4018,
      "Ġverschiedene": 4019,
      "beschreibung": 4020,
      "Ġwelche": 4021,
      "ĠSchiff": 4022,
      "ĠOrg": 4023,
      "ĠSÃ¼d": 4024,
      "ĠMitteilung": 4025,
      "ĠWerk": 4026,
      "schnitt": 4027,
      "LAN": 4028,
      "Ġdau": 4029,
      "ĠAG": 4030,
      "ĠNor": 4031,
      "Ã¤nge": 4032,
      "Ġkleine": 4033,
      "Sol": 4034,
      "ante": 4035,
      "Ġeinzel": 4036,
      "schein": 4037,
      "Ġwirtschaft": 4038,
      "ĠZug": 4039,
      "EUROPÃĦISCHER": 4040,
      "lassen": 4041,
      "Ġ34": 4042,
      "Ġgrund": 4043,
      "ĠnÃ¤chste": 4044,
      "FR": 4045,
      "alter": 4046,
      "utt": 4047,
      "ĠCar": 4048,
      "riffen": 4049,
      "ĠOper": 4050,
      "Ġ142": 4051,
      "HO": 4052,
      "mo": 4053,
      "uh": 4054,
      "see": 4055,
      "ĠCor": 4056,
      "Ġ31": 4057,
      "Ġ2014": 4058,
      "Ġdel": 4059,
      "Ġhandeln": 4060,
      "Ġgegeben": 4061,
      "ĠAnsicht": 4062,
      "ĠgroÃŁer": 4063,
      "ĠgefÃ¤hr": 4064,
      "ĠUrlaub": 4065,
      "ĠWindows": 4066,
      "85": 4067,
      "Dok": 4068,
      "Ġanges": 4069,
      "ekÃ¤mpfung": 4070,
      "Ġhinaus": 4071,
      "prÃ¼ft": 4072,
      "Ġdeutlich": 4073,
      "Ġeindeutig": 4074,
      "FOL": 4075,
      "ox": 4076,
      "ĠSommer": 4077,
      "ĠwÃ¤hlen": 4078,
      "ĠverÃ¶ffent": 4079,
      "Aller": 4080,
      "Jan": 4081,
      "met": 4082,
      "Ġind": 4083,
      "ĠWahr": 4084,
      "ERUNG": 4085,
      "les": 4086,
      "zt": 4087,
      "Ġor": 4088,
      "ĠBank": 4089,
      "ĠFebruar": 4090,
      "Ġvorh": 4091,
      "sweise": 4092,
      "ĠFrieden": 4093,
      "ektor": 4094,
      "Kommissarin": 4095,
      "kÃ¼nfte": 4096,
      "zer": 4097,
      "elden": 4098,
      "ĠSprache": 4099,
      "ĠGeorg": 4100,
      "ĠMeer": 4101,
      "ĠGeschÃ¤ftsordnung": 4102,
      "GEMEIN": 4103,
      "ĠSchritte": 4104,
      "ErklÃ¤rung": 4105,
      "Alles": 4106,
      "sÃ¤tze": 4107,
      "Ġwith": 4108,
      "ĠKOM": 4109,
      "RAM": 4110,
      "Ġverwenden": 4111,
      "ĠHoch": 4112,
      "utter": 4113,
      "ĠRef": 4114,
      "rimin": 4115,
      "Andere": 4116,
      "skommissarin": 4117,
      "77": 4118,
      "Ġx": 4119,
      "Ġsetzen": 4120,
      "ĠMitglieder": 4121,
      "ĠFINANZ": 4122,
      "Ġhatten": 4123,
      "ICHT": 4124,
      "Ġkomme": 4125,
      "ĠOnline": 4126,
      "ĠFuÃŁ": 4127,
      "Ġgrat": 4128,
      "Ġerfahren": 4129,
      "ehmigung": 4130,
      "BINNENMARKT": 4131,
      "Ġbringt": 4132,
      "ĠPu": 4133,
      "Ġguten": 4134,
      "Ġangeb": 4135,
      "Verb": 4136,
      "Ã¼hren": 4137,
      "ĠzusÃ¤tz": 4138,
      "ĠAspekte": 4139,
      "ĠTat": 4140,
      "Ġlernen": 4141,
      "sper": 4142,
      "ĠTeam": 4143,
      "Jed": 4144,
      "Oder": 4145,
      "Zahl": 4146,
      "iesen": 4147,
      "Ġdeshalb": 4148,
      "Ġlesen": 4149,
      "spruch": 4150,
      "Ġvorgeschlagen": 4151,
      "ĠBeispiele": 4152,
      "ĠSc": 4153,
      "einkommen": 4154,
      "ĠVolk": 4155,
      "ight": 4156,
      "ANLAGE": 4157,
      "ĠÃĦnderungsant": 4158,
      "ĠTerror": 4159,
      "Current": 4160,
      "vention": 4161,
      "ĠAugust": 4162,
      "ĠÃ¤uÃŁerst": 4163,
      "Allerdings": 4164,
      "lÃ¤ss": 4165,
      "Ġreicht": 4166,
      "ĠerfÃ¼l": 4167,
      "onz": 4168,
      "sek": 4169,
      "Ġ2012": 4170,
      "Ġinternationale": 4171,
      "umanit": 4172,
      "preis": 4173,
      "Ã¤glich": 4174,
      "eller": 4175,
      "Hinweis": 4176,
      "fasst": 4177,
      "wach": 4178,
      "ĠLeist": 4179,
      "Ġklein": 4180,
      "Ġjede": 4181,
      "frieden": 4182,
      "ĠRad": 4183,
      "iode": 4184,
      "ĠRegional": 4185,
      "Fl": 4186,
      "go": 4187,
      "wurf": 4188,
      "Ã¤che": 4189,
      "get": 4190,
      "ĠPf": 4191,
      "ĠMann": 4192,
      "ĠhÃ¶": 4193,
      "Ã¤ngt": 4194,
      "ĠErn": 4195,
      "laden": 4196,
      "Ġide": 4197,
      "ĠStaaten": 4198,
      "euch": 4199,
      "Ġverstehen": 4200,
      "Ġant": 4201,
      "Ġvergessen": 4202,
      "iffer": 4203,
      "ĠFamilie": 4204,
      "Ġ9396": 4205,
      "Ġgenehmigt": 4206,
      "Jahr": 4207,
      "usst": 4208,
      "ĠLebens": 4209,
      "cel": 4210,
      "Ġpaar": 4211,
      "ĠFraktion": 4212,
      "Ġgu": 4213,
      "ĠDownload": 4214,
      "ĠLehr": 4215,
      "rÃ¤um": 4216,
      "81": 4217,
      "MÃ¶": 4218,
      "ĠlÃ¶": 4219,
      "ĠVerhandlungen": 4220,
      "Ġdarum": 4221,
      "zeichnung": 4222,
      "ĠKomment": 4223,
      "ĠGrÃ¼nden": 4224,
      "Ã¼l": 4225,
      "Ġeinger": 4226,
      "ehl": 4227,
      "ĠSee": 4228,
      "Hotel": 4229,
      "ĠPra": 4230,
      "ĠHe": 4231,
      "ĠPrioritÃ¤ten": 4232,
      "Ġheut": 4233,
      "LÃĦ": 4234,
      "Ġar": 4235,
      "ĠSa": 4236,
      "ĠStruktur": 4237,
      "ĠReihe": 4238,
      "ĠBedingungen": 4239,
      "49": 4240,
      "ĠKomp": 4241,
      "terne": 4242,
      "Hintergrundinformationen": 4243,
      "usionsk": 4244,
      "Best": 4245,
      "ĠBESCH": 4246,
      "ĠKoh": 4247,
      "anzen": 4248,
      "inne": 4249,
      "ĠAL": 4250,
      "Ġbald": 4251,
      "ĠPost": 4252,
      "ĠVI": 4253,
      "ĠNot": 4254,
      "ĠverfÃ¼gt": 4255,
      "ĠAnmerk": 4256,
      "ĠGrenzen": 4257,
      "ĠPat": 4258,
      "Ġkor": 4259,
      "Ġzufrieden": 4260,
      "Ġgek": 4261,
      "ĠInhalt": 4262,
      "Ġtut": 4263,
      "ĠAbgeordne": 4264,
      "ĠBeziehungen": 4265,
      "Ġprof": 4266,
      "ĠWochen": 4267,
      "redit": 4268,
      "ĠRATES": 4269,
      "zentr": 4270,
      "Ġdisk": 4271,
      "Ġserv": 4272,
      "Ġbem": 4273,
      "ĠwÃ¼nschen": 4274,
      "meld": 4275,
      "ĠBas": 4276,
      "Ġerhe": 4277,
      "Ġstimmt": 4278,
      "ull": 4279,
      "oy": 4280,
      "orf": 4281,
      "ĠDEN": 4282,
      "ĠTer": 4283,
      "issab": 4284,
      "vertreten": 4285,
      "Ġ149": 4286,
      "Ġeigene": 4287,
      "ĠwÃ¼rden": 4288,
      "ĠMobiltel": 4289,
      "Ġvorhanden": 4290,
      "out": 4291,
      "Ġneuer": 4292,
      "ĠlÃ¤sst": 4293,
      "GR": 4294,
      "gte": 4295,
      "Ġare": 4296,
      "ĠSICHERHEIT": 4297,
      "ahlung": 4298,
      "ĠSchlÃ¼ssel": 4299,
      "ĠStellung": 4300,
      "ace": 4301,
      "ry": 4302,
      "ĠIm": 4303,
      "iellen": 4304,
      "imit": 4305,
      "ĠProgramms": 4306,
      "AMMEN": 4307,
      "ĠKollegen": 4308,
      "zur": 4309,
      "Ġdi": 4310,
      "atum": 4311,
      "geh": 4312,
      "Ġbill": 4313,
      "ĠhÃ¶ch": 4314,
      "ragt": 4315,
      "ĠWebseite": 4316,
      "Kar": 4317,
      "ĠProf": 4318,
      "marquis": 4319,
      "issabon": 4320,
      "Gru": 4321,
      "ĠFan": 4322,
      "ĠIntegr": 4323,
      "umping": 4324,
      "AV": 4325,
      "Darum": 4326,
      "Noch": 4327,
      "ĠPrÃ¼": 4328,
      "ĠGonz": 4329,
      "Ġverh": 4330,
      "fiz": 4331,
      "ieÃŁen": 4332,
      "Ġsagt": 4333,
      "tert": 4334,
      "Ġcon": 4335,
      "gesellschaft": 4336,
      "ĠVideo": 4337,
      "Fusionsk": 4338,
      "NAH": 4339,
      "Ste": 4340,
      "anach": 4341,
      "ita": 4342,
      "Ġanderes": 4343,
      "Genau": 4344,
      "uk": 4345,
      "grar": 4346,
      "anzÃ¶s": 4347,
      "Ġspez": 4348,
      "Ġumfassen": 4349,
      "ĠBemerkungen": 4350,
      "rotzdem": 4351,
      "FOLGER": 4352,
      "47": 4353,
      "CO": 4354,
      "STE": 4355,
      "WÃ¤hlen": 4356,
      "komm": 4357,
      "ĠSec": 4358,
      "ĠTor": 4359,
      "Ġauss": 4360,
      "ĠBerat": 4361,
      "produ": 4362,
      "erecht": 4363,
      "ĠProgramme": 4364,
      "IR": 4365,
      "ve": 4366,
      "ĠSal": 4367,
      "ĠSub": 4368,
      "ĠAgenda": 4369,
      "ĠZentrum": 4370,
      "ĠBerlin": 4371,
      "aly": 4372,
      "Ġgestellt": 4373,
      "ĠOb": 4374,
      "Ã¶ÃŁe": 4375,
      "ĠlÃ¤uft": 4376,
      "Gesamt": 4377,
      "rang": 4378,
      "Ġ00": 4379,
      "ĠFerien": 4380,
      "Ġkam": 4381,
      "ĠZeichen": 4382,
      "artmut": 4383,
      "Beide": 4384,
      "2005": 4385,
      "ĠGrÃ¼nde": 4386,
      "52": 4387,
      "61": 4388,
      "Keine": 4389,
      "jÃ¤hr": 4390,
      "oe": 4391,
      "altet": 4392,
      "ĠRess": 4393,
      "ĠÃ¶ffentliche": 4394,
      "FOLGERUNGEN": 4395,
      "ĠnÃ¤h": 4396,
      "Ġzug": 4397,
      "ĠWissenschaft": 4398,
      "ipfel": 4399,
      "such": 4400,
      "weil": 4401,
      "Dennoch": 4402,
      "ĠKompro": 4403,
      "han": 4404,
      "Ġeinigen": 4405,
      "rÃ¼ck": 4406,
      "pfer": 4407,
      "Ġangezeigt": 4408,
      "Aussprache": 4409,
      "ERNENNUNGEN": 4410,
      "ozi": 4411,
      "ĠEis": 4412,
      "ĠFern": 4413,
      "ĠZoll": 4414,
      "ĠInstrum": 4415,
      "zeugen": 4416,
      "sminister": 4417,
      "2010": 4418,
      "Ġopt": 4419,
      "Ġunterbricht": 4420,
      "LUSSFOLGERUNGEN": 4421,
      "Peter": 4422,
      "Ġwor": 4423,
      "ĠGed": 4424,
      "sichtlich": 4425,
      "GRAM": 4426,
      "uche": 4427,
      "stoff": 4428,
      "bert": 4429,
      "ĠWaren": 4430,
      "ÃŁt": 4431,
      "Ġverd": 4432,
      "tete": 4433,
      "ĠDruck": 4434,
      "Ġlaufen": 4435,
      "ĠgegenÃ¼ber": 4436,
      "ĠWettbewerbs": 4437,
      "ĠInstitut": 4438,
      "berg": 4439,
      "ĠStart": 4440,
      "Ġbeginnen": 4441,
      "ĠInitiative": 4442,
      "leitung": 4443,
      "ĠAir": 4444,
      "Ġbelie": 4445,
      "ĠJa": 4446,
      "gebung": 4447,
      "ĠChance": 4448,
      "ĠPerspekt": 4449,
      "Ġweltweit": 4450,
      "Zugang": 4451,
      "je": 4452,
      "ong": 4453,
      "ĠTransparenz": 4454,
      "erner": 4455,
      "Ġwarten": 4456,
      "ziehen": 4457,
      "ĠFilm": 4458,
      "sh": 4459,
      "auss": 4460,
      "ĠPaket": 4461,
      "Ġgro": 4462,
      "IND": 4463,
      "USAMMEN": 4464,
      "ovo": 4465,
      "gentur": 4466,
      "speriode": 4467,
      "finden": 4468,
      "gern": 4469,
      "kosten": 4470,
      "ĠKor": 4471,
      "istor": 4472,
      "Ġ500": 4473,
      "ĠZeitpunkt": 4474,
      "ĠAuto": 4475,
      "HANG": 4476,
      "ezif": 4477,
      "ĠfÃ¶rder": 4478,
      "ĠMig": 4479,
      "ĠKMU": 4480,
      "ĠRednerin": 4481,
      "48": 4482,
      "dung": 4483,
      "rik": 4484,
      "Ġeh": 4485,
      "Ġdrin": 4486,
      "ĠFel": 4487,
      "Ġaut": 4488,
      "Ġkur": 4489,
      "ÃľSS": 4490,
      "atsÃ¤chlich": 4491,
      "ENTWICKL": 4492,
      "NÃ¤here": 4493,
      "vis": 4494,
      "Ġehr": 4495,
      "Ġwollte": 4496,
      "ites": 4497,
      "ĠTagen": 4498,
      "ĠÃ¼berhaupt": 4499,
      "ĠMonate": 4500,
      "ĠStimme": 4501,
      "Ġnennen": 4502,
      "ĠKennt": 4503,
      "ienen": 4504,
      "ĠOpt": 4505,
      "9586": 4506,
      "ĠFlughafen": 4507,
      "Ben": 4508,
      "vÃ¶lker": 4509,
      "andlung": 4510,
      "ulla": 4511,
      "Ġgesprochen": 4512,
      "ĠChar": 4513,
      "Wettbewerbskommissarin": 4514,
      "FAH": 4515,
      "xis": 4516,
      "elen": 4517,
      "ĠPfl": 4518,
      "ĠVis": 4519,
      "Ã¤hn": 4520,
      "Ġherunter": 4521,
      "strÃ¶m": 4522,
      "ĠTeilnehmer": 4523,
      "ĠBarroso": 4524,
      "ĠSolidaritÃ¤t": 4525,
      "ai": 4526,
      "ld": 4527,
      "stein": 4528,
      "ĠRu": 4529,
      "apier": 4530,
      "ĠAuswirkungen": 4531,
      "ĠKunst": 4532,
      "ĠCon": 4533,
      "ĠParis": 4534,
      "lexib": 4535,
      "Geb": 4536,
      "stra": 4537,
      "ĠPrÃ¤sidenten": 4538,
      "Ġbeginnt": 4539,
      "Ġruh": 4540,
      "ĠFax": 4541,
      "rogen": 4542,
      "ova": 4543,
      "ĠÃľBER": 4544,
      "Energie": 4545,
      "Gleich": 4546,
      "emente": 4547,
      "ĠAnwendung": 4548,
      "astrop": 4549,
      "Haushalt": 4550,
      "Ex": 4551,
      "ĠEd": 4552,
      "ĠWohn": 4553,
      "Ãĸffent": 4554,
      "Ã¶rde": 4555,
      "Ã¼tzt": 4556,
      "Allgemeine": 4557,
      "Ser": 4558,
      "ĠAv": 4559,
      "ĠKarte": 4560,
      "ĠFe": 4561,
      "ĠIgl": 4562,
      "ĠStabilitÃ¤t": 4563,
      "Ġseinem": 4564,
      "ekten": 4565,
      "ostet": 4566,
      "arbeiter": 4567,
      "arbeitung": 4568,
      "ĠSitzungsperiode": 4569,
      "ĠKategor": 4570,
      "ĠDesign": 4571,
      "pflichtungen": 4572,
      "sektor": 4573,
      "UP": 4574,
      "seit": 4575,
      "abhÃ¤ng": 4576,
      "grenz": 4577,
      "zeuge": 4578,
      "Ausschuss": 4579,
      "Ġbringen": 4580,
      "Ġinform": 4581,
      "sprech": 4582,
      "Ġschaffen": 4583,
      "Ġyou": 4584,
      "LICHE": 4585,
      "ĠVorteile": 4586,
      "eten": 4587,
      "int": 4588,
      "puter": 4589,
      "stattet": 4590,
      "ĠMedien": 4591,
      "ieg": 4592,
      "Ġgeeig": 4593,
      "ript": 4594,
      "Ã¤hl": 4595,
      "ĠGrenz": 4596,
      "Ġ80": 4597,
      "ĠMÃ¶glichkeit": 4598,
      "ĠVorsitzes": 4599,
      "ĠMot": 4600,
      "ANHANG": 4601,
      "Ġbeide": 4602,
      "ammlung": 4603,
      "Ġregion": 4604,
      "Fusionskontroll": 4605,
      "vol": 4606,
      "wandel": 4607,
      "ierter": 4608,
      "ĠSchwer": 4609,
      "ĠAussch": 4610,
      "alez": 4611,
      "szl": 4612,
      "Ġabsolut": 4613,
      "89": 4614,
      "alb": 4615,
      "gegen": 4616,
      "ĠHerz": 4617,
      "ĠHandels": 4618,
      "ĠIdee": 4619,
      "ĠDiskussion": 4620,
      "54": 4621,
      "con": 4622,
      "oo": 4623,
      "ĠGonzalez": 4624,
      "stung": 4625,
      "ĠMÃ¤n": 4626,
      "ĠKampf": 4627,
      "Ġvertreten": 4628,
      "ontakte": 4629,
      "ĠkÃ¶nnten": 4630,
      "Ġkeiner": 4631,
      "Ġaktuelle": 4632,
      "ĠhÃ¶ren": 4633,
      "QU": 4634,
      "union": 4635,
      "ĠKre": 4636,
      "roulla": 4637,
      "ĠLissabon": 4638,
      "ĠStelle": 4639,
      "ĠÃĦnderung": 4640,
      "ĠGener": 4641,
      "Schluss": 4642,
      "gum": 4643,
      "ĠPolen": 4644,
      "ĠUkraine": 4645,
      "richtung": 4646,
      "ĠServer": 4647,
      "ĠIgles": 4648,
      "ĠRealitÃ¤t": 4649,
      "Ã¤rkte": 4650,
      "Internation": 4651,
      "ATEN": 4652,
      "ĠRegeln": 4653,
      "ĠFotos": 4654,
      "ĠIglesias": 4655,
      "Fr": 4656,
      "ios": 4657,
      "Ã¤sion": 4658,
      "ĠViel": 4659,
      "ĠVassiliou": 4660,
      "ĠWein": 4661,
      "ilien": 4662,
      "duz": 4663,
      "Marisa": 4664,
      "ĠwÃ¤hrend": 4665,
      "ĠHÃ¶": 4666,
      ");": 4667,
      "arn": 4668,
      "Ġvern": 4669,
      "Ġkonnte": 4670,
      "Ġmin": 4671,
      "Ġged": 4672,
      "Ġweiteren": 4673,
      "ĠTagesordnung": 4674,
      "ĠGebiet": 4675,
      "ĠgrÃ¶ÃŁte": 4676,
      "Willst": 4677,
      "ĠEinwÃ¤nde": 4678,
      "Ġlautet": 4679,
      "56": 4680,
      "Mon": 4681,
      "ipp": 4682,
      "ĠÃ¤hn": 4683,
      "Ġsei": 4684,
      "Ġzeigen": 4685,
      "Unternehmen": 4686,
      "Verwalt": 4687,
      "Ġperf": 4688,
      "ĠÃĦnderungsantrÃ¤ge": 4689,
      "yr": 4690,
      "ĠID": 4691,
      "decken": 4692,
      "ffekt": 4693,
      "ĠprÃ¤": 4694,
      "Technische": 4695,
      "ĠverÃ¶ffentlicht": 4696,
      "Weiter": 4697,
      "uff": 4698,
      "inger": 4699,
      "Wieder": 4700,
      "retar": 4701,
      "eralsek": 4702,
      "FE": 4703,
      "MIT": 4704,
      "lÃ¼ck": 4705,
      "Ġdo": 4706,
      "Ġmax": 4707,
      "ĠGeh": 4708,
      "vert": 4709,
      "Ġ60": 4710,
      "Umweltkommissar": 4711,
      "ĠMadrid": 4712,
      "kan": 4713,
      "wenden": 4714,
      "Ġ[": 4715,
      "ĠEt": 4716,
      "ĠKan": 4717,
      "ĠKrieg": 4718,
      "Ġ1998": 4719,
      "51925": 4720,
      "Darauf": 4721,
      "Ġpolitischen": 4722,
      "ĠÃ¶ffentlichen": 4723,
      "Ġerwartet": 4724,
      "mÃ¤ÃŁig": 4725,
      "zent": 4726,
      "ama": 4727,
      "Ã¤ne": 4728,
      "Ġkannst": 4729,
      "Ġsowie": 4730,
      "ĠLÃ¶sungen": 4731,
      "ISSION": 4732,
      "echt": 4733,
      "ĠMc": 4734,
      "roh": 4735,
      "fÃ¼hren": 4736,
      "ĠAdresse": 4737,
      "Ġse": 4738,
      "ĠMoment": 4739,
      "Ġerlau": 4740,
      "Ġanzu": 4741,
      "ution": 4742,
      "ĠCH": 4743,
      "stellungen": 4744,
      "ĠMA": 4745,
      "ĠName": 4746,
      "ĠJe": 4747,
      "Ã¤tzen": 4748,
      "lav": 4749,
      "ZIAL": 4750,
      "ZunÃ¤chst": 4751,
      "ration": 4752,
      "aul": 4753,
      "ausch": 4754,
      "akten": 4755,
      "ĠKriterien": 4756,
      "Car": 4757,
      "GA": 4758,
      "ĠFisch": 4759,
      "ĠDeleg": 4760,
      "folge": 4761,
      "ĠArbeitspl": 4762,
      "Landwirtschaft": 4763,
      "cor": 4764,
      "Ġzentr": 4765,
      "ĠlÃ¤nger": 4766,
      "ĠSprachen": 4767,
      "Verfahren": 4768,
      "Ã¤ude": 4769,
      "mbH": 4770,
      "Ġeinzige": 4771,
      "GL": 4772,
      "mehr": 4773,
      "wohl": 4774,
      "eiz": 4775,
      "ĠFÃ¼hr": 4776,
      "ĠGott": 4777,
      "lekt": 4778,
      "ĠLu": 4779,
      "ROGRAM": 4780,
      "olitische": 4781,
      "Ġrel": 4782,
      "POLITIK": 4783,
      "ĠKos": 4784,
      "ĠEinzelheiten": 4785,
      "Ġad": 4786,
      "ĠPrivat": 4787,
      "ric": 4788,
      "ĠUnivers": 4789,
      "ĠFamilien": 4790,
      "LIN": 4791,
      "ero": 4792,
      "ĠBlog": 4793,
      "ERGIE": 4794,
      "sph": 4795,
      "rikt": 4796,
      "Ġ35": 4797,
      "ĠAuswÃ¤rt": 4798,
      "ĠAuskÃ¼nfte": 4799,
      "Stell": 4800,
      "Ġverschiedenen": 4801,
      "EuropÃ¤isches": 4802,
      "Ã¼rger": 4803,
      "ehlt": 4804,
      "....": 4805,
      "Ġpriv": 4806,
      "fÃ¼gen": 4807,
      "idumping": 4808,
      "gemeinen": 4809,
      "rahmen": 4810,
      "ated": 4811,
      "bereitung": 4812,
      "ĠWunsch": 4813,
      "ĠZust": 4814,
      "ĠVeranst": 4815,
      "ĠRechn": 4816,
      "ĠstÃ¤r": 4817,
      "Ġgeworden": 4818,
      "netz": 4819,
      "richten": 4820,
      "Ġunten": 4821,
      "annte": 4822,
      "ĠCD": 4823,
      "Ã¼tzliche": 4824,
      "Ġjedes": 4825,
      "ĠBeifall": 4826,
      "EITUNG": 4827,
      "schlieÃŁend": 4828,
      "ĠPartnerschaft": 4829,
      "92": 4830,
      "Frei": 4831,
      "nungen": 4832,
      "onen": 4833,
      "RAGEN": 4834,
      "ĠBemerkung": 4835,
      "Zeit": 4836,
      "svor": 4837,
      "Ġel": 4838,
      "ĠAgrar": 4839,
      "ahlt": 4840,
      "ĠEng": 4841,
      "ĠWahrheit": 4842,
      "Ġdiskut": 4843,
      "ĠKenntnis": 4844,
      "Nein": 4845,
      "sie": 4846,
      "ĠBad": 4847,
      "ĠGast": 4848,
      "ĠStandpunkt": 4849,
      "wasser": 4850,
      "41": 4851,
      "bel": 4852,
      "lad": 4853,
      "vo": 4854,
      "Ġdich": 4855,
      "ĠFÃ¶rderung": 4856,
      "ĠZweck": 4857,
      "Ġbevor": 4858,
      "ĠAnfragen": 4859,
      "ivil": 4860,
      "Nr": 4861,
      "ĠAM": 4862,
      "ĠMiss": 4863,
      "Ġkaufen": 4864,
      "ĠSCHLUSSFOLGERUNGEN": 4865,
      "behalten": 4866,
      "lass": 4867,
      "ane": 4868,
      "ĠFol": 4869,
      "beg": 4870,
      "Ġganzen": 4871,
      "ĠMÃ¶glichkeiten": 4872,
      "82": 4873,
      "CU": 4874,
      "ĠGmbH": 4875,
      "Ġverein": 4876,
      "ĠForum": 4877,
      "Deswegen": 4878,
      "ĠAmer": 4879,
      "fÃ¤lle": 4880,
      "ĠErach": 4881,
      "ĠTelefon": 4882,
      "ĠerhÃ¶": 4883,
      "ĠChrist": 4884,
      "ĠVorschriften": 4885,
      "klÃ¤rungen": 4886,
      "ĠFlÃ¼": 4887,
      "Ã¶chten": 4888,
      "ĠPraxis": 4889,
      "ĠErachtens": 4890,
      "statt": 4891,
      "techn": 4892,
      "ĠkÃ¼nft": 4893,
      "Ġalt": 4894,
      "ĠAnnahme": 4895,
      "Ġvorgesehen": 4896,
      "ennung": 4897,
      "ĠbestÃ¤t": 4898,
      "Ġkostet": 4899,
      "ĠHartmut": 4900,
      "ĠtÃ¤glich": 4901,
      "ĠBerichts": 4902,
      "ISCHE": 4903,
      "ondern": 4904,
      "ĠWirkung": 4905,
      "TRAN": 4906,
      "fÃ¤hr": 4907,
      "Ã¤te": 4908,
      "abil": 4909,
      "umanitÃ¤re": 4910,
      "ĠSek": 4911,
      "eta": 4912,
      "Ġherr": 4913,
      "Ġaufbauen": 4914,
      "ĠNicht": 4915,
      "ĠArten": 4916,
      "MÃ¶chte": 4917,
      "zlichen": 4918,
      "ĠSinn": 4919,
      "ĠEIN": 4920,
      "ille": 4921,
      "enthalt": 4922,
      "ĠZus": 4923,
      "Ã¤rkung": 4924,
      "Ġinstall": 4925,
      "MISSION": 4926,
      "geber": 4927,
      "rael": 4928,
      "rete": 4929,
      "Ġprakt": 4930,
      "Ġjem": 4931,
      "fÃ¼h": 4932,
      "ĠEinsatz": 4933,
      "Ġgutes": 4934,
      "ĠAmt": 4935,
      "Ġrechts": 4936,
      "Ġirgend": 4937,
      "Ġinnerhalb": 4938,
      "ĠFINANZEN": 4939,
      "GE": 4940,
      "Ġging": 4941,
      "ĠDom": 4942,
      "Ġzweiten": 4943,
      "Ã¶ffnung": 4944,
      "ransport": 4945,
      "FORM": 4946,
      "ĠFirma": 4947,
      "IO": 4948,
      "standen": 4949,
      "artige": 4950,
      "Vers": 4951,
      "zeitig": 4952,
      "Ġerfolgreich": 4953,
      "angeb": 4954,
      "ĠBug": 4955,
      "Ġzahl": 4956,
      "ĠKn": 4957,
      "ĠWieder": 4958,
      "ĠTrans": 4959,
      "ĠZU": 4960,
      "ĠErd": 4961,
      "Ind": 4962,
      "okes": 4963,
      "Quelle": 4964,
      "wortet": 4965,
      "ĠHaushalts": 4966,
      "ĠWerte": 4967,
      "KÃ¶nnen": 4968,
      "ĠMrd": 4969,
      "reff": 4970,
      "ĠGefahr": 4971,
      "ĠerklÃ¤rt": 4972,
      "Ġbenutzen": 4973,
      "Abstimmung": 4974,
      "Dennis": 4975,
      "Ġgesamte": 4976,
      "USAMMENARBEIT": 4977,
      "MÃ¶chten": 4978,
      "letter": 4979,
      "Ġeuch": 4980,
      "Ã¤mp": 4981,
      "ĠAust": 4982,
      "Ġwert": 4983,
      "ĠFreiheit": 4984,
      "ĠFolgendes": 4985,
      "ĠKonsultation": 4986,
      "Ġangesprochen": 4987,
      "42": 4988,
      "eiger": 4989,
      "onds": 4990,
      "ĠSO": 4991,
      "ĠGriechenland": 4992,
      "ometer": 4993,
      "Ġleg": 4994,
      "ĠNew": 4995,
      "vertretender": 4996,
      "LÃľSS": 4997,
      "gliche": 4998,
      "mÃ¶": 4999,
      "ĠAB": 5000,
      "ĠVerÃ¤nder": 5001,
      "Derzeit": 5002,
      "Ġreag": 5003,
      "ĠFragestunde": 5004,
      "Euro": 5005,
      "Ġdringend": 5006,
      "sprechpartner": 5007,
      "urity": 5008,
      "schungs": 5009,
      "ĠArch": 5010,
      "neut": 5011,
      "Ġgesehen": 5012,
      "ĠMitarbeiter": 5013,
      "bedingt": 5014,
      "nach": 5015,
      "ĠMo": 5016,
      "ĠWTO": 5017,
      "ĠInsel": 5018,
      "ĠprÃ¼": 5019,
      "Ġihrem": 5020,
      "Ġ09": 5021,
      "ĠIntegration": 5022,
      "ĠRessourcen": 5023,
      "Ziel": 5024,
      "bott": 5025,
      "unehmen": 5026,
      "alist": 5027,
      "itor": 5028,
      "gefÃ¼hrt": 5029,
      "ĠKind": 5030,
      "ĠberÃ¼ck": 5031,
      "folgerung": 5032,
      "Werden": 5033,
      "2013": 5034,
      "ĠLesung": 5035,
      "bal": 5036,
      "det": 5037,
      "Ġus": 5038,
      "Ġsehe": 5039,
      "ĠGolf": 5040,
      "rug": 5041,
      "Ġkleinen": 5042,
      "ĠgewÃ¤hr": 5043,
      "SF": 5044,
      "ĠVOR": 5045,
      "eiligung": 5046,
      "baren": 5047,
      "itzen": 5048,
      "ĠAlb": 5049,
      "Ġaktuellen": 5050,
      "ĠAktiv": 5051,
      "Fusionskontrollvorschriften": 5052,
      "Ur": 5053,
      "dlich": 5054,
      "ĠSP": 5055,
      "ategor": 5056,
      "ĠLeit": 5057,
      "ĠCent": 5058,
      "SPAR": 5059,
      "Ġfreue": 5060,
      "ĠInfrastruktur": 5061,
      "ĠHerausforderung": 5062,
      "lÃ¤ndern": 5063,
      "ĠSelbst": 5064,
      "Ã¤gt": 5065,
      "Ġwider": 5066,
      "ish": 5067,
      "ĠNachbar": 5068,
      "ĠGewalt": 5069,
      "Ġschwierig": 5070,
      "ĠOrdnung": 5071,
      "OD": 5072,
      "ormal": 5073,
      "ĠTur": 5074,
      "klus": 5075,
      "Ġvielleicht": 5076,
      "Ġbedeuten": 5077,
      "rÃ¤nk": 5078,
      "ĠAuff": 5079,
      "ĠGruppen": 5080,
      "RUNG": 5081,
      "ĠSE": 5082,
      "gegeben": 5083,
      "ĠKontrolle": 5084,
      "ĠCamp": 5085,
      "Ġdefin": 5086,
      "wachung": 5087,
      "ĠRechnungs": 5088,
      "OW": 5089,
      "jekte": 5090,
      "mit": 5091,
      "stoffe": 5092,
      "ĠAUF": 5093,
      "ĠWinter": 5094,
      "ĠLink": 5095,
      "immungen": 5096,
      "ĠOber": 5097,
      "Ã¶rper": 5098,
      "STR": 5099,
      "Ã¼tzen": 5100,
      "ĠVertrauen": 5101,
      "dessen": 5102,
      "irektor": 5103,
      "Ġext": 5104,
      "ULT": 5105,
      "kraft": 5106,
      "mt": 5107,
      "ĠSw": 5108,
      "Ġmag": 5109,
      "ĠWI": 5110,
      "SAME": 5111,
      "Ġziehen": 5112,
      "ĠerwÃ¤hnt": 5113,
      "MS": 5114,
      "ĠSlow": 5115,
      "ĠKrank": 5116,
      "Ã¤tig": 5117,
      "ĠmÃ¼nd": 5118,
      "Ġ%.": 5119,
      "ĠExp": 5120,
      "Frage": 5121,
      "Zimmer": 5122,
      "ippe": 5123,
      "wser": 5124,
      "Ġsondern": 5125,
      "derung": 5126,
      "Ġverfolgt": 5127,
      "ĠKonzept": 5128,
      "Ġgewesen": 5129,
      "ĠProduktion": 5130,
      "ĠHinsicht": 5131,
      "ĠMittwoch": 5132,
      "Ġest": 5133,
      "Ġsetzt": 5134,
      "ĠFen": 5135,
      "ĠLeute": 5136,
      "sprÃ¼": 5137,
      "grÃ¼ndet": 5138,
      "leisch": 5139,
      "ĠSchluÃŁ": 5140,
      "ĠDateien": 5141,
      "Ġakzeptieren": 5142,
      "ĠPerspektiven": 5143,
      "ĠAss": 5144,
      "Ġmus": 5145,
      "ĠfÃ¼h": 5146,
      "0000": 5147,
      "Ġerweiter": 5148,
      "ĠNutzung": 5149,
      "ĠRest": 5150,
      "Ã¤llt": 5151,
      "ĠApartment": 5152,
      "verkehrs": 5153,
      "diglich": 5154,
      "ĠOperation": 5155,
      "da": 5156,
      "das": 5157,
      "iew": 5158,
      "ala": 5159,
      "ĠPC": 5160,
      "ĠKarten": 5161,
      "ĠDoppel": 5162,
      "Ġspricht": 5163,
      "Ġlediglich": 5164,
      "ĠÃ¼brigen": 5165,
      "43": 5166,
      "73": 5167,
      "OG": 5168,
      "itÃ¤r": 5169,
      "ĠGleich": 5170,
      "ĠerÃ¶ffnet": 5171,
      "Ġtragen": 5172,
      "Informationen": 5173,
      "ITÃĦ": 5174,
      "ĠSpaÃŁ": 5175,
      "ĠBetrieb": 5176,
      "Ġregistr": 5177,
      ".-": 5178,
      "dete": 5179,
      "Ã¤tigkeit": 5180,
      "ĠArgum": 5181,
      "oher": 5182,
      "ĠBewertung": 5183,
      "Ġ1997": 5184,
      "Ġgleiche": 5185,
      "Ġguter": 5186,
      "gehend": 5187,
      "EA": 5188,
      "by": 5189,
      "ness": 5190,
      "ĠAgentur": 5191,
      "ĠPosition": 5192,
      "Ġkaum": 5193,
      "ĠGet": 5194,
      "ĠBerichte": 5195,
      "Ã¼nsche": 5196,
      "EIB": 5197,
      "Ġverkauf": 5198,
      "Insgesamt": 5199,
      "91": 5200,
      "ativen": 5201,
      "ĠAfrika": 5202,
      "Ġverteilt": 5203,
      "ĠeuropÃ¤": 5204,
      "Ġmeines": 5205,
      "Ã¶tig": 5206,
      "Ġpositiv": 5207,
      "ĠSchweiz": 5208,
      "EF": 5209,
      "nissen": 5210,
      "rist": 5211,
      "vel": 5212,
      "ausen": 5213,
      "Ġunbedingt": 5214,
      "ĠPan": 5215,
      "ĠGlob": 5216,
      "andt": 5217,
      "ERN": 5218,
      "Ġdenken": 5219,
      "Ġabgeschlossen": 5220,
      "Ġspielt": 5221,
      "Hierzu": 5222,
      "Ã¼ltig": 5223,
      "Sh": 5224,
      "VII": 5225,
      "iden": 5226,
      "iten": 5227,
      "achse": 5228,
      "schafter": 5229,
      "ĠOpfer": 5230,
      "Vertrag": 5231,
      "Ġbetroffen": 5232,
      "ĠÃĸsterreich": 5233,
      "Ġgeboren": 5234,
      "GES": 5235,
      "oss": 5236,
      "wa": 5237,
      "Ġvan": 5238,
      "ĠMy": 5239,
      "ĠWill": 5240,
      "ĠZentral": 5241,
      "ĠJapan": 5242,
      "Ġoben": 5243,
      "imas": 5244,
      "Ġbetreffen": 5245,
      "zeugt": 5246,
      "ĠLiefer": 5247,
      "ĠUpd": 5248,
      "Men": 5249,
      "Mir": 5250,
      "zus": 5251,
      "ĠSicht": 5252,
      "ates": 5253,
      "ĠIrland": 5254,
      "ĠOsten": 5255,
      "ÃĦnder": 5256,
      "Schutz": 5257,
      "2002": 5258,
      "ĠLebensmittel": 5259,
      "verstÃ¤ndlich": 5260,
      "vÃ¶lkerung": 5261,
      "LÃľSSE": 5262,
      "Kein": 5263,
      "eisen": 5264,
      "anten": 5265,
      "irt": 5266,
      "Ġloc": 5267,
      "barung": 5268,
      "2009": 5269,
      "Ã¤hrungs": 5270,
      "ĠPersonal": 5271,
      "ĠBestell": 5272,
      "prÃ¼fung": 5273,
      "66": 5274,
      "ament": 5275,
      "00352": 5276,
      "ĠInternation": 5277,
      "utsche": 5278,
      "euerung": 5279,
      "ĠMobilitÃ¤t": 5280,
      "SchluÃŁ": 5281,
      "UCHT": 5282,
      "Ġeinzelnen": 5283,
      "VD": 5284,
      "ĠEing": 5285,
      "ĠOption": 5286,
      "avig": 5287,
      "ĠSuche": 5288,
      "bringen": 5289,
      "Ġorganis": 5290,
      "Ġfrom": 5291,
      "Ġfahren": 5292,
      "igur": 5293,
      "ĠLo": 5294,
      "ĠVerl": 5295,
      "Ġtrifft": 5296,
      "ĠRatsprÃ¤sident": 5297,
      "SchlieÃŁ": 5298,
      "ĠAlle": 5299,
      "dam": 5300,
      "ius": 5301,
      "ĠBon": 5302,
      "ĠIrak": 5303,
      "how": 5304,
      "Ġempfehlen": 5305,
      "MW": 5306,
      "NÃ¼tzliche": 5307,
      "Preis": 5308,
      "ua": 5309,
      "chmal": 5310,
      "Ġweil": 5311,
      "isl": 5312,
      "ĠBahn": 5313,
      "ĠhÃ¤ufig": 5314,
      "spokes": 5315,
      "100": 5316,
      "lÃ¤u": 5317,
      "Ġsauber": 5318,
      "ĠfrÃ¼": 5319,
      "ĠGR": 5320,
      "ĠBeruf": 5321,
      "meer": 5322,
      "ĠGesellschaft": 5323,
      "ĠKommun": 5324,
      "Ġunge": 5325,
      "ĠRegelung": 5326,
      "Ġwunder": 5327,
      "ĠClub": 5328,
      "ÃĦFT": 5329,
      "Start": 5330,
      "ertig": 5331,
      "artement": 5332,
      "ECspokes": 5333,
      "ĠRECH": 5334,
      "ĠschlÃ¤gt": 5335,
      "ĠComputer": 5336,
      "Bar": 5337,
      "ezial": 5338,
      "zwischen": 5339,
      "Ġsechs": 5340,
      "asur": 5341,
      "ONT": 5342,
      "ĠZusammenhang": 5343,
      "radition": 5344,
      "ĠPie": 5345,
      "ĠMag": 5346,
      "ĠMart": 5347,
      "udem": 5348,
      "ction": 5349,
      "ĠHerzen": 5350,
      "ĠMaÃŁnahme": 5351,
      "ĠTerrorismus": 5352,
      "ift": 5353,
      "iegen": 5354,
      "ĠImm": 5355,
      "ĠBereichen": 5356,
      "Ġ45": 5357,
      "Ġherzlich": 5358,
      "ĠPrioritÃ¤t": 5359,
      "ĠwÃ¼nsche": 5360,
      "ĠOrganis": 5361,
      "Lesen": 5362,
      "mann": 5363,
      "vid": 5364,
      "Ġ).": 5365,
      "itieren": 5366,
      "Ġbein": 5367,
      "tere": 5368,
      "ĠDritt": 5369,
      "Ġerneut": 5370,
      "mension": 5371,
      "Verkehr": 5372,
      "Ġjeweil": 5373,
      "Antidumping": 5374,
      "aterial": 5375,
      "legung": 5376,
      "Ko": 5377,
      "sto": 5378,
      "Einzel": 5379,
      "hilippe": 5380,
      "ĠbenÃ¶tigt": 5381,
      "Ġautomat": 5382,
      "SPARENZ": 5383,
      "iar": 5384,
      "Ġzustimmen": 5385,
      "Ġangem": 5386,
      "cks": 5387,
      "ĠNation": 5388,
      "ĠOl": 5389,
      "ĠAngelegenheit": 5390,
      "ĠMonat": 5391,
      "tragen": 5392,
      "eng": 5393,
      "dert": 5394,
      "ĠGas": 5395,
      "ĠlÃ¤nd": 5396,
      "ĠBereiche": 5397,
      "ĠVorgehen": 5398,
      "alta": 5399,
      "ĠMenge": 5400,
      "Ġfreund": 5401,
      "Michael": 5402,
      "Ġkurze": 5403,
      "FAHREN": 5404,
      "ROGRAMM": 5405,
      "Aktion": 5406,
      "Zudem": 5407,
      "eib": 5408,
      "Diesen": 5409,
      "ĠLauf": 5410,
      "ienste": 5411,
      "iell": 5412,
      "alls": 5413,
      "Ġ90": 5414,
      "Ġ2020": 5415,
      "ĠMenschenrechte": 5416,
      "ĠSicherheits": 5417,
      "anderung": 5418,
      "Zusammenarbeit": 5419,
      "ĠErfahrung": 5420,
      "Jedes": 5421,
      "Ġserviert": 5422,
      "ĠKosovo": 5423,
      "Lszl": 5424,
      "Ph": 5425,
      "lant": 5426,
      "Ġdritte": 5427,
      "Ġil": 5428,
      "ĠMacht": 5429,
      "omep": 5430,
      "schlÃ¤ge": 5431,
      "ETZ": 5432,
      "Ġendlich": 5433,
      "UTZ": 5434,
      "Ger": 5435,
      "fg": 5436,
      "kten": 5437,
      "ĠLuxemburg": 5438,
      "ĠInformations": 5439,
      "Ġrichtigen": 5440,
      "ĠĠĠ": 5441,
      "ĠAltern": 5442,
      "ava": 5443,
      "Jede": 5444,
      "ĠKopf": 5445,
      "83": 5446,
      "WEIT": 5447,
      "ii": 5448,
      "karte": 5449,
      "liste": 5450,
      "umm": 5451,
      "ĠAspekt": 5452,
      "ĠPH": 5453,
      "ĠHause": 5454,
      "ĠTier": 5455,
      "eilung": 5456,
      "Information": 5457,
      "Ġvorliegen": 5458,
      "ĠArb": 5459,
      "Ġ43": 5460,
      "nete": 5461,
      "ELLE": 5462,
      "Ġleisten": 5463,
      "IGUNGSPOLITIK": 5464,
      "Ġerlaubt": 5465,
      "ĠprÃ¼fen": 5466,
      "Komm": 5467,
      "ym": 5468,
      "ĠSant": 5469,
      "Ã¤cht": 5470,
      "alia": 5471,
      "ĠKÃ¼r": 5472,
      "ĠTem": 5473,
      "ĠgefÃ¼hrt": 5474,
      "ĠtrÃ¤gt": 5475,
      "Ġunseres": 5476,
      "ĠVorhaben": 5477,
      "ave": 5478,
      "Entwicklung": 5479,
      "ĠNewsletter": 5480,
      "Beitrag": 5481,
      "Nehmen": 5482,
      "Ġarbeitet": 5483,
      "ese": 5484,
      "ĠAlt": 5485,
      "ehnt": 5486,
      "ĠArmut": 5487,
      "Verfasst": 5488,
      "orgung": 5489,
      "gewiesen": 5490,
      "alisiert": 5491,
      "ocus": 5492,
      "Pressekontakte": 5493,
      "Ġwelchen": 5494,
      "ĠModell": 5495,
      "dienste": 5496,
      "gruppe": 5497,
      "Ġentspricht": 5498,
      "Nie": 5499,
      "ancen": 5500,
      "ĠWider": 5501,
      "Ġ1000": 5502,
      "rÃ¼cken": 5503,
      "ivid": 5504,
      "ickt": 5505,
      "ERTEID": 5506,
      "ziehung": 5507,
      "Gegen": 5508,
      "La": 5509,
      "Ro": 5510,
      "Sonst": 5511,
      "falt": 5512,
      "zeichen": 5513,
      "ĠSil": 5514,
      "orgt": 5515,
      "ĠAusgaben": 5516,
      "ĠUntersuch": 5517,
      "forderungen": 5518,
      "ontrollen": 5519,
      "undert": 5520,
      "Ġhoffen": 5521,
      "Ġgarant": 5522,
      "ĠfÃ¼gte": 5523,
      "meldung": 5524,
      "Ġoptim": 5525,
      "TRANSPARENZ": 5526,
      "omepage": 5527,
      "ĠVII": 5528,
      "ĠStÃ¤d": 5529,
      "ĠBotschaft": 5530,
      "System": 5531,
      "iÃŁ": 5532,
      "ĠKur": 5533,
      "schau": 5534,
      "Ġausreichen": 5535,
      "izenz": 5536,
      "ĠProtokolls": 5537,
      "Ġvollkommen": 5538,
      "mitteln": 5539,
      "bekÃ¤mpfung": 5540,
      "Rechts": 5541,
      "GEMEINSAME": 5542,
      "ĠKOMMISSION": 5543,
      "Ġgratul": 5544,
      "celona": 5545,
      "DS": 5546,
      "Ġbl": 5547,
      "ĠBanken": 5548,
      "ĠhÃ¤lt": 5549,
      "scheidung": 5550,
      "Inter": 5551,
      "ĠBef": 5552,
      "ĠAufgaben": 5553,
      "Ġbessere": 5554,
      "ĠPasswort": 5555,
      "MÃ¶chtest": 5556,
      "Kro": 5557,
      "UG": 5558,
      "greifen": 5559,
      "ikt": 5560,
      "lÃ¤nd": 5561,
      "ĠÃ¶": 5562,
      "ĠSinne": 5563,
      "Ġfehlt": 5564,
      "Ġno": 5565,
      "ole": 5566,
      "ĠDoll": 5567,
      "eschl": 5568,
      "ĠMac": 5569,
      "ALL": 5570,
      "plant": 5571,
      "Ġbehandelt": 5572,
      "ĠReserv": 5573,
      "Ġversuchen": 5574,
      "afft": 5575,
      "ffizienz": 5576,
      "Datenbank": 5577,
      "Seine": 5578,
      "Zus": 5579,
      "isse": 5580,
      "isiert": 5581,
      "ĠUrteil": 5582,
      "ĠStÃ¼ck": 5583,
      "Ã¤nglich": 5584,
      "laf": 5585,
      "retariat": 5586,
      "Ġdein": 5587,
      "esien": 5588,
      "Ã¤st": 5589,
      "ĠPot": 5590,
      "ĠBi": 5591,
      "ĠHintergrund": 5592,
      "ĠVERTEID": 5593,
      "istiken": 5594,
      "werte": 5595,
      "samen": 5596,
      "Ġklare": 5597,
      "ĠunterstÃ¼tze": 5598,
      "Ap": 5599,
      "ĠPortugal": 5600,
      "ĠMer": 5601,
      "Ã¶hn": 5602,
      "ĠStad": 5603,
      "losen": 5604,
      "bezogen": 5605,
      "aufnahme": 5606,
      "ĠFortschritt": 5607,
      "ĠAuftrag": 5608,
      "ĠAnmerkungen": 5609,
      "ĠSonder": 5610,
      "ĠVan": 5611,
      "ĠVerbesserung": 5612,
      "ĠtÃ¤tig": 5613,
      "Ġreden": 5614,
      "ĠTourismus": 5615,
      "ĠAktionsplan": 5616,
      "ĠSecurity": 5617,
      "Sc": 5618,
      "oto": 5619,
      "Ġstaff": 5620,
      "Ġvorbei": 5621,
      "ĠUnd": 5622,
      "barkeit": 5623,
      "ohnt": 5624,
      "ILD": 5625,
      "ĠEnglisch": 5626,
      "Gemeinsame": 5627,
      "Dort": 5628,
      "Is": 5629,
      "Ol": 5630,
      "Ġhistor": 5631,
      "raf": 5632,
      "Ġunterschied": 5633,
      "steller": 5634,
      "Ġerscheint": 5635,
      "PS": 5636,
      "ĠRech": 5637,
      "ĠAufenthalt": 5638,
      "affe": 5639,
      "PE": 5640,
      "ĠnÃ¤": 5641,
      "ĠImp": 5642,
      "ĠVilla": 5643,
      "uster": 5644,
      "qualitÃ¤t": 5645,
      "fuhren": 5646,
      "Ġdauert": 5647,
      "Drit": 5648,
      "zw": 5649,
      "ĠGro": 5650,
      "eits": 5651,
      "Ġregel": 5652,
      "apaz": 5653,
      "flÃ¤che": 5654,
      "Ġexist": 5655,
      "ampag": 5656,
      "Ġgleichen": 5657,
      "ĠCostasur": 5658,
      "Dadurch": 5659,
      "Pl": 5660,
      "nov": 5661,
      "onik": 5662,
      "Ġbil": 5663,
      "bereiche": 5664,
      "ĠHoff": 5665,
      "ĠRezept": 5666,
      "sprozess": 5667,
      "ĠergÃ¤n": 5668,
      "MaÃŁnahmen": 5669,
      "ĠFenster": 5670,
      "Pressemitteilungen": 5671,
      "stre": 5672,
      "Ġmm": 5673,
      "ĠDimas": 5674,
      "ĠLicht": 5675,
      "ĠCan": 5676,
      "STAGUNG": 5677,
      "eidungen": 5678,
      "flÃ¼": 5679,
      "ĠVerbindung": 5680,
      "SONSTIGES": 5681,
      "ĠSpieler": 5682,
      "ĠKlimawandel": 5683,
      "ĠAbend": 5684,
      "pekt": 5685,
      "Ã¼ter": 5686,
      "ĠBER": 5687,
      "ĠFakt": 5688,
      "ÃĦN": 5689,
      "Ansprechpartner": 5690,
      "losigkeit": 5691,
      "konom": 5692,
      "Region": 5693,
      "unkten": 5694,
      "ĠBESCHLÃľSSE": 5695,
      "AU": 5696,
      "aj": 5697,
      "hnt": 5698,
      "ĠKir": 5699,
      "dest": 5700,
      "chengen": 5701,
      "Ġabgel": 5702,
      "Ġniemand": 5703,
      "ĠAndor": 5704,
      "Ġsozialen": 5705,
      "useum": 5706,
      "ĠSICHERHEITS": 5707,
      "Kroatien": 5708,
      "Fragen": 5709,
      "PF": 5710,
      "finanz": 5711,
      "mod": 5712,
      "sichtig": 5713,
      "uern": 5714,
      "ene": 5715,
      "test": 5716,
      "ĠRumÃ¤nien": 5717,
      "reak": 5718,
      "Ġverlan": 5719,
      "bezÃ¼glich": 5720,
      "indestens": 5721,
      "Ġjederzeit": 5722,
      "Ġgeeignet": 5723,
      "siehe": 5724,
      "Fran": 5725,
      "Gest": 5726,
      "Russland": 5727,
      "Ġav": 5728,
      "akzept": 5729,
      "Verbesserung": 5730,
      "ORG": 5731,
      "Ġwenige": 5732,
      "China": 5733,
      "Ġthis": 5734,
      "ĠHerausforderungen": 5735,
      "SchluÃŁfolgerung": 5736,
      "SchlieÃŁlich": 5737,
      "Ġ$": 5738,
      "asmus": 5739,
      "ary": 5740,
      "ĠWall": 5741,
      "rekt": 5742,
      "umen": 5743,
      "ĠStock": 5744,
      "Ġlos": 5745,
      "ĠNein": 5746,
      "Ġoffiz": 5747,
      "Ã¶rden": 5748,
      "Ġgenommen": 5749,
      "ĠĠĠĠĠĠĠĠ": 5750,
      "ĠTechnologie": 5751,
      "ĠAsyl": 5752,
      "ĠFranch": 5753,
      "Ġentwickelt": 5754,
      "ĠEmpfehlungen": 5755,
      "ograf": 5756,
      "ĠBeratung": 5757,
      "62": 5758,
      "72": 5759,
      "RIS": 5760,
      "SEN": 5761,
      "We": 5762,
      "ĠAc": 5763,
      "text": 5764,
      "ĠPrem": 5765,
      "ĠWeiter": 5766,
      "ERB": 5767,
      "heben": 5768,
      "antie": 5769,
      "ĠAusgang": 5770,
      "Ġgenannt": 5771,
      "Genehmigung": 5772,
      "schlieÃŁlich": 5773,
      "Herzlich": 5774,
      "AUSHALT": 5775,
      "Hat": 5776,
      "holen": 5777,
      "ĠKredit": 5778,
      "Ġ475": 5779,
      "Stand": 5780,
      "ards": 5781,
      "ĠStellvertretender": 5782,
      "ĠZweifel": 5783,
      "Ġangeboten": 5784,
      "ĠKompromiss": 5785,
      "MUN": 5786,
      "Ġsinn": 5787,
      "ĠTreffen": 5788,
      "ENERGIE": 5789,
      "annten": 5790,
      "ĠBerg": 5791,
      "ANN": 5792,
      "iziert": 5793,
      "Ġ04": 5794,
      "ELT": 5795,
      "ĠDatenschutz": 5796,
      "Ġfunktionieren": 5797,
      "ĠReformen": 5798,
      "ĠKÃ¼che": 5799,
      "ĠVerwaltung": 5800,
      "Verwaltungs": 5801,
      "iot": 5802,
      "ĠTats": 5803,
      "achte": 5804,
      "Ġansprechen": 5805,
      "annen": 5806,
      "Ġbeachten": 5807,
      "ags": 5808,
      "avros": 5809,
      "Ã¶ffnen": 5810,
      "ĠLinie": 5811,
      "Ġbezahlen": 5812,
      "itÃ¤tsachse": 5813,
      "ĠFÃ¤llen": 5814,
      "ĠVERTEIDIGUNGSPOLITIK": 5815,
      "Ho": 5816,
      "ulen": 5817,
      "ather": 5818,
      "ram": 5819,
      "ĠDetails": 5820,
      "igh": 5821,
      "ĠgegrÃ¼ndet": 5822,
      "opy": 5823,
      "Ġerfolgen": 5824,
      "ĠFinanzierung": 5825,
      "ĠUnterschied": 5826,
      "alismus": 5827,
      "Ġbedarf": 5828,
      "UnterstÃ¼tzung": 5829,
      "ĠStraÃŁen": 5830,
      "aison": 5831,
      "Ob": 5832,
      "sum": 5833,
      "Ġbas": 5834,
      "ike": 5835,
      "Ġpassen": 5836,
      "2008": 5837,
      "Ġgesetzt": 5838,
      "ĠMenÃ¼": 5839,
      "Ġ%)": 5840,
      "indest": 5841,
      "ĠFranchise": 5842,
      "76": 5843,
      "zum": 5844,
      "stes": 5845,
      "ĠMand": 5846,
      "ĠIns": 5847,
      "rian": 5848,
      "heet": 5849,
      "Ã¶rt": 5850,
      "Ġanderer": 5851,
      "icherung": 5852,
      "Ġsolchen": 5853,
      "Ġangegeben": 5854,
      "ĠDimension": 5855,
      "ĠfÃ¶rdern": 5856,
      "Geben": 5857,
      "Mitteilung": 5858,
      "ya": 5859,
      "artet": 5860,
      "Ġzehn": 5861,
      "Ġintegr": 5862,
      "ĠDigit": 5863,
      "igin": 5864,
      "leb": 5865,
      "ktionen": 5866,
      "ĠNah": 5867,
      "Ġallgemein": 5868,
      "OLL": 5869,
      "BEREITUNG": 5870,
      "Ġverloren": 5871,
      "Welches": 5872,
      "acts": 5873,
      "Ġantworten": 5874,
      "ĠFelder": 5875,
      "balgs": 5876,
      "DI": 5877,
      "Ġnormal": 5878,
      "ĠBio": 5879,
      "sequ": 5880,
      "Ġtot": 5881,
      "ĠstÃ¤nd": 5882,
      "Ġpar": 5883,
      "ĠÃĸl": 5884,
      "richtlinie": 5885,
      "ologien": 5886,
      "ĠAdR": 5887,
      "Ġnahe": 5888,
      "behÃ¶rde": 5889,
      "Ġeinzig": 5890,
      "ĠAngebote": 5891,
      "alyse": 5892,
      "Ġbelieb": 5893,
      "ĠPiebalgs": 5894,
      "ĠnÃ¤mlich": 5895,
      "fast": 5896,
      "hotel": 5897,
      "olo": 5898,
      "ĠTeile": 5899,
      "Ġgekommen": 5900,
      "ĠZypern": 5901,
      "ĠStellen": 5902,
      "ĠverÃ¤ndert": 5903,
      "rÃ¤ger": 5904,
      "Ġ300": 5905,
      "ĠBezug": 5906,
      "Ġ70": 5907,
      "2003": 5908,
      "ĠFoto": 5909,
      "Ġnationalen": 5910,
      "Ġeher": 5911,
      "Ganz": 5912,
      "ĠSam": 5913,
      "ĠDar": 5914,
      "ohlen": 5915,
      "ques": 5916,
      "ondon": 5917,
      "Ġsage": 5918,
      "Ġkrit": 5919,
      "ĠTele": 5920,
      "Ġerk": 5921,
      "ĠverfÃ¼gen": 5922,
      "ternehm": 5923,
      "hode": 5924,
      "right": 5925,
      "Ġbestimmte": 5926,
      "Ġkonkrete": 5927,
      "ĠEuropÃ¤er": 5928,
      "cy": 5929,
      "ĠÃ¤l": 5930,
      "ĠAK": 5931,
      "Ġinakzept": 5932,
      "ĠWohl": 5933,
      "ĠbefÃ¼r": 5934,
      "ĠVerkauf": 5935,
      "lock": 5936,
      "elekt": 5937,
      "angel": 5938,
      "bew": 5939,
      "ĠMail": 5940,
      "2006": 5941,
      "hafter": 5942,
      "Englisch": 5943,
      "Ġgesamten": 5944,
      "ĠhÃ¶her": 5945,
      "ĠlÃ¶sen": 5946,
      "ECspokesAntoine": 5947,
      "545": 5948,
      "Ġur": 5949,
      "ĠMasch": 5950,
      "ĠGre": 5951,
      "loss": 5952,
      "risen": 5953,
      "Reform": 5954,
      "ĠBoden": 5955,
      "ĠLinux": 5956,
      "JA": 5957,
      "ZUSAMMENARBEIT": 5958,
      "Ã¤chen": 5959,
      "asc": 5960,
      "Ġkontakt": 5961,
      "ĠWaffen": 5962,
      "Ġzuge": 5963,
      "ilia": 5964,
      "Ġerreich": 5965,
      "ĠSchweden": 5966,
      "ĠAusbildung": 5967,
      "Ġnachhaltige": 5968,
      "Strategie": 5969,
      "schlÃ¼ssel": 5970,
      "Ġbeteil": 5971,
      "Fortsch": 5972,
      "RIT": 5973,
      "Teil": 5974,
      "cl": 5975,
      "cia": 5976,
      "par": 5977,
      "Ã¼ÃŁ": 5978,
      "Ġerken": 5979,
      "ehme": 5980,
      "ype": 5981,
      "ĠKoordin": 5982,
      "CD": 5983,
      "Kinder": 5984,
      "Per": 5985,
      "yt": 5986,
      "Ġ#": 5987,
      "Ġbr": 5988,
      "Ġbitten": 5989,
      "ĠnÃ¶tig": 5990,
      "ĠBelgien": 5991,
      "Ġlok": 5992,
      "iker": 5993,
      "ots": 5994,
      "gebiet": 5995,
      "ĠZeitraum": 5996,
      "Ġ285": 5997,
      "ĠBugt": 5998,
      "ĠDelegation": 5999,
      "71": 6000,
      "PO": 6001,
      "Ġfragen": 6002,
      "ĠMeter": 6003,
      "ĠFakten": 6004,
      "lean": 6005,
      "Ġbestimmt": 6006,
      "ĠAnzahl": 6007,
      "weite": 6008,
      "ĠAbstimm": 6009,
      "Ġ33": 6010,
      "ession": 6011,
      "Ġbenutzt": 6012,
      "ifik": 6013,
      "Daran": 6014,
      "Grund": 6015,
      "ĠKapital": 6016,
      "STAATEN": 6017,
      "ĠWIRTSCHAFT": 6018,
      "Lie": 6019,
      "ois": 6020,
      "zeiten": 6021,
      "ines": 6022,
      "onte": 6023,
      "ĠBekÃ¤mpfung": 6024,
      "schw": 6025,
      "rab": 6026,
      "ĠDo": 6027,
      "ĠZivil": 6028,
      "Ġ36": 6029,
      "ITZ": 6030,
      "ĠAlter": 6031,
      "ĠErnÃ¤hrung": 6032,
      "Ġerheb": 6033,
      "Ġmaxim": 6034,
      "ĠBugtraq": 6035,
      "Binnenmarkt": 6036,
      "swert": 6037,
      "zul": 6038,
      "chem": 6039,
      "ĠSign": 6040,
      "arch": 6041,
      "Ġbuchen": 6042,
      "ĠWar": 6043,
      "Ġtreffen": 6044,
      "quem": 6045,
      "ELL": 6046,
      "konferenz": 6047,
      "ĠKooper": 6048,
      "NÃ¤heres": 6049,
      "ĠInvestitionsb": 6050,
      "ĠerfÃ¼llt": 6051,
      "fghan": 6052,
      "79": 6053,
      "BESCH": 6054,
      "Focus": 6055,
      "Griechenland": 6056,
      "OB": 6057,
      "TH": 6058,
      "Traq": 6059,
      "mas": 6060,
      "ĠhÃ¤ngt": 6061,
      "ĠStre": 6062,
      "Ã¤rkt": 6063,
      "Ġvorbehalten": 6064,
      "STEN": 6065,
      "ĠDokumente": 6066,
      "ĠhÃ¤tten": 6067,
      "ĠBugTraq": 6068,
      "ĠSecurityFocus": 6069,
      "Nation": 6070,
      "Trotzdem": 6071,
      "wand": 6072,
      "Ġdigit": 6073,
      "ĠBud": 6074,
      "ĠGelegen": 6075,
      "Ġers": 6076,
      "ĠÃ¼berall": 6077,
      "Ġvorgelegt": 6078,
      "izei": 6079,
      "ĠbegrÃ¼ÃŁt": 6080,
      "ĠBrowser": 6081,
      "regelung": 6082,
      "Kurzbeschreibung": 6083,
      "riktive": 6084,
      "Gu": 6085,
      "WE": 6086,
      "nern": 6087,
      "Ġup": 6088,
      "ĠKurs": 6089,
      "aby": 6090,
      "ĠTo": 6091,
      "ĠTonnen": 6092,
      "amals": 6093,
      "plÃ¤tze": 6094,
      "hÃ¶ren": 6095,
      "ĠWettbewerbsfÃ¤higkeit": 6096,
      "Cl": 6097,
      "FrÃ¼": 6098,
      "Joe": 6099,
      "nungs": 6100,
      "sicherheit": 6101,
      "ĠBade": 6102,
      "ĠFR": 6103,
      "ĠRot": 6104,
      "illen": 6105,
      "ilanz": 6106,
      "ĠtatsÃ¤chlich": 6107,
      "este": 6108,
      "pport": 6109,
      "Ġgewinnen": 6110,
      "ĠSoziales": 6111,
      "ĠschÃ¶ne": 6112,
      "EWG": 6113,
      "ĠRisiko": 6114,
      "wÃ¼rd": 6115,
      "Drittens": 6116,
      "%)": 6117,
      "Ġas": 6118,
      "Ġdank": 6119,
      "Ġsenden": 6120,
      "ĠPlen": 6121,
      "ĠPrinzip": 6122,
      "ĠMor": 6123,
      "Ġzwar": 6124,
      "Ġgeh": 6125,
      "ologische": 6126,
      "auftrag": 6127,
      "Ġverbessert": 6128,
      "ĠKommentare": 6129,
      "onien": 6130,
      "ĠSim": 6131,
      "ato": 6132,
      "ĠBulgarien": 6133,
      "ĠDrogen": 6134,
      "istik": 6135,
      "Ġdemokrat": 6136,
      "izin": 6137,
      "enne": 6138,
      "IGE": 6139,
      "teilung": 6140,
      "Ġbekomm": 6141,
      "Ġausgestattet": 6142,
      "ĠElemente": 6143,
      "stehenden": 6144,
      "ĠFÃ¤lle": 6145,
      "avigation": 6146,
      "Et": 6147,
      "Selbst": 6148,
      "ba": 6149,
      "nummer": 6150,
      "Ġ01": 6151,
      "eicht": 6152,
      "ata": 6153,
      "ĠAR": 6154,
      "Ġmindestens": 6155,
      "ĠECU": 6156,
      "Ġzahlen": 6157,
      "ĠGarten": 6158,
      "ĠTick": 6159,
      "ĠLam": 6160,
      "ĠForschungs": 6161,
      "ĠKlein": 6162,
      "ĠBesucher": 6163,
      "ĠIsland": 6164,
      "ĠIdeen": 6165,
      "ĠpersÃ¶nlich": 6166,
      "ĠPa": 6167,
      "Ġgeplant": 6168,
      "ERK": 6169,
      "Ġuntersch": 6170,
      "Ġallgemeinen": 6171,
      "problem": 6172,
      "Ġgemeinsamen": 6173,
      "Nichts": 6174,
      "ĠInstall": 6175,
      "armon": 6176,
      "VORBEREITUNG": 6177,
      "Ġinakzeptabel": 6178,
      "Sicherheit": 6179,
      "TAC": 6180,
      "Ã¤us": 6181,
      "Ġfl": 6182,
      "anda": 6183,
      "reform": 6184,
      "erne": 6185,
      "eicher": 6186,
      "ĠVerfahrens": 6187,
      "ĠHÃ¶he": 6188,
      "ML": 6189,
      "lÃ¶s": 6190,
      "inc": 6191,
      "iness": 6192,
      "Ã¼cher": 6193,
      "ĠBan": 6194,
      "ĠIran": 6195,
      "Ã¤nden": 6196,
      "Ġstarten": 6197,
      "Ġ55": 6198,
      "ĠspÃ¤t": 6199,
      "ogle": 6200,
      "ĠLandes": 6201,
      "ĠBarcelona": 6202,
      "Ġverbunden": 6203,
      "rechts": 6204,
      "orea": 6205,
      "ĠFreunde": 6206,
      "ĠDienstleistungen": 6207,
      "Europas": 6208,
      "ĠBasis": 6209,
      "actsheet": 6210,
      "ous": 6211,
      "zn": 6212,
      "ĠzunÃ¤chst": 6213,
      "Ġgelegen": 6214,
      "Ġgood": 6215,
      "ĠSchlaf": 6216,
      "Invest": 6217,
      "Ġvorher": 6218,
      "ried": 6219,
      "achtung": 6220,
      "Gruppe": 6221,
      "volution": 6222,
      "Rat": 6223,
      "fÃ¤lt": 6224,
      "oben": 6225,
      "uell": 6226,
      "chter": 6227,
      "alk": 6228,
      "ĠMÃ¼n": 6229,
      "Ġzw": 6230,
      "rock": 6231,
      "ĠStahl": 6232,
      "Ã¤ngen": 6233,
      "Ġstattfinden": 6234,
      "David": 6235,
      "scheinlich": 6236,
      "stattung": 6237,
      "ÃĦFTIGUNG": 6238,
      "will": 6239,
      "Ġwichtigen": 6240,
      "ĠWeiÃŁ": 6241,
      "annes": 6242,
      "Ġverz": 6243,
      "ĠGrÃ¶ÃŁe": 6244,
      "fÃ¼hrungen": 6245,
      "ĠgewÃ¼n": 6246,
      "Ġschlecht": 6247,
      "ĠKohÃ¤sion": 6248,
      "ĠAuswÃ¤rtigen": 6249,
      "Aid": 6250,
      "Mark": 6251,
      "brech": 6252,
      "Ġsomit": 6253,
      "oriz": 6254,
      "ĠGem": 6255,
      "reib": 6256,
      "ehrte": 6257,
      "Ġober": 6258,
      "Ġ07": 6259,
      "ANDE": 6260,
      "viel": 6261,
      "enbahn": 6262,
      "ages": 6263,
      "rÃ¤gen": 6264,
      "ico": 6265,
      "ohnen": 6266,
      "ĠBeweg": 6267,
      "ĠMensch": 6268,
      "udio": 6269,
      "Ġbedau": 6270,
      "Zusammensetzung": 6271,
      "ĠFarbe": 6272,
      "sphÃ¤re": 6273,
      "ĠArbeiten": 6274,
      "sichtigt": 6275,
      "ĠwÃ¤ren": 6276,
      "ĠzustÃ¤nd": 6277,
      "industrie": 6278,
      "immern": 6279,
      "rufe": 6280,
      "ĠFreund": 6281,
      "ĠEmpfehlung": 6282,
      "ĠInvestitionsbank": 6283,
      "onio": 6284,
      "ĠEner": 6285,
      "ĠÃ¼berprÃ¼ft": 6286,
      "Ġvoran": 6287,
      "samer": 6288,
      "Entwick": 6289,
      "rasilien": 6290,
      "Ġverbessern": 6291,
      "ĠInstitutionen": 6292,
      "ĠOperationelles": 6293,
      "DA": 6294,
      "PL": 6295,
      "fil": 6296,
      "gas": 6297,
      "sÃ¤tz": 6298,
      "sfonds": 6299,
      "inst": 6300,
      "ierend": 6301,
      "ĠWahlen": 6302,
      "Ġleich": 6303,
      "ĠEint": 6304,
      "ĠgroÃŁes": 6305,
      "ĠZustimmung": 6306,
      "richtungen": 6307,
      "1999": 6308,
      "ĠJean": 6309,
      "Startseite": 6310,
      "ZE": 6311,
      "aw": 6312,
      "Ġag": 6313,
      "uni": 6314,
      "eige": 6315,
      "elbe": 6316,
      "Ġmen": 6317,
      "ĠLondon": 6318,
      "indungen": 6319,
      "ĠJos": 6320,
      "spr": 6321,
      "ella": 6322,
      "hebung": 6323,
      "Ġbesuchen": 6324,
      "Davon": 6325,
      "ĠGesprÃ¤": 6326,
      "ĠMinute": 6327,
      "Ġbesondere": 6328,
      "Ã¤dt": 6329,
      "aÃŁt": 6330,
      "Ġerzielt": 6331,
      "tÃ¤u": 6332,
      "aud": 6333,
      "ĠTri": 6334,
      "reiber": 6335,
      "Ġverantwort": 6336,
      "omen": 6337,
      "Ġtreten": 6338,
      "Ġperson": 6339,
      "ĠAbsatz": 6340,
      "Herrn": 6341,
      "Schwer": 6342,
      "Ġrein": 6343,
      "ĠBeihilfen": 6344,
      "eistet": 6345,
      "Ġbehandeln": 6346,
      "Ġbeantworten": 6347,
      "akete": 6348,
      "WEITERUNG": 6349,
      "63": 6350,
      "KAN": 6351,
      "frastruktur": 6352,
      "ĠPen": 6353,
      "ĠPina": 6354,
      "ĠBAR": 6355,
      "ĠgÃ¼nst": 6356,
      "ĠDVD": 6357,
      "ĠLib": 6358,
      "Ġerle": 6359,
      "ĠZiffer": 6360,
      "Ġverab": 6361,
      "oker": 6362,
      "gebnisse": 6363,
      "REG": 6364,
      "Ġeng": 6365,
      "Generalsek": 6366,
      "Ġglauben": 6367,
      "Ġfestgelegt": 6368,
      "Andre": 6369,
      "ĠEigent": 6370,
      "atherine": 6371,
      "Christ": 6372,
      "fangen": 6373,
      "uren": 6374,
      "ĠFach": 6375,
      "Ġstets": 6376,
      "ĠUngarn": 6377,
      "ANT": 6378,
      "hoben": 6379,
      "immerklÃ¤rungen": 6380,
      "fordert": 6381,
      "weisung": 6382,
      "Ġinternationalen": 6383,
      "Adresse": 6384,
      "ĠArbeitsplÃ¤tze": 6385,
      "Book": 6386,
      "Justiz": 6387,
      "Meiner": 6388,
      "fisch": 6389,
      "erweise": 6390,
      "atoren": 6391,
      "ĠMass": 6392,
      "istische": 6393,
      "ĠProzent": 6394,
      "Ġschreiben": 6395,
      "Vorlage": 6396,
      "ĠStellvertreterin": 6397,
      "ĠZahlungs": 6398,
      "ĠCasino": 6399,
      "ĠSekunden": 6400,
      "Niemand": 6401,
      "EO": 6402,
      "GroÃŁ": 6403,
      "nien": 6404,
      "po": 6405,
      "passung": 6406,
      "zahlung": 6407,
      "Ġuner": 6408,
      "ÃŁburg": 6409,
      "anner": 6410,
      "Ġwere": 6411,
      "ressere": 6412,
      "schafts": 6413,
      "Ġ37": 6414,
      "...?": 6415,
      "itzt": 6416,
      "ĠIndien": 6417,
      "gangenen": 6418,
      "handels": 6419,
      "ENTWICKLUNGS": 6420,
      "ĠKategorie": 6421,
      "54530": 6422,
      "Beschreibung": 6423,
      "El": 6424,
      "alog": 6425,
      "Ġko": 6426,
      "ĠTV": 6427,
      "ustr": 6428,
      "Ġsicherlich": 6429,
      "ĠauÃŁerdem": 6430,
      "itution": 6431,
      "resserefer": 6432,
      "FA": 6433,
      "pack": 6434,
      "ĠSuch": 6435,
      "ĠTisch": 6436,
      "ufe": 6437,
      "ĠSpiele": 6438,
      "Ġbetrach": 6439,
      "Ġeingerichtet": 6440,
      "ĠKÃ¼rze": 6441,
      "reakfast": 6442,
      "59": 6443,
      "Fischerei": 6444,
      "Lage": 6445,
      "gyp": 6446,
      "esc": 6447,
      "igungen": 6448,
      "ĠWÃ¤hrungs": 6449,
      "Ġentschieden": 6450,
      "Ġwichtiges": 6451,
      "ĠEnd": 6452,
      "ĠIsrael": 6453,
      "Ġpositive": 6454,
      "Ġtechnische": 6455,
      "ĠendgÃ¼lt": 6456,
      "ĠmÃ¼ndliche": 6457,
      "VIII": 6458,
      "ĠRANDE": 6459,
      "serv": 6460,
      "ungsk": 6461,
      "ĠVoraus": 6462,
      "ĠAngst": 6463,
      "ĠKonfl": 6464,
      "ĠNachricht": 6465,
      "ĠGebÃ¤ude": 6466,
      "ationsrat": 6467,
      "ĠCode": 6468,
      "ĠWege": 6469,
      "Karel": 6470,
      "kommunikation": 6471,
      "lexibilitÃ¤t": 6472,
      "Ã¤mpfen": 6473,
      "BRA": 6474,
      "Datei": 6475,
      "Eben": 6476,
      "Fort": 6477,
      "Vom": 6478,
      "ader": 6479,
      "oni": 6480,
      "ĠSand": 6481,
      "Ġbeit": 6482,
      "ĠGal": 6483,
      "Ġbewer": 6484,
      "ierende": 6485,
      "Stat": 6486,
      "ELE": 6487,
      "Ġdurchaus": 6488,
      "Ġwichtigste": 6489,
      "ĠÃ¤uÃŁ": 6490,
      "Ġziemlich": 6491,
      "Wirtschaftliche": 6492,
      "aussetz": 6493,
      "69": 6494,
      "GUB": 6495,
      "ora": 6496,
      "Ġme": 6497,
      "ema": 6498,
      "ĠComm": 6499,
      "spartner": 6500,
      "ulierung": 6501,
      "Ġabzu": 6502,
      "ErÃ¶ffnung": 6503,
      "law": 6504,
      "Ġcm": 6505,
      "ĠArbeitnehmer": 6506,
      "Ġ1996": 6507,
      "wegs": 6508,
      "ĠgrÃ¶ÃŁten": 6509,
      "ĠGerman": 6510,
      "ĠschlieÃŁlich": 6511,
      "Ġzahlreiche": 6512,
      "Ġautomatisch": 6513,
      "ĠPotonik": 6514,
      "fghanistan": 6515,
      "Empf": 6516,
      "press": 6517,
      "ena": 6518,
      "information": 6519,
      "ĠPressemitteilungen": 6520,
      "ĠKauf": 6521,
      "ĠGipfel": 6522,
      "ree": 6523,
      "Ġgebe": 6524,
      "ĠZeiten": 6525,
      "ĠZUR": 6526,
      "INTER": 6527,
      "arta": 6528,
      "schlieÃŁen": 6529,
      "mbol": 6530,
      "ĠRATSTAGUNG": 6531,
      "Androulla": 6532,
      "ifizierung": 6533,
      "Ġverdient": 6534,
      "Ġjemand": 6535,
      "ĠfrÃ¼her": 6536,
      "Ġkontaktieren": 6537,
      "Leb": 6538,
      "Pet": 6539,
      "Sein": 6540,
      "Wollen": 6541,
      "ieva": 6542,
      "Ġeinzu": 6543,
      "ĠBO": 6544,
      "Ġgerecht": 6545,
      "ĠHans": 6546,
      "reibt": 6547,
      "osk": 6548,
      "wÃ¤rtig": 6549,
      "AbschlieÃŁend": 6550,
      "affung": 6551,
      "rÃ¤ume": 6552,
      "ĠPHP": 6553,
      "HAUSHALT": 6554,
      "fallen": 6555,
      "nier": 6556,
      "irm": 6557,
      "Ġteilen": 6558,
      "Ġpress": 6559,
      "ÃľBER": 6560,
      "Ġ48": 6561,
      "Struktur": 6562,
      "ĠAktionen": 6563,
      "anlage": 6564,
      "Ġweg": 6565,
      "auchen": 6566,
      "Ġhei": 6567,
      "ĠIT": 6568,
      "ĠIX": 6569,
      "ĠGEMEIN": 6570,
      "ENS": 6571,
      "Ġschn": 6572,
      "Vert": 6573,
      "Stra": 6574,
      "Darin": 6575,
      "Ġebenso": 6576,
      "ĠWorten": 6577,
      "ĠInitiativen": 6578,
      "mÃ¶glichkeiten": 6579,
      "ĠUpdate": 6580,
      "ĠGelegenheit": 6581,
      "Ġwann": 6582,
      "ĠFeld": 6583,
      "Ġdenen": 6584,
      "rim": 6585,
      "ĠjÃ¼n": 6586,
      "Ġumgesetzt": 6587,
      "ohner": 6588,
      "Ġ03": 6589,
      "Ġ08": 6590,
      "2004": 6591,
      "fachung": 6592,
      "ĠTagung": 6593,
      "ĠMalm": 6594,
      "ĠMÃ¤rkte": 6595,
      "Konferenz": 6596,
      "zÃ¼g": 6597,
      "Ġerfordert": 6598,
      "ĠKritik": 6599,
      "Zahlungen": 6600,
      "fizit": 6601,
      "500": 6602,
      "Haupt": 6603,
      "ps": 6604,
      "wo": 6605,
      "zy": 6606,
      "unn": 6607,
      "unternehmen": 6608,
      "ĠDav": 6609,
      "ĠHolz": 6610,
      "Ġstand": 6611,
      "ildet": 6612,
      "ĠStaatsminister": 6613,
      "Projekt": 6614,
      "ĠMonaten": 6615,
      "rÃ¤nkt": 6616,
      "Ġfallen": 6617,
      "Ġhohe": 6618,
      "Ġverhinder": 6619,
      "Ãĸffentliche": 6620,
      "Drei": 6621,
      "Te": 6622,
      "lag": 6623,
      "Ġsonst": 6624,
      "atisch": 6625,
      "ask": 6626,
      "Ġfuer": 6627,
      "ĠElekt": 6628,
      "rÃ¤fte": 6629,
      "ollten": 6630,
      "ĠdurchgefÃ¼hrt": 6631,
      "Spiel": 6632,
      "prÃ¼fen": 6633,
      "freiheit": 6634,
      "ĠRechnungshof": 6635,
      "ĠWillkommen": 6636,
      "opyright": 6637,
      "53": 6638,
      "enh": 6639,
      "steuer": 6640,
      "atein": 6641,
      "ĠPeter": 6642,
      "ĠTyp": 6643,
      "ĠStavros": 6644,
      "Ġbegl": 6645,
      "ĠÃ¼berw": 6646,
      "grÃ¶ÃŁ": 6647,
      "Ġechte": 6648,
      "Ġweiterer": 6649,
      "fÃ¼hrer": 6650,
      "ĠUnterkunft": 6651,
      "Ġeinfache": 6652,
      "Ġbestellen": 6653,
      "RECH": 6654,
      "ĠHafen": 6655,
      "Ġextrem": 6656,
      "**": 6657,
      "LU": 6658,
      "Sehen": 6659,
      "Zwischen": 6660,
      "bett": 6661,
      "stieg": 6662,
      "eshalb": 6663,
      "ĠRel": 6664,
      "lehen": 6665,
      "agn": 6666,
      "EUR": 6667,
      "Ġberuf": 6668,
      "Ġweiteres": 6669,
      "ĠAuÃŁenbeziehungen": 6670,
      "Ġnationale": 6671,
      "78": 6672,
      "Aut": 6673,
      "Wissen": 6674,
      "mark": 6675,
      "ĠAk": 6676,
      "ĠbeschÃ¤ft": 6677,
      "ĠInnen": 6678,
      "ĠCity": 6679,
      "grenzen": 6680,
      "Ġmehreren": 6681,
      "ĠUmgebung": 6682,
      "SCHUNG": 6683,
      "SCHUTZ": 6684,
      "Ġfordern": 6685,
      "ĠKroatien": 6686,
      "ĠnÃ¤her": 6687,
      "Internationale": 6688,
      "Stellvertreter": 6689,
      "ĠRezeption": 6690,
      "%.": 6691,
      "VP": 6692,
      "zeigen": 6693,
      "Ġhast": 6694,
      "ĠWohnung": 6695,
      "ĠTal": 6696,
      "ikas": 6697,
      "vern": 6698,
      "ado": 6699,
      "egel": 6700,
      "gebnis": 6701,
      "ĠGrand": 6702,
      "ildung": 6703,
      "fluss": 6704,
      "Ġ1995": 6705,
      "ĠUrs": 6706,
      "ĠKatastrop": 6707,
      "ĠGlÃ¼ckw": 6708,
      "ĠCosta": 6709,
      "ĠvernÃ¼nft": 6710,
      "Ġzentrale": 6711,
      "ĠMalmstrÃ¶m": 6712,
      "Fol": 6713,
      "SITZ": 6714,
      "geiz": 6715,
      "tel": 6716,
      "auch": 6717,
      "ĠEuch": 6718,
      "ĠBeschÃ¤ft": 6719,
      "ĠBundes": 6720,
      "tent": 6721,
      "Ġhil": 6722,
      "schm": 6723,
      "ĠDI": 6724,
      "ĠGut": 6725,
      "ĠTar": 6726,
      "iend": 6727,
      "ĠEUROP": 6728,
      "sidi": 6729,
      "ÃľN": 6730,
      "Verordnung": 6731,
      "agentur": 6732,
      "ĠgefÃ¶rder": 6733,
      "Tagesordnung": 6734,
      "Forschung": 6735,
      "664": 6736,
      "Nor": 6737,
      "OK": 6738,
      "figur": 6739,
      "park": 6740,
      "preise": 6741,
      "Ġreich": 6742,
      "eier": 6743,
      "Ġunbe": 6744,
      "ĠHam": 6745,
      "ames": 6746,
      "anne": 6747,
      "Ġverfolgen": 6748,
      "ĠChe": 6749,
      "spunkt": 6750,
      "ĠSchn": 6751,
      "pflich": 6752,
      "ĠJahrh": 6753,
      "ĠBevÃ¶lkerung": 6754,
      "eidet": 6755,
      "ouse": 6756,
      "Ġnied": 6757,
      "ĠMeeres": 6758,
      "ĠStimmen": 6759,
      "Besuchen": 6760,
      "ĠShop": 6761,
      "SKI": 6762,
      "Ġmodern": 6763,
      "ĠBeschluss": 6764,
      "Mil": 6765,
      "Ort": 6766,
      "afrika": 6767,
      "sf": 6768,
      "wagen": 6769,
      "ĠPool": 6770,
      "reat": 6771,
      "ĠÃ¼berras": 6772,
      "Ġlebt": 6773,
      "ĠBeihilfe": 6774,
      "mack": 6775,
      "hÃ¤ltnis": 6776,
      "licherweise": 6777,
      "ĠKolleg": 6778,
      "Ġhervorragen": 6779,
      "ausschusses": 6780,
      "ĠGeorgieva": 6781,
      "ĠStellungnahme": 6782,
      "ĠZusatz": 6783,
      "brechung": 6784,
      "Br": 6785,
      "bie": 6786,
      "mot": 6787,
      "ĠSektor": 6788,
      "ĠBand": 6789,
      "ĠGAP": 6790,
      "Ġbequem": 6791,
      "ĠNutzen": 6792,
      "otos": 6793,
      "ĠjÃ¤hr": 6794,
      "Erweiterung": 6795,
      "Ġgener": 6796,
      "Ġ150": 6797,
      "ĠInteressen": 6798,
      "ombin": 6799,
      "ĠvollstÃ¤ndige": 6800,
      "RIFT": 6801,
      "STRÃĸ": 6802,
      "Ġangemessen": 6803,
      "Par": 6804,
      "ual": 6805,
      "van": 6806,
      "asen": 6807,
      "Ġmed": 6808,
      "Ġfair": 6809,
      "ĠMitte": 6810,
      "ĠkÃ¼": 6811,
      "bereit": 6812,
      "ĠHaut": 6813,
      "ando": 6814,
      "ĠVerhalten": 6815,
      "ĠgeschÃ¼tzt": 6816,
      "ĠAusnahme": 6817,
      "Ġdarin": 6818,
      "Ġkleiner": 6819,
      "107": 6820,
      "flug": 6821,
      "ecilia": 6822,
      "ĠMilch": 6823,
      "Neelie": 6824,
      "gypten": 6825,
      "FER": 6826,
      "KOMMEN": 6827,
      "drÃ¼ck": 6828,
      "Ġelekt": 6829,
      "ĠEmiss": 6830,
      "oph": 6831,
      "Ġaufmerksam": 6832,
      "ĠJo": 6833,
      "wech": 6834,
      "ĠAnteil": 6835,
      "Ġbegonnen": 6836,
      "ĠBestimmungen": 6837,
      "Ġverlieren": 6838,
      "ĠENT": 6839,
      "ĠBeginn": 6840,
      "Ġheutigen": 6841,
      "Ġlocation": 6842,
      "AKT": 6843,
      "TÃ¼r": 6844,
      "ci": 6845,
      "iber": 6846,
      "ziel": 6847,
      "ziele": 6848,
      "enter": 6849,
      "ela": 6850,
      "ĠMAR": 6851,
      "ĠFÃ¼": 6852,
      "ĠRub": 6853,
      "ĠTa": 6854,
      "ENMinister": 6855,
      "verstanden": 6856,
      "Ġsozial": 6857,
      "Ġnachhalt": 6858,
      "Ġfolgendes": 6859,
      "ĠChancen": 6860,
      "Ã¼hungen": 6861,
      "Ġbeantwortet": 6862,
      "ĠBegriff": 6863,
      "zufÃ¼gen": 6864,
      "ĠMichel": 6865,
      "Ġgrundlegen": 6866,
      "Ġdanach": 6867,
      "hre": 6868,
      "ĠFonds": 6869,
      "ĠVerfassung": 6870,
      "omas": 6871,
      "leiche": 6872,
      "dukt": 6873,
      "IKATION": 6874,
      "ĠEntscheidungen": 6875,
      "flation": 6876,
      "ĠGrundlage": 6877,
      "Ġniemals": 6878,
      "ĠNeues": 6879,
      "ĠVereinbarung": 6880,
      "ringlichkeit": 6881,
      "Ġselten": 6882,
      "Solche": 6883,
      "Ġheutige": 6884,
      "ENTWICKLUNGSZUSAMMENARBEIT": 6885,
      "Alex": 6886,
      "Ju": 6887,
      "Partner": 6888,
      "Ġdient": 6889,
      "emal": 6890,
      "ĠzÃ¤hlt": 6891,
      "ĠDis": 6892,
      "ĠWien": 6893,
      "ĠNieder": 6894,
      "ÃĦH": 6895,
      "gebaut": 6896,
      "Ġdaraus": 6897,
      "fÃ¼hrungs": 6898,
      "ĠReding": 6899,
      "ouis": 6900,
      "Ġbegrenz": 6901,
      "ynam": 6902,
      "Ġwelchem": 6903,
      "Wirtschafts": 6904,
      "ĠFarben": 6905,
      "HOF": 6906,
      "MITTEL": 6907,
      "STRÃĸM": 6908,
      "App": 6909,
      "Form": 6910,
      "MA": 6911,
      "VO": 6912,
      "paket": 6913,
      "hren": 6914,
      "Ġeingel": 6915,
      "Ġhas": 6916,
      "ĠIl": 6917,
      "schÃ¤tz": 6918,
      "ĠHaltung": 6919,
      "Ġzuvor": 6920,
      "Ġerstellen": 6921,
      "ĠVerwendung": 6922,
      "ĠJac": 6923,
      "barometer": 6924,
      "Verpflichtungen": 6925,
      "ehmbar": 6926,
      "iano": 6927,
      "Herzlichen": 6928,
      "leistung": 6929,
      "mittlung": 6930,
      "ĠSchluÃŁfolgerungen": 6931,
      "VerwaltungsbehÃ¶rde": 6932,
      "BRAUCH": 6933,
      "Lebhafter": 6934,
      "aun": 6935,
      "gefÃ¼gt": 6936,
      "ĠGold": 6937,
      "ĠUR": 6938,
      "ĠOpen": 6939,
      "ÃľH": 6940,
      "Ġkonzentr": 6941,
      "holt": 6942,
      "Ġwelcher": 6943,
      "ĠLiebe": 6944,
      "Ġoper": 6945,
      "ĠGoogle": 6946,
      "ĠSchiffe": 6947,
      "Ġindivid": 6948,
      "Ġrelativ": 6949,
      "ZusÃ¤tz": 6950,
      "Fax": 6951,
      "Mod": 6952,
      "Ã¤fen": 6953,
      "ierminister": 6954,
      "ĠWandel": 6955,
      "ĠStunde": 6956,
      "attform": 6957,
      "ĠKlage": 6958,
      "ĠSuper": 6959,
      "Bisher": 6960,
      "ĠTrend": 6961,
      "Ġherunterladen": 6962,
      "Menschen": 6963,
      "ampagne": 6964,
      "AuÃŁen": 6965,
      "KEIT": 6966,
      "Tab": 6967,
      "VI": 6968,
      "ball": 6969,
      "ĠFrank": 6970,
      "reche": 6971,
      "ĠProdi": 6972,
      "ĠVorbereitung": 6973,
      "Ġ202": 6974,
      "sichtigen": 6975,
      "ĠQual": 6976,
      "ĠNachrichten": 6977,
      "ĠGeneral": 6978,
      "ĠBehandlung": 6979,
      "regeln": 6980,
      "ĠHoffnung": 6981,
      "sidiaritÃ¤t": 6982,
      "58": 6983,
      "Sk": 6984,
      "volle": 6985,
      "ichtbar": 6986,
      "ley": 6987,
      "Ġladen": 6988,
      "rige": 6989,
      "gebiete": 6990,
      "ALE": 6991,
      "ĠBedenken": 6992,
      "ĠHandeln": 6993,
      "itiative": 6994,
      "ĠMehrheit": 6995,
      "ĠRisiken": 6996,
      "obilien": 6997,
      "ĠzusÃ¤tzliche": 6998,
      "Ġprofitieren": 6999,
      "ĠUntersuchung": 7000,
      "BekÃ¤mpfung": 7001,
      "Ġfand": 7002,
      "Ġfertig": 7003,
      "ĠPunkten": 7004,
      "ĠVAN": 7005,
      "ĠTitel": 7006,
      "ĠgeprÃ¼ft": 7007,
      "ĠInhalte": 7008,
      "ĠCa": 7009,
      "okko": 7010,
      "Ġacc": 7011,
      "Ġsprach": 7012,
      "echsel": 7013,
      "Ġeigenes": 7014,
      "ĠDebian": 7015,
      "ĠWorld": 7016,
      "ĠMilliar": 7017,
      "ĠManuel": 7018,
      "Ġglobale": 7019,
      "ĠPflicht": 7020,
      "fÃ¼hl": 7021,
      "Danach": 7022,
      "EP": 7023,
      "Welt": 7024,
      "iegel": 7025,
      "ĠPad": 7026,
      "Ġeinheit": 7027,
      "gent": 7028,
      "emie": 7029,
      "eth": 7030,
      "schuld": 7031,
      "ĠDel": 7032,
      "ĠDienste": 7033,
      "ĠWald": 7034,
      "ĠTiere": 7035,
      "ĠLizenz": 7036,
      "reite": 7037,
      "ĠIhres": 7038,
      "igend": 7039,
      "Beim": 7040,
      "obby": 7041,
      "IIa": 7042,
      "ideo": 7043,
      "gangs": 7044,
      "ĠSTRA": 7045,
      "ikanische": 7046,
      "Wiederaufnahme": 7047,
      "Ġabgelehnt": 7048,
      "Beg": 7049,
      "CA": 7050,
      "Vb": 7051,
      "yd": 7052,
      "atri": 7053,
      "ĠunabhÃ¤ng": 7054,
      "Ġneben": 7055,
      "ĠKÃ¶rper": 7056,
      "schte": 7057,
      "ĠgrÃ¼n": 7058,
      "ĠDan": 7059,
      "ĠDorf": 7060,
      "ĠGrÃ¼": 7061,
      "ĠTaten": 7062,
      "Ġert": 7063,
      "ĠZwischen": 7064,
      "Ġ39": 7065,
      "ĠÃ¼bernehmen": 7066,
      "stellte": 7067,
      "Ġbewusst": 7068,
      "ĠOptionen": 7069,
      "Ġausreichend": 7070,
      "orizont": 7071,
      "Entwicklungs": 7072,
      "kki": 7073,
      "raten": 7074,
      "erzeugnisse": 7075,
      "aust": 7076,
      "ĠPAP": 7077,
      "ĠErei": 7078,
      "ĠBAL": 7079,
      "ĠKenn": 7080,
      "ĠLeg": 7081,
      "ERWEITERUNG": 7082,
      "ĠAnliegen": 7083,
      "Ġstren": 7084,
      "eichert": 7085,
      "Ġgelangen": 7086,
      "ĠnÃ¤chster": 7087,
      "ĠAbgeordneten": 7088,
      "ĠPrÃ¼fung": 7089,
      "duziert": 7090,
      "ĠBestellung": 7091,
      "FrÃ¼here": 7092,
      "IF": 7093,
      "Or": 7094,
      "Somit": 7095,
      "ea": 7096,
      "inken": 7097,
      "ĠKamer": 7098,
      "ĠDre": 7099,
      "rot": 7100,
      "agung": 7101,
      "ival": 7102,
      "beauftrag": 7103,
      "ammer": 7104,
      "ĠGrunde": 7105,
      "ĠRichtlinien": 7106,
      "alerie": 7107,
      "Unterbrechung": 7108,
      "stausch": 7109,
      "ĠKollege": 7110,
      "ĠGemeinschafts": 7111,
      "Ġkomplex": 7112,
      "LÃĦRUNG": 7113,
      "ĠFlÃ¼cht": 7114,
      "ĠSOZIAL": 7115,
      "schlÃ¼sselung": 7116,
      "Leben": 7117,
      "gung": 7118,
      "hung": 7119,
      "vi": 7120,
      "zert": 7121,
      "ĠfÃ¤llt": 7122,
      "ĠPL": 7123,
      "Ġeinig": 7124,
      "schreiben": 7125,
      "ĠTransport": 7126,
      "ister": 7127,
      "Ġstolz": 7128,
      "ĠSchule": 7129,
      "ĠdiesbezÃ¼glich": 7130,
      "gerufen": 7131,
      "osnien": 7132,
      "werke": 7133,
      "ierender": 7134,
      "Ġ44": 7135,
      "Erwar": 7136,
      "ĠgenieÃŁen": 7137,
      "Ġlehnt": 7138,
      "ĠDeutsch": 7139,
      "Ġkonnten": 7140,
      "reude": 7141,
      "Ġverstehe": 7142,
      "ĠStraf": 7143,
      "amerika": 7144,
      "PrioritÃ¤tsachse": 7145,
      "ĠEuropeAid": 7146,
      "MUNIKATION": 7147,
      "Ġhilft": 7148,
      "Bot": 7149,
      "CS": 7150,
      "Preise": 7151,
      "ique": 7152,
      "kor": 7153,
      "val": 7154,
      "way": 7155,
      "ork": 7156,
      "ĠFerr": 7157,
      "ders": 7158,
      "ĠRen": 7159,
      "ĠTop": 7160,
      "ĠTex": 7161,
      "eugen": 7162,
      "oslaw": 7163,
      "ĠMindest": 7164,
      "ĠStraÃŁe": 7165,
      "ĠvollstÃ¤ndig": 7166,
      "ĠMÃ¤nner": 7167,
      "uffet": 7168,
      "FORMATION": 7169,
      "KON": 7170,
      "Letz": 7171,
      "Politik": 7172,
      "Rel": 7173,
      "ĠSorge": 7174,
      "ĠMinder": 7175,
      "emen": 7176,
      "ĠFactsheet": 7177,
      "ĠgÃ¼ltig": 7178,
      "ĠerÃ¶r": 7179,
      "Ġpla": 7180,
      "aktiv": 7181,
      "rief": 7182,
      "linge": 7183,
      "enzÃ¼ber": 7184,
      "ĠgelÃ¶st": 7185,
      "ĠTages": 7186,
      "zeichnis": 7187,
      "ĠGebiete": 7188,
      "ĠGemeinsame": 7189,
      "Ġhohen": 7190,
      "ĠStudie": 7191,
      "Folgende": 7192,
      "ĠInstrumente": 7193,
      "ĠRuhe": 7194,
      "ĠMotor": 7195,
      "Ġreagieren": 7196,
      "Jon": 7197,
      "Jul": 7198,
      "Titel": 7199,
      "do": 7200,
      "atik": 7201,
      "assi": 7202,
      "schreiten": 7203,
      "ĠgrÃ¼": 7204,
      "Ġkn": 7205,
      "ĠTR": 7206,
      "Ġaufgenommen": 7207,
      "ĠJava": 7208,
      "Inst": 7209,
      "Ġunters": 7210,
      "Ġ400": 7211,
      "Ġrasch": 7212,
      "IED": 7213,
      "ĠTeilnahme": 7214,
      "iane": 7215,
      "Ġlangsam": 7216,
      "ĠKindern": 7217,
      "ĠSteuern": 7218,
      "ĠResort": 7219,
      "ĠVersand": 7220,
      "Ġwegen": 7221,
      "Ġweder": 7222,
      "freund": 7223,
      "ĠTabak": 7224,
      "Ġwirtschaftliche": 7225,
      "ĠGedanken": 7226,
      "Ġlegisl": 7227,
      "ĠLeitlinien": 7228,
      "ĠstÃ¤ndig": 7229,
      "meister": 7230,
      "yan": 7231,
      "ĠÃ¶ffnen": 7232,
      "ernt": 7233,
      "inas": 7234,
      "une": 7235,
      "ĠPap": 7236,
      "ĠPapier": 7237,
      "ĠFA": 7238,
      "ĠschÃ¼tzen": 7239,
      "ĠOS": 7240,
      "ĠUnternehm": 7241,
      "itze": 7242,
      "Ġrest": 7243,
      "hoden": 7244,
      "ĠExt": 7245,
      "ĠFormular": 7246,
      "ĠSanktionen": 7247,
      "Ġerkennen": 7248,
      "GrÃ¼n": 7249,
      "Mitt": 7250,
      "SÃ¼d": 7251,
      "passen": 7252,
      "tell": 7253,
      "ĠMO": 7254,
      "ĠMorgen": 7255,
      "ĠKart": 7256,
      "Ġhilf": 7257,
      "ĠDr": 7258,
      "ĠDirekt": 7259,
      "Ġerleben": 7260,
      "Ġdessen": 7261,
      "ĠStrom": 7262,
      "ĠausfÃ¼hr": 7263,
      "grÃ¼ÃŁ": 7264,
      "ĠSchaden": 7265,
      "Ġgeschaffen": 7266,
      "akter": 7267,
      "Ġsparen": 7268,
      "unktionen": 7269,
      "ĠgenÃ¼": 7270,
      "Ãľbereinkommen": 7271,
      "ĠFlash": 7272,
      "smitglied": 7273,
      "holung": 7274,
      "ĠGerichtshofs": 7275,
      "ĠVielfalt": 7276,
      "ĠlÃ¤ndlichen": 7277,
      "596": 7278,
      "uc": 7279,
      "zone": 7280,
      "ĠAD": 7281,
      "ĠMuseum": 7282,
      "ichts": 7283,
      "raam": 7284,
      "ĠDen": 7285,
      "recher": 7286,
      "seh": 7287,
      "Ġalte": 7288,
      "ĠAnschluss": 7289,
      "neten": 7290,
      "Ġlangfrist": 7291,
      "code": 7292,
      "Ġyour": 7293,
      "Hering": 7294,
      "Ġsuper": 7295,
      "Ġkorrig": 7296,
      "ĠMigration": 7297,
      "ĠAvraam": 7298,
      "ĠMcC": 7299,
      "ĠAuffassung": 7300,
      "Ġdankbar": 7301,
      "pla": 7302,
      "wahl": 7303,
      "ĠMik": 7304,
      "ĠModer": 7305,
      "ĠHO": 7306,
      "ĠHu": 7307,
      "ĠHenn": 7308,
      "Ġverdien": 7309,
      "aktionen": 7310,
      "RAUM": 7311,
      "IEDEN": 7312,
      "schiede": 7313,
      "Ġform": 7314,
      "otenzial": 7315,
      "PrÃ¤sidentin": 7316,
      "ĠBeitrÃ¤ge": 7317,
      "ĠBemÃ¼hungen": 7318,
      "ĠBundesministerin": 7319,
      "ĠschlieÃŁen": 7320,
      "Worum": 7321,
      "ERSUCHT": 7322,
      "Ġmittler": 7323,
      "Link": 7324,
      "QL": 7325,
      "SSON": 7326,
      "gu": 7327,
      "hnung": 7328,
      "kur": 7329,
      "pa": 7330,
      "pass": 7331,
      "wSt": 7332,
      "instrum": 7333,
      "Ġdadurch": 7334,
      "anon": 7335,
      "ĠSem": 7336,
      "schlagen": 7337,
      "ĠWo": 7338,
      "Ġph": 7339,
      "UNION": 7340,
      "ĠAbbott": 7341,
      "Ġunternehmen": 7342,
      "Ġ52": 7343,
      "Ġgenutzt": 7344,
      "hafte": 7345,
      "AMT": 7346,
      "ĠdÃ¼rfte": 7347,
      "Ġ282": 7348,
      "CCI": 7349,
      "ĠNorwegen": 7350,
      "ĠLeistung": 7351,
      "535": 7352,
      "Su": 7353,
      "wirk": 7354,
      "austausch": 7355,
      "ĠFlexibilitÃ¤t": 7356,
      "Ã¶nen": 7357,
      "ĠHol": 7358,
      "ĠHeim": 7359,
      "ums": 7360,
      "Ġalten": 7361,
      "ĠSpezial": 7362,
      "Ġfolgender": 7363,
      "ĠGewinner": 7364,
      "ĠGesundheits": 7365,
      "Ġschneller": 7366,
      "ĠVereinigten": 7367,
      "Mai": 7368,
      "FFEN": 7369,
      "ĠVORSITZ": 7370,
      "Ġgarantiert": 7371,
      "Generalsekretariat": 7372,
      "Dina": 7373,
      "NUNGS": 7374,
      "ete": 7375,
      "rien": 7376,
      "vin": 7377,
      "ĠQ": 7378,
      "Ã¤uft": 7379,
      "ory": 7380,
      "Ġkom": 7381,
      "Ġkultur": 7382,
      "rochen": 7383,
      "ĠTir": 7384,
      "ĠLas": 7385,
      "ĠAnwend": 7386,
      "INI": 7387,
      "Ġnachstehenden": 7388,
      "ILL": 7389,
      "ĠEntwicklungen": 7390,
      "ĠXIV": 7391,
      "rÃ¼hstÃ¼ck": 7392,
      "gruppen": 7393,
      "ĠErfahrungen": 7394,
      "ĠInstrument": 7395,
      "FL": 7396,
      "Sow": 7397,
      "bruch": 7398,
      "lÃ¤uf": 7399,
      "melden": 7400,
      "mÃ¤rkte": 7401,
      "Ġsur": 7402,
      "aschen": 7403,
      "ĠFinnland": 7404,
      "ĠIst": 7405,
      "ĠRh": 7406,
      "rain": 7407,
      "Ġangen": 7408,
      "Ġbeob": 7409,
      "ria": 7410,
      "sterdam": 7411,
      "Ġanderem": 7412,
      "altungen": 7413,
      "ĠerklÃ¤ren": 7414,
      "ĠÃľbernahme": 7415,
      "ĠDienstag": 7416,
      "379": 7417,
      "ĠWirklichkeit": 7418,
      "anzÃ¶sisch": 7419,
      "Ġregionale": 7420,
      "Ġperfekt": 7421,
      "begriffen": 7422,
      "ĠRechnung": 7423,
      "TÃ¼rkei": 7424,
      "Bundesminister": 7425,
      "Gem": 7426,
      "LÃ¤nder": 7427,
      "Philippe": 7428,
      "its": 7429,
      "ĠVal": 7430,
      "ĠerlÃ¤u": 7431,
      "ĠNiederlande": 7432,
      "ĠVergleich": 7433,
      "ĠAnlage": 7434,
      "Ġout": 7435,
      "TEGIE": 7436,
      "rÃ¼ckt": 7437,
      "ally": 7438,
      "ĠEntwurf": 7439,
      "Ġ85": 7440,
      "Ġgetroffen": 7441,
      "ĠStaatssekretÃ¤rin": 7442,
      "ĠSchwier": 7443,
      "ĠAllgemeine": 7444,
      "CCCC": 7445,
      "ĠBalkan": 7446,
      "Bas": 7447,
      "NL": 7448,
      "ces": 7449,
      "rich": 7450,
      "strategie": 7451,
      "irma": 7452,
      "ĠBern": 7453,
      "ĠBaum": 7454,
      "ffer": 7455,
      "Ġtritt": 7456,
      "ĠErasmus": 7457,
      "Ġvorber": 7458,
      "Ġvorange": 7459,
      "Ġentgegen": 7460,
      "gesetz": 7461,
      "zeÃŁ": 7462,
      "USA": 7463,
      "Ġkeines": 7464,
      "ĠgewÃ¤hlt": 7465,
      "exiko": 7466,
      "ĠBalkon": 7467,
      "ĠKommunal": 7468,
      "BAN": 7469,
      "Datum": 7470,
      "ĠSat": 7471,
      "elten": 7472,
      "Ġmark": 7473,
      "ĠEmail": 7474,
      "Ġeingesetzt": 7475,
      "ĠMED": 7476,
      "ĠKaffe": 7477,
      "Ġ46": 7478,
      "Ġclean": 7479,
      "ĠEinigung": 7480,
      "gelassen": 7481,
      "aldirekt": 7482,
      "bedarf": 7483,
      "FORSCHUNG": 7484,
      "aiser": 7485,
      "9258": 7486,
      "Ġkomplett": 7487,
      "ĠTodes": 7488,
      "ukle": 7489,
      "ĠÃ¤uÃŁern": 7490,
      "546": 7491,
      "Emiss": 7492,
      "Sicher": 7493,
      "ĠSn": 7494,
      "Ġbzw": 7495,
      "ĠBEI": 7496,
      "Ġhinn": 7497,
      "achs": 7498,
      "achtet": 7499,
      "ameter": 7500,
      "Ġbeein": 7501,
      "Ġtr": 7502,
      "lieben": 7503,
      "ĠSpa": 7504,
      "warz": 7505,
      "ĠForsten": 7506,
      "Ġ1994": 7507,
      "ĠBestand": 7508,
      "Entdecken": 7509,
      "ĠExper": 7510,
      "fortable": 7511,
      "Ġinteressant": 7512,
      "ĠVerwaltungs": 7513,
      "ULTUR": 7514,
      "ĠeuropÃ¤ischer": 7515,
      "ĠBewegung": 7516,
      "59667": 7517,
      "Beschl": 7518,
      "IX": 7519,
      "bs": 7520,
      "osen": 7521,
      "asche": 7522,
      "Ġbist": 7523,
      "ĠDir": 7524,
      "ssp": 7525,
      "ĠGeist": 7526,
      "ĠWh": 7527,
      "Ġpol": 7528,
      "Ã¤rm": 7529,
      "haltet": 7530,
      "ester": 7531,
      "Einen": 7532,
      "ÃĦM": 7533,
      "ics": 7534,
      "zeichnen": 7535,
      "sstaat": 7536,
      "Ġakzeptiert": 7537,
      "ĠStatus": 7538,
      "Ġentwickeln": 7539,
      "ĠVerÃ¤nderungen": 7540,
      "Booking": 7541,
      "Dan": 7542,
      "zo": 7543,
      "ĠSekt": 7544,
      "Ġsorgen": 7545,
      "arus": 7546,
      "ĠMutter": 7547,
      "Ġha": 7548,
      "ĠAnkunft": 7549,
      "Ã¤rke": 7550,
      "ĠAbschluss": 7551,
      "ĠenttÃ¤u": 7552,
      "ostat": 7553,
      "Ġgeleistet": 7554,
      "Ġgefallen": 7555,
      "ĠBÃ¼ro": 7556,
      "ĠBoot": 7557,
      "Ġoffensichtlich": 7558,
      "ĠJanez": 7559,
      "ĠWerbung": 7560,
      "itÃ¤tsachsen": 7561,
      "ĠMichael": 7562,
      "ĠPrÃ¼f": 7563,
      "ĠSubsidiaritÃ¤t": 7564,
      "Fortsetzung": 7565,
      "Erwartete": 7566,
      "NUNGSHOF": 7567,
      "59258": 7568,
      "BÃ¼rger": 7569,
      "HU": 7570,
      "KA": 7571,
      "On": 7572,
      "Zoll": 7573,
      "Zweck": 7574,
      "koh": 7575,
      "ĠSA": 7576,
      "ĠSÃ¼": 7577,
      "Ġser": 7578,
      "Ġfehlen": 7579,
      "ĠBla": 7580,
      "ĠMesse": 7581,
      "ĠhumanitÃ¤re": 7582,
      "ĠTraum": 7583,
      "ĠZuf": 7584,
      "ĠReaktion": 7585,
      "Ġstrateg": 7586,
      "laufen": 7587,
      "waren": 7588,
      "ĠZucker": 7589,
      "ĠGemeinschaften": 7590,
      "Ġsolcher": 7591,
      "ĠVerkehrs": 7592,
      "ĠgrundsÃ¤tz": 7593,
      "ĠStÃ¤dte": 7594,
      "Ġerreichbar": 7595,
      "znei": 7596,
      "enhagen": 7597,
      "Dienst": 7598,
      "machen": 7599,
      "nicht": 7600,
      "sur": 7601,
      "zig": 7602,
      "Ġatt": 7603,
      "Ġnein": 7604,
      "ĠPA": 7605,
      "ĠHomepage": 7606,
      "reist": 7607,
      "ĠJohn": 7608,
      "ula": 7609,
      "Ġallgemeine": 7610,
      "ĠUnternehmens": 7611,
      "Ġbegann": 7612,
      "apital": 7613,
      "ĠArbeitsmarkt": 7614,
      "ĠPhase": 7615,
      "ĠRegionalpolitik": 7616,
      "Jahres": 7617,
      "ĠTermin": 7618,
      "Ġehrgeiz": 7619,
      "BR": 7620,
      "Res": 7621,
      "ĠSTE": 7622,
      "Ġneg": 7623,
      "ĠEssen": 7624,
      "ĠFein": 7625,
      "ĠRO": 7626,
      "Ġkontroll": 7627,
      "reitet": 7628,
      "Ġuntern": 7629,
      "leiben": 7630,
      "lastung": 7631,
      "ĠGrundsatz": 7632,
      "Gener": 7633,
      "ECAF": 7634,
      "ĠgrÃ¶ÃŁer": 7635,
      "ĠHaft": 7636,
      "ĠPressestelle": 7637,
      "ĠerfÃ¼llen": 7638,
      "Ġspezielle": 7639,
      "ĠVeranstaltung": 7640,
      "Ġbilden": 7641,
      "Ġsinnvoll": 7642,
      "ĠAKP": 7643,
      "eesc": 7644,
      "ony": 7645,
      "ĠGi": 7646,
      "ĠGel": 7647,
      "ĠVoll": 7648,
      "ĠWÃ¤hrung": 7649,
      "ehle": 7650,
      "ĠErzeugnisse": 7651,
      "Ġbeispiel": 7652,
      "ĠhierfÃ¼r": 7653,
      "Ġspreche": 7654,
      "ĠVorschlags": 7655,
      "Ġverboten": 7656,
      "ĠspÃ¤teren": 7657,
      "ĠAppartement": 7658,
      "ĠBeschlÃ¼sse": 7659,
      "Ġdauern": 7660,
      "Ġruhig": 7661,
      "ĠZustand": 7662,
      "ĠWIRTSCHAFTS": 7663,
      "Schwerpunkt": 7664,
      "He": 7665,
      "Sonder": 7666,
      "Vier": 7667,
      "cell": 7668,
      "ga": 7669,
      "wes": 7670,
      "anismus": 7671,
      "allo": 7672,
      "ĠPreisen": 7673,
      "ĠFin": 7674,
      "ĠFreude": 7675,
      "ĠTool": 7676,
      "ĠNÃ¤ch": 7677,
      "ĠErde": 7678,
      "hton": 7679,
      "Ġsowohl": 7680,
      "Ġ42": 7681,
      "ĠRegistr": 7682,
      "Ġgewiss": 7683,
      "ĠKlar": 7684,
      "streng": 7685,
      "ĠGemeinsamen": 7686,
      "AHR": 7687,
      "ĠBehÃ¶rden": 7688,
      "ĠSchwerpunkte": 7689,
      "ĠprÃ¤sent": 7690,
      "Sonstige": 7691,
      "grÃ¼ÃŁung": 7692,
      "BeschÃ¤ftigung": 7693,
      "It": 7694,
      "Juni": 7695,
      "LUNG": 7696,
      "Uhr": 7697,
      "ĠEind": 7698,
      "ierre": 7699,
      "ĠVerstÃ¤nd": 7700,
      "ĠJob": 7701,
      "rib": 7702,
      "Ġschrift": 7703,
      "ugh": 7704,
      "Ã¼nschen": 7705,
      "ices": 7706,
      "gewicht": 7707,
      "ssysteme": 7708,
      "Ġfinanzielle": 7709,
      "Ã¤ume": 7710,
      "ĠstÃ¤rker": 7711,
      "ĠfÃ¼hlen": 7712,
      "ĠHennon": 7713,
      "Foren": 7714,
      "Kultur": 7715,
      "Luft": 7716,
      "gut": 7717,
      "Ġnehme": 7718,
      "ĠBett": 7719,
      "ĠDa": 7720,
      "ĠHalb": 7721,
      "ĠChr": 7722,
      "edingungen": 7723,
      "ORT": 7724,
      "Ġ65": 7725,
      "ourn": 7726,
      "ĠBeteiligung": 7727,
      "ĠFranz": 7728,
      "Ġverlassen": 7729,
      "ĠBedarf": 7730,
      "ĠBusiness": 7731,
      "KOMMUNIKATION": 7732,
      "ĠStatistiken": 7733,
      "iendly": 7734,
      "ĠkÃ¼mm": 7735,
      "53593": 7736,
      "Offen": 7737,
      "Weshalb": 7738,
      "sinn": 7739,
      "ergie": 7740,
      "eira": 7741,
      "Ã¤ck": 7742,
      "Ġeinverstanden": 7743,
      "Ã¼rz": 7744,
      "ĠKal": 7745,
      "ĠAnhang": 7746,
      "ĠAnalyse": 7747,
      "ellos": 7748,
      "ressourcen": 7749,
      "ĠAusland": 7750,
      "ĠAusgabe": 7751,
      "ĠAusdruck": 7752,
      "ĠVerbrauch": 7753,
      "ĠDatenbank": 7754,
      "azza": 7755,
      "Mitgliedstaaten": 7756,
      "Ġpassieren": 7757,
      "ĠAsien": 7758,
      "ĠGlobalisierung": 7759,
      "ETZUNG": 7760,
      "fÃ¤ltig": 7761,
      "EICH": 7762,
      "KI": 7763,
      "nor": 7764,
      "Ġdienen": 7765,
      "iter": 7766,
      "ĠPil": 7767,
      "ĠzÃ¤hlen": 7768,
      "ĠDol": 7769,
      "ĠVerz": 7770,
      "raucht": 7771,
      "Ġren": 7772,
      "ĠKlim": 7773,
      "Dezember": 7774,
      "ETT": 7775,
      "Ġbestimmten": 7776,
      "ĠfÃ¼l": 7777,
      "ĠhÃ¶chste": 7778,
      "ĠzugÃ¤nglich": 7779,
      "ĠerhÃ¶ht": 7780,
      "ĠbestÃ¤tigt": 7781,
      "Ġverantwortlich": 7782,
      "ĠVORSITZES": 7783,
      "UD": 7784,
      "WÃ¤hrend": 7785,
      "teste": 7786,
      "ĠKO": 7787,
      "Ġinbegriffen": 7788,
      "deck": 7789,
      "andid": 7790,
      "ista": 7791,
      "Ġbewegen": 7792,
      "Ġles": 7793,
      "Anlage": 7794,
      "ARD": 7795,
      "quote": 7796,
      "ranche": 7797,
      "Ã¤lfte": 7798,
      "management": 7799,
      "finition": 7800,
      "Ġ753": 7801,
      "ĠHof": 7802,
      "GRUND": 7803,
      "Ġkeinerlei": 7804,
      "alistisch": 7805,
      "GESAMT": 7806,
      "ĠBahnhof": 7807,
      "Ass": 7808,
      "ĠSzen": 7809,
      "aria": 7810,
      "Ġderen": 7811,
      "Ġzeit": 7812,
      "ĠKrisen": 7813,
      "Ã¶ger": 7814,
      "Ġinnov": 7815,
      "ĠDÃ¤nemark": 7816,
      "ssicherheit": 7817,
      "001": 7818,
      "Ġverpflich": 7819,
      "ĠAnhÃ¶r": 7820,
      "ĠAnspruch": 7821,
      "sprÃ¼n": 7822,
      "ĠAbfall": 7823,
      "rugs": 7824,
      "iment": 7825,
      "ĠEintrag": 7826,
      "Ġspezif": 7827,
      "BegrÃ¼ÃŁung": 7828,
      "ĠAmsterdam": 7829,
      "besserungen": 7830,
      "ĠSysteme": 7831,
      "ĠVertrags": 7832,
      "ĠFormat": 7833,
      "gangenheit": 7834,
      "ĠAshton": 7835,
      "ĠRechtsvorschriften": 7836,
      "PrioritÃ¤t": 7837,
      "ĠKonto": 7838,
      "ĠAgrarpolitik": 7839,
      "ĠApartments": 7840,
      "BRAUCHER": 7841,
      "Botschafter": 7842,
      "Ġverdienen": 7843,
      "Immer": 7844,
      "Wen": 7845,
      "ks": 7846,
      "zusammen": 7847,
      "anen": 7848,
      "aru": 7849,
      "gest": 7850,
      "tex": 7851,
      "ĠEM": 7852,
      "ĠKe": 7853,
      "row": 7854,
      "iviane": 7855,
      "ugoslaw": 7856,
      "ĠGran": 7857,
      "Ġlegen": 7858,
      "gleichheit": 7859,
      "ĠVorteil": 7860,
      "Ġwesentlich": 7861,
      "Aktuelle": 7862,
      "Ġdiskutieren": 7863,
      "ĠRECHNUNGSHOF": 7864,
      "ĠMilliarden": 7865,
      "John": 7866,
      "br": 7867,
      "bab": 7868,
      "pel": 7869,
      "isieren": 7870,
      "ĠFort": 7871,
      "ĠFOL": 7872,
      "Ġinzwischen": 7873,
      "Ġzudem": 7874,
      "ĠLU": 7875,
      "Ġteile": 7876,
      "ĠOff": 7877,
      "eichern": 7878,
      "echnet": 7879,
      "handelt": 7880,
      "LICHEN": 7881,
      "ĠPolizei": 7882,
      "Ġreserv": 7883,
      "reffend": 7884,
      "Finden": 7885,
      "Koh": 7886,
      "zunehmen": 7887,
      "ĠServ": 7888,
      "atastrop": 7889,
      "ĠEF": 7890,
      "ĠBay": 7891,
      "scher": 7892,
      "ĠHigh": 7893,
      "ĠNummer": 7894,
      "ĠAnstreng": 7895,
      "euern": 7896,
      "Ġeffekt": 7897,
      "akistan": 7898,
      "STRA": 7899,
      "Ġliebe": 7900,
      "fÃ¤hig": 7901,
      "Ġteilnehmen": 7902,
      "Welchen": 7903,
      "ĠberÃ¼cksichtigen": 7904,
      "ĠungefÃ¤hr": 7905,
      "ĠDavid": 7906,
      "aldirektion": 7907,
      "198": 7908,
      "AJ": 7909,
      "Kosten": 7910,
      "karten": 7911,
      "wÃ¤": 7912,
      "Ġter": 7913,
      "una": 7914,
      "ĠPhil": 7915,
      "ĠKunde": 7916,
      "ĠDich": 7917,
      "ĠWord": 7918,
      "ĠTAC": 7919,
      "ĠLive": 7920,
      "ĠNationen": 7921,
      "ĠÃ¼berzeugt": 7922,
      "artig": 7923,
      "barer": 7924,
      "ĠVoraussetz": 7925,
      "ĠBew": 7926,
      "ARE": 7927,
      "laut": 7928,
      "erkennung": 7929,
      "Ġweitergehen": 7930,
      "Ġvoller": 7931,
      "BERG": 7932,
      "ĠNetzwerk": 7933,
      "Ġentsprechend": 7934,
      "BESCHÃĦFTIGUNG": 7935,
      "CZ": 7936,
      "Gesch": 7937,
      "RIE": 7938,
      "Suchen": 7939,
      "Tele": 7940,
      "Ġdah": 7941,
      "ĠSm": 7942,
      "aup": 7943,
      "ĠPoker": 7944,
      "ilater": 7945,
      "anze": 7946,
      "iertes": 7947,
      "Ġspan": 7948,
      "ido": 7949,
      "ĠÃľberprÃ¼fung": 7950,
      "ĠRedaktion": 7951,
      "ĠBÃ¼rgern": 7952,
      "Manchmal": 7953,
      "ĠselbstverstÃ¤ndlich": 7954,
      "selbe": 7955,
      "Ġbeschlossen": 7956,
      "ĠSkype": 7957,
      "ĠMehrwert": 7958,
      "Ġideal": 7959,
      "Zimmerbeschreibung": 7960,
      "ĠBeschÃ¤ftigungs": 7961,
      "ĠEreig": 7962,
      "Ferner": 7963,
      "Falls": 7964,
      "hi": 7965,
      "sd": 7966,
      "wohnung": 7967,
      "Ġrie": 7968,
      "Ġreichen": 7969,
      "einigung": 7970,
      "genz": 7971,
      "Ġzerst": 7972,
      "Ġinvest": 7973,
      "ĠHel": 7974,
      "Ġland": 7975,
      "Ġlag": 7976,
      "ĠVergangenheit": 7977,
      "nisierung": 7978,
      "ĠParad": 7979,
      "Ġgefragt": 7980,
      "ĠUmweltschutz": 7981,
      "ĠAutob": 7982,
      "ĠShar": 7983,
      "ĠKomfort": 7984,
      "Ġmensch": 7985,
      "LT": 7986,
      "ZOLL": 7987,
      "geg": 7988,
      "ĠBE": 7989,
      "ĠFÃ¤h": 7990,
      "schul": 7991,
      "chtung": 7992,
      "INS": 7993,
      "Ġzweif": 7994,
      "IKA": 7995,
      "orgnis": 7996,
      "ĠStaats": 7997,
      "ĠXII": 7998,
      "Ġgebracht": 7999,
      "URG": 8000,
      "ĠEWR": 8001,
      "ĠTerrasse": 8002,
      "Ġhervorheben": 8003,
      "ĠAktivitÃ¤ten": 8004,
      "ĠGemÃ¼": 8005,
      "Sub": 8006,
      "fleisch": 8007,
      "jo": 8008,
      "uz": 8009,
      "ĠSchengen": 8010,
      "Ġmar": 8011,
      "ĠMut": 8012,
      "berge": 8013,
      "ĠHeil": 8014,
      "lichung": 8015,
      "reif": 8016,
      "ĠComp": 8017,
      "ungsstunde": 8018,
      "INA": 8019,
      "Ġhierbei": 8020,
      "imes": 8021,
      "Ã¼ckw": 8022,
      "ĠRegierungen": 8023,
      "Ġbesucht": 8024,
      "eldet": 8025,
      "GenieÃŁen": 8026,
      "ĠGeldb": 8027,
      "ĠFrem": 8028,
      "Ġkostenfrei": 8029,
      "abelj": 8030,
      "Ġempfohlen": 8031,
      "ĠTrain": 8032,
      "ĠFirmen": 8033,
      "ĠLiber": 8034,
      "ĠErwachsen": 8035,
      "riminierung": 8036,
      "ĠAbgeordnete": 8037,
      "GLIED": 8038,
      "Ġdiskutiert": 8039,
      "ĠArgument": 8040,
      "ĠInstallation": 8041,
      "drÃ¼cklich": 8042,
      "Eigen": 8043,
      "inent": 8044,
      "eiert": 8045,
      "Ã¤mt": 8046,
      "Ġsh": 8047,
      "ĠPakete": 8048,
      "ĠKurz": 8049,
      "bergen": 8050,
      "ĠWetter": 8051,
      "opf": 8052,
      "ops": 8053,
      "Ġanerk": 8054,
      "ĠVerpflichtungen": 8055,
      "ittling": 8056,
      "ĠSchm": 8057,
      "ESTE": 8058,
      "ida": 8059,
      "ove": 8060,
      "leistungs": 8061,
      "IERUNG": 8062,
      "ĠMarke": 8063,
      "ĠMethode": 8064,
      "ĠBerichterstatterin": 8065,
      "VizeprÃ¤sidentin": 8066,
      "ĠAlternative": 8067,
      "ĠendgÃ¼ltigen": 8068,
      "ĠbeglÃ¼ckw": 8069,
      "()": 8070,
      "Machen": 8071,
      "bad": 8072,
      "gy": 8073,
      "inien": 8074,
      "asy": 8075,
      "ĠnatÃ¼r": 8076,
      "berto": 8077,
      "ĠHÃ¤lfte": 8078,
      "deckt": 8079,
      "ams": 8080,
      "ĠZimmern": 8081,
      "Ġpri": 8082,
      "Ã¤tigkeiten": 8083,
      "ivitÃ¤t": 8084,
      "leichen": 8085,
      "aufbau": 8086,
      "ffentlich": 8087,
      "Ġlegt": 8088,
      "Ġwenigen": 8089,
      "ĠSitzungen": 8090,
      "zeugung": 8091,
      "ĠGeschenk": 8092,
      "ĠSozialausschuss": 8093,
      "ĠZahlungen": 8094,
      "ĠInfos": 8095,
      "ĠpersÃ¶nlichen": 8096,
      "ĠSlowenien": 8097,
      "lÃ¤ndische": 8098,
      "Fraktion": 8099,
      "Gut": 8100,
      "Rep": 8101,
      "Wald": 8102,
      "sa": 8103,
      "sbericht": 8104,
      "zed": 8105,
      "iti": 8106,
      "Ġbrit": 8107,
      "ĠES": 8108,
      "ĠMult": 8109,
      "ĠDauer": 8110,
      "entwicklung": 8111,
      "Ġerf": 8112,
      "ĠCal": 8113,
      "Ã¤rz": 8114,
      "ochen": 8115,
      "gress": 8116,
      "ungsmittel": 8117,
      "arbeite": 8118,
      "Ġgelungen": 8119,
      "aturen": 8120,
      "Mitgliedstaat": 8121,
      "ĠauÃŁerhalb": 8122,
      "Ġqual": 8123,
      "EWSA": 8124,
      "ĠPlayer": 8125,
      "Ġrespekt": 8126,
      "Beitritt": 8127,
      "ĠEisenbahn": 8128,
      "Ġwork": 8129,
      "ĠMartin": 8130,
      "Gestatten": 8131,
      "ĠNahen": 8132,
      "ĠVerstÃ¤ndnis": 8133,
      "Not": 8134,
      "Nov": 8135,
      "td": 8136,
      "ĠSorgen": 8137,
      "elia": 8138,
      "ĠAfghanistan": 8139,
      "ĠnÃ¼tz": 8140,
      "Ã¶sen": 8141,
      "ĠglÃ¼ck": 8142,
      "ĠGleiche": 8143,
      "ĠTU": 8144,
      "andal": 8145,
      "Ġerh": 8146,
      "Ġbezieht": 8147,
      "ĠVerh": 8148,
      "hek": 8149,
      "ĠOSTEN": 8150,
      "rÃ¼stung": 8151,
      "esto": 8152,
      "Ġ38": 8153,
      "Ġnochmals": 8154,
      "Anca": 8155,
      "last": 8156,
      "Ġ58": 8157,
      "Ġamer": 8158,
      "REFFEN": 8159,
      "ĠMittelpunkt": 8160,
      "ĠSupport": 8161,
      "ĠBuchung": 8162,
      "athan": 8163,
      "Ġinteressiert": 8164,
      "ĠRestaurants": 8165,
      "ifiziert": 8166,
      "PrioritÃ¤ten": 8167,
      "ĠTabelle": 8168,
      "ĠKapitel": 8169,
      "ILDUNG": 8170,
      "At": 8171,
      "KS": 8172,
      "Prakt": 8173,
      "eed": 8174,
      "tes": 8175,
      "ych": 8176,
      "ĠDiese": 8177,
      "ordent": 8178,
      "ĠAS": 8179,
      "Ġfrage": 8180,
      "Ġfassen": 8181,
      "ĠBrasilien": 8182,
      "ĠKontrollen": 8183,
      "ĠDetail": 8184,
      "ĠVol": 8185,
      "Ġverf": 8186,
      "Ġtyp": 8187,
      "Ġtrotzdem": 8188,
      "ĠOR": 8189,
      "blatt": 8190,
      "werden": 8191,
      "uÃŁland": 8192,
      "Ġdeutsche": 8193,
      "uba": 8194,
      "Pressedienst": 8195,
      "Ġkonst": 8196,
      "Umsetzung": 8197,
      "Markt": 8198,
      "tensiv": 8199,
      "Ġbesonderen": 8200,
      "mbud": 8201,
      "ĠbemÃ¼": 8202,
      "ĠAusschuÃŁ": 8203,
      "Versammlung": 8204,
      "ĠSchwierigkeiten": 8205,
      "abeljau": 8206,
      "Il": 8207,
      "MUS": 8208,
      "NDER": 8209,
      "WEST": 8210,
      "kel": 8211,
      "Ã¼ssen": 8212,
      "Ġweist": 8213,
      "atter": 8214,
      "mma": 8215,
      "ĠMalta": 8216,
      "denk": 8217,
      "ĠNahr": 8218,
      "Ġsieben": 8219,
      "ĠBerichtig": 8220,
      "auso": 8221,
      "Ġgeschrieben": 8222,
      "iveau": 8223,
      "ĠÃľbereinkommen": 8224,
      "ĠÃľberwachung": 8225,
      "alender": 8226,
      "517": 8227,
      "ĠbegrÃ¼ndet": 8228,
      "ĠYork": 8229,
      "ĠArbeitslosigkeit": 8230,
      "omentan": 8231,
      "Ġentsprechende": 8232,
      "ĠVizeprÃ¤sidentin": 8233,
      "ENTWICKLUNG": 8234,
      "Monica": 8235,
      "ĠDrittlÃ¤ndern": 8236,
      "ĠKoordinierung": 8237,
      "ĠKommunalvertreter": 8238,
      "Clau": 8239,
      "DIE": 8240,
      "IAN": 8241,
      "hat": 8242,
      "Ġdamals": 8243,
      "Ġmor": 8244,
      "ĠBur": 8245,
      "Ã¼ro": 8246,
      "ĠFRE": 8247,
      "Ġkg": 8248,
      "ĠHouse": 8249,
      "utto": 8250,
      "ĠStil": 8251,
      "ĠAnerkennung": 8252,
      "ĠJur": 8253,
      "Ġauszu": 8254,
      "version": 8255,
      "Uns": 8256,
      "Scholle": 8257,
      "ziale": 8258,
      "Ġ06": 8259,
      "rina": 8260,
      "ritann": 8261,
      "403": 8262,
      "ĠInnov": 8263,
      "ĠPlug": 8264,
      "ĠAutor": 8265,
      "ĠgrÃ¶ÃŁere": 8266,
      "ĠNeue": 8267,
      "zahlungen": 8268,
      "ĠParkplatz": 8269,
      "Ġverschw": 8270,
      "ĠGarantie": 8271,
      "ĠRadio": 8272,
      "ĠKommentar": 8273,
      "ĠPatent": 8274,
      "zureichen": 8275,
      "NAHMEN": 8276,
      "ĠNachbarschaft": 8277,
      "Ġbeinhaltet": 8278,
      "ĠInseln": 8279,
      "FIN": 8280,
      "War": 8281,
      "YP": 8282,
      "fan": 8283,
      "mes": 8284,
      "ĠMess": 8285,
      "Ġhart": 8286,
      "ĠFÃ¼r": 8287,
      "schuÃŁ": 8288,
      "ĠWa": 8289,
      "ĠLux": 8290,
      "ĠVerk": 8291,
      "ruption": 8292,
      "ĠÃ¼bernommen": 8293,
      "mech": 8294,
      "ĠFormen": 8295,
      "udan": 8296,
      "alisieren": 8297,
      "ĠfÃ¼hrte": 8298,
      "ĠeingefÃ¼hrt": 8299,
      "Ġverkaufen": 8300,
      "ĠverkÃ¼ndet": 8301,
      "Ġfalsche": 8302,
      "Ġfreie": 8303,
      "Tagung": 8304,
      "Arbeits": 8305,
      "ĠVision": 8306,
      "Ġinformiert": 8307,
      "ĠFÃ¼hrung": 8308,
      "ĠberÃ¼cksichtigt": 8309,
      "Ġjeweils": 8310,
      "ĠEnergien": 8311,
      "ECH": 8312,
      "FrÃ¼hstÃ¼ck": 8313,
      "LOS": 8314,
      "Nutzen": 8315,
      "Seite": 8316,
      "Vassiliou": 8317,
      "Ġsen": 8318,
      "Ġna": 8319,
      "Ġeins": 8320,
      "Ġeiniges": 8321,
      "Ã¶se": 8322,
      "dex": 8323,
      "legt": 8324,
      "ĠTro": 8325,
      "ĠTher": 8326,
      "utin": 8327,
      "Inn": 8328,
      "Schauen": 8329,
      "schluÃŁ": 8330,
      "Ġgewonnen": 8331,
      "ĠhinzufÃ¼gen": 8332,
      "1998": 8333,
      "Ġversucht": 8334,
      "ĠfranzÃ¶s": 8335,
      "napp": 8336,
      "ĠAusschusses": 8337,
      "fertigt": 8338,
      "apazitÃ¤t": 8339,
      "lÃ¶sung": 8340,
      "ĠjÃ¼ng": 8341,
      "Ġberufliche": 8342,
      "ĠGlÃ¼ckwunsch": 8343,
      "VassiliouEU": 8344,
      "574": 8345,
      "Jn": 8346,
      "gast": 8347,
      "reitung": 8348,
      "Ġwachsen": 8349,
      "arische": 8350,
      "ĠBR": 8351,
      "ĠFISCH": 8352,
      "ĠRos": 8353,
      "ĠAnpassung": 8354,
      "Ġschlagen": 8355,
      "edro": 8356,
      "bliot": 8357,
      "werber": 8358,
      "Ã¶rter": 8359,
      "gebracht": 8360,
      "StÃ¤rkung": 8361,
      "Ġ800": 8362,
      "inea": 8363,
      "ource": 8364,
      "ĠUnterschiede": 8365,
      "Ġsolches": 8366,
      "ĠGraf": 8367,
      "Ġgestrigen": 8368,
      "raktionen": 8369,
      "mittag": 8370,
      "Ã¼nstler": 8371,
      "dienstleistungen": 8372,
      "ĠErwart": 8373,
      "Verbraucher": 8374,
      "ĠArchiv": 8375,
      "ĠGreen": 8376,
      "Ã¤user": 8377,
      "babwe": 8378,
      "NUNG": 8379,
      "Rad": 8380,
      "VA": 8381,
      "WF": 8382,
      "part": 8383,
      "inos": 8384,
      "steht": 8385,
      "ĠSatz": 8386,
      "ĠAlex": 8387,
      "Ġbar": 8388,
      "ĠMaterial": 8389,
      "eting": 8390,
      "schirm": 8391,
      "ĠHimm": 8392,
      "ĠVIII": 8393,
      "ĠWander": 8394,
      "ĠLeiter": 8395,
      "ĠLernen": 8396,
      "Ġgefordert": 8397,
      "ĠEine": 8398,
      "ĠEinfÃ¼hrung": 8399,
      "Ã¤ndler": 8400,
      "ĠParameter": 8401,
      "ĠZeitplan": 8402,
      "rategien": 8403,
      "ĠGlas": 8404,
      "ĠAuÃŁenhandel": 8405,
      "pflichtung": 8406,
      "Ġkonkret": 8407,
      "300": 8408,
      "Bl": 8409,
      "Med": 8410,
      "Sim": 8411,
      "iam": 8412,
      "wissen": 8413,
      "erung": 8414,
      "ĠSonnen": 8415,
      "Ġsorg": 8416,
      "atib": 8417,
      "Ġunmittel": 8418,
      "uraru": 8419,
      "Ġmy": 8420,
      "ĠEm": 8421,
      "Ã¶konom": 8422,
      "Ġ250": 8423,
      "entscheidung": 8424,
      "Ġletzt": 8425,
      "ĠSchÃ¶n": 8426,
      "Ġvoraus": 8427,
      "ruh": 8428,
      "Wasser": 8429,
      "ĠEinstellung": 8430,
      "Ġ600": 8431,
      "ĠLandwir": 8432,
      "ĠUrspr": 8433,
      "ĠVERH": 8434,
      "Ġvermeiden": 8435,
      "ĠStudio": 8436,
      "Michel": 8437,
      "ĠDurchfÃ¼hrung": 8438,
      "Ġausgewogen": 8439,
      "ĠEngagement": 8440,
      "ĠNational": 8441,
      "Ġfreundlich": 8442,
      "PFUNG": 8443,
      "Ġ0475": 8444,
      "GH": 8445,
      "Gerne": 8446,
      "SL": 8447,
      "mine": 8448,
      "nam": 8449,
      "Ġdritten": 8450,
      "iefert": 8451,
      "Ġsah": 8452,
      "ĠsÃ¼d": 8453,
      "atch": 8454,
      "oler": 8455,
      "ĠIdent": 8456,
      "Ġkennt": 8457,
      "ĠDringlichkeit": 8458,
      "sselt": 8459,
      "ĠGRA": 8460,
      "ĠVar": 8461,
      "Ġzuerst": 8462,
      "ilde": 8463,
      "ĠLager": 8464,
      "Ġaufzu": 8465,
      "ĠCECAF": 8466,
      "Ġmiteinander": 8467,
      "sprach": 8468,
      "ahrt": 8469,
      "sens": 8470,
      "rÃ¼cke": 8471,
      "egow": 8472,
      "Ġabstimmen": 8473,
      "Erste": 8474,
      "pful": 8475,
      "erto": 8476,
      "ĠHerbst": 8477,
      "eckt": 8478,
      "ĠBarnier": 8479,
      "ezunge": 8480,
      "Ã¤ngerung": 8481,
      "imitri": 8482,
      "ĠFolge": 8483,
      "Ġherrscht": 8484,
      "ĠZentralbank": 8485,
      "918": 8486,
      "Hoch": 8487,
      "RÃ¼ck": 8488,
      "got": 8489,
      "ĠSen": 8490,
      "ĠFunktionen": 8491,
      "ĠVen": 8492,
      "Ġgehalten": 8493,
      "ĠStein": 8494,
      "erraum": 8495,
      "senden": 8496,
      "ALM": 8497,
      "ĠDanke": 8498,
      "ĠKontext": 8499,
      "ĠÃľbersetzung": 8500,
      "AufschlÃ¼sselung": 8501,
      "Sozial": 8502,
      "ĠGrundsÃ¤tze": 8503,
      "worte": 8504,
      "ĠOrigin": 8505,
      "Ġwahrscheinlich": 8506,
      "Gesundheit": 8507,
      "Ġstarke": 8508,
      "ĠGeheim": 8509,
      "ĠWallstrÃ¶m": 8510,
      "ĠPension": 8511,
      "ĠPaduraru": 8512,
      "Juli": 8513,
      "ĠfÃ¼llen": 8514,
      "view": 8515,
      "zentrum": 8516,
      "stÃ¤nde": 8517,
      "ira": 8518,
      "Ġnice": 8519,
      "ĠPack": 8520,
      "ĠPaul": 8521,
      "ĠVAL": 8522,
      "ĠTH": 8523,
      "ĠLab": 8524,
      "Dasselbe": 8525,
      "ĠStar": 8526,
      "verlÃ¤ss": 8527,
      "ntag": 8528,
      "Einfach": 8529,
      "Ġapp": 8530,
      "Ġzumindest": 8531,
      "StimmerklÃ¤rungen": 8532,
      "ĠMarc": 8533,
      "BEK": 8534,
      "sbuffet": 8535,
      "Amer": 8536,
      "Ġgestern": 8537,
      "Ã¶chst": 8538,
      "ĠAndroulla": 8539,
      "ĠAtmo": 8540,
      "Ġvertrau": 8541,
      "Ġexistiert": 8542,
      "Ġverlangt": 8543,
      "ĠWeiÃŁbuch": 8544,
      "zusammenarbeit": 8545,
      "Hilfe": 8546,
      "Mart": 8547,
      "PROGRAMM": 8548,
      "zellen": 8549,
      "ĠPAR": 8550,
      "mme": 8551,
      "ĠBanner": 8552,
      "Ã¶ten": 8553,
      "ĠRSS": 8554,
      "ĠHilf": 8555,
      "ĠWelche": 8556,
      "ĠWÃ¼nsche": 8557,
      "ĠAnlass": 8558,
      "Ġpo": 8559,
      "Ġeffizien": 8560,
      "Ġ53": 8561,
      "ĠPrÃ¤sidentschaft": 8562,
      "Ġbetreffend": 8563,
      "Ã¤hrt": 8564,
      "setzungen": 8565,
      "ĠApart": 8566,
      "2012": 8567,
      "wegische": 8568,
      "ĠGrÃ¼nbuch": 8569,
      "ĠFahrt": 8570,
      "ĠEinwohner": 8571,
      "ĠHinweis": 8572,
      "Ġergreifen": 8573,
      "ĠParteien": 8574,
      "oldau": 8575,
      "ĠSchwerpunkt": 8576,
      "svorsitz": 8577,
      "Ġinstallieren": 8578,
      "Ġpraktisch": 8579,
      "ĠVerÃ¤nderung": 8580,
      "klusive": 8581,
      "Investitionen": 8582,
      "ZOLLUNION": 8583,
      "ritannien": 8584,
      "Wohnung": 8585,
      "britannien": 8586,
      "mon": 8587,
      "por": 8588,
      "ĠÃ¤ndert": 8589,
      "ĠBru": 8590,
      "ĠBek": 8591,
      "Ġzentral": 8592,
      "ĠKontroll": 8593,
      "ĠFeuer": 8594,
      "Ġgl": 8595,
      "ĠVinc": 8596,
      "eitag": 8597,
      "ĠTun": 8598,
      "ĠStano": 8599,
      "ĠÃ¼berprÃ¼fen": 8600,
      "werbe": 8601,
      "Anzahl": 8602,
      "Beispiele": 8603,
      "rate": 8604,
      "ILITÃĦ": 8605,
      "ĠKonvent": 8606,
      "arbeits": 8607,
      "ĠAmts": 8608,
      "Ġverstanden": 8609,
      "aint": 8610,
      "box": 8611,
      "ĠVideos": 8612,
      "gnor": 8613,
      "Ġkorrekt": 8614,
      "ĠFOLGEN": 8615,
      "egowina": 8616,
      "Helen": 8617,
      "MEMO": 8618,
      "effizienz": 8619,
      "pe": 8620,
      "Ġmeist": 8621,
      "ĠMic": 8622,
      "Ġhave": 8623,
      "ĠTradition": 8624,
      "ĠLang": 8625,
      "Ġbeen": 8626,
      "Ġbezeichnet": 8627,
      "ĠAnreg": 8628,
      "Schon": 8629,
      "ĠAngriff": 8630,
      "SPROGRAMM": 8631,
      "haber": 8632,
      "Ġwiederholen": 8633,
      "ĠÃĸffentliche": 8634,
      "ĠSystems": 8635,
      "Jeden": 8636,
      "752": 8637,
      "ĠTechnische": 8638,
      "Ġlauten": 8639,
      "ĠKopenhagen": 8640,
      "ĠerwÃ¤hnen": 8641,
      "ĠWesteren": 8642,
      "SOZIAL": 8643,
      "ASSNAHMEN": 8644,
      "ĠMITGLIED": 8645,
      "ĠTorres": 8646,
      "Ġaussehen": 8647,
      "angebote": 8648,
      "Ġilleg": 8649,
      "ĠPremierminister": 8650,
      "ĠMaschinen": 8651,
      "Empfeh": 8652,
      "ĠGemÃ¼se": 8653,
      "Bahn": 8654,
      "Mer": 8655,
      "Oktober": 8656,
      "masch": 8657,
      "zin": 8658,
      "eide": 8659,
      "Ġsk": 8660,
      "gef": 8661,
      "ĠAg": 8662,
      "Ġnieder": 8663,
      "ĠEvent": 8664,
      "ĠMB": 8665,
      "ĠKol": 8666,
      "ĠFarb": 8667,
      "Ġklin": 8668,
      "ĠWesent": 8669,
      "ĠLad": 8670,
      "ahnen": 8671,
      "Ġjunge": 8672,
      "Ġumgehend": 8673,
      "TELE": 8674,
      "endes": 8675,
      "Erfahren": 8676,
      "kennt": 8677,
      "ĠProdukten": 8678,
      "Ġgering": 8679,
      "VERFAHREN": 8680,
      "ĠReihen": 8681,
      "ĠVERFAHREN": 8682,
      "Ġverkauft": 8683,
      "wiesen": 8684,
      "Ġque": 8685,
      "Handels": 8686,
      "Ġtechnischen": 8687,
      "ograph": 8688,
      "Ġgespielt": 8689,
      "ĠKategorien": 8690,
      "Jonathan": 8691,
      "ĠAnstrengungen": 8692,
      "AST": 8693,
      "Lib": 8694,
      "Weil": 8695,
      "cis": 8696,
      "invest": 8697,
      "ĠMel": 8698,
      "ĠFac": 8699,
      "oth": 8700,
      "Ġstaat": 8701,
      "Ã¼nter": 8702,
      "Ã¼hrt": 8703,
      "ĠGenehmigung": 8704,
      "Ġaktualisiert": 8705,
      "ĠAuge": 8706,
      "ĠSki": 8707,
      "sonsten": 8708,
      "Ġgross": 8709,
      "ĠÃ¤hnlich": 8710,
      "rÃ¤nkungen": 8711,
      "sprÃ¼che": 8712,
      "laga": 8713,
      "As": 8714,
      "SB": 8715,
      "SID": 8716,
      "Vorg": 8717,
      "fa": 8718,
      "mel": 8719,
      "erlei": 8720,
      "ieh": 8721,
      "ĠShow": 8722,
      "ĠPet": 8723,
      "Ġzweit": 8724,
      "rachte": 8725,
      "ĠDub": 8726,
      "ĠWell": 8727,
      "abgabe": 8728,
      "ĠTÃ¤tigkeit": 8729,
      "annung": 8730,
      "ĠStoffe": 8731,
      "omin": 8732,
      "ives": 8733,
      "Integr": 8734,
      "Ã¶ren": 8735,
      "ohin": 8736,
      "ammt": 8737,
      "ISCHEN": 8738,
      "Ãľberblick": 8739,
      "Ġ62": 8740,
      "Ġeinfacher": 8741,
      "ĠBetrag": 8742,
      "ĠverstÃ¤rkt": 8743,
      "ĠGerÃ¤t": 8744,
      "ĠTechnologien": 8745,
      "ĠEinwanderung": 8746,
      "ĠpersÃ¶nliche": 8747,
      "programme": 8748,
      "689": 8749,
      "lebnis": 8750,
      "ĠKonflikt": 8751,
      "ĠAnhÃ¶rung": 8752,
      "Innovation": 8753,
      "MAN": 8754,
      "TV": 8755,
      "TatsÃ¤chlich": 8756,
      "YI": 8757,
      "datei": 8758,
      "leit": 8759,
      "Ġdeinen": 8760,
      "ario": 8761,
      "ĠRob": 8762,
      "ĠDatum": 8763,
      "ĠGVO": 8764,
      "Ġlog": 8765,
      "ĠAnforderungen": 8766,
      "ĠJack": 8767,
      "anzler": 8768,
      "Ġeur": 8769,
      "Ã¶lle": 8770,
      "Ġenorm": 8771,
      "ĠBeste": 8772,
      "weisungen": 8773,
      "ationsabkommen": 8774,
      "zÃ¼ge": 8775,
      "Ġ2734": 8776,
      "Bessere": 8777,
      "Mittelmeer": 8778,
      "ĠStandards": 8779,
      "ĠAugenblick": 8780,
      "ĠSonne": 8781,
      "Ġideale": 8782,
      "ĠKompeten": 8783,
      "ĠProfil": 8784,
      "ĠCamping": 8785,
      "ĠOrganisation": 8786,
      "ĠTatsache": 8787,
      "Ġbeispielsweise": 8788,
      "(%": 8789,
      "CE": 8790,
      "Mob": 8791,
      "bte": 8792,
      "leiter": 8793,
      "prechen": 8794,
      "zte": 8795,
      "ĠSohn": 8796,
      "Ġsm": 8797,
      "ĠunmÃ¶glich": 8798,
      "ĠPER": 8799,
      "ĠBitte": 8800,
      "Ġzunehmen": 8801,
      "ĠGE": 8802,
      "ĠVÃ¶lker": 8803,
      "ĠWik": 8804,
      "indlich": 8805,
      "Ġermut": 8806,
      "Ġbeziehen": 8807,
      "Ġausw": 8808,
      "rucken": 8809,
      "lauben": 8810,
      "ĠUmfang": 8811,
      "kehrt": 8812,
      "Ġproblem": 8813,
      "Ġ1993": 8814,
      "Vorsitz": 8815,
      "Ġbedauer": 8816,
      "ĠHauptstadt": 8817,
      "rÃ¤nke": 8818,
      "Ġjedenfalls": 8819,
      "fÃ¤llen": 8820,
      "Ġdennoch": 8821,
      "Ġfriendly": 8822,
      "ĠNovak": 8823,
      "Ġchines": 8824,
      "ĠWebsites": 8825,
      "organisation": 8826,
      "ĠTodd": 8827,
      "ĠAnmerkung": 8828,
      "Ġinstalliert": 8829,
      "ĠAssozi": 8830,
      "service": 8831,
      "ÃĦMPFUNG": 8832,
      "CI": 8833,
      "bieten": 8834,
      "fo": 8835,
      "fest": 8836,
      "ĠÃ¼": 8837,
      "steh": 8838,
      "anlagen": 8839,
      "Ġvolle": 8840,
      "ĠIt": 8841,
      "ĠLied": 8842,
      "reide": 8843,
      "ĠReferenz": 8844,
      "Ġ--": 8845,
      "Ġausges": 8846,
      "ĠErholung": 8847,
      "allas": 8848,
      "Ġ47": 8849,
      "ĠAusfÃ¼hrungen": 8850,
      "ohannes": 8851,
      "Ġbesitzt": 8852,
      "ĠAlc": 8853,
      "ĠKonsequ": 8854,
      "maÃŁen": 8855,
      "Ġ1992": 8856,
      "Produ": 8857,
      "ĠManagement": 8858,
      "ĠPalÃ¤st": 8859,
      "Ġdeutschen": 8860,
      "ĠÃľb": 8861,
      "Ġfinanziert": 8862,
      "Ã¤hlte": 8863,
      "Ġgratulieren": 8864,
      "ĠMerc": 8865,
      "zÃ¼gigkeit": 8866,
      "FERENZ": 8867,
      "kohol": 8868,
      "ĠMITGLIEDSTAATEN": 8869,
      "BURG": 8870,
      "Jens": 8871,
      "MÃ¤rz": 8872,
      "WÃ¼r": 8873,
      "Wachstum": 8874,
      "dre": 8875,
      "nes": 8876,
      "Ġche": 8877,
      "anat": 8878,
      "Ġimm": 8879,
      "Ġmil": 8880,
      "ĠPre": 8881,
      "ĠEstland": 8882,
      "Ġzweiter": 8883,
      "Ġhal": 8884,
      "ĠFalle": 8885,
      "Ã¶pf": 8886,
      "ĠRab": 8887,
      "Ġkont": 8888,
      "Ġkamen": 8889,
      "ĠWichtig": 8890,
      "achter": 8891,
      "Ġgeehrte": 8892,
      "ĠNAT": 8893,
      "ĠCard": 8894,
      "usse": 8895,
      "rÃ¤cht": 8896,
      "schaftliche": 8897,
      "Ãĸff": 8898,
      "izza": 8899,
      "Erst": 8900,
      "Ġco": 8901,
      "Ġcan": 8902,
      "ĠMax": 8903,
      "ĠZusammenhalt": 8904,
      "Ġfordert": 8905,
      "AMP": 8906,
      "ĠGewinn": 8907,
      "ĠGrad": 8908,
      "ĠElement": 8909,
      "Ġfreien": 8910,
      "Besonder": 8911,
      "ĠMarken": 8912,
      "urteilen": 8913,
      "ĠbestÃ¤tigen": 8914,
      "Aktionsplan": 8915,
      "66430": 8916,
      "Ġbegrenzt": 8917,
      "betten": 8918,
      "Ã¤gen": 8919,
      "urm": 8920,
      "Ġmult": 8921,
      "Ġname": 8922,
      "ĠBa": 8923,
      "ĠFu": 8924,
      "ĠTAGUNG": 8925,
      "Ġessen": 8926,
      "ulation": 8927,
      "ict": 8928,
      "ĠMaria": 8929,
      "ĠBildungs": 8930,
      "strich": 8931,
      "Ġhelpful": 8932,
      "Januar": 8933,
      "Ġprivate": 8934,
      "ĠKirche": 8935,
      "Related": 8936,
      "cellent": 8937,
      "Bildung": 8938,
      "Copyright": 8939,
      "Kaiser": 8940,
      "Liste": 8941,
      "MT": 8942,
      "Mak": 8943,
      "krise": 8944,
      "wirkungen": 8945,
      "infrastruktur": 8946,
      "ĠSing": 8947,
      "ĠfrÃ¼h": 8948,
      "ĠMART": 8949,
      "iga": 8950,
      "ĠLtd": 8951,
      "ĠZeile": 8952,
      "ĠRegen": 8953,
      "Ġsteigen": 8954,
      "sprache": 8955,
      "Ġschauen": 8956,
      "Ġvorgehen": 8957,
      "ĠArznei": 8958,
      "ROZ": 8959,
      "Ġberaten": 8960,
      "ĠProblems": 8961,
      "BEW": 8962,
      "ĠPlÃ¤ne": 8963,
      "rufen": 8964,
      "Ġausgezeich": 8965,
      "ĠEltern": 8966,
      "ĠGeschmack": 8967,
      "bedingungen": 8968,
      "fÃ¼llt": 8969,
      "ĠAtt": 8970,
      "94107": 8971,
      "ĠGerichtshofes": 8972,
      "ĠgefÃ¤hrlich": 8973,
      "ĠKompon": 8974,
      "Gruppen": 8975,
      "ĠSalz": 8976,
      "ĠObjekt": 8977,
      "ĠstÃ¤rken": 8978,
      "Einzelheiten": 8979,
      "Script": 8980,
      "Ġbeteiligt": 8981,
      "Ġelektron": 8982,
      "schÃ¤tzung": 8983,
      "Soweit": 8984,
      ".,": 8985,
      "Irina": 8986,
      "PrÃ¤": 8987,
      "dorf": 8988,
      "passt": 8989,
      "ubl": 8990,
      "Ġignor": 8991,
      "Ġvis": 8992,
      "Ġbildet": 8993,
      "ĠBSE": 8994,
      "ĠKON": 8995,
      "ĠIr": 8996,
      "Ġgezeigt": 8997,
      "ĠZahlung": 8998,
      "ĠNo": 8999,
      "ĠVerhand": 9000,
      "ĠVerbesserungen": 9001,
      "ĠAnn": 9002,
      "Ġtief": 9003,
      "Ġpr": 9004,
      "liegt": 9005,
      "ebook": 9006,
      "ierenden": 9007,
      "erseits": 9008,
      "Ġberu": 9009,
      "Ġ700": 9010,
      "ĠProblemen": 9011,
      "retung": 9012,
      "Ġhergestellt": 9013,
      "Ġbefassen": 9014,
      "Allgemein": 9015,
      "ĠzurÃ¼ckge": 9016,
      "Ã¤ufer": 9017,
      "Ġ....": 9018,
      "Ġmoderne": 9019,
      "ĠSchulden": 9020,
      "ifferenz": 9021,
      "ĠFeed": 9022,
      "Phone": 9023,
      "Ġbasiert": 9024,
      "ĠSchlafzimmer": 9025,
      "ĠFerrero": 9026,
      "Ġschriftlich": 9027,
      "Leit": 9028,
      "Nat": 9029,
      "Netz": 9030,
      "NET": 9031,
      "Red": 9032,
      "SQL": 9033,
      "TR": 9034,
      "bindung": 9035,
      "ior": 9036,
      "obe": 9037,
      "sichten": 9038,
      "yen": 9039,
      "testen": 9040,
      "irl": 9041,
      "ĠFL": 9042,
      "ĠFab": 9043,
      "ĠHT": 9044,
      "ĠHar": 9045,
      "igar": 9046,
      "ĠLitauen": 9047,
      "ĠZert": 9048,
      "Ġstay": 9049,
      "ĠSchuld": 9050,
      "edig": 9051,
      "ĠAbsicht": 9052,
      "ĠBeach": 9053,
      "ĠGrundrechte": 9054,
      "ĠQuoten": 9055,
      "acio": 9056,
      "KTOR": 9057,
      "ips": 9058,
      "865": 9059,
      "ĠDiam": 9060,
      "ĠheiÃŁen": 9061,
      "ĠNetze": 9062,
      "ikanischen": 9063,
      "ĠEuropÃ¤ischer": 9064,
      "ĠausgewÃ¤hlt": 9065,
      "ĠVolks": 9066,
      "Ġkleines": 9067,
      "Ġehrlich": 9068,
      "strafe": 9069,
      "ĠursprÃ¼n": 9070,
      "Ġgrundlegende": 9071,
      "Waldner": 9072,
      "57484": 9073,
      "ĠErwartungen": 9074,
      "TELEKOMMUNIKATION": 9075,
      "906": 9076,
      "Aud": 9077,
      "DO": 9078,
      "Deleg": 9079,
      "Kan": 9080,
      "SV": 9081,
      "Ġrad": 9082,
      "Ġbit": 9083,
      "ĠPatten": 9084,
      "ĠDAS": 9085,
      "ded": 9086,
      "ĠLy": 9087,
      "ERE": 9088,
      "uth": 9089,
      "Ġlive": 9090,
      "ĠCast": 9091,
      "forschung": 9092,
      "sport": 9093,
      "ĠOmbud": 9094,
      "grundlage": 9095,
      "Ġ49": 9096,
      "echte": 9097,
      "setzungs": 9098,
      "ĠFlor": 9099,
      "maÃŁ": 9100,
      "Ġhinweisen": 9101,
      "Vorschriften": 9102,
      "Prozess": 9103,
      "ĠBetrugs": 9104,
      "ĠĠĠĠĠ": 9105,
      "Ã¤ÃŁt": 9106,
      "ĠHandy": 9107,
      "Regel": 9108,
      "Wettbewerbs": 9109,
      "Ġentscheidend": 9110,
      "Steuer": 9111,
      "ĠKomprom": 9112,
      "grenzung": 9113,
      "ĠAmerika": 9114,
      "ĠAlbum": 9115,
      "Ġdefiniert": 9116,
      "Ġmusste": 9117,
      "zusetzen": 9118,
      "Ġgratuliere": 9119,
      "*)": 9120,
      "Ed": 9121,
      "Jo": 9122,
      "Politische": 9123,
      "Presserefer": 9124,
      "uhe": 9125,
      "Ã¤den": 9126,
      "orten": 9127,
      "Ġmon": 9128,
      "Ġhand": 9129,
      "ĠHinder": 9130,
      "deb": 9131,
      "lehnen": 9132,
      "Ġaufnehmen": 9133,
      "ĠVerpack": 9134,
      "ĠAnna": 9135,
      "ĠReal": 9136,
      "ĠRevolution": 9137,
      "ebast": 9138,
      "zustellen": 9139,
      "stechn": 9140,
      "Ã¤nderung": 9141,
      "Ġ05": 9142,
      "ĠberÃ¼h": 9143,
      "zeuger": 9144,
      "Abbott": 9145,
      "hÃ¶rt": 9146,
      "ĠVerbot": 9147,
      "ĠCook": 9148,
      "ĠTechnik": 9149,
      "Ġunglaub": 9150,
      "Ġerscheinen": 9151,
      "Ġfinanziellen": 9152,
      "ĠSymbol": 9153,
      "Ġbezahlt": 9154,
      "Ġwesentliche": 9155,
      "Ġitalien": 9156,
      "Ġaktiviert": 9157,
      "DennisAbbott": 9158,
      "ategorie": 9159,
      "ausend": 9160,
      "ĠGroup": 9161,
      "ĠNovakova": 9162,
      "Ġdeiner": 9163,
      "ĠSach": 9164,
      "Ġunzureichen": 9165,
      "Ġmer": 9166,
      "Ġfanden": 9167,
      "teneg": 9168,
      "ĠKy": 9169,
      "ĠVater": 9170,
      "reck": 9171,
      "ĠInc": 9172,
      "ĠVerst": 9173,
      "ago": 9174,
      "ĠAbschnitt": 9175,
      "Erleben": 9176,
      "stellungs": 9177,
      "ĠBeob": 9178,
      "Ġmanchmal": 9179,
      "epar": 9180,
      "Frauen": 9181,
      "ĠgrenzÃ¼ber": 9182,
      "ĠBesitz": 9183,
      "Ġ!!": 9184,
      "ĠStreit": 9185,
      "ĠResiden": 9186,
      "ĠPrioritÃ¤tsachsen": 9187,
      "mittelt": 9188,
      "Ġakzeptabel": 9189,
      "Ġteilweise": 9190,
      "ĠJugendher": 9191,
      "Gemeinsam": 9192,
      "Worin": 9193,
      "Flug": 9194,
      "produkte": 9195,
      "ĠAustausch": 9196,
      "ascal": 9197,
      "bieter": 9198,
      "Ġverpflichtet": 9199,
      "ĠSharrock": 9200,
      "ĠAtmosphÃ¤re": 9201,
      "Vorgesch": 9202,
      "Afrika": 9203,
      "BILDUNG": 9204,
      "Frieden": 9205,
      "Gericht": 9206,
      "Ide": 9207,
      "West": 9208,
      "band": 9209,
      "kÃ¼nd": 9210,
      "lor": 9211,
      "letzt": 9212,
      "nio": 9213,
      "wind": 9214,
      "unruh": 9215,
      "Ġvirt": 9216,
      "ĠPrag": 9217,
      "ĠWarum": 9218,
      "ĠTax": 9219,
      "Ġanmelden": 9220,
      "ĠNet": 9221,
      "Ġtro": 9222,
      "formular": 9223,
      "ĠSchrift": 9224,
      "Ġour": 9225,
      "Eines": 9226,
      "icks": 9227,
      "Ġentstehen": 9228,
      "Ġcl": 9229,
      "ĠEntlastung": 9230,
      "Ġruss": 9231,
      "ĠKlasse": 9232,
      "ĠFrist": 9233,
      "Ġaktuell": 9234,
      "Ġeingegangen": 9235,
[...]
