{
  "version": "1.0",
  "truncation": null,
  "padding": null,
  "added_tokens": [
    {
      "id": 0,
      "content": "<|endoftext|>",
      "single_word": false,
      "lstrip": false,
      "rstrip": false,
      "normalized": true,
      "special": true
    },
    {
      "id": 1,
      "content": "<|pad|>",
      "single_word": false,
      "lstrip": false,
      "rstrip": false,
      "normalized": false,
      "special": true
    }
  ],
  "normalizer": null,
  "pre_tokenizer": {
    "type": "ByteLevel",
    "add_prefix_space": false,
    "trim_offsets": true,
    "use_regex": true
  },
  "post_processor": {
    "type": "ByteLevel",
    "add_prefix_space": true,
    "trim_offsets": false,
    "use_regex": true
  },
  "decoder": {
    "type": "ByteLevel",
    "add_prefix_space": true,
    "trim_offsets": true,
    "use_regex": true
  },
  "model": {
    "type": "BPE",
    "dropout": null,
    "unk_token": null,
    "continuing_subword_prefix": "",
    "end_of_word_suffix": "",
    "fuse_unk": false,
    "byte_fallback": false,
    "vocab": {
      "<|endoftext|>": 0,
      "<|pad|>": 1,
      "!": 2,
      "\"": 3,
      "#": 4,
      "$": 5,
      "%": 6,
      "&": 7,
      "'": 8,
      "(": 9,
      ")": 10,
      "*": 11,
      "+": 12,
      ",": 13,
      "-": 14,
      ".": 15,
      "/": 16,
      "0": 17,
      "1": 18,
      "2": 19,
      "3": 20,
      "4": 21,
      "5": 22,
      "6": 23,
      "7": 24,
      "8": 25,
      "9": 26,
      ":": 27,
      ";": 28,
      "<": 29,
      "=": 30,
      ">": 31,
      "?": 32,
      "@": 33,
      "A": 34,
      "B": 35,
      "C": 36,
      "D": 37,
      "E": 38,
      "F": 39,
      "G": 40,
      "H": 41,
      "I": 42,
      "J": 43,
      "K": 44,
      "L": 45,
      "M": 46,
      "N": 47,
      "O": 48,
      "P": 49,
      "Q": 50,
      "R": 51,
      "S": 52,
      "T": 53,
      "U": 54,
      "V": 55,
      "W": 56,
      "X": 57,
      "Y": 58,
      "Z": 59,
      "[": 60,
      "\\": 61,
      "]": 62,
      "^": 63,
      "_": 64,
      "`": 65,
      "a": 66,
      "b": 67,
      "c": 68,
      "d": 69,
      "e": 70,
      "f": 71,
      "g": 72,
      "h": 73,
      "i": 74,
      "j": 75,
      "k": 76,
      "l": 77,
      "m": 78,
      "n": 79,
      "o": 80,
      "p": 81,
      "q": 82,
      "r": 83,
      "s": 84,
      "t": 85,
      "u": 86,
      "v": 87,
      "w": 88,
      "x": 89,
      "y": 90,
      "z": 91,
      "{": 92,
      "|": 93,
      "}": 94,
      "~": 95,
      "¡": 96,
      "¢": 97,
      "£": 98,
      "¤": 99,
      "¥": 100,
      "¦": 101,
      "§": 102,
      "¨": 103,
      "©": 104,
      "ª": 105,
      "«": 106,
      "¬": 107,
      "®": 108,
      "¯": 109,
      "°": 110,
      "±": 111,
      "²": 112,
      "³": 113,
      "´": 114,
      "µ": 115,
      "¶": 116,
      "·": 117,
      "¸": 118,
      "¹": 119,
      "º": 120,
      "»": 121,
      "¼": 122,
      "½": 123,
      "¾": 124,
      "¿": 125,
      "À": 126,
      "Á": 127,
      "Â": 128,
      "Ã": 129,
      "Ä": 130,
      "Å": 131,
      "Æ": 132,
      "Ç": 133,
      "È": 134,
      "É": 135,
      "Ê": 136,
      "Ë": 137,
      "Ì": 138,
      "Í": 139,
      "Î": 140,
      "Ï": 141,
      "Ð": 142,
      "Ñ": 143,
      "Ò": 144,
      "Ó": 145,
      "Ô": 146,
      "Õ": 147,
      "Ö": 148,
      "×": 149,
      "Ø": 150,
      "Ù": 151,
      "Ú": 152,
      "Û": 153,
      "Ü": 154,
      "Ý": 155,
      "Þ": 156,
      "ß": 157,
      "à": 158,
      "á": 159,
      "â": 160,
      "ã": 161,
      "ä": 162,
      "å": 163,
      "æ": 164,
      "ç": 165,
      "è": 166,
      "é": 167,
      "ê": 168,
      "ë": 169,
      "ì": 170,
      "í": 171,
      "î": 172,
      "ï": 173,
      "ð": 174,
      "ñ": 175,
      "ò": 176,
      "ó": 177,
      "ô": 178,
      "õ": 179,
      "ö": 180,
      "÷": 181,
      "ø": 182,
      "ù": 183,
      "ú": 184,
      "û": 185,
      "ü": 186,
      "ý": 187,
      "þ": 188,
      "ÿ": 189,
      "Ā": 190,
      "ā": 191,
      "Ă": 192,
      "ă": 193,
      "Ą": 194,
      "ą": 195,
      "Ć": 196,
      "ć": 197,
      "Ĉ": 198,
      "ĉ": 199,
      "Ċ": 200,
      "ċ": 201,
      "Č": 202,
      "č": 203,
      "Ď": 204,
      "ď": 205,
      "Đ": 206,
      "đ": 207,
      "Ē": 208,
      "ē": 209,
      "Ĕ": 210,
      "ĕ": 211,
      "Ė": 212,
      "ė": 213,
      "Ę": 214,
      "ę": 215,
      "Ě": 216,
      "ě": 217,
      "Ĝ": 218,
      "ĝ": 219,
      "Ğ": 220,
      "ğ": 221,
      "Ġ": 222,
      "ġ": 223,
      "Ģ": 224,
      "ģ": 225,
      "Ĥ": 226,
      "ĥ": 227,
      "Ħ": 228,
      "ħ": 229,
      "Ĩ": 230,
      "ĩ": 231,
      "Ī": 232,
      "ī": 233,
      "Ĭ": 234,
      "ĭ": 235,
      "Į": 236,
      "į": 237,
      "İ": 238,
      "ı": 239,
      "Ĳ": 240,
      "ĳ": 241,
      "Ĵ": 242,
      "ĵ": 243,
      "Ķ": 244,
      "ķ": 245,
      "ĸ": 246,
      "Ĺ": 247,
      "ĺ": 248,
      "Ļ": 249,
      "ļ": 250,
      "Ľ": 251,
      "ľ": 252,
      "Ŀ": 253,
      "ŀ": 254,
      "Ł": 255,
      "ł": 256,
      "Ń": 257,
      "en": 258,
      "er": 259,
      "ch": 260,
      "in": 261,
      "Ġd": 262,
      "ie": 263,
      "un": 264,
      "st": 265,
      "ei": 266,
      "an": 267,
      "es": 268,
      "on": 269,
      "Ã¼": 270,
      "ich": 271,
      "ĠS": 272,
      "Ã¤": 273,
      "Ġw": 274,
      "ung": 275,
      "ein": 276,
      "Ġs": 277,
      "el": 278,
      "au": 279,
      "at": 280,
      "as": 281,
      "or": 282,
      "ar": 283,
      "is": 284,
      "al": 285,
      "it": 286,
      "ge": 287,
      "Ġi": 288,
      "Ġun": 289,
      "Ġdie": 290,
      "ĠA": 291,
      "te": 292,
      "ur": 293,
      "Ġm": 294,
      "Ġv": 295,
      "Ġf": 296,
      "Ġder": 297,
      "Ġb": 298,
      "ir": 299,
      "Ġn": 300,
      "ĠP": 301,
      "ter": 302,
      "ĠE": 303,
      "mm": 304,
      "hr": 305,
      "Ġein": 306,
      "ion": 307,
      "ĠB": 308,
      "ĠM": 309,
      "ten": 310,
      "gen": 311,
      "den": 312,
      "Ġist": 313,
      "em": 314,
      "Ġz": 315,
      "Ã¼r": 316,
      "ĠK": 317,
      "et": 318,
      "Ġh": 319,
      "ol": 320,
      "Die": 321,
      "icht": 322,
      "Ġund": 323,
      "ĠF": 324,
      "ĠI": 325,
      "Ġau": 326,
      "sch": 327,
      "Ã¶": 328,
      "der": 329,
      "ĠR": 330,
      "ra": 331,
      "Ġin": 332,
      "Ġg": 333,
      "Ġk": 334,
      "ĠD": 335,
      "ss": 336,
      "ĠG": 337,
      "ber": 338,
      "ĠH": 339,
      "ĠfÃ¼r": 340,
      "ĠV": 341,
      "ig": 342,
      "ier": 343,
      "eit": 344,
      "ro": 345,
      "isch": 346,
      "ĠW": 347,
      "lich": 348,
      "de": 349,
      "Ġzu": 350,
      "le": 351,
      "ab": 352,
      "kt": 353,
      "ĠT": 354,
      "Ġ2": 355,
      "omm": 356,
      "Ġwir": 357,
      "il": 358,
      "ĠSie": 359,
      "and": 360,
      "re": 361,
      "ach": 362,
      "se": 363,
      "am": 364,
      "um": 365,
      "00": 366,
      "ĠL": 367,
      "ent": 368,
      "Ġge": 369,
      "Ġdas": 370,
      "Ġ1": 371,
      "ÃŁ": 372,
      "op": 373,
      "Ġvon": 374,
      "ind": 375,
      "Ġer": 376,
      "ft": 377,
      "ĠU": 378,
      "Ġ(": 379,
      "Das": 380,
      "ER": 381,
      "eh": 382,
      "Ġan": 383,
      "Ġnicht": 384,
      "iss": 385,
      "ation": 386,
      "Ġden": 387,
      "ck": 388,
      "ĠZ": 389,
      "ut": 390,
      "ĠIn": 391,
      "EN": 392,
      "us": 393,
      "ien": 394,
      "Ġauf": 395,
      "rei": 396,
      "len": 397,
      "ser": 398,
      "urop": 399,
      "ist": 400,
      "Ġdes": 401,
      "ann": 402,
      "ungen": 403,
      "ĠSt": 404,
      "Ġbe": 405,
      "Ġl": 406,
      "ĠN": 407,
      "Ġver": 408,
      "nen": 409,
      "Ġal": 410,
      "ĠC": 411,
      "Ã¼ber": 412,
      "ĠVer": 413,
      "ĠAn": 414,
      "Ġim": 415,
      "ah": 416,
      "ommiss": 417,
      "Ã¤n": 418,
      "ik": 419,
      "ff": 420,
      "ot": 421,
      "Ġsind": 422,
      "..": 423,
      "for": 424,
      "ehr": 425,
      "Ġwer": 426,
      "ische": 427,
      "eu": 428,
      "ĠÃ¼ber": 429,
      "err": 430,
      "om": 431,
      "Ġeine": 432,
      "uss": 433,
      "Ġmit": 434,
      "Ġt": 435,
      "ĠRe": 436,
      "ĠJ": 437,
      "Ġst": 438,
      "Wir": 439,
      "imm": 440,
      "und": 441,
      "Ġp": 442,
      "Ã¤r": 443,
      "ben": 444,
      "sp": 445,
      "Ich": 446,
      "och": 447,
      "Ġwerden": 448,
      "Ġes": 449,
      "eiter": 450,
      "Ġ-": 451,
      "ag": 452,
      "ahr": 453,
      "ĠKommiss": 454,
      "eil": 455,
      "esch": 456,
      "itt": 457,
      "uropÃ¤": 458,
      "sen": 459,
      "ell": 460,
      "form": 461,
      "ri": 462,
      "Ġsich": 463,
      "Der": 464,
      "CH": 465,
      "chen": 466,
      "Ġhab": 467,
      "Ġaus": 468,
      "lo": 469,
      "Ġwird": 470,
      "rÃ¤": 471,
      "cht": 472,
      "ĠPro": 473,
      "Ġich": 474,
      "etz": 475,
      "iel": 476,
      "ort": 477,
      "gr": 478,
      "ver": 479,
      "inist": 480,
      "oll": 481,
      "inister": 482,
      "ĠSch": 483,
      "nt": 484,
      "ige": 485,
      "res": 486,
      "UN": 487,
      "che": 488,
      "ĠKommission": 489,
      "Ġo": 490,
      "eine": 491,
      "he": 492,
      "formation": 493,
      "Ġj": 494,
      "ssen": 495,
      "ank": 496,
      "rau": 497,
      "Ġum": 498,
      "Ã¶n": 499,
      "gt": 500,
      "sten": 501,
      "ungs": 502,
      "Ġauch": 503,
      "ul": 504,
      "TE": 505,
      "men": 506,
      "Es": 507,
      "Ã¤t": 508,
      "Ġsch": 509,
      "scha": 510,
      "ĠmÃ¶": 511,
      "ed": 512,
      "ern": 513,
      "Ġdies": 514,
      "anz": 515,
      "Ġhat": 516,
      "ĠO": 517,
      "ĠInformation": 518,
      "wei": 519,
      "hal": 520,
      "ĠEr": 521,
      "rÃ¼": 522,
      "ont": 523,
      "all": 524,
      "Sie": 525,
      "iv": 526,
      "ele": 527,
      "Ġsie": 528,
      "ing": 529,
      "Ġhaben": 530,
      "land": 531,
      "Ġ200": 532,
      "In": 533,
      "ĠEU": 534,
      "est": 535,
      "lie": 536,
      "uf": 537,
      "Ġdem": 538,
      "schaft": 539,
      "bt": 540,
      "uropÃ¤ische": 541,
      "si": 542,
      "ischen": 543,
      "eitere": 544,
      "Ġvor": 545,
      "ang": 546,
      "ĠAb": 547,
      "eb": 548,
      "akt": 549,
      "eiten": 550,
      "age": 551,
      "ad": 552,
      "ĠUn": 553,
      "Ein": 554,
      "be": 555,
      "ĠmÃ¶ch": 556,
      "ommen": 557,
      "Ġ3": 558,
      "ĠBer": 559,
      "ĠInformationen": 560,
      "AN": 561,
      "ok": 562,
      "ÃĦ": 563,
      "Ġuns": 564,
      "Ġunter": 565,
      "stimm": 566,
      "ner": 567,
      "Un": 568,
      "ĠMinister": 569,
      "ĠIhr": 570,
      "inter": 571,
      "ger": 572,
      "Ġzur": 573,
      "Ġbei": 574,
      "Ġals": 575,
      "UNG": 576,
      "dent": 577,
      "ick": 578,
      "rÃ¤si": 579,
      "eg": 580,
      "elt": 581,
      "zu": 582,
      "ON": 583,
      "lei": 584,
      "os": 585,
      "ant": 586,
      "...": 587,
      "Herr": 588,
      "ES": 589,
      "liche": 590,
      "igen": 591,
      "ĠkÃ¶n": 592,
      "IS": 593,
      "iert": 594,
      "grund": 595,
      "ste": 596,
      "ĠAr": 597,
      "bl": 598,
      "IN": 599,
      "Ġda": 600,
      "rÃ¤sident": 601,
      "end": 602,
      "Ġsein": 603,
      "ru": 604,
      "Ġwar": 605,
      "aus": 606,
      "Ġunser": 607,
      "art": 608,
      "wer": 609,
      "Dies": 610,
      "tern": 611,
      "01": 612,
      "Ġkann": 613,
      "intergrund": 614,
      "ress": 615,
      "Weitere": 616,
      "IT": 617,
      "32": 618,
      "Ġa": 619,
      "tet": 620,
      "ĠHerr": 621,
      "otel": 622,
      "Hintergrund": 623,
      "Ġhier": 624,
      "Ãĸ": 625,
      "iz": 626,
      "ht": 627,
      "RO": 628,
      "fÃ¼": 629,
      "Ġe": 630,
      "fen": 631,
      "Ãľ": 632,
      "ibt": 633,
      "Ġ.": 634,
      "Ġso": 635,
      "rag": 636,
      "kl": 637,
      "bar": 638,
      "EuropÃ¤ische": 639,
      "ieren": 640,
      "Ġwur": 641,
      "Ġwie": 642,
      "Ġent": 643,
      "ĠVor": 644,
      "Ġnoch": 645,
      "heit": 646,
      "keit": 647,
      "ĠkÃ¶nnen": 648,
      "Ġab": 649,
      "Ã¶r": 650,
      "ĠmÃ¼": 651,
      "enn": 652,
      "Ġ4": 653,
      "Er": 654,
      "Ġdiese": 655,
      "itteil": 656,
      "ĠSp": 657,
      "An": 658,
      "uch": 659,
      "Ġneu": 660,
      "ĠRat": 661,
      "beit": 662,
      "Ġgesch": 663,
      "ehen": 664,
      "ug": 665,
      "ek": 666,
      "la": 667,
      "Ġc": 668,
      "ĠAus": 669,
      "aten": 670,
      "ichtig": 671,
      "Ã¼n": 672,
      "fol": 673,
      "ak": 674,
      "Ġnach": 675,
      "utz": 676,
      "EU": 677,
      "im": 678,
      "rage": 679,
      "ne": 680,
      "itteilung": 681,
      "Ġzum": 682,
      "ĠmÃ¼ssen": 683,
      "Ver": 684,
      "lt": 685,
      "hen": 686,
      "ĠEnt": 687,
      "ĠHotel": 688,
      "ST": 689,
      "Ġ22": 690,
      "ic": 691,
      "Was": 692,
      "Wie": 693,
      "uÃŁ": 694,
      "ontakt": 695,
      "Ġgibt": 696,
      "ressem": 697,
      "Sch": 698,
      "geb": 699,
      "inden": 700,
      "Ġnur": 701,
      "Ġsehr": 702,
      "nah": 703,
      "Ġ5": 704,
      "Ġeinen": 705,
      "Ġmehr": 706,
      "rie": 707,
      "oh": 708,
      "pf": 709,
      "att": 710,
      "fahr": 711,
      "ill": 712,
      "ĠJahr": 713,
      "pt": 714,
      "Ġall": 715,
      "itÃ¤t": 716,
      "ekt": 717,
      "Al": 718,
      "etzt": 719,
      "Diese": 720,
      "99": 721,
      "AT": 722,
      "Ã¤h": 723,
      "tschaft": 724,
      "nis": 725,
      "lin": 726,
      "Ġoder": 727,
      "Ġsoll": 728,
      "tz": 729,
      "ĠEin": 730,
      "itte": 731,
      "ressemitteilung": 732,
      "olit": 733,
      "io": 734,
      "stimmung": 735,
      "Ã¼ck": 736,
      "Ġ(+": 737,
      "gra": 738,
      "Ġam": 739,
      "Ġsp": 740,
      "St": 741,
      "unkt": 742,
      "ust": 743,
      "Ã¤nd": 744,
      "klÃ¤r": 745,
      "achten": 746,
      "kommen": 747,
      "ielen": 748,
      "id": 749,
      "uropa": 750,
      "rache": 751,
      "reich": 752,
      "ale": 753,
      "tre": 754,
      "ĠmÃ¶chten": 755,
      "ionen": 756,
      "lossen": 757,
      "fall": 758,
      "Bei": 759,
      "Ġr": 760,
      "ĠPar": 761,
      "urch": 762,
      "ĠAng": 763,
      "ĠPrÃ¤sident": 764,
      "ffen": 765,
      "hnen": 766,
      "ass": 767,
      "amm": 768,
      "ĠMa": 769,
      "enz": 770,
      "ragen": 771,
      "ĠUN": 772,
      "Ġ229": 773,
      "ost": 774,
      "itz": 775,
      "inanz": 776,
      "ord": 777,
      "glie": 778,
      "Ã¤nder": 779,
      "ĠÃ¼bern": 780,
      "AL": 781,
      "pp": 782,
      "Ġdass": 783,
      "od": 784,
      "Wann": 785,
      "Ġwurde": 786,
      "Ġwas": 787,
      "ĠAbstimmung": 788,
      "ehmen": 789,
      "heiten": 790,
      "itglie": 791,
      "lan": 792,
      "stell": 793,
      "Ġkeine": 794,
      "Ġdieser": 795,
      "ĠAuss": 796,
      "indet": 797,
      "auf": 798,
      "Ġbis": 799,
      "fer": 800,
      "Ġde": 801,
      "rat": 802,
      "prache": 803,
      "Ġre": 804,
      "IL": 805,
      "ster": 806,
      "lung": 807,
      "glich": 808,
      "gramm": 809,
      "ĠBericht": 810,
      "ĠBe": 811,
      "elegen": 812,
      "eich": 813,
      "Ġander": 814,
      "ges": 815,
      "ett": 816,
      "nung": 817,
      "Ġfinden": 818,
      "olgen": 819,
      "Ġdar": 820,
      "AR": 821,
      "Ã¼tz": 822,
      "irtschaft": 823,
      "ierung": 824,
      "ISCH": 825,
      "ĠÃ¼bernachten": 826,
      "zi": 827,
      "ze": 828,
      "Ġzwei": 829,
      "ho": 830,
      "schl": 831,
      "Ġihr": 832,
      "og": 833,
      "we": 834,
      "ĠDank": 835,
      "OR": 836,
      "Ġmuss": 837,
      "assen": 838,
      "Ġgeschlossen": 839,
      "ĠĠ": 840,
      "andel": 841,
      "me": 842,
      "ĠUhr": 843,
      "US": 844,
      "iele": 845,
      "ite": 846,
      "Kontakt": 847,
      "ellen": 848,
      "ia": 849,
      "ĠAussprache": 850,
      "qu": 851,
      "ĠReg": 852,
      "ahl": 853,
      "Ġman": 854,
      "ĠGe": 855,
      "itglied": 856,
      "ĠZeit": 857,
      "ark": 858,
      "ast": 859,
      "ers": 860,
      "ĠmÃ¶chte": 861,
      "Ġ0": 862,
      "ssel": 863,
      "Ġgen": 864,
      "Ġdiesem": 865,
      "Ġber": 866,
      "Ġ...": 867,
      "ess": 868,
      "Ãľber": 869,
      "Ġeiner": 870,
      "wick": 871,
      "atz": 872,
      "ech": 873,
      "ĠGr": 874,
      "Ġstatt": 875,
      "Ġhabe": 876,
      "Ġ|": 877,
      "EH": 878,
      "ail": 879,
      "aat": 880,
      "Ġ201": 881,
      "ĠAngelegen": 882,
      "EM": 883,
      "elle": 884,
      "halt": 885,
      "blem": 886,
      "ov": 887,
      "resse": 888,
      "ebs": 889,
      "ĠIhre": 890,
      "EL": 891,
      "Ġalle": 892,
      "acht": 893,
      "schen": 894,
      "wÃ¤r": 895,
      "fahren": 896,
      "ap": 897,
      "treter": 898,
      "Ġ6": 899,
      "ĠAnt": 900,
      "ĠIhnen": 901,
      "ffent": 902,
      "Ġlie": 903,
      "ob": 904,
      "Ġ7": 905,
      "lau": 906,
      "OM": 907,
      "wÃ¤rt": 908,
      "uropÃ¤ischen": 909,
      "sam": 910,
      "200": 911,
      "eute": 912,
      "ION": 913,
      "alt": 914,
      "ammen": 915,
      "ran": 916,
      "ĠDER": 917,
      "ws": 918,
      "lam": 919,
      "Ġfindet": 920,
      "olitik": 921,
      "ild": 922,
      "ĠAngelegenheiten": 923,
      "Ġkl": 924,
      "Ġges": 925,
      "10": 926,
      "her": 927,
      "ert": 928,
      "kte": 929,
      "ittel": 930,
      "ĠUm": 931,
      "Ġaber": 932,
      "rt": 933,
      "30": 934,
      "Ġbes": 935,
      "agen": 936,
      "Und": 937,
      "ĠAl": 938,
      "ĠEuropa": 939,
      "FÃ¼r": 940,
      "Ġet": 941,
      "lichen": 942,
      "Ġeinem": 943,
      "Ġkein": 944,
      "Ġ9": 945,
      "erk": 946,
      "Ġbet": 947,
      "Aber": 948,
      "ive": 949,
      "ub": 950,
      "inn": 951,
      "ROP": 952,
      "Hier": 953,
      "ĠArbeit": 954,
      "ĠFinanz": 955,
      "iger": 956,
      "Ġdurch": 957,
      "OL": 958,
      "Ġ12": 959,
      "RA": 960,
      "Ã¤hr": 961,
      "du": 962,
      "Ġfolgen": 963,
      "Ġneue": 964,
      "Ã¤ch": 965,
      "Ġ8": 966,
      "ĠSchl": 967,
      "Ġviel": 968,
      "fe": 969,
      "ĠProblem": 970,
      "lament": 971,
      "lieÃŁ": 972,
      "mmer": 973,
      "ard": 974,
      "ler": 975,
      "ischer": 976,
      "igung": 977,
      "roÃŁ": 978,
      "nahmen": 979,
      "ĠFrage": 980,
      "rÃ¼ssel": 981,
      "Ġweiter": 982,
      "ollen": 983,
      "ret": 984,
      "IG": 985,
      "ĠParlament": 986,
      "eite": 987,
      "Ġjed": 988,
      "Ġdiesen": 989,
      "stÃ¼tz": 990,
      "ĠKon": 991,
      "rif": 992,
      "ĠLand": 993,
      "fach": 994,
      "olle": 995,
      "Ġganz": 996,
      "Ġmich": 997,
      "fÃ¼r": 998,
      "mal": 999,
      "eht": 1000,
      "ĠCh": 1001,
      "ebsite": 1002,
      "wort": 1003,
      "KTE": 1004,
      "fÃ¼hr": 1005,
      "gar": 1006,
      "pro": 1007,
      "ĠAuf": 1008,
      "Ġle": 1009,
      "vor": 1010,
      "ĠFrau": 1011,
      "wÃ¤rtige": 1012,
      "war": 1013,
      "ÃĦISCH": 1014,
      "ROPÃĦISCH": 1015,
      ".)": 1016,
      "issen": 1017,
      "Sp": 1018,
      "Ġgeht": 1019,
      "Vielen": 1020,
      "Ġgegen": 1021,
      "Ġwichtig": 1022,
      "Ġje": 1023,
      "ĠDe": 1024,
      "ĠKommissar": 1025,
      "UNKTE": 1026,
      "ĠFor": 1027,
      "gel": 1028,
      "Kommiss": 1029,
      "Ġunsere": 1030,
      "immer": 1031,
      "ĠEuropÃ¤ischen": 1032,
      "SP": 1033,
      "ĠPUNKTE": 1034,
      "halten": 1035,
      "ine": 1036,
      "zie": 1037,
      "ĠMen": 1038,
      "our": 1039,
      "els": 1040,
      "Ġmein": 1041,
      "RT": 1042,
      "Ġ%": 1043,
      "rin": 1044,
      "Pressemitteilung": 1045,
      "ĠMitglied": 1046,
      "onder": 1047,
      "Da": 1048,
      "Beifall": 1049,
      "igt": 1050,
      "ĠauswÃ¤rtige": 1051,
      "Ġetw": 1052,
      "unden": 1053,
      "SCH": 1054,
      "yst": 1055,
      "eid": 1056,
      "Ġ+": 1057,
      "zeit": 1058,
      "kehr": 1059,
      "ĠMar": 1060,
      "MEN": 1061,
      "ult": 1062,
      "Eine": 1063,
      "ken": 1064,
      "achen": 1065,
      "Ġtun": 1066,
      "eld": 1067,
      "TEIL": 1068,
      "ÃŁnahmen": 1069,
      "Im": 1070,
      "II": 1071,
      "Ġgew": 1072,
      "ud": 1073,
      "Ġ10": 1074,
      "icher": 1075,
      "GEN": 1076,
      "halb": 1077,
      "utsch": 1078,
      "usammen": 1079,
      "ĠUnion": 1080,
      "ĠÃĸ": 1081,
      "eigen": 1082,
      "ystem": 1083,
      "ĠÃĦ": 1084,
      "ĠRecht": 1085,
      "000": 1086,
      "ĠTh": 1087,
      "ep": 1088,
      "Minister": 1089,
      "ct": 1090,
      "arb": 1091,
      "Ġjetzt": 1092,
      "folger": 1093,
      "ĠUnter": 1094,
      "IK": 1095,
      "ĠGes": 1096,
      "igkeit": 1097,
      "ce": 1098,
      "alien": 1099,
      "IE": 1100,
      "pl": 1101,
      "Ġvom": 1102,
      "ere": 1103,
      "ĠEn": 1104,
      "Ġpro": 1105,
      ").": 1106,
      "eben": 1107,
      "ĠgroÃŁ": 1108,
      "Ġwen": 1109,
      "Qu": 1110,
      "welt": 1111,
      "ritt": 1112,
      "inder": 1113,
      "ehm": 1114,
      "Ġimmer": 1115,
      "urg": 1116,
      "Ġdu": 1117,
      "setz": 1118,
      "nisse": 1119,
      "orgen": 1120,
      "aben": 1121,
      "Ġdieses": 1122,
      "Presse": 1123,
      "ĠEntwick": 1124,
      "nder": 1125,
      "arbeit": 1126,
      "AND": 1127,
      "ĠProgramm": 1128,
      "ericht": 1129,
      "sk": 1130,
      "Ġeinfach": 1131,
      "Ġnun": 1132,
      "ux": 1133,
      "org": 1134,
      "Auch": 1135,
      "ĠUND": 1136,
      "ina": 1137,
      "ĠPressemitteilung": 1138,
      "Ã¤l": 1139,
      "ĠFl": 1140,
      "gem": 1141,
      "12": 1142,
      "gend": 1143,
      "rit": 1144,
      "Ġheute": 1145,
      "yp": 1146,
      "eschÃ¤": 1147,
      "ĠVert": 1148,
      "ĠEntsch": 1149,
      "Ġher": 1150,
      "ĠerklÃ¤r": 1151,
      "Ġgut": 1152,
      "lichkeit": 1153,
      "Ġjedoch": 1154,
      "osten": 1155,
      "wend": 1156,
      "ĠBei": 1157,
      "ĠSitz": 1158,
      "FT": 1159,
      "Ġbest": 1160,
      "ĠDie": 1161,
      "fl": 1162,
      "Ġalso": 1163,
      "bst": 1164,
      "Ã¼hr": 1165,
      "anien": 1166,
      "Ġgem": 1167,
      "chte": 1168,
      "ĠVertreter": 1169,
      "wirtschaft": 1170,
      "BrÃ¼ssel": 1171,
      "burg": 1172,
      "zeu": 1173,
      "Ã¤lt": 1174,
      "Aus": 1175,
      "ĠSo": 1176,
      "leich": 1177,
      "rechen": 1178,
      "av": 1179,
      "ieder": 1180,
      "net": 1181,
      "SA": 1182,
      "Ġbrau": 1183,
      "frage": 1184,
      "11": 1185,
      "ĠÃľber": 1186,
      "Ã¤re": 1187,
      "ilt": 1188,
      "Ġetwas": 1189,
      "35": 1190,
      "UNGEN": 1191,
      "ma": 1192,
      "folgerungen": 1193,
      "ow": 1194,
      "ĠZu": 1195,
      "Ġwenn": 1196,
      "Ġgel": 1197,
      "arum": 1198,
      "EIT": 1199,
      "ICH": 1200,
      "aher": 1201,
      "ESS": 1202,
      "schie": 1203,
      "ĠSchluss": 1204,
      "Ġ14": 1205,
      "Ġbereit": 1206,
      "ĠEur": 1207,
      "ĠWelt": 1208,
      "Ġ19": 1209,
      "nahme": 1210,
      "off": 1211,
      "Ġben": 1212,
      "low": 1213,
      "fon": 1214,
      "ĠHost": 1215,
      "ĠKl": 1216,
      "ĠAN": 1217,
      "ute": 1218,
      "amt": 1219,
      "richt": 1220,
      "ĠStÃ¤nd": 1221,
      "entr": 1222,
      "Wer": 1223,
      "rank": 1224,
      "eschÃ¤ft": 1225,
      "25": 1226,
      "ex": 1227,
      "if": 1228,
      "amit": 1229,
      "amen": 1230,
      ".:": 1231,
      "bes": 1232,
      "pu": 1233,
      "retÃ¤r": 1234,
      "talien": 1235,
      "Ġ11": 1236,
      "reis": 1237,
      "ĠVorschl": 1238,
      "RE": 1239,
      "ha": 1240,
      "ilfe": 1241,
      "Be": 1242,
      "mar": 1243,
      "alen": 1244,
      "stellt": 1245,
      "Ġhin": 1246,
      "ktion": 1247,
      "EUROPÃĦISCH": 1248,
      "Ġ20": 1249,
      "IP": 1250,
      "aaten": 1251,
      "tok": 1252,
      "Ab": 1253,
      "Auf": 1254,
      "ĠÃĦnder": 1255,
      "Ġdazu": 1256,
      "Des": 1257,
      "Ġbitte": 1258,
      "eln": 1259,
      "eiÃŁ": 1260,
      "Ġ199": 1261,
      "Ġsollte": 1262,
      "okum": 1263,
      "Ã¶s": 1264,
      "Ġthe": 1265,
      "Frau": 1266,
      "ĠWort": 1267,
      "ĠHostels": 1268,
      "geben": 1269,
      "ĠWirtschaft": 1270,
      "elche": 1271,
      "Ġliegt": 1272,
      "innen": 1273,
      "ternehmen": 1274,
      "ĠStaat": 1275,
      "ĠMenschen": 1276,
      "ay": 1277,
      "Vor": 1278,
      "tokoll": 1279,
      "Ġ:": 1280,
      "emein": 1281,
      "ĠHer": 1282,
      "Ġweitere": 1283,
      "Ġwurden": 1284,
      "icherheit": 1285,
      "ekretÃ¤r": 1286,
      "ĠThem": 1287,
      "ĠFragen": 1288,
      "forder": 1289,
      "AS": 1290,
      "Ġon": 1291,
      "So": 1292,
      "utschland": 1293,
      "ĠGrund": 1294,
      "ssekretÃ¤r": 1295,
      "uft": 1296,
      "Ġ15": 1297,
      "ĠSchlussfolgerungen": 1298,
      "ĠTag": 1299,
      "Unser": 1300,
      "ĠSitzung": 1301,
      "unft": 1302,
      "ĠFall": 1303,
      "Ġdrei": 1304,
      "ucht": 1305,
      "auen": 1306,
      "ĠRed": 1307,
      "Ġsollten": 1308,
      "ĠProdu": 1309,
      "ungsant": 1310,
      "gien": 1311,
      "per": 1312,
      "ĠZusammen": 1313,
      "ĠRates": 1314,
      "ĠerklÃ¤rte": 1315,
      "erson": 1316,
      "De": 1317,
      "wert": 1318,
      "Ġwieder": 1319,
      "sicht": 1320,
      "atÃ¼r": 1321,
      "Ġcom": 1322,
      "esen": 1323,
      "Ġmir": 1324,
      "rifft": 1325,
      "uchen": 1326,
      "Ġper": 1327,
      "51": 1328,
      "linie": 1329,
      "sion": 1330,
      "ĠProtokoll": 1331,
      "fÃ¼g": 1332,
      "ĠFinanzen": 1333,
      "erv": 1334,
      "ache": 1335,
      "ĠRicht": 1336,
      "ĠErgeb": 1337,
      "ĠNr": 1338,
      "gie": 1339,
      "cher": 1340,
      "dem": 1341,
      "MER": 1342,
      "hne": 1343,
      "aupt": 1344,
      "ĠMaÃŁnahmen": 1345,
      "ikel": 1346,
      "unde": 1347,
      "Ġmorgen": 1348,
      "ou": 1349,
      "ordnung": 1350,
      "werb": 1351,
      "elbst": 1352,
      "ternet": 1353,
      "mus": 1354,
      "):": 1355,
      "rift": 1356,
      "Pro": 1357,
      "kunft": 1358,
      "Mail": 1359,
      "ition": 1360,
      "ĠQu": 1361,
      "20": 1362,
      "anke": 1363,
      "Ġmeine": 1364,
      "stimmt": 1365,
      "ke": 1366,
      "Ã¶l": 1367,
      "Ġ/": 1368,
      "ĠEntwicklung": 1369,
      "Ġbin": 1370,
      "zen": 1371,
      "abei": 1372,
      "Kommission": 1373,
      "ĠArt": 1374,
      "40": 1375,
      "Ġkon": 1376,
      "hÃ¶r": 1377,
      "so": 1378,
      "Ġkomm": 1379,
      "Ġ,": 1380,
      "are": 1381,
      "blik": 1382,
      "ib": 1383,
      "ERTE": 1384,
      "hof": 1385,
      "Ġeigen": 1386,
      "ĠDokum": 1387,
      "ĠHaus": 1388,
      "ĠUNION": 1389,
      "Ġsiehe": 1390,
      "wor": 1391,
      "Ġwirk": 1392,
      "satz": 1393,
      "ink": 1394,
      "teil": 1395,
      "zial": 1396,
      "gl": 1397,
      "ate": 1398,
      "Ã¶ÃŁ": 1399,
      "ĠBild": 1400,
      "Ġ2009": 1401,
      "Ġins": 1402,
      "gehen": 1403,
      "ekte": 1404,
      "Ġgef": 1405,
      "Ġgr": 1406,
      "sterreich": 1407,
      "oren": 1408,
      "str": 1409,
      "atÃ¼rlich": 1410,
      "ĠunterstÃ¼tz": 1411,
      "Ġbie": 1412,
      "Ġsteht": 1413,
      "ac": 1414,
      "sm": 1415,
      "Ġbef": 1416,
      "ĠÃĸffent": 1417,
      "wischen": 1418,
      "Ġdann": 1419,
      "uxem": 1420,
      "ED": 1421,
      "SON": 1422,
      "Warum": 1423,
      "mpf": 1424,
      "ium": 1425,
      "cken": 1426,
      "Ã¶rder": 1427,
      "uten": 1428,
      "ĠTeil": 1429,
      "ial": 1430,
      "Ġwollen": 1431,
      "elgien": 1432,
      "OMMEN": 1433,
      "Ġmachen": 1434,
      "gesch": 1435,
      "Slow": 1436,
      "ĠmÃ¶glich": 1437,
      "artner": 1438,
      "rland": 1439,
      "NEH": 1440,
      "immt": 1441,
      "Mit": 1442,
      "zieh": 1443,
      "reu": 1444,
      "uxemburg": 1445,
      "Ġand": 1446,
      "Alle": 1447,
      "adt": 1448,
      "ĠPunkt": 1449,
      "olen": 1450,
      "Ã¤ndern": 1451,
      "Um": 1452,
      "Ã¤ss": 1453,
      "ĠStell": 1454,
      "ris": 1455,
      "ĠEuro": 1456,
      "Ġschon": 1457,
      "ald": 1458,
      "Dieser": 1459,
      "nergie": 1460,
      "ĠVerb": 1461,
      "urz": 1462,
      "EG": 1463,
      "Website": 1464,
      "fr": 1465,
      "Ġalles": 1466,
      "ĠDaten": 1467,
      "ÃŁen": 1468,
      "ment": 1469,
      "Ġblei": 1470,
      "Mar": 1471,
      "enden": 1472,
      "Ġeinige": 1473,
      "stÃ¤nd": 1474,
      "Italien": 1475,
      "ĠErklÃ¤r": 1476,
      "Ġbrauchen": 1477,
      "unkte": 1478,
      "spiel": 1479,
      "ontr": 1480,
      "ĠUmwelt": 1481,
      "NEHMER": 1482,
      "ĠNe": 1483,
      "abe": 1484,
      "Ġgilt": 1485,
      "ĠZimmer": 1486,
      "alitÃ¤t": 1487,
      "publik": 1488,
      "ustiz": 1489,
      "ZI": 1490,
      "setzung": 1491,
      "hÃ¤lt": 1492,
      "ĠAntwort": 1493,
      "aum": 1494,
      "Ġihre": 1495,
      "AG": 1496,
      "Ġakt": 1497,
      "Dieses": 1498,
      "TEILNEHMER": 1499,
      "ettbe": 1500,
      "hn": 1501,
      "ĠÃĸffentlichkeit": 1502,
      "Ġvie": 1503,
      "ĠEuropÃ¤ische": 1504,
      "ppe": 1505,
      "weden": 1506,
      "folg": 1507,
      "angen": 1508,
      "ĠSeite": 1509,
      "Spanien": 1510,
      "vest": 1511,
      "ĠProj": 1512,
      "icken": 1513,
      "lage": 1514,
      "iederlan": 1515,
      "Ġsagen": 1516,
      "ian": 1517,
      "ienst": 1518,
      "ĠInn": 1519,
      "staaten": 1520,
      "Ġandere": 1521,
      "BE": 1522,
      "USS": 1523,
      "gew": 1524,
      "ĠLage": 1525,
      "Ġbesten": 1526,
      "ettbewerb": 1527,
      "Ġkommen": 1528,
      "zept": 1529,
      "Ġbegr": 1530,
      "agt": 1531,
      "Ġen": 1532,
      "line": 1533,
      "WI": 1534,
      "Ġsehen": 1535,
      "ĠLeben": 1536,
      "Ġger": 1537,
      "ĠMin": 1538,
      "iederlande": 1539,
      "weise": 1540,
      "Ġviele": 1541,
      "Ġneuen": 1542,
      "emark": 1543,
      "licher": 1544,
      "des": 1545,
      "zeich": 1546,
      "Ġ2007": 1547,
      "15": 1548,
      "ote": 1549,
      "bung": 1550,
      "ec": 1551,
      "verfahren": 1552,
      "alten": 1553,
      "Ġbereits": 1554,
      "ĠZiel": 1555,
      "innland": 1556,
      "ph": 1557,
      "eile": 1558,
      "alis": 1559,
      "ĠANGEN": 1560,
      "ĠBet": 1561,
      "genommen": 1562,
      "ungsantrag": 1563,
      "ĠANGENOMMEN": 1564,
      "rÃ¼n": 1565,
      "ĠUnternehmen": 1566,
      "ĠdafÃ¼r": 1567,
      "Ã¶ff": 1568,
      "Ġviews": 1569,
      "ĠRepublik": 1570,
      "lagen": 1571,
      "Deshalb": 1572,
      "itter": 1573,
      "unktion": 1574,
      "Ge": 1575,
      "irk": 1576,
      "Ihr": 1577,
      "Ã¤nemark": 1578,
      "schuss": 1579,
      "rukt": 1580,
      "rateg": 1581,
      "ultur": 1582,
      "Dar": 1583,
      "Belgien": 1584,
      "Ġwill": 1585,
      "ĠPerson": 1586,
      "ĠBÃ¼r": 1587,
      "reichen": 1588,
      "ĠBar": 1589,
      "eist": 1590,
      "Ġ16": 1591,
      "ĠwÃ¼r": 1592,
      "Ġ18": 1593,
      "los": 1594,
      "Man": 1595,
      "olog": 1596,
      "ĠNach": 1597,
      "ĠGeb": 1598,
      "irekt": 1599,
      "ax": 1600,
      "Zu": 1601,
      "Ã¶ffent": 1602,
      "ĠnÃ¤ch": 1603,
      "ÃĸRT": 1604,
      "Ġfor": 1605,
      "ĠMon": 1606,
      "tens": 1607,
      "Ġunserer": 1608,
      "ĠANGENOMMENE": 1609,
      "Ant": 1610,
      "Ġfolgende": 1611,
      "Ġeines": 1612,
      "keiten": 1613,
      "AM": 1614,
      "VER": 1615,
      "ĠHandel": 1616,
      "ÃĸRTERTE": 1617,
      "Art": 1618,
      "ahlen": 1619,
      "Welche": 1620,
      "spro": 1621,
      "Ġanderen": 1622,
      "punkt": 1623,
      "ente": 1624,
      "Ġto": 1625,
      "All": 1626,
      "SCHA": 1627,
      "ĠGemein": 1628,
      "zel": 1629,
      "Doch": 1630,
      "ERÃĸRTERTE": 1631,
      "Ġvoll": 1632,
      "EI": 1633,
      "ade": 1634,
      "ĠVorschlag": 1635,
      "ĠwÃ¤re": 1636,
      "iven": 1637,
      "oc": 1638,
      "rior": 1639,
      "nte": 1640,
      "ĠmuÃŁ": 1641,
      "ĠIN": 1642,
      "RAT": 1643,
      "ierte": 1644,
      "Ġof": 1645,
      "ange": 1646,
      "Ġbeg": 1647,
      "Gen": 1648,
      "ĠThema": 1649,
      "atur": 1650,
      "Ġ17": 1651,
      "Ġnichts": 1652,
      "ĠzurÃ¼ck": 1653,
      "Ġwirklich": 1654,
      "ings": 1655,
      "reise": 1656,
      "Ãĸsterreich": 1657,
      "ĠJahre": 1658,
      "ĠEurop": 1659,
      "ice": 1660,
      "ĠBest": 1661,
      "Ġgestimmt": 1662,
      "DER": 1663,
      "Luxemburg": 1664,
      "âĤ": 1665,
      "âĤ¬": 1666,
      "ĠMinisterin": 1667,
      "SCHAFT": 1668,
      "lub": 1669,
      "markt": 1670,
      "ĠRei": 1671,
      "Irland": 1672,
      "Ġwissen": 1673,
      "ĠGew": 1674,
      "ruktur": 1675,
      "ide": 1676,
      "politik": 1677,
      "ĠBes": 1678,
      "ALT": 1679,
      "STIG": 1680,
      "ichte": 1681,
      "elefon": 1682,
      "ET": 1683,
      "Ġex": 1684,
      "Ġgeben": 1685,
      "fte": 1686,
      "96": 1687,
      "ĠX": 1688,
      "OLIT": 1689,
      "ĠJustiz": 1690,
      "SONSTIG": 1691,
      "sb": 1692,
      "vertreter": 1693,
      "46": 1694,
      "Ġstehen": 1695,
      "Ġsol": 1696,
      "iste": 1697,
      "Niederlande": 1698,
      "ĠSicherheit": 1699,
      "ritte": 1700,
      "ĠSpiel": 1701,
      "BER": 1702,
      "Ġselbst": 1703,
      "ziehungen": 1704,
      "eter": 1705,
      "ĠAp": 1706,
      "isk": 1707,
      "ĠTw": 1708,
      "Ġerste": 1709,
      "50": 1710,
      "chn": 1711,
      "annt": 1712,
      "ĠdaÃŁ": 1713,
      "Ġ2010": 1714,
      "Ent": 1715,
      "ika": 1716,
      "oten": 1717,
      "ternation": 1718,
      "Wenn": 1719,
      "ĠWebsite": 1720,
      "DÃ¤nemark": 1721,
      "Finnland": 1722,
      "Schweden": 1723,
      "Ġ13": 1724,
      "Ġlang": 1725,
      "ack": 1726,
      "ĠAd": 1727,
      "Ġange": 1728,
      "Ġ2008": 1729,
      "weiter": 1730,
      "Ġlei": 1731,
      "ĠLandwirtschaft": 1732,
      "schutz": 1733,
      "Deutschland": 1734,
      "Ġget": 1735,
      "von": 1736,
      "ĠWas": 1737,
      "ĠPl": 1738,
      "Ġglau": 1739,
      "Ġnie": 1740,
      "iat": 1741,
      "einen": 1742,
      "ĠOr": 1743,
      "ahn": 1744,
      "ue": 1745,
      "ember": 1746,
      "Bitte": 1747,
      "ater": 1748,
      "stellung": 1749,
      "KT": 1750,
      "ĠWeg": 1751,
      "az": 1752,
      "offe": 1753,
      "ds": 1754,
      "stag": 1755,
      "13": 1756,
      "aut": 1757,
      "ĠEnergie": 1758,
      "ĠStand": 1759,
      "ĠHerrn": 1760,
      "ĠZukunft": 1761,
      "OLITIK": 1762,
      "ĠAm": 1763,
      "16": 1764,
      "98": 1765,
      "gabe": 1766,
      "ĠTwitter": 1767,
      "omp": 1768,
      "isches": 1769,
      "ander": 1770,
      "stat": 1771,
      "Ġgeb": 1772,
      "ĠInternet": 1773,
      "Ġseine": 1774,
      "ismus": 1775,
      "arten": 1776,
      "rankreich": 1777,
      "ĠZusammenarbeit": 1778,
      "Ist": 1779,
      "ĠMio": 1780,
      "Ã¶glich": 1781,
      "Ġ!": 1782,
      "arte": 1783,
      "iet": 1784,
      "Ġeinmal": 1785,
      "rÃ¤ge": 1786,
      "PrÃ¤sident": 1787,
      "ĠGra": 1788,
      "ĠĠĠĠ": 1789,
      "itu": 1790,
      "Nach": 1791,
      "okrat": 1792,
      "echn": 1793,
      "ichtige": 1794,
      "besser": 1795,
      "Ã¶t": 1796,
      "ĠEx": 1797,
      "ĠStaatssekretÃ¤r": 1798,
      "AH": 1799,
      "Pressek": 1800,
      "Th": 1801,
      "UR": 1802,
      "merk": 1803,
      "ĠEntschlieÃŁ": 1804,
      "ruf": 1805,
      "Ġwaren": 1806,
      "Ġzus": 1807,
      "sche": 1808,
      "ip": 1809,
      "ĠInd": 1810,
      "asst": 1811,
      "orden": 1812,
      "ĠMitgliedstaaten": 1813,
      "PR": 1814,
      "uÃŁer": 1815,
      "gang": 1816,
      "deut": 1817,
      "ĠIhren": 1818,
      "ĠInter": 1819,
      "ase": 1820,
      "Tel": 1821,
      "ĠHilfe": 1822,
      "stellen": 1823,
      "ĠfÃ¼hr": 1824,
      "ĠgehÃ¶r": 1825,
      "ĠGeld": 1826,
      "Ġaller": 1827,
      "ĠKomm": 1828,
      "LE": 1829,
      "uer": 1830,
      "Re": 1831,
      "Ġfest": 1832,
      "ationen": 1833,
      "ĠIch": 1834,
      "ennen": 1835,
      "ĠGen": 1836,
      "Kl": 1837,
      "minister": 1838,
      "eichen": 1839,
      "utzen": 1840,
      "ĠâĤ¬": 1841,
      "Anfrage": 1842,
      "Ġletz": 1843,
      "Ã¤tz": 1844,
      "ĠLÃ¶s": 1845,
      "ommissar": 1846,
      "Ġgemein": 1847,
      "otes": 1848,
      "Ġohne": 1849,
      "Ġdabei": 1850,
      "zeug": 1851,
      "ĠKinder": 1852,
      "09": 1853,
      "ĠMittel": 1854,
      "Ġsicher": 1855,
      "stÃ¼tzung": 1856,
      "ĠEnde": 1857,
      "45": 1858,
      "Ã¤u": 1859,
      "Unsere": 1860,
      "Ġgern": 1861,
      "anden": 1862,
      "ĠSystem": 1863,
      "Bet": 1864,
      "eigt": 1865,
      "aufen": 1866,
      "Ã¤ten": 1867,
      "EIN": 1868,
      "ferenz": 1869,
      "lungen": 1870,
      "anken": 1871,
      "co": 1872,
      "falls": 1873,
      "EUROPÃĦISCHEN": 1874,
      "aden": 1875,
      "iff": 1876,
      "mittel": 1877,
      "HALT": 1878,
      "sst": 1879,
      "Ġbesser": 1880,
      "riften": 1881,
      "02": 1882,
      "ohl": 1883,
      "elie": 1884,
      "raft": 1885,
      "ilitÃ¤t": 1886,
      "Ġallen": 1887,
      "ĠDokument": 1888,
      "ĠbegrÃ¼": 1889,
      "ĠSe": 1890,
      "schieden": 1891,
      "Ġbek": 1892,
      "Ã¤ÃŁ": 1893,
      "TER": 1894,
      "OS": 1895,
      "ĠBeit": 1896,
      "aler": 1897,
      "ĠDES": 1898,
      "raum": 1899,
      "Ġdanke": 1900,
      "Ġbed": 1901,
      "ĠBl": 1902,
      "rach": 1903,
      "ĠErgebnisse": 1904,
      "ĠStÃ¤ndigen": 1905,
      "97": 1906,
      "Ġkommt": 1907,
      "03": 1908,
      "ĠSu": 1909,
      "lex": 1910,
      "Ġausge": 1911,
      "ext": 1912,
      "Je": 1913,
      "Ġverst": 1914,
      "ott": 1915,
      "Ġklar": 1916,
      "AC": 1917,
      "Am": 1918,
      "rategie": 1919,
      "sver": 1920,
      "ĠVertreters": 1921,
      "iges": 1922,
      "undheit": 1923,
      "SONSTIGE": 1924,
      "ĠBo": 1925,
      "Ġbeh": 1926,
      "garn": 1927,
      "Ã¤hlen": 1928,
      "schriften": 1929,
      "eidung": 1930,
      "Ã¤tze": 1931,
      "Ġte": 1932,
      "Ġbeim": 1933,
      "nell": 1934,
      "fort": 1935,
      "hang": 1936,
      "oder": 1937,
      "Ġeben": 1938,
      "ĠHand": 1939,
      "Bericht": 1940,
      "iver": 1941,
      "Ġnah": 1942,
      "RTSCHAFT": 1943,
      "ĠFr": 1944,
      "Ġpolit": 1945,
      "hin": 1946,
      "euer": 1947,
      "bau": 1948,
      "uage": 1949,
      "inde": 1950,
      "Ġdaher": 1951,
      "Ġstimm": 1952,
      "Wo": 1953,
      "atei": 1954,
      "Ġgenau": 1955,
      "Ġgute": 1956,
      "erichts": 1957,
      "Damit": 1958,
      "rÃ¼h": 1959,
      "Ġbesonder": 1960,
      "assung": 1961,
      "reicht": 1962,
      "ĠdÃ¼r": 1963,
      "14": 1964,
      "Ġvotes": 1965,
      "Ã¼nd": 1966,
      "ohn": 1967,
      "ĠVertrag": 1968,
      "eiden": 1969,
      "sel": 1970,
      "Ġ30": 1971,
      "18": 1972,
      "Ġwerde": 1973,
      "Ġzwischen": 1974,
      "74": 1975,
      "ĠHaupt": 1976,
      "ypern": 1977,
      "die": 1978,
      "Ġnimmt": 1979,
      "Artikel": 1980,
      "Mehr": 1981,
      "Dann": 1982,
      "ĠJahren": 1983,
      "ez": 1984,
      "licht": 1985,
      "201": 1986,
      "fÃ¼gbar": 1987,
      "352": 1988,
      "kon": 1989,
      "eilen": 1990,
      "Ġerhalten": 1991,
      "SS": 1992,
      "itÃ¤ten": 1993,
      "Ġbede": 1994,
      "75": 1995,
      "ĠInvest": 1996,
      "weis": 1997,
      "ats": 1998,
      "walt": 1999,
      "Ġverb": 2000,
      "club": 2001,
      "eitet": 2002,
      "ile": 2003,
      "ĠAut": 2004,
      "riv": 2005,
      "TEILUNG": 2006,
      "Ġja": 2007,
      "ĠStadt": 2008,
      "Kommissar": 2009,
      "22": 2010,
      "ĠErklÃ¤rungen": 2011,
      "vent": 2012,
      "Ġgemeinsam": 2013,
      "Daher": 2014,
      "sprechen": 2015,
      "Ġrecht": 2016,
      "ĠVerkehr": 2017,
      "Ġdoch": 2018,
      "sitz": 2019,
      "ĠPreis": 2020,
      "undes": 2021,
      "schech": 2022,
      "ĠRedner": 2023,
      "achst": 2024,
      "IEN": 2025,
      "one": 2026,
      "ĠEl": 2027,
      "Ġem": 2028,
      "ĠnatÃ¼rlich": 2029,
      "ĠII": 2030,
      "ituation": 2031,
      "Ġfolgenden": 2032,
      "ĠwÃ¼rde": 2033,
      "Ġ28": 2034,
      "Ġ25": 2035,
      "ITTEILUNG": 2036,
      "ĠeuropÃ¤ische": 2037,
      "enien": 2038,
      "EC": 2039,
      "Ġgehen": 2040,
      "rieden": 2041,
      "33": 2042,
      "ens": 2043,
      "ften": 2044,
      "The": 2045,
      "Bucht": 2046,
      "ĠGesch": 2047,
      "ĠBeispiel": 2048,
      "fragen": 2049,
      "weg": 2050,
      "ĠPunkte": 2051,
      "ations": 2052,
      "arbeiten": 2053,
      "ÃŁe": 2054,
      "86": 2055,
      "hand": 2056,
      "ESSEM": 2057,
      "Denn": 2058,
      "ID": 2059,
      "Zur": 2060,
      "ogen": 2061,
      "ĠHostelsclub": 2062,
      "ESSEMITTEILUNG": 2063,
      "Ġseit": 2064,
      "stens": 2065,
      "ĠBereich": 2066,
      "lungs": 2067,
      "ĠBÃ¼rger": 2068,
      "Siehe": 2069,
      "ĠSozial": 2070,
      "ichten": 2071,
      "Ġverw": 2072,
      "Ġoffen": 2073,
      "Ġis": 2074,
      "Ġ000": 2075,
      "Ġaktu": 2076,
      "ustrie": 2077,
      "Ġdamit": 2078,
      "asse": 2079,
      "ied": 2080,
      "ĠPolitik": 2081,
      "reffen": 2082,
      "Ġnot": 2083,
      "ĠBen": 2084,
      "esse": 2085,
      "ity": 2086,
      "Ġkosten": 2087,
      "ĠGrÃ¼n": 2088,
      "Ġglaube": 2089,
      "ĠSte": 2090,
      "ign": 2091,
      "inks": 2092,
      "min": 2093,
      "erichtshof": 2094,
      "UM": 2095,
      "ient": 2096,
      "ransp": 2097,
      "ĠDeb": 2098,
      "ruck": 2099,
      "ĠRegion": 2100,
      "Ġverl": 2101,
      "hil": 2102,
      "stÃ¼ck": 2103,
      "rÃ¤n": 2104,
      "ĠY": 2105,
      "treten": 2106,
      "ĠDem": 2107,
      "ĠJan": 2108,
      "stand": 2109,
      "lig": 2110,
      "up": 2111,
      "Ġumf": 2112,
      "95": 2113,
      "Ã¼h": 2114,
      "Unter": 2115,
      "ĠProbleme": 2116,
      "atte": 2117,
      "bei": 2118,
      "ĠEUR": 2119,
      "ĠgrÃ¶ÃŁ": 2120,
      "Ġbesteht": 2121,
      "ĠStÃ¤ndiger": 2122,
      "ĠRichtlinie": 2123,
      "ĠStellvertreter": 2124,
      "NEN": 2125,
      "ĠJun": 2126,
      "verkehr": 2127,
      "Ã¶nig": 2128,
      "Ġdarf": 2129,
      "prÃ¼": 2130,
      "stland": 2131,
      "ĠMarkt": 2132,
      "anis": 2133,
      "Ġangenommen": 2134,
      "amil": 2135,
      "schung": 2136,
      "LAND": 2137,
      "worten": 2138,
      "itauen": 2139,
      "ĠAu": 2140,
      "iere": 2141,
      "etail": 2142,
      "Zum": 2143,
      "ĠRo": 2144,
      "aren": 2145,
      "Ġro": 2146,
      "gesamt": 2147,
      "Ã¤sser": 2148,
      "Pressekontakt": 2149,
      "DF": 2150,
      "ettland": 2151,
      "umÃ¤n": 2152,
      "spolitik": 2153,
      "ulgar": 2154,
      "recht": 2155,
      "mp": 2156,
      "aff": 2157,
      "schlieÃŁ": 2158,
      "ĠMob": 2159,
      "itionen": 2160,
      "Ġgest": 2161,
      "riftliche": 2162,
      "),": 2163,
      "zess": 2164,
      "ĠBed": 2165,
      "ĠMal": 2166,
      "ZIEH": 2167,
      "bild": 2168,
      "ĠJul": 2169,
      "ichtigt": 2170,
      "Ġbietet": 2171,
      "rem": 2172,
      "ischerei": 2173,
      "Ã¤uf": 2174,
      "Ġunseren": 2175,
      "ĠWor": 2176,
      "ĠMill": 2177,
      "amp": 2178,
      "man": 2179,
      "Ġfreu": 2180,
      "ĠverfÃ¼gbar": 2181,
      "mut": 2182,
      "nehm": 2183,
      "antwort": 2184,
      "ĠSCH": 2185,
      "CK": 2186,
      "Polen": 2187,
      "dings": 2188,
      "ĠSituation": 2189,
      "inge": 2190,
      "ĠText": 2191,
      "izep": 2192,
      "Ã¤d": 2193,
      "Ar": 2194,
      "ĠVerfahren": 2195,
      "ugang": 2196,
      "Ġdavon": 2197,
      "uÃŁen": 2198,
      "ĠUnterstÃ¼tzung": 2199,
      "umÃ¤nien": 2200,
      "Ã¤ng": 2201,
      "Ã¶ch": 2202,
      "ZIEHUNGEN": 2203,
      "Meine": 2204,
      "Ã¤ge": 2205,
      "ENT": 2206,
      "isten": 2207,
      "ĠForm": 2208,
      "under": 2209,
      "Ġfol": 2210,
      "ĠIhrer": 2211,
      "Ġkeinen": 2212,
      "Europa": 2213,
      "affen": 2214,
      "rakt": 2215,
      "Ġonline": 2216,
      "Ġy": 2217,
      "ortsch": 2218,
      "Ġ23": 2219,
      "SPOLITIK": 2220,
      "NE": 2221,
      "ORD": 2222,
      "ulgarien": 2223,
      "ĠBesch": 2224,
      "wertung": 2225,
      "ĠPRO": 2226,
      "ĠUr": 2227,
      "ortug": 2228,
      "schechische": 2229,
      "eitung": 2230,
      "essen": 2231,
      "ĠMÃ¤r": 2232,
      "ĠKultur": 2233,
      "sse": 2234,
      "ker": 2235,
      "ron": 2236,
      "Ġbesch": 2237,
      "ĠKÃ¶nig": 2238,
      "ĠGesundheit": 2239,
      "ielt": 2240,
      "gaben": 2241,
      "Ġschnell": 2242,
      "ĠgroÃŁe": 2243,
      "199": 2244,
      "Ġsag": 2245,
      "Mitglied": 2246,
      "beh": 2247,
      "AP": 2248,
      "Ungarn": 2249,
      "Ġschw": 2250,
      "Ġ?": 2251,
      "ĠKro": 2252,
      "PRESSEMITTEILUNG": 2253,
      "Ġby": 2254,
      "Ġkurz": 2255,
      "Ġerstellt": 2256,
      "ĠFahr": 2257,
      "nehmen": 2258,
      "erien": 2259,
      "ĠBrÃ¼ssel": 2260,
      "Nun": 2261,
      "ĠFlug": 2262,
      "Ã¶rderung": 2263,
      "itiat": 2264,
      "ĠDu": 2265,
      "ans": 2266,
      "17": 2267,
      "Her": 2268,
      "Zwei": 2269,
      "alte": 2270,
      "ĠNeu": 2271,
      "ĠPrÃ¤sidentin": 2272,
      "Ġdarauf": 2273,
      "Dazu": 2274,
      "ĠStr": 2275,
      "Lassen": 2276,
      "ĠGl": 2277,
      "Ã¤nger": 2278,
      "lob": 2279,
      "ca": 2280,
      "trag": 2281,
      "unter": 2282,
      "fÃ¼hrt": 2283,
      "WIRTSCHAFT": 2284,
      "ĠÃ¶ffent": 2285,
      "ĠErfolg": 2286,
      "izeprÃ¤sident": 2287,
      "ilder": 2288,
      "Will": 2289,
      "ĠPartner": 2290,
      "opp": 2291,
      "achstum": 2292,
      "Ġend": 2293,
      "Ġfunktion": 2294,
      "mb": 2295,
      "akei": 2296,
      "ĠRes": 2297,
      "ĠKommissarin": 2298,
      "ichter": 2299,
      "ĠAusw": 2300,
      "Ġgesagt": 2301,
      "ĠSk": 2302,
      "ĠÃĦnderungsantrag": 2303,
      "ĠFrei": 2304,
      "zahl": 2305,
      "ril": 2306,
      "folgt": 2307,
      "Ġinter": 2308,
      "reibung": 2309,
      "eint": 2310,
      "Ġla": 2311,
      "ĠRAT": 2312,
      "Ã¤nde": 2313,
      "BEZIEHUNGEN": 2314,
      "uld": 2315,
      "Ã¤ndert": 2316,
      "ringen": 2317,
      "Slowenien": 2318,
      "ĠStra": 2319,
      "Ġlassen": 2320,
      "ppen": 2321,
      "Von": 2322,
      "abel": 2323,
      "Ġerst": 2324,
      "enten": 2325,
      "Ġnehmen": 2326,
      "ĠVER": 2327,
      "Ġjeder": 2328,
      "Ġern": 2329,
      "Ġdenke": 2330,
      "ĠAnd": 2331,
      "ielle": 2332,
      "Ġ24": 2333,
      "ame": 2334,
      "Schriftliche": 2335,
      "ĠPDF": 2336,
      "ĠKat": 2337,
      "04": 2338,
      "Ġmacht": 2339,
      "Ġeinz": 2340,
      "ĠBem": 2341,
      "Ġbetrifft": 2342,
      "ĠdÃ¼rfen": 2343,
      "fang": 2344,
      "Ã¶ffnet": 2345,
      "LA": 2346,
      "OV": 2347,
      "Ġersten": 2348,
      "Ġerwar": 2349,
      "ĠLe": 2350,
      "Ġjeden": 2351,
      "Estland": 2352,
      "stau": 2353,
      "ĠweiÃŁ": 2354,
      "laub": 2355,
      "ckt": 2356,
      "ĠLÃ¶sung": 2357,
      "ĠWoch": 2358,
      "rise": 2359,
      "ies": 2360,
      "ĠEN": 2361,
      "Litauen": 2362,
      "Lettland": 2363,
      "Ġbleibt": 2364,
      "Jetzt": 2365,
      "Zypern": 2366,
      "leist": 2367,
      "asch": 2368,
      "ĠGru": 2369,
      "IM": 2370,
      "Kon": 2371,
      "ende": 2372,
      "Ġ21": 2373,
      "ain": 2374,
      "ĠMein": 2375,
      "ĠGeschÃ¤ft": 2376,
      "USSEN": 2377,
      "Ġihn": 2378,
      "innenmarkt": 2379,
      "Ġweit": 2380,
      "omb": 2381,
      "This": 2382,
      "Ġvier": 2383,
      "rad": 2384,
      "05": 2385,
      "ore": 2386,
      "Ġentfer": 2387,
      "06": 2388,
      "ĠGÃ¤": 2389,
      "Ġtelefon": 2390,
      "24": 2391,
      "ima": 2392,
      "Ġeinge": 2393,
      "ĠkÃ¶nnte": 2394,
      "ĠProjekt": 2395,
      "ĠRegionen": 2396,
      "formationen": 2397,
      "ĠÃ¤": 2398,
      "ĠMe": 2399,
      "raucher": 2400,
      "cen": 2401,
      "ĠWettbewerb": 2402,
      "ĠNamen": 2403,
      "Gibt": 2404,
      "ĠPrior": 2405,
      "Ġhoffe": 2406,
      "ehler": 2407,
      "ĠVerein": 2408,
      "enzen": 2409,
      "ctor": 2410,
      "Ġsagte": 2411,
      "fÃ¤h": 2412,
      "Ġ*": 2413,
      "einer": 2414,
      "ikation": 2415,
      "sol": 2416,
      "zÃ¼": 2417,
      "Ġwo": 2418,
      "Ġsprechen": 2419,
      "eig": 2420,
      "Heute": 2421,
      "ĠEUROPÃĦISCH": 2422,
      "own": 2423,
      "ĠFre": 2424,
      "Ġverk": 2425,
      "ffiz": 2426,
      "INHALT": 2427,
      "Tschechische": 2428,
      "Ġtelefonisch": 2429,
      "ortugal": 2430,
      "ĠReform": 2431,
      "EMO": 2432,
      "weit": 2433,
      "Ġfal": 2434,
      "auer": 2435,
      "rteil": 2436,
      "21": 2437,
      "ren": 2438,
      "ĠMed": 2439,
      "Ġvers": 2440,
      "tem": 2441,
      "ĠDinge": 2442,
      "Ġ2000": 2443,
      "Ġ@": 2444,
      "Ġ27": 2445,
      "hol": 2446,
      "ĠTÃ¼r": 2447,
      "ÃŁer": 2448,
      "ĠDienst": 2449,
      "ĠTel": 2450,
      "Ġverschieden": 2451,
      "ÃľR": 2452,
      "Ġzusammen": 2453,
      "Frankreich": 2454,
      "Ġworden": 2455,
      "wegen": 2456,
      "ĠHaushalt": 2457,
      "Nicht": 2458,
      "Lang": 2459,
      "af": 2460,
      "rig": 2461,
      "ober": 2462,
      "Ã¤mpf": 2463,
      "ĠEntscheidung": 2464,
      "ĠWer": 2465,
      "ahmen": 2466,
      "liches": 2467,
      "rÃ¤gt": 2468,
      "eschÃ¤ftigung": 2469,
      "34": 2470,
      "ĠProdukte": 2471,
      "zug": 2472,
      "ware": 2473,
      "Ġreg": 2474,
      "fÃ¤l": 2475,
      "ool": 2476,
      "Ġzweite": 2477,
      "Ġempf": 2478,
      "Ġfrei": 2479,
      "splan": 2480,
      "ĠschÃ¶n": 2481,
      "Ġ&": 2482,
      "wie": 2483,
      "ĠSl": 2484,
      "ĠJu": 2485,
      "Ġpage": 2486,
      "ĠnÃ¤chsten": 2487,
      "Ġgerne": 2488,
      "etails": 2489,
      "Ġmod": 2490,
      "ĠZiele": 2491,
      "utet": 2492,
      "Ġbefindet": 2493,
      "ĠMit": 2494,
      "rech": 2495,
      "fÃ¼gung": 2496,
      "Ihre": 2497,
      "okratie": 2498,
      "ĠunterstÃ¼tzen": 2499,
      "onnen": 2500,
      "elegt": 2501,
      "Ġerforder": 2502,
      "Ġerreichen": 2503,
      "ĠSchw": 2504,
      "ĠKolle": 2505,
      "ĠCo": 2506,
      "ĠAngeb": 2507,
      "DE": 2508,
      "Ġstell": 2509,
      "ĠHotels": 2510,
      "EuropÃ¤": 2511,
      "hm": 2512,
      "ĠDi": 2513,
      "ĠRolle": 2514,
      "ĠHa": 2515,
      "Ġdenn": 2516,
      "ĠRÃ¼ck": 2517,
      "Ġfr": 2518,
      "ĠMan": 2519,
      "ĠVerfÃ¼gung": 2520,
      "apit": 2521,
      "Ġentfernt": 2522,
      "Ġwenden": 2523,
      "ĠPersonen": 2524,
      "yn": 2525,
      "ys": 2526,
      "EHR": 2527,
      "ative": 2528,
      "ĠheiÃŁ": 2529,
      "Ġlange": 2530,
      "spekt": 2531,
      "Ġentsch": 2532,
      "ĠHerren": 2533,
      "ĠKÃ¶nigreich": 2534,
      "reiben": 2535,
      "andelt": 2536,
      "Ġ100": 2537,
      "ĠBesuch": 2538,
      "ĠAkt": 2539,
      "ides": 2540,
      "Neu": 2541,
      "gangen": 2542,
      "Ġstellen": 2543,
      "handel": 2544,
      "Ġwel": 2545,
      "Verein": 2546,
      "undesminister": 2547,
      "leg": 2548,
      "Ġ2006": 2549,
      "303": 2550,
      "prochen": 2551,
      "Ã¼d": 2552,
      "Ġsieht": 2553,
      "ĠMai": 2554,
      "Slowakei": 2555,
      "hilfe": 2556,
      "ĠFrÃ¼h": 2557,
      "ĠListe": 2558,
      "ĠLie": 2559,
      "Ġbleiben": 2560,
      "Ch": 2561,
      "ĠDamen": 2562,
      "utzer": 2563,
      "UT": 2564,
      "entrum": 2565,
      "ĠGegen": 2566,
      "Ã¤chst": 2567,
      "Ġsele": 2568,
      "Ġinternation": 2569,
      "ĠGer": 2570,
      "Staat": 2571,
      "Nur": 2572,
      "ĠThe": 2573,
      "iken": 2574,
      "ĠLÃ¤nder": 2575,
      "ĠIhrem": 2576,
      "na": 2577,
      "tegr": 2578,
      "ĠlÃ¤": 2579,
      "Ġ50": 2580,
      "ativ": 2581,
      "ialog": 2582,
      "ĠArtikel": 2583,
      "Ġnahm": 2584,
      "37": 2585,
      "Ġho": 2586,
      "igkeiten": 2587,
      "red": 2588,
      "zieht": 2589,
      "ĠbenÃ¶t": 2590,
      "Betrifft": 2591,
      "19": 2592,
      "ino": 2593,
      "ĠWei": 2594,
      "ĠZahl": 2595,
      "ĠTechn": 2596,
      "ĠSol": 2597,
      "Ġihnen": 2598,
      "Ġung": 2599,
      "Ã¼b": 2600,
      "07": 2601,
      "ĠInst": 2602,
      "achr": 2603,
      "ĠFamil": 2604,
      "ĠDatei": 2605,
      "ĠStimm": 2606,
      "Ġob": 2607,
      "Ġrichtig": 2608,
      "ĠRechtss": 2609,
      "Ġbieten": 2610,
      "Kann": 2611,
      "Ġhel": 2612,
      "uar": 2613,
      "ĠwÃ¼n": 2614,
      "bank": 2615,
      "hows": 2616,
      "ontroll": 2617,
      "ĠWasser": 2618,
      "ĠGraph": 2619,
      "Bes": 2620,
      "ĠFot": 2621,
      "leicht": 2622,
      "Ġbedeutet": 2623,
      "NER": 2624,
      "plan": 2625,
      "ond": 2626,
      "Ġfolgt": 2627,
      "hÃ¶": 2628,
      "kei": 2629,
      "ĠNov": 2630,
      "ANDEL": 2631,
      "Ã¼ssel": 2632,
      "ĠKosten": 2633,
      "com": 2634,
      "arf": 2635,
      "ĠAUS": 2636,
      "oine": 2637,
      "Ġdirekt": 2638,
      "urs": 2639,
      "miss": 2640,
      "ure": 2641,
      "osit": 2642,
      "ĠSchutz": 2643,
      "Ġunserem": 2644,
      "weiterung": 2645,
      "ĠJuni": 2646,
      "ĠMod": 2647,
      "fÃ¼hrung": 2648,
      "ĠEUROPÃĦISCHEN": 2649,
      "aÃŁ": 2650,
      "Ġdort": 2651,
      "Werde": 2652,
      "ĠauÃŁer": 2653,
      "fonds": 2654,
      "ĠAbkommen": 2655,
      "ĠÃ¤ndern": 2656,
      "ire": 2657,
      "cke": 2658,
      "ĠEinzel": 2659,
      "ĠChina": 2660,
      "IV": 2661,
      "IZ": 2662,
      "Ã¼nft": 2663,
      "LICH": 2664,
      "Ġhierzu": 2665,
      "Ġ4303": 2666,
      "Ber": 2667,
      "gleich": 2668,
      "rom": 2669,
      "ĠEURO": 2670,
      "ĠEuropas": 2671,
      "IB": 2672,
      "ette": 2673,
      "legen": 2674,
      "CESS": 2675,
      "Wichtig": 2676,
      "ĠST": 2677,
      "ĠSh": 2678,
      "ĠWORD": 2679,
      "ĠOrt": 2680,
      "ĠGraphik": 2681,
      "ider": 2682,
      "aket": 2683,
      "Ġgetan": 2684,
      "ĠgehÃ¶rt": 2685,
      "Ġsozi": 2686,
      "nehmer": 2687,
      "struktur": 2688,
      "ĠPer": 2689,
      "Einige": 2690,
      "STAT": 2691,
      "Schl": 2692,
      "ĠBildung": 2693,
      "ĠPROCESS": 2694,
      "ĠPROCESSED": 2695,
      "Den": 2696,
      "ĠVers": 2697,
      "rechte": 2698,
      "ehe": 2699,
      "ance": 2700,
      "Antoine": 2701,
      "OU": 2702,
      "eren": 2703,
      "Ġhatte": 2704,
      "ĠSlides": 2705,
      "achrichtigt": 2706,
      "amer": 2707,
      "Ġmeiner": 2708,
      "ij": 2709,
      "ĠKunden": 2710,
      "Ġgleich": 2711,
      "Ġbenachrichtigt": 2712,
      "Ġmodif": 2713,
      "ock": 2714,
      "64": 2715,
      "67": 2716,
      "ondere": 2717,
      "teilt": 2718,
      "IC": 2719,
      "mÃ¤ÃŁ": 2720,
      "sz": 2721,
      "unikation": 2722,
      "AB": 2723,
      "Viel": 2724,
      "80": 2725,
      "AUSSEN": 2726,
      "ernen": 2727,
      "etzen": 2728,
      "ĠGemeinschaft": 2729,
      "Bulgarien": 2730,
      "ĠSlideshows": 2731,
      "Ġak": 2732,
      "ĠFrauen": 2733,
      "ME": 2734,
      "bed": 2735,
      "Ġop": 2736,
      "eleg": 2737,
      "OH": 2738,
      "ras": 2739,
      "arm": 2740,
      "Ġgar": 2741,
      "Ġkm": 2742,
      "ĠIndustrie": 2743,
      "ĠeuropÃ¤ischen": 2744,
      "Ġwahr": 2745,
      "wendung": 2746,
      "Ġnotwend": 2747,
      "RumÃ¤nien": 2748,
      "rant": 2749,
      "ĠvÃ¶l": 2750,
      "Ġerw": 2751,
      "Ġ2001": 2752,
      "blick": 2753,
      "ĠSan": 2754,
      "fÃ¼l": 2755,
      "KEHR": 2756,
      "ĠFischerei": 2757,
      "ussland": 2758,
      "ĠEinw": 2759,
      "Ġebenfalls": 2760,
      "NatÃ¼rlich": 2761,
      "ĠKroes": 2762,
      "port": 2763,
      "AD": 2764,
      "ĠAll": 2765,
      "ĠFÃľR": 2766,
      "ellschaft": 2767,
      "CC": 2768,
      "akte": 2769,
      "ĠFehler": 2770,
      "Language": 2771,
      "als": 2772,
      "Ġhoch": 2773,
      "Ġselector": 2774,
      "orm": 2775,
      "ĠProdukt": 2776,
      "ĠFortsch": 2777,
      "Ġ32": 2778,
      "Als": 2779,
      "andeln": 2780,
      "ĠerhÃ¤lt": 2781,
      "rans": 2782,
      "sprogramm": 2783,
      "ĠTage": 2784,
      "reg": 2785,
      "gelegt": 2786,
      "ierungs": 2787,
      "gesetzt": 2788,
      "Ġlast": 2789,
      "Ġbeiden": 2790,
      "schied": 2791,
      "ĠHin": 2792,
      "ĠArbeits": 2793,
      "ĠVersion": 2794,
      "schaften": 2795,
      "ĠRegel": 2796,
      "bo": 2797,
      "Ġbew": 2798,
      "88": 2799,
      "dern": 2800,
      "riff": 2801,
      "ĠMinuten": 2802,
      "ĠBemerk": 2803,
      "En": 2804,
      "ĠGÃ¤ste": 2805,
      "FOR": 2806,
      "Ġwenig": 2807,
      "gemeine": 2808,
      "merksam": 2809,
      "Dem": 2810,
      "ierten": 2811,
      "ESCH": 2812,
      "Umwelt": 2813,
      "ĠEntschlieÃŁung": 2814,
      "ly": 2815,
      "ĠhÃ¤t": 2816,
      "ompl": 2817,
      "nten": 2818,
      "itut": 2819,
      "ervice": 2820,
      "Ġch": 2821,
      "Ã¤ter": 2822,
      "CHE": 2823,
      "UNGS": 2824,
      "ĠPark": 2825,
      "ĠFil": 2826,
      "Ġpass": 2827,
      "ungsverfahren": 2828,
      "AUSSENBEZIEHUNGEN": 2829,
      "ĠunterstÃ¼tzt": 2830,
      "reifen": 2831,
      "ĠStrategie": 2832,
      "Ã¤mpfung": 2833,
      "ator": 2834,
      "letz": 2835,
      "yl": 2836,
      "ĠIs": 2837,
      "liegen": 2838,
      "ĠInnern": 2839,
      "ĠSer": 2840,
      "ĠRahmen": 2841,
      "Ġat": 2842,
      "ĠEW": 2843,
      "ingungen": 2844,
      "Ġliegen": 2845,
      "ĠJuli": 2846,
      "ichterstat": 2847,
      "ĠMeinung": 2848,
      "ais": 2849,
      "ĠDIE": 2850,
      "Finanz": 2851,
      "ĠAs": 2852,
      "Ġallem": 2853,
      "ĠAt": 2854,
      "ISCHER": 2855,
      "Ġfreuen": 2856,
      "Ges": 2857,
      "tlich": 2858,
      "ĠPal": 2859,
      "ĠMÃ¶glich": 2860,
      "Ġ2003": 2861,
      "Ġleben": 2862,
      "frei": 2863,
      "ĠvÃ¶llig": 2864,
      "zember": 2865,
      "Ġhe": 2866,
      "ĠVerbraucher": 2867,
      "AK": 2868,
      "ĠRechts": 2869,
      "ĠdarÃ¼ber": 2870,
      "Ġunver": 2871,
      "Ġvielen": 2872,
      "ĠBuch": 2873,
      "Ġ2005": 2874,
      "ĠErgebnis": 2875,
      "UST": 2876,
      "ias": 2877,
      "ĠIde": 2878,
      "ĠDer": 2879,
      "ĠRE": 2880,
      "vorschriften": 2881,
      "mer": 2882,
      "ĠTour": 2883,
      "werk": 2884,
      "Ġderzeit": 2885,
      "Ġca": 2886,
      "rieb": 2887,
      "HEIT": 2888,
      "olf": 2889,
      "Programm": 2890,
      "ĠAuÃŁen": 2891,
      "ĠDE": 2892,
      "ĠDisk": 2893,
      "ĠWahl": 2894,
      "Ġ..": 2895,
      "aritÃ¤t": 2896,
      "ĠPh": 2897,
      "ĠPreise": 2898,
      "Ġgemacht": 2899,
      "ĠTe": 2900,
      "Ġerreicht": 2901,
      "ĠSache": 2902,
      "ĠFolgen": 2903,
      "ĠDeutschland": 2904,
      "kommissar": 2905,
      "ĠKo": 2906,
      "denten": 2907,
      "SE": 2908,
      "eral": 2909,
      "ĠDialog": 2910,
      "ersÃ¶n": 2911,
      "ĠBilder": 2912,
      "UB": 2913,
      "ĠLin": 2914,
      "Ġerg": 2915,
      "ĠCol": 2916,
      "ani": 2917,
      "Ã¼lt": 2918,
      "ĠSchritt": 2919,
      "ATION": 2920,
      "Ġmodified": 2921,
      "gs": 2922,
      "voll": 2923,
      "Ġ26": 2924,
      "ĠOst": 2925,
      "ĠVorsitz": 2926,
      "94": 2927,
      "ĠMEMO": 2928,
      "Ġ99": 2929,
      "TO": 2930,
      "And": 2931,
      "Ġ2015": 2932,
      "ĠWachstum": 2933,
      "ologie": 2934,
      "ĠSeiten": 2935,
      "Ġwichtige": 2936,
      "egor": 2937,
      "Ã¼nf": 2938,
      "Gew": 2939,
      "mitt": 2940,
      "Dabei": 2941,
      "onst": 2942,
      "Ġfre": 2943,
      "ĠBeh": 2944,
      "ption": 2945,
      "uhr": 2946,
      "Ġersch": 2947,
      "Ġletzten": 2948,
      "esent": 2949,
      "ĠPresse": 2950,
      "ĠLuft": 2951,
      "Ġdeut": 2952,
      "Wichtigste": 2953,
      "th": 2954,
      "eres": 2955,
      "arbeitet": 2956,
      "ĠVorschlÃ¤ge": 2957,
      "Ma": 2958,
      "Reg": 2959,
      "70": 2960,
      "haus": 2961,
      "ring": 2962,
      "ĠEmpf": 2963,
      "Ġzie": 2964,
      "ovation": 2965,
      "ĠProjekte": 2966,
      "ana": 2967,
      "ĠAntrag": 2968,
      "HANDEL": 2969,
      "ĠRichtung": 2970,
      "fung": 2971,
      "Ġ2004": 2972,
      "ichterstatter": 2973,
      "Hin": 2974,
      "Ġqu": 2975,
      "abkommen": 2976,
      "ĠUSA": 2977,
      "Ġstellt": 2978,
      "rop": 2979,
      "bene": 2980,
      "Bis": 2981,
      "Ġ2002": 2982,
      "Ġgenug": 2983,
      "ĠMÃ¤rz": 2984,
      "ĠTerr": 2985,
      "Ġinsgesamt": 2986,
      "VERKEHR": 2987,
      "Seit": 2988,
      "ump": 2989,
      "endet": 2990,
      "ĠApril": 2991,
      "ĠRechtssache": 2992,
      "GER": 2993,
      "ĠNetz": 2994,
      "rigen": 2995,
      "IER": 2996,
      "Richt": 2997,
      "staat": 2998,
      "ĠAktion": 2999,
      "ĠDemokratie": 3000,
      "ĠWebs": 3001,
      "ruch": 3002,
      "fÃ¼gt": 3003,
      "ĠAufgabe": 3004,
      "Klicken": 3005,
      "ĠMillionen": 3006,
      "staurant": 3007,
      "Ġakzept": 3008,
      "ja": 3009,
      "Ã¼sse": 3010,
      "ĠWissen": 3011,
      "Wirtschaft": 3012,
      "eschreibung": 3013,
      "igtes": 3014,
      "ts": 3015,
      "va": 3016,
      "etten": 3017,
      "buch": 3018,
      "ennt": 3019,
      "Ġmei": 3020,
      "schluss": 3021,
      "255": 3022,
      "zlich": 3023,
      "schrift": 3024,
      "bericht": 3025,
      "spiele": 3026,
      "besondere": 3027,
      "gestellt": 3028,
      "27": 3029,
      "UCH": 3030,
      "Zusammen": 3031,
      "fin": 3032,
      "Ġfort": 3033,
      "Ġseiner": 3034,
      "rufbar": 3035,
      "RAN": 3036,
      "fter": 3037,
      "ĠAusschuss": 3038,
      "atten": 3039,
      "etter": 3040,
      "ĠWind": 3041,
      "zip": 3042,
      "mals": 3043,
      "TS": 3044,
      "ichtet": 3045,
      "ownlo": 3046,
      "dien": 3047,
      "bereich": 3048,
      "altung": 3049,
      "ĠQualitÃ¤t": 3050,
      "eim": 3051,
      "DafÃ¼r": 3052,
      "ath": 3053,
      "Ġbesonders": 3054,
      "MAR": 3055,
      "Ġposit": 3056,
      "Anhang": 3057,
      "ĠMus": 3058,
      "rachen": 3059,
      "ĠDas": 3060,
      "ĠWie": 3061,
      "Ġth": 3062,
      "ĠWirtschafts": 3063,
      "ĠDebatte": 3064,
      "tur": 3065,
      "achsen": 3066,
      "ĠLa": 3067,
      "ĠInf": 3068,
      "ĠNatur": 3069,
      "Ġihren": 3070,
      "erst": 3071,
      "rid": 3072,
      "Ã¤hlt": 3073,
      "ieten": 3074,
      "INAN": 3075,
      "linien": 3076,
      "deutung": 3077,
      "ranspar": 3078,
      "ix": 3079,
      "Ġru": 3080,
      "unk": 3081,
      "ĠDon": 3082,
      "Wettbewerb": 3083,
      "ons": 3084,
      "AF": 3085,
      "AuÃŁer": 3086,
      "eider": 3087,
      "2001": 3088,
      "ari": 3089,
      "!!": 3090,
      "ĠKrit": 3091,
      "ĠKraft": 3092,
      "schn": 3093,
      "EMEIN": 3094,
      "same": 3095,
      "28": 3096,
      "ĠEUROSTAT": 3097,
      "ĠÃľ": 3098,
      "ĠOn": 3099,
      "Ja": 3100,
      "ĠBeschÃ¤ftigung": 3101,
      "ĠHeraus": 3102,
      "ACH": 3103,
      "ose": 3104,
      "Ġteil": 3105,
      "Ġabrufbar": 3106,
      "08": 3107,
      "29": 3108,
      "Ġsollen": 3109,
      "ĠKom": 3110,
      "ĠWirk": 3111,
      "Ġunterb": 3112,
      "frika": 3113,
      "racht": 3114,
      "Ġ3255": 3115,
      "Ġentzieht": 3116,
      "ikan": 3117,
      "Ġhinzu": 3118,
      "ftware": 3119,
      "ufen": 3120,
      "Ġ75": 3121,
      "antwortung": 3122,
      "ĠInitiat": 3123,
      "zimmer": 3124,
      "ĠWeb": 3125,
      "ĠFrÃ¼hstÃ¼ck": 3126,
      "StaatssekretÃ¤r": 3127,
      "za": 3128,
      "zogen": 3129,
      "Ġihm": 3130,
      "rieben": 3131,
      "strum": 3132,
      "bildung": 3133,
      "ĠJugend": 3134,
      "31": 3135,
      "36": 3136,
      "ĠRechte": 3137,
      "Ã¼nst": 3138,
      "to": 3139,
      "ĠBinnenmarkt": 3140,
      "agegen": 3141,
      "utzung": 3142,
      "Ġgelten": 3143,
      "Ġinteress": 3144,
      "Tag": 3145,
      "ano": 3146,
      "elli": 3147,
      "alisierung": 3148,
      "ĠRom": 3149,
      "EW": 3150,
      "stelle": 3151,
      "ĠMark": 3152,
      "ĠTra": 3153,
      "Ġgeschehen": 3154,
      "ĠErklÃ¤rung": 3155,
      "ĠBedeutung": 3156,
      "ĠGeschÃ¤fts": 3157,
      "NÃ¤h": 3158,
      "Ġverm": 3159,
      "TES": 3160,
      "Ġschl": 3161,
      "ANG": 3162,
      "III": 3163,
      "ĠBus": 3164,
      "olk": 3165,
      "ĠDes": 3166,
      "Ġvert": 3167,
      "weck": 3168,
      "isa": 3169,
      "ĠPla": 3170,
      "26": 3171,
      "Press": 3172,
      "ement": 3173,
      "scht": 3174,
      "dere": 3175,
      "ĠVort": 3176,
      "Ġ29": 3177,
      "ors": 3178,
      "Ġhalte": 3179,
      "Ġwichtigsten": 3180,
      "ets": 3181,
      "Ġgab": 3182,
      "fert": 3183,
      "maÃŁnahmen": 3184,
      "tember": 3185,
      "Ġnotwendig": 3186,
      "Gemein": 3187,
      "Portugal": 3188,
      "ager": 3189,
      "sverletz": 3190,
      "ĠRaum": 3191,
      "Ġbeant": 3192,
      "Ġanders": 3193,
      "ĠVide": 3194,
      "ĠWir": 3195,
      "stunde": 3196,
      "urr": 3197,
      "ĠMinisterium": 3198,
      "Ġenthalten": 3199,
      "Ġmeinen": 3200,
      "seite": 3201,
      "uman": 3202,
      "BEIT": 3203,
      "Urteil": 3204,
      "ows": 3205,
      "Ġu": 3206,
      "ĠGu": 3207,
      "TEL": 3208,
      "Ġarbeiten": 3209,
      "folgen": 3210,
      "stagung": 3211,
      "Ã¼ndet": 3212,
      "SPRA": 3213,
      "Ġfunktioniert": 3214,
      "wicklung": 3215,
      "ĠJanuar": 3216,
      "ĠBundesminister": 3217,
      "leben": 3218,
      "ĠKlima": 3219,
      "Ġhelfen": 3220,
      "raktion": 3221,
      "Ġstimmen": 3222,
      "TEN": 3223,
      "ions": 3224,
      "cker": 3225,
      "entral": 3226,
      "FF": 3227,
      "ĠBro": 3228,
      "Ġihrer": 3229,
      "dienst": 3230,
      "ood": 3231,
      "Ġaufge": 3232,
      "ĠInteresse": 3233,
      "ĠheiÃŁt": 3234,
      "Richtlinie": 3235,
      "orn": 3236,
      "son": 3237,
      "ĠKern": 3238,
      "ĠpersÃ¶n": 3239,
      "log": 3240,
      "eptember": 3241,
      "Rue": 3242,
      "Ġbestimm": 3243,
      "wendet": 3244,
      "handlungen": 3245,
      "ĠTÃ¼rkei": 3246,
      "ĠfÃ¼": 3247,
      "fern": 3248,
      "Ġsolche": 3249,
      "Ġlau": 3250,
      "Vereinigtes": 3251,
      "di": 3252,
      "atien": 3253,
      "ktober": 3254,
      "hÃ¤ng": 3255,
      "stehen": 3256,
      "ĠPart": 3257,
      "ĠMet": 3258,
      "fahrt": 3259,
      "Ġ]": 3260,
      "ĠFest": 3261,
      "rauch": 3262,
      "ĠRatstagung": 3263,
      "Ġweniger": 3264,
      "skommissar": 3265,
      "eiche": 3266,
      "Ġir": 3267,
      "ĠBenutzer": 3268,
      "OP": 3269,
      "pen": 3270,
      "ith": 3271,
      "REN": 3272,
      "ĠMehr": 3273,
      "igit": 3274,
      "indung": 3275,
      "riechen": 3276,
      "platz": 3277,
      "SPRACHE": 3278,
      "europa": 3279,
      "Internet": 3280,
      "Ġhalten": 3281,
      "klÃ¤rung": 3282,
      "Ġallerdings": 3283,
      "ĠspÃ¤ter": 3284,
      "ĠForschung": 3285,
      "ĠAUSSPRACHE": 3286,
      "ipf": 3287,
      "unÃ¤chst": 3288,
      "ĠBeg": 3289,
      "schlag": 3290,
      "programm": 3291,
      "Beziehungen": 3292,
      "38": 3293,
      "Danke": 3294,
      "ĠPol": 3295,
      "ehlen": 3296,
      "IGUNG": 3297,
      "istr": 3298,
      "Ã¤ren": 3299,
      "auft": 3300,
      "rÃ¤sidenten": 3301,
      "assil": 3302,
      "enk": 3303,
      "IA": 3304,
      "KOM": 3305,
      "UL": 3306,
      "Ġnation": 3307,
      "old": 3308,
      "ĠRele": 3309,
      "ĠVielen": 3310,
      "ssystem": 3311,
      "Ġstark": 3312,
      "Ġ)": 3313,
      "ĠStud": 3314,
      "Ġetwa": 3315,
      "Ġhervor": 3316,
      "ĠSport": 3317,
      "Ã¤he": 3318,
      "Leider": 3319,
      "jekt": 3320,
      "sult": 3321,
      "ĠKop": 3322,
      "ĠParlaments": 3323,
      "ĠerwÃ¤h": 3324,
      "fel": 3325,
      "gn": 3326,
      "ĠRestaurant": 3327,
      "spl": 3328,
      "itglieder": 3329,
      "Ġgerade": 3330,
      "ĠEntschlieÃŁungsantrag": 3331,
      "Ġschwier": 3332,
      "Ġganze": 3333,
      "ichtigen": 3334,
      "agement": 3335,
      "pflicht": 3336,
      "Ġentscheiden": 3337,
      "ĠZugang": 3338,
      "Ġbraucht": 3339,
      "Ġmeisten": 3340,
      "Mich": 3341,
      "setzen": 3342,
      "smittel": 3343,
      "usion": 3344,
      "ĠNacht": 3345,
      "ica": 3346,
      "ĠHerausforder": 3347,
      "ĠNeelie": 3348,
      "ĠBeitrag": 3349,
      "Ġwe": 3350,
      "ars": 3351,
      "ommer": 3352,
      "ĠErweiterung": 3353,
      "Ġbekannt": 3354,
      "ĠFir": 3355,
      "Ġgesam": 3356,
      "illa": 3357,
      "ĠWert": 3358,
      "ĠInner": 3359,
      "65": 3360,
      "87": 3361,
      "Ġ02": 3362,
      "ifiz": 3363,
      "Ġkonk": 3364,
      "Du": 3365,
      "ĠfÃ¼nf": 3366,
      "ĠBau": 3367,
      "reten": 3368,
      "here": 3369,
      "ĠVerteid": 3370,
      "ches": 3371,
      "alle": 3372,
      "Ġglei": 3373,
      "Ġ546": 3374,
      "roffen": 3375,
      "ontrolle": 3376,
      "abilitÃ¤t": 3377,
      "ĠAngebot": 3378,
      "GIE": 3379,
      "Prior": 3380,
      "air": 3381,
      "Ġwohl": 3382,
      "ise": 3383,
      "Ġerfolgt": 3384,
      "Ġfinanz": 3385,
      "ĠMil": 3386,
      "ĠVerantwortung": 3387,
      "aktion": 3388,
      "Se": 3389,
      "fuhr": 3390,
      "ingen": 3391,
      "ĠschlieÃŁ": 3392,
      "Wor": 3393,
      "denken": 3394,
      "ĠItalien": 3395,
      "AGE": 3396,
      "ĠGlÃ¼ck": 3397,
      "aar": 3398,
      "Ġwelt": 3399,
      "ĠBr": 3400,
      "ĠIM": 3401,
      "rak": 3402,
      "Sind": 3403,
      "ona": 3404,
      "ales": 3405,
      "oper": 3406,
      "ada": 3407,
      "glisch": 3408,
      "riechenland": 3409,
      "Handel": 3410,
      "Viele": 3411,
      "esordnung": 3412,
      "ĠBIP": 3413,
      "ĠZahlen": 3414,
      "ĠenthÃ¤lt": 3415,
      "utzt": 3416,
      "ivers": 3417,
      "oment": 3418,
      "Ġeigenen": 3419,
      "ĠRis": 3420,
      "obil": 3421,
      "Ġtechn": 3422,
      "punkte": 3423,
      "auber": 3424,
      "ĠWe": 3425,
      "Ġallein": 3426,
      "ĠVON": 3427,
      "AuÃŁerdem": 3428,
      "ĠRelease": 3429,
      "93": 3430,
      "ook": 3431,
      "ĠSy": 3432,
      "orge": 3433,
      "2007": 3434,
      "ĠReise": 3435,
      "iko": 3436,
      "Ã¤rk": 3437,
      "ko": 3438,
      "Ġrichtige": 3439,
      "hrist": 3440,
      "allen": 3441,
      "Ġseinen": 3442,
      "ĠGeschichte": 3443,
      "MARKT": 3444,
      "zeigt": 3445,
      "Ġdagegen": 3446,
      "ĠAug": 3447,
      "istan": 3448,
      "Ġbez": 3449,
      "Ã¤hrung": 3450,
      "ĠÃ¤uÃŁer": 3451,
      "OT": 3452,
      "ĠKar": 3453,
      "regel": 3454,
      "besserung": 3455,
      "OHNE": 3456,
      "assilio": 3457,
      "Gr": 3458,
      "513": 3459,
      "ĠPlatz": 3460,
      "Willkommen": 3461,
      "44": 3462,
      "Mein": 3463,
      "chten": 3464,
      "Ã¼t": 3465,
      "ĠAnfrage": 3466,
      "itteilungen": 3467,
      "gemein": 3468,
      "Gerichtshof": 3469,
      "Durch": 3470,
      "ollte": 3471,
      "rauen": 3472,
      "Ġschwer": 3473,
      "Wel": 3474,
      "unt": 3475,
      "ĠEuropÃ¤": 3476,
      "ĠFar": 3477,
      "ĠGerichtshof": 3478,
      "ownload": 3479,
      "925": 3480,
      "SK": 3481,
      "ummer": 3482,
      "anst": 3483,
      "ĠWest": 3484,
      "sverletzungsverfahren": 3485,
      "urt": 3486,
      "rotz": 3487,
      "ĠLinks": 3488,
      "ĠCas": 3489,
      "ebru": 3490,
      "Ġsogar": 3491,
      "ĠBal": 3492,
      "ĠKontakt": 3493,
      "INANZ": 3494,
      "fassung": 3495,
      "sehen": 3496,
      "ĠBu": 3497,
      "Ġkompl": 3498,
      "prÃ¤": 3499,
      "ieht": 3500,
      "urf": 3501,
      "able": 3502,
      "Ġrund": 3503,
      "Ã¤hrend": 3504,
      "wesen": 3505,
      "stadt": 3506,
      "ĠSchwei": 3507,
      "Haben": 3508,
      "rastruktur": 3509,
      "ĠColomb": 3510,
      "unsch": 3511,
      "ahren": 3512,
      "ĠSoftware": 3513,
      "ĠThemen": 3514,
      "ebruar": 3515,
      "68": 3516,
      "zuf": 3517,
      "Ġeingehen": 3518,
      "ĠDezember": 3519,
      "Ġversch": 3520,
      "ĠBerichterstatter": 3521,
      "Ġinsbesondere": 3522,
      "elles": 3523,
      "ĠIII": 3524,
      "rah": 3525,
      "bare": 3526,
      "Ġklicken": 3527,
      "Ġweiterhin": 3528,
      "ISCHEREI": 3529,
      "Mittel": 3530,
      "mlich": 3531,
      "Ġzeigt": 3532,
      "ĠKÃ¼": 3533,
      "ĠKont": 3534,
      "ĠFran": 3535,
      "Ġpolitische": 3536,
      "ĠÃ¼b": 3537,
      "Ġeindeut": 3538,
      "Also": 3539,
      "ĠRA": 3540,
      "ĠGar": 3541,
      "itÃ¤ts": 3542,
      "ĠBlick": 3543,
      "Mag": 3544,
      "mand": 3545,
      "ww": 3546,
      "ĠMad": 3547,
      "ĠKrise": 3548,
      "Ġentsprechen": 3549,
      "ICHER": 3550,
      "yer": 3551,
      "isierung": 3552,
      "DarÃ¼ber": 3553,
      "ĠInvestitionen": 3554,
      "Ġroom": 3555,
      "ĠPlan": 3556,
      "ĠStat": 3557,
      "INNEN": 3558,
      "merksamkeit": 3559,
      "ampf": 3560,
      "Ġbestehen": 3561,
      "ĠColombani": 3562,
      "sent": 3563,
      "gesehen": 3564,
      "ĠUmsetzung": 3565,
      "ransparenz": 3566,
      "ĠLÃ¤ndern": 3567,
      "Ġoft": 3568,
      "Ġmoder": 3569,
      "Ġerfolg": 3570,
      "ĠAufmerksamkeit": 3571,
      "bet": 3572,
      "wir": 3573,
      "ĠFÃ¤l": 3574,
      "organis": 3575,
      "60": 3576,
      "DEN": 3577,
      "Ġverbesser": 3578,
      "nerstag": 3579,
      "ohnung": 3580,
      "ĠgroÃŁen": 3581,
      "fre": 3582,
      "ĠInnovation": 3583,
      "ara": 3584,
      "ĠIV": 3585,
      "ĠDurch": 3586,
      "ĠHo": 3587,
      "ime": 3588,
      "EUROPÃĦISCHE": 3589,
      "bek": 3590,
      "AGUNG": 3591,
      "mÃ¶glich": 3592,
      "ĠAnfang": 3593,
      "Ã¶lker": 3594,
      "ĠGruppe": 3595,
      "UF": 3596,
      "Ã¤um": 3597,
      "ĠEG": 3598,
      "ĠTab": 3599,
      "Ġbeendet": 3600,
      "omat": 3601,
      "ĠJahres": 3602,
      "ĠNews": 3603,
      "ĠfÃ¼hrt": 3604,
      "Recht": 3605,
      "informationen": 3606,
      "Ġfinde": 3607,
      "ĠFrankreich": 3608,
      "ĠTr": 3609,
      "ĠCom": 3610,
      "Erstens": 3611,
      "WICK": 3612,
      "Ġsoziale": 3613,
      "23": 3614,
      "xt": 3615,
      "inner": 3616,
      "ĠEIB": 3617,
      "ourcen": 3618,
      "74513": 3619,
      "ĠWoche": 3620,
      "For": 3621,
      "dig": 3622,
      "ĠNord": 3623,
      "Ġspielen": 3624,
      "Ġkostenlos": 3625,
      "ĠMobilt": 3626,
      "Ġne": 3627,
      "EST": 3628,
      "ĠfÃ¼hren": 3629,
      "90": 3630,
      "ini": 3631,
      "haupt": 3632,
      "onn": 3633,
      "Ġdaran": 3634,
      "ĠPo": 3635,
      "Ġerz": 3636,
      "ĠGesamt": 3637,
      "artment": 3638,
      "Ġeigentlich": 3639,
      "Ġbefinden": 3640,
      "irkungen": 3641,
      "ĠInvestition": 3642,
      "USTIZ": 3643,
      "rd": 3644,
      "ĠgeÃ¶ffnet": 3645,
      "stimmen": 3646,
      "ĠSteuer": 3647,
      "AUS": 3648,
      "Ġdanken": 3649,
      "Ġnutzen": 3650,
      "Ġ93": 3651,
      "ĠEWSA": 3652,
      "iete": 3653,
      "Ġscheint": 3654,
      "gessen": 3655,
      "Ã¤ufig": 3656,
      "ingt": 3657,
      "unst": 3658,
      "Ġentwick": 3659,
      "Ġ40": 3660,
      "assiliou": 3661,
      "was": 3662,
      "ĠApp": 3663,
      "rieg": 3664,
      "Bewertung": 3665,
      "ĠvollstÃ¤nd": 3666,
      "Ġleicht": 3667,
      "ĠKapit": 3668,
      "omit": 3669,
      "Ins": 3670,
      "ĠMaÃŁ": 3671,
      "Ã¤chlich": 3672,
      "WICKL": 3673,
      "LAGE": 3674,
      "osition": 3675,
      "uelle": 3676,
      "rinzip": 3677,
      "SO": 3678,
      "bahn": 3679,
      "ĠhÃ¶r": 3680,
      "Ġglob": 3681,
      "Ã¼nfte": 3682,
      "ringt": 3683,
      "oppel": 3684,
      "Land": 3685,
      "VOR": 3686,
      "ĠER": 3687,
      "ĠMont": 3688,
      "Ġhotel": 3689,
      "Ġinst": 3690,
      "roso": 3691,
      "Ġerforderlich": 3692,
      "EuropÃ¤ischer": 3693,
      "Ġdir": 3694,
      "unge": 3695,
      "ĠPass": 3696,
      "vers": 3697,
      "fÃ¤higkeit": 3698,
      "Ġwesent": 3699,
      "ĠMitt": 3700,
      "ARBEIT": 3701,
      "zeichnet": 3702,
      "ĠStandard": 3703,
      "kauf": 3704,
      "innt": 3705,
      "geord": 3706,
      "ĠTod": 3707,
      "ake": 3708,
      "ĠPR": 3709,
      "weisen": 3710,
      "Kurz": 3711,
      "ael": 3712,
      "ĠService": 3713,
      "ause": 3714,
      "Neue": 3715,
      "Ġdetails": 3716,
      "eien": 3717,
      "Ġstimme": 3718,
      "INNENMARKT": 3719,
      "ĠMich": 3720,
      "Ġ2013": 3721,
      "Ġmeinem": 3722,
      "ĠgehÃ¶ren": 3723,
      "elliard": 3724,
      "use": 3725,
      "ĠBelliard": 3726,
      "que": 3727,
      "Ġheraus": 3728,
      "rivat": 3729,
      "ĠEmpfeh": 3730,
      "Ġres": 3731,
      "Ġverwendet": 3732,
      "ĠCost": 3733,
      "ING": 3734,
      "Ġmehrere": 3735,
      "ĠINNER": 3736,
      "55": 3737,
      "EB": 3738,
      "Jeder": 3739,
      "ven": 3740,
      "ĠAnsatz": 3741,
      "Ġabsol": 3742,
      "Arbeit": 3743,
      "ĠStrand": 3744,
      "Le": 3745,
      "kra": 3746,
      "ĠLes": 3747,
      "ĠNÃ¤he": 3748,
      "Ġbisher": 3749,
      "ĠbetrÃ¤gt": 3750,
      "geschlossen": 3751,
      "ode": 3752,
      "inen": 3753,
      "ĠSeptember": 3754,
      "olz": 3755,
      "quis": 3756,
      "Ad": 3757,
      "Ã¼gen": 3758,
      "itel": 3759,
      "Ġfast": 3760,
      "ĠFunktion": 3761,
      "Ġsofort": 3762,
      "LANDWIRTSCHAFT": 3763,
      "FISCHEREI": 3764,
      "Ġkennen": 3765,
      "ĠGroÃŁ": 3766,
      "ehn": 3767,
      "gru": 3768,
      "ĠErfahr": 3769,
      "ĠRegierung": 3770,
      "ĠhÃ¤tte": 3771,
      "EV": 3772,
      "raq": 3773,
      "2000": 3774,
      "Zweitens": 3775,
      "ffizien": 3776,
      "ĠDiskuss": 3777,
      "ĠAsp": 3778,
      "sekt": 3779,
      "Ġjedem": 3780,
      "Ġletzte": 3781,
      "ĠAugen": 3782,
      "ICHERHEIT": 3783,
      "Ġhandelt": 3784,
      "beziehungen": 3785,
      "ISS": 3786,
      "ĠSpanien": 3787,
      "leistungen": 3788,
      "ĠInneres": 3789,
      "ĠINNERES": 3790,
      "Ġit": 3791,
      "ĠIP": 3792,
      "ĠAuswahl": 3793,
      "ĠVerteidigung": 3794,
      "cc": 3795,
      "feld": 3796,
      "sprÃ¤sident": 3797,
      "ĠAngaben": 3798,
      "jahr": 3799,
      "ĠVizeprÃ¤sident": 3800,
      "ĠLi": 3801,
      "ĠBeschl": 3802,
      "urrent": 3803,
      "Ġdeine": 3804,
      "ĠAben": 3805,
      "ĠVerwalt": 3806,
      "echs": 3807,
      "Ã¶st": 3808,
      "Wird": 3809,
      "Ġneues": 3810,
      "ressemitteilungen": 3811,
      "zeugnisse": 3812,
      "--": 3813,
      "84": 3814,
      "Auss": 3815,
      "ĠSon": 3816,
      "ola": 3817,
      "Ġlinks": 3818,
      "lose": 3819,
      "ĠEurope": 3820,
      "ĠbegrÃ¼ÃŁe": 3821,
      "Ġendg": 3822,
      "Akt": 3823,
      "JUSTIZ": 3824,
      "Sehr": 3825,
      "ĠBel": 3826,
      "igten": 3827,
      "Ġpl": 3828,
      "geschlagen": 3829,
      "Daten": 3830,
      "ros": 3831,
      "ĠWeise": 3832,
      "ief": 3833,
      "amb": 3834,
      "ĠErw": 3835,
      "Abkommen": 3836,
      "best": 3837,
      "mail": 3838,
      "wÃ¼r": 3839,
      "ENZ": 3840,
      "ĠCl": 3841,
      "ĠProzess": 3842,
      "ritten": 3843,
      "hafen": 3844,
      "act": 3845,
      "Ġbekommen": 3846,
      "halte": 3847,
      "Ġ2011": 3848,
      "Ġwichtiger": 3849,
      "ASS": 3850,
      "57": 3851,
      "LUSS": 3852,
      "Ġsu": 3853,
      "ĠEs": 3854,
      "ĠVerordnung": 3855,
      "ĠEntwicklungs": 3856,
      "ĠÃĦnderungen": 3857,
      "Ġaktiv": 3858,
      "Beit": 3859,
      "STA": 3860,
      "frist": 3861,
      "ule": 3862,
      "ande": 3863,
      "ERNEN": 3864,
      "Ġgeschieht": 3865,
      "ĠKonferenz": 3866,
      "haft": 3867,
      "Haus": 3868,
      "ling": 3869,
      "ĠRussland": 3870,
      "apan": 3871,
      "ĠGesetz": 3872,
      "LER": 3873,
      "daten": 3874,
      "itten": 3875,
      "Ġmal": 3876,
      "ilf": 3877,
      "sere": 3878,
      "Ġgenehm": 3879,
      "Ġgefunden": 3880,
      "ĠGewÃ¤sser": 3881,
      "ĠNovember": 3882,
      "ĠerhÃ¤ltlich": 3883,
      "Ġbel": 3884,
      "igte": 3885,
      "haltige": 3886,
      "Ġernst": 3887,
      "druck": 3888,
      "Ġvery": 3889,
      "ĠBeitritt": 3890,
      "ĠDonnerstag": 3891,
      "geordne": 3892,
      "LI": 3893,
      "Ġsuchen": 3894,
      "Ġschle": 3895,
      "Ġ1999": 3896,
      "Ġumfasst": 3897,
      "Ġpassiert": 3898,
      "KÃ¶n": 3899,
      "Ne": 3900,
      "ins": 3901,
      "ĠMIT": 3902,
      "reiche": 3903,
      "UND": 3904,
      "ĠWorte": 3905,
      "eister": 3906,
      "Ġvote": 3907,
      "Ġbeste": 3908,
      "Ġwillkommen": 3909,
      "Folgen": 3910,
      "ĠGo": 3911,
      "ausschuss": 3912,
      "1040": 3913,
      "Ġleider": 3914,
      "Ġerwarten": 3915,
      "ĠMusik": 3916,
      "EK": 3917,
      "bien": 3918,
      "ender": 3919,
      "Ġsel": 3920,
      "ĠbegrÃ¼ÃŁen": 3921,
      "haben": 3922,
      "lÃ¤nder": 3923,
      "orte": 3924,
      "verstÃ¤nd": 3925,
      "haltung": 3926,
      "Maria": 3927,
      "schriftlich": 3928,
      "ĠGD": 3929,
      "Ministerin": 3930,
      "UK": 3931,
      "ĠPrÃ¤": 3932,
      "ĠPort": 3933,
      "ĠEbene": 3934,
      "Ġkomp": 3935,
      "Techn": 3936,
      "ki": 3937,
      "lauf": 3938,
      "GewÃ¤sser": 3939,
      "ART": 3940,
      "zÃ¼glich": 3941,
      "Ohne": 3942,
      "uel": 3943,
      "anc": 3944,
      "ĠAuft": 3945,
      "ĠDokumenten": 3946,
      "ĠOrd": 3947,
      "ĠGegenteil": 3948,
      "39": 3949,
      "li": 3950,
      "ĠLog": 3951,
      "Europ": 3952,
      "MU": 3953,
      "IST": 3954,
      "idaritÃ¤t": 3955,
      "ordin": 3956,
      "Ġausgew": 3957,
      "Ġabge": 3958,
      "ĠFortschritte": 3959,
      "ogra": 3960,
      "Ã¶m": 3961,
      "ierungen": 3962,
      "ERS": 3963,
      "Ġmitt": 3964,
      "ĠSchul": 3965,
      "VizeprÃ¤sident": 3966,
      "ĠTest": 3967,
      "ĠBot": 3968,
      "reiten": 3969,
      "ĠOktober": 3970,
      "FÃ¶rderung": 3971,
      "einander": 3972,
      "ĠEigen": 3973,
      "Ġhinter": 3974,
      "ĠRede": 3975,
      "zif": 3976,
      "ĠKommunikation": 3977,
      "ĠVertragsverletzungsverfahren": 3978,
      "Magst": 3979,
      "RI": 3980,
      "Ġwww": 3981,
      "ĠZwei": 3982,
      "Ġgemeinsame": 3983,
      "ĠUS": 3984,
      "reisen": 3985,
      "ular": 3986,
      "adurch": 3987,
      "nd": 3988,
      "woch": 3989,
      "ĠUp": 3990,
      "ĠAntworten": 3991,
      "Vielleicht": 3992,
      "Eur": 3993,
      "bauen": 3994,
      "lang": 3995,
      "Ġinner": 3996,
      "ĠCO": 3997,
      "verb": 3998,
      "Ġentsp": 3999,
      "Ġlanguage": 4000,
      "HANDELSPOLITIK": 4001,
      "ash": 4002,
      "ĠgeÃ¤ndert": 4003,
      "ome": 4004,
      "Ġwarum": 4005,
      "ĠKonsult": 4006,
      "kraine": 4007,
      "ka": 4008,
      "ĠStunden": 4009,
      "Ġgesp": 4010,
      "hilfen": 4011,
      "Ġfalsch": 4012,
      "ĠbenÃ¶tigen": 4013,
      "ERNENN": 4014,
      "partner": 4015,
      "system": 4016,
      "igungs": 4017,
      "Ġerster": 4018,
      "genda": 4019,
      "Ġverschiedene": 4020,
      "beschreibung": 4021,
      "Ġwelche": 4022,
      "ĠSchiff": 4023,
      "ĠOrg": 4024,
      "ĠSÃ¼d": 4025,
      "ĠMitteilung": 4026,
      "ĠWerk": 4027,
      "schnitt": 4028,
      "LAN": 4029,
      "Ġdau": 4030,
      "ĠAG": 4031,
      "ĠNor": 4032,
      "Ã¤nge": 4033,
      "Ġkleine": 4034,
      "Sol": 4035,
      "ante": 4036,
      "Ġeinzel": 4037,
      "schein": 4038,
      "Ġwirtschaft": 4039,
      "ĠZug": 4040,
      "EUROPÃĦISCHER": 4041,
      "lassen": 4042,
      "Ġ34": 4043,
      "Ġgrund": 4044,
      "ĠnÃ¤chste": 4045,
      "FR": 4046,
      "alter": 4047,
      "utt": 4048,
      "ĠCar": 4049,
      "riffen": 4050,
      "ĠOper": 4051,
      "Ġ142": 4052,
      "HO": 4053,
      "mo": 4054,
      "uh": 4055,
      "see": 4056,
      "ĠCor": 4057,
      "Ġ31": 4058,
      "Ġ2014": 4059,
      "Ġdel": 4060,
      "Ġhandeln": 4061,
      "Ġgegeben": 4062,
      "ĠAnsicht": 4063,
      "ĠgroÃŁer": 4064,
      "ĠgefÃ¤hr": 4065,
      "ĠUrlaub": 4066,
      "ĠWindows": 4067,
      "85": 4068,
      "Dok": 4069,
      "Ġanges": 4070,
      "ekÃ¤mpfung": 4071,
      "Ġhinaus": 4072,
      "prÃ¼ft": 4073,
      "Ġdeutlich": 4074,
      "Ġeindeutig": 4075,
      "FOL": 4076,
      "ox": 4077,
      "ĠSommer": 4078,
      "ĠwÃ¤hlen": 4079,
      "ĠverÃ¶ffent": 4080,
      "Aller": 4081,
      "Jan": 4082,
      "met": 4083,
      "Ġind": 4084,
      "ĠWahr": 4085,
      "ERUNG": 4086,
      "les": 4087,
      "zt": 4088,
      "Ġor": 4089,
      "ĠBank": 4090,
      "ĠFebruar": 4091,
      "Ġvorh": 4092,
      "sweise": 4093,
      "ĠFrieden": 4094,
      "ektor": 4095,
      "Kommissarin": 4096,
      "kÃ¼nfte": 4097,
      "zer": 4098,
      "elden": 4099,
      "ĠSprache": 4100,
      "ĠGeorg": 4101,
      "ĠMeer": 4102,
      "ĠGeschÃ¤ftsordnung": 4103,
      "GEMEIN": 4104,
      "ĠSchritte": 4105,
      "ErklÃ¤rung": 4106,
      "Alles": 4107,
      "sÃ¤tze": 4108,
      "Ġwith": 4109,
      "ĠKOM": 4110,
      "RAM": 4111,
      "Ġverwenden": 4112,
      "ĠHoch": 4113,
      "utter": 4114,
      "ĠRef": 4115,
      "rimin": 4116,
      "Andere": 4117,
      "skommissarin": 4118,
      "77": 4119,
      "Ġx": 4120,
      "Ġsetzen": 4121,
      "ĠMitglieder": 4122,
      "ĠFINANZ": 4123,
      "Ġhatten": 4124,
      "ICHT": 4125,
      "Ġkomme": 4126,
      "ĠOnline": 4127,
      "ĠFuÃŁ": 4128,
      "Ġgrat": 4129,
      "Ġerfahren": 4130,
      "ehmigung": 4131,
      "BINNENMARKT": 4132,
      "Ġbringt": 4133,
      "ĠPu": 4134,
      "Ġguten": 4135,
      "Ġangeb": 4136,
      "Verb": 4137,
      "Ã¼hren": 4138,
      "ĠzusÃ¤tz": 4139,
      "ĠAspekte": 4140,
      "ĠTat": 4141,
      "Ġlernen": 4142,
      "sper": 4143,
      "ĠTeam": 4144,
      "Jed": 4145,
      "Oder": 4146,
      "Zahl": 4147,
      "iesen": 4148,
      "Ġdeshalb": 4149,
      "Ġlesen": 4150,
      "spruch": 4151,
      "Ġvorgeschlagen": 4152,
      "ĠBeispiele": 4153,
      "ĠSc": 4154,
      "einkommen": 4155,
      "ĠVolk": 4156,
      "ight": 4157,
      "ANLAGE": 4158,
      "ĠÃĦnderungsant": 4159,
      "ĠTerror": 4160,
      "Current": 4161,
      "vention": 4162,
      "ĠAugust": 4163,
      "ĠÃ¤uÃŁerst": 4164,
      "Allerdings": 4165,
      "lÃ¤ss": 4166,
      "Ġreicht": 4167,
      "ĠerfÃ¼l": 4168,
      "onz": 4169,
      "sek": 4170,
      "Ġ2012": 4171,
      "Ġinternationale": 4172,
      "umanit": 4173,
      "preis": 4174,
      "Ã¤glich": 4175,
      "eller": 4176,
      "Hinweis": 4177,
      "fasst": 4178,
      "wach": 4179,
      "ĠLeist": 4180,
      "Ġklein": 4181,
      "Ġjede": 4182,
      "frieden": 4183,
      "ĠRad": 4184,
      "iode": 4185,
      "ĠRegional": 4186,
      "Fl": 4187,
      "go": 4188,
      "wurf": 4189,
      "Ã¤che": 4190,
      "get": 4191,
      "ĠPf": 4192,
      "ĠMann": 4193,
      "ĠhÃ¶": 4194,
      "Ã¤ngt": 4195,
      "ĠErn": 4196,
      "laden": 4197,
      "Ġide": 4198,
      "ĠStaaten": 4199,
      "euch": 4200,
      "Ġverstehen": 4201,
      "Ġant": 4202,
      "Ġvergessen": 4203,
      "iffer": 4204,
      "ĠFamilie": 4205,
      "Ġ9396": 4206,
      "Ġgenehmigt": 4207,
      "Jahr": 4208,
      "usst": 4209,
      "ĠLebens": 4210,
      "cel": 4211,
      "Ġpaar": 4212,
      "ĠFraktion": 4213,
      "Ġgu": 4214,
      "ĠDownload": 4215,
      "ĠLehr": 4216,
      "rÃ¤um": 4217,
      "81": 4218,
      "MÃ¶": 4219,
      "ĠlÃ¶": 4220,
      "ĠVerhandlungen": 4221,
      "Ġdarum": 4222,
      "zeichnung": 4223,
      "ĠKomment": 4224,
      "ĠGrÃ¼nden": 4225,
      "Ã¼l": 4226,
      "Ġeinger": 4227,
      "ehl": 4228,
      "ĠSee": 4229,
      "Hotel": 4230,
      "ĠPra": 4231,
      "ĠHe": 4232,
      "ĠPrioritÃ¤ten": 4233,
      "Ġheut": 4234,
      "LÃĦ": 4235,
      "Ġar": 4236,
      "ĠSa": 4237,
      "ĠStruktur": 4238,
      "ĠReihe": 4239,
      "ĠBedingungen": 4240,
      "49": 4241,
      "ĠKomp": 4242,
      "terne": 4243,
      "Hintergrundinformationen": 4244,
      "usionsk": 4245,
      "Best": 4246,
      "ĠBESCH": 4247,
      "ĠKoh": 4248,
      "anzen": 4249,
      "inne": 4250,
      "ĠAL": 4251,
      "Ġbald": 4252,
      "ĠPost": 4253,
      "ĠVI": 4254,
      "ĠNot": 4255,
      "ĠverfÃ¼gt": 4256,
      "ĠAnmerk": 4257,
      "ĠGrenzen": 4258,
      "ĠPat": 4259,
      "Ġkor": 4260,
      "Ġzufrieden": 4261,
      "Ġgek": 4262,
      "ĠInhalt": 4263,
      "Ġtut": 4264,
      "ĠAbgeordne": 4265,
      "ĠBeziehungen": 4266,
      "Ġprof": 4267,
      "ĠWochen": 4268,
      "redit": 4269,
      "ĠRATES": 4270,
      "zentr": 4271,
      "Ġdisk": 4272,
      "Ġserv": 4273,
      "Ġbem": 4274,
      "ĠwÃ¼nschen": 4275,
      "meld": 4276,
      "ĠBas": 4277,
      "Ġerhe": 4278,
      "Ġstimmt": 4279,
      "ull": 4280,
      "oy": 4281,
      "orf": 4282,
      "ĠDEN": 4283,
      "ĠTer": 4284,
      "issab": 4285,
      "vertreten": 4286,
      "Ġ149": 4287,
      "Ġeigene": 4288,
      "ĠwÃ¼rden": 4289,
      "ĠMobiltel": 4290,
      "Ġvorhanden": 4291,
      "out": 4292,
      "Ġneuer": 4293,
      "ĠlÃ¤sst": 4294,
      "GR": 4295,
      "gte": 4296,
      "Ġare": 4297,
      "ĠSICHERHEIT": 4298,
      "ahlung": 4299,
      "ĠSchlÃ¼ssel": 4300,
      "ĠStellung": 4301,
      "ace": 4302,
      "ry": 4303,
      "ĠIm": 4304,
      "iellen": 4305,
      "imit": 4306,
      "ĠProgramms": 4307,
      "AMMEN": 4308,
      "ĠKollegen": 4309,
      "zur": 4310,
      "Ġdi": 4311,
      "atum": 4312,
      "geh": 4313,
      "Ġbill": 4314,
      "ĠhÃ¶ch": 4315,
      "ragt": 4316,
      "ĠWebseite": 4317,
      "Kar": 4318,
      "ĠProf": 4319,
      "marquis": 4320,
      "issabon": 4321,
      "Gru": 4322,
      "ĠFan": 4323,
      "ĠIntegr": 4324,
      "umping": 4325,
      "AV": 4326,
      "Darum": 4327,
      "Noch": 4328,
      "ĠPrÃ¼": 4329,
      "ĠGonz": 4330,
      "Ġverh": 4331,
      "fiz": 4332,
      "ieÃŁen": 4333,
      "Ġsagt": 4334,
      "tert": 4335,
      "Ġcon": 4336,
      "gesellschaft": 4337,
      "ĠVideo": 4338,
      "Fusionsk": 4339,
      "NAH": 4340,
      "Ste": 4341,
      "anach": 4342,
      "ita": 4343,
      "Ġanderes": 4344,
      "Genau": 4345,
      "uk": 4346,
      "grar": 4347,
      "anzÃ¶s": 4348,
      "Ġspez": 4349,
      "Ġumfassen": 4350,
      "ĠBemerkungen": 4351,
      "rotzdem": 4352,
      "FOLGER": 4353,
      "47": 4354,
      "CO": 4355,
      "STE": 4356,
      "WÃ¤hlen": 4357,
      "komm": 4358,
      "ĠSec": 4359,
      "ĠTor": 4360,
      "Ġauss": 4361,
      "ĠBerat": 4362,
      "produ": 4363,
      "erecht": 4364,
      "ĠProgramme": 4365,
      "IR": 4366,
      "ve": 4367,
      "ĠSal": 4368,
      "ĠSub": 4369,
      "ĠAgenda": 4370,
      "ĠZentrum": 4371,
      "ĠBerlin": 4372,
      "aly": 4373,
      "Ġgestellt": 4374,
      "ĠOb": 4375,
      "Ã¶ÃŁe": 4376,
      "ĠlÃ¤uft": 4377,
      "Gesamt": 4378,
      "rang": 4379,
      "Ġ00": 4380,
      "ĠFerien": 4381,
      "Ġkam": 4382,
      "ĠZeichen": 4383,
      "artmut": 4384,
      "Beide": 4385,
      "2005": 4386,
      "ĠGrÃ¼nde": 4387,
      "52": 4388,
      "61": 4389,
      "Keine": 4390,
      "jÃ¤hr": 4391,
      "oe": 4392,
      "altet": 4393,
      "ĠRess": 4394,
      "ĠÃ¶ffentliche": 4395,
      "FOLGERUNGEN": 4396,
      "ĠnÃ¤h": 4397,
      "Ġzug": 4398,
      "ĠWissenschaft": 4399,
      "ipfel": 4400,
      "such": 4401,
      "weil": 4402,
      "Dennoch": 4403,
      "ĠKompro": 4404,
      "han": 4405,
      "Ġeinigen": 4406,
      "rÃ¼ck": 4407,
      "pfer": 4408,
      "Ġangezeigt": 4409,
      "Aussprache": 4410,
      "ERNENNUNGEN": 4411,
      "ozi": 4412,
      "ĠEis": 4413,
      "ĠFern": 4414,
      "ĠZoll": 4415,
      "ĠInstrum": 4416,
      "zeugen": 4417,
      "sminister": 4418,
      "2010": 4419,
      "Ġopt": 4420,
      "Ġunterbricht": 4421,
      "LUSSFOLGERUNGEN": 4422,
      "Peter": 4423,
      "Ġwor": 4424,
      "ĠGed": 4425,
      "sichtlich": 4426,
      "GRAM": 4427,
      "uche": 4428,
      "stoff": 4429,
      "bert": 4430,
      "ĠWaren": 4431,
      "ÃŁt": 4432,
      "Ġverd": 4433,
      "tete": 4434,
      "ĠDruck": 4435,
      "Ġlaufen": 4436,
      "ĠgegenÃ¼ber": 4437,
      "ĠWettbewerbs": 4438,
      "ĠInstitut": 4439,
      "berg": 4440,
      "ĠStart": 4441,
      "Ġbeginnen": 4442,
      "ĠInitiative": 4443,
      "leitung": 4444,
      "ĠAir": 4445,
      "Ġbelie": 4446,
      "ĠJa": 4447,
      "gebung": 4448,
      "ĠChance": 4449,
      "ĠPerspekt": 4450,
      "Ġweltweit": 4451,
      "Zugang": 4452,
      "je": 4453,
      "ong": 4454,
      "ĠTransparenz": 4455,
      "erner": 4456,
      "Ġwarten": 4457,
      "ziehen": 4458,
      "ĠFilm": 4459,
      "sh": 4460,
      "auss": 4461,
      "ĠPaket": 4462,
      "Ġgro": 4463,
      "IND": 4464,
      "USAMMEN": 4465,
      "ovo": 4466,
      "gentur": 4467,
      "speriode": 4468,
      "finden": 4469,
      "gern": 4470,
      "kosten": 4471,
      "ĠKor": 4472,
      "istor": 4473,
      "Ġ500": 4474,
      "ĠZeitpunkt": 4475,
      "ĠAuto": 4476,
      "HANG": 4477,
      "ezif": 4478,
      "ĠfÃ¶rder": 4479,
      "ĠMig": 4480,
      "ĠKMU": 4481,
      "ĠRednerin": 4482,
      "48": 4483,
      "dung": 4484,
      "rik": 4485,
      "Ġeh": 4486,
      "Ġdrin": 4487,
      "ĠFel": 4488,
      "Ġaut": 4489,
      "Ġkur": 4490,
      "ÃľSS": 4491,
      "atsÃ¤chlich": 4492,
      "ENTWICKL": 4493,
      "NÃ¤here": 4494,
      "vis": 4495,
      "Ġehr": 4496,
      "Ġwollte": 4497,
      "ites": 4498,
      "ĠTagen": 4499,
      "ĠÃ¼berhaupt": 4500,
      "ĠMonate": 4501,
      "ĠStimme": 4502,
      "Ġnennen": 4503,
      "ĠKennt": 4504,
      "ienen": 4505,
      "ĠOpt": 4506,
      "9586": 4507,
      "ĠFlughafen": 4508,
      "Ben": 4509,
      "vÃ¶lker": 4510,
      "andlung": 4511,
      "ulla": 4512,
      "Ġgesprochen": 4513,
      "ĠChar": 4514,
      "Wettbewerbskommissarin": 4515,
      "FAH": 4516,
      "xis": 4517,
      "elen": 4518,
      "ĠPfl": 4519,
      "ĠVis": 4520,
      "Ã¤hn": 4521,
      "Ġherunter": 4522,
      "strÃ¶m": 4523,
      "ĠTeilnehmer": 4524,
      "ĠBarroso": 4525,
      "ĠSolidaritÃ¤t": 4526,
      "ai": 4527,
      "ld": 4528,
      "stein": 4529,
      "ĠRu": 4530,
      "apier": 4531,
      "ĠAuswirkungen": 4532,
      "ĠKunst": 4533,
      "ĠCon": 4534,
      "ĠParis": 4535,
      "lexib": 4536,
      "Geb": 4537,
      "stra": 4538,
      "ĠPrÃ¤sidenten": 4539,
      "Ġbeginnt": 4540,
      "Ġruh": 4541,
      "ĠFax": 4542,
      "rogen": 4543,
      "ova": 4544,
      "ĠÃľBER": 4545,
      "Energie": 4546,
      "Gleich": 4547,
      "emente": 4548,
      "ĠAnwendung": 4549,
      "astrop": 4550,
      "Haushalt": 4551,
      "Ex": 4552,
      "ĠEd": 4553,
      "ĠWohn": 4554,
      "Ãĸffent": 4555,
      "Ã¶rde": 4556,
      "Ã¼tzt": 4557,
      "Allgemeine": 4558,
      "Ser": 4559,
      "ĠAv": 4560,
      "ĠKarte": 4561,
      "ĠFe": 4562,
      "ĠIgl": 4563,
      "ĠStabilitÃ¤t": 4564,
      "Ġseinem": 4565,
      "ekten": 4566,
      "ostet": 4567,
      "arbeiter": 4568,
      "arbeitung": 4569,
      "ĠSitzungsperiode": 4570,
      "ĠKategor": 4571,
      "ĠDesign": 4572,
      "pflichtungen": 4573,
      "sektor": 4574,
      "UP": 4575,
      "seit": 4576,
      "abhÃ¤ng": 4577,
      "grenz": 4578,
      "zeuge": 4579,
      "Ausschuss": 4580,
      "Ġbringen": 4581,
      "Ġinform": 4582,
      "sprech": 4583,
      "Ġschaffen": 4584,
      "Ġyou": 4585,
      "LICHE": 4586,
      "ĠVorteile": 4587,
      "eten": 4588,
      "int": 4589,
      "puter": 4590,
      "stattet": 4591,
      "ĠMedien": 4592,
      "ieg": 4593,
      "Ġgeeig": 4594,
      "ript": 4595,
      "Ã¤hl": 4596,
      "ĠGrenz": 4597,
      "Ġ80": 4598,
      "ĠMÃ¶glichkeit": 4599,
      "ĠVorsitzes": 4600,
      "ĠMot": 4601,
      "ANHANG": 4602,
      "Ġbeide": 4603,
      "ammlung": 4604,
      "Ġregion": 4605,
      "Fusionskontroll": 4606,
      "vol": 4607,
      "wandel": 4608,
      "ierter": 4609,
      "ĠSchwer": 4610,
      "ĠAussch": 4611,
      "alez": 4612,
      "szl": 4613,
      "Ġabsolut": 4614,
      "89": 4615,
      "alb": 4616,
      "gegen": 4617,
      "ĠHerz": 4618,
      "ĠHandels": 4619,
      "ĠIdee": 4620,
      "ĠDiskussion": 4621,
      "54": 4622,
      "con": 4623,
      "oo": 4624,
      "ĠGonzalez": 4625,
      "stung": 4626,
      "ĠMÃ¤n": 4627,
      "ĠKampf": 4628,
      "Ġvertreten": 4629,
      "ontakte": 4630,
      "ĠkÃ¶nnten": 4631,
      "Ġkeiner": 4632,
      "Ġaktuelle": 4633,
      "ĠhÃ¶ren": 4634,
      "QU": 4635,
      "union": 4636,
      "ĠKre": 4637,
      "roulla": 4638,
      "ĠLissabon": 4639,
      "ĠStelle": 4640,
      "ĠÃĦnderung": 4641,
      "ĠGener": 4642,
      "Schluss": 4643,
      "gum": 4644,
      "ĠPolen": 4645,
      "ĠUkraine": 4646,
      "richtung": 4647,
      "ĠServer": 4648,
      "ĠIgles": 4649,
      "ĠRealitÃ¤t": 4650,
      "Ã¤rkte": 4651,
      "Internation": 4652,
      "ATEN": 4653,
      "ĠRegeln": 4654,
      "ĠFotos": 4655,
      "ĠIglesias": 4656,
      "Fr": 4657,
      "ios": 4658,
      "Ã¤sion": 4659,
      "ĠViel": 4660,
      "ĠVassiliou": 4661,
      "ĠWein": 4662,
      "ilien": 4663,
      "duz": 4664,
      "Marisa": 4665,
      "ĠwÃ¤hrend": 4666,
      "ĠHÃ¶": 4667,
      ");": 4668,
      "arn": 4669,
      "Ġvern": 4670,
      "Ġkonnte": 4671,
      "Ġmin": 4672,
      "Ġged": 4673,
      "Ġweiteren": 4674,
      "ĠTagesordnung": 4675,
      "ĠGebiet": 4676,
      "ĠgrÃ¶ÃŁte": 4677,
      "Willst": 4678,
      "ĠEinwÃ¤nde": 4679,
      "Ġlautet": 4680,
      "56": 4681,
      "Mon": 4682,
      "ipp": 4683,
      "ĠÃ¤hn": 4684,
      "Ġsei": 4685,
      "Ġzeigen": 4686,
      "Unternehmen": 4687,
      "Verwalt": 4688,
      "Ġperf": 4689,
      "ĠÃĦnderungsantrÃ¤ge": 4690,
      "yr": 4691,
      "ĠID": 4692,
      "decken": 4693,
      "ffekt": 4694,
      "ĠprÃ¤": 4695,
      "Technische": 4696,
      "ĠverÃ¶ffentlicht": 4697,
      "Weiter": 4698,
      "uff": 4699,
      "inger": 4700,
      "Wieder": 4701,
      "retar": 4702,
      "eralsek": 4703,
      "FE": 4704,
      "MIT": 4705,
      "lÃ¼ck": 4706,
      "Ġdo": 4707,
      "Ġmax": 4708,
      "ĠGeh": 4709,
      "vert": 4710,
      "Ġ60": 4711,
      "Umweltkommissar": 4712,
      "ĠMadrid": 4713,
      "kan": 4714,
      "wenden": 4715,
      "Ġ[": 4716,
      "ĠEt": 4717,
      "ĠKan": 4718,
      "ĠKrieg": 4719,
      "Ġ1998": 4720,
      "51925": 4721,
      "Darauf": 4722,
      "Ġpolitischen": 4723,
      "ĠÃ¶ffentlichen": 4724,
      "Ġerwartet": 4725,
      "mÃ¤ÃŁig": 4726,
      "zent": 4727,
      "ama": 4728,
      "Ã¤ne": 4729,
      "Ġkannst": 4730,
      "Ġsowie": 4731,
      "ĠLÃ¶sungen": 4732,
      "ISSION": 4733,
      "echt": 4734,
      "ĠMc": 4735,
      "roh": 4736,
      "fÃ¼hren": 4737,
      "ĠAdresse": 4738,
      "Ġse": 4739,
      "ĠMoment": 4740,
      "Ġerlau": 4741,
      "Ġanzu": 4742,
      "ution": 4743,
      "ĠCH": 4744,
      "stellungen": 4745,
      "ĠMA": 4746,
      "ĠName": 4747,
      "ĠJe": 4748,
      "Ã¤tzen": 4749,
      "lav": 4750,
      "ZIAL": 4751,
      "ZunÃ¤chst": 4752,
      "ration": 4753,
      "aul": 4754,
      "ausch": 4755,
      "akten": 4756,
      "ĠKriterien": 4757,
      "Car": 4758,
      "GA": 4759,
      "ĠFisch": 4760,
      "ĠDeleg": 4761,
      "folge": 4762,
      "ĠArbeitspl": 4763,
      "Landwirtschaft": 4764,
      "cor": 4765,
      "Ġzentr": 4766,
      "ĠlÃ¤nger": 4767,
      "ĠSprachen": 4768,
      "Verfahren": 4769,
      "Ã¤ude": 4770,
      "mbH": 4771,
      "Ġeinzige": 4772,
      "GL": 4773,
      "mehr": 4774,
      "wohl": 4775,
      "eiz": 4776,
      "ĠFÃ¼hr": 4777,
      "ĠGott": 4778,
      "lekt": 4779,
      "ĠLu": 4780,
      "ROGRAM": 4781,
      "olitische": 4782,
      "Ġrel": 4783,
      "POLITIK": 4784,
      "ĠKos": 4785,
      "ĠEinzelheiten": 4786,
      "Ġad": 4787,
      "ĠPrivat": 4788,
      "ric": 4789,
      "ĠUnivers": 4790,
      "ĠFamilien": 4791,
      "LIN": 4792,
      "ero": 4793,
      "ĠBlog": 4794,
      "ERGIE": 4795,
      "sph": 4796,
      "rikt": 4797,
      "Ġ35": 4798,
      "ĠAuswÃ¤rt": 4799,
      "ĠAuskÃ¼nfte": 4800,
      "Stell": 4801,
      "Ġverschiedenen": 4802,
      "EuropÃ¤isches": 4803,
      "Ã¼rger": 4804,
      "ehlt": 4805,
      "....": 4806,
      "Ġpriv": 4807,
      "fÃ¼gen": 4808,
      "idumping": 4809,
      "gemeinen": 4810,
      "rahmen": 4811,
      "ated": 4812,
      "bereitung": 4813,
      "ĠWunsch": 4814,
      "ĠZust": 4815,
      "ĠVeranst": 4816,
      "ĠRechn": 4817,
      "ĠstÃ¤r": 4818,
      "Ġgeworden": 4819,
      "netz": 4820,
      "richten": 4821,
      "Ġunten": 4822,
      "annte": 4823,
      "ĠCD": 4824,
      "Ã¼tzliche": 4825,
      "Ġjedes": 4826,
      "ĠBeifall": 4827,
      "EITUNG": 4828,
      "schlieÃŁend": 4829,
      "ĠPartnerschaft": 4830,
      "92": 4831,
      "Frei": 4832,
      "nungen": 4833,
      "onen": 4834,
      "RAGEN": 4835,
      "ĠBemerkung": 4836,
      "Zeit": 4837,
      "svor": 4838,
      "Ġel": 4839,
      "ĠAgrar": 4840,
      "ahlt": 4841,
      "ĠEng": 4842,
      "ĠWahrheit": 4843,
      "Ġdiskut": 4844,
      "ĠKenntnis": 4845,
      "Nein": 4846,
      "sie": 4847,
      "ĠBad": 4848,
      "ĠGast": 4849,
      "ĠStandpunkt": 4850,
      "wasser": 4851,
      "41": 4852,
      "bel": 4853,
      "lad": 4854,
      "vo": 4855,
      "Ġdich": 4856,
      "ĠFÃ¶rderung": 4857,
      "ĠZweck": 4858,
      "Ġbevor": 4859,
      "ĠAnfragen": 4860,
      "ivil": 4861,
      "Nr": 4862,
      "ĠAM": 4863,
      "ĠMiss": 4864,
      "Ġkaufen": 4865,
      "ĠSCHLUSSFOLGERUNGEN": 4866,
      "behalten": 4867,
      "lass": 4868,
      "ane": 4869,
      "ĠFol": 4870,
      "beg": 4871,
      "Ġganzen": 4872,
      "ĠMÃ¶glichkeiten": 4873,
      "82": 4874,
      "CU": 4875,
      "ĠGmbH": 4876,
      "Ġverein": 4877,
      "ĠForum": 4878,
      "Deswegen": 4879,
      "ĠAmer": 4880,
      "fÃ¤lle": 4881,
      "ĠErach": 4882,
      "ĠTelefon": 4883,
      "ĠerhÃ¶": 4884,
      "ĠChrist": 4885,
      "ĠVorschriften": 4886,
      "klÃ¤rungen": 4887,
      "ĠFlÃ¼": 4888,
      "Ã¶chten": 4889,
      "ĠPraxis": 4890,
      "ĠErachtens": 4891,
      "statt": 4892,
      "techn": 4893,
      "ĠkÃ¼nft": 4894,
      "Ġalt": 4895,
      "ĠAnnahme": 4896,
      "Ġvorgesehen": 4897,
      "ennung": 4898,
      "ĠbestÃ¤t": 4899,
      "Ġkostet": 4900,
      "ĠHartmut": 4901,
      "ĠtÃ¤glich": 4902,
      "ĠBerichts": 4903,
      "ISCHE": 4904,
      "ondern": 4905,
      "ĠWirkung": 4906,
      "TRAN": 4907,
      "fÃ¤hr": 4908,
      "Ã¤te": 4909,
      "abil": 4910,
      "umanitÃ¤re": 4911,
      "ĠSek": 4912,
      "eta": 4913,
      "Ġherr": 4914,
      "Ġaufbauen": 4915,
      "ĠNicht": 4916,
      "ĠArten": 4917,
      "MÃ¶chte": 4918,
      "zlichen": 4919,
      "ĠSinn": 4920,
      "ĠEIN": 4921,
      "ille": 4922,
      "enthalt": 4923,
      "ĠZus": 4924,
      "Ã¤rkung": 4925,
      "Ġinstall": 4926,
      "MISSION": 4927,
      "geber": 4928,
      "rael": 4929,
      "rete": 4930,
      "Ġprakt": 4931,
      "Ġjem": 4932,
      "fÃ¼h": 4933,
      "ĠEinsatz": 4934,
      "Ġgutes": 4935,
      "ĠAmt": 4936,
      "Ġrechts": 4937,
      "Ġirgend": 4938,
      "Ġinnerhalb": 4939,
      "ĠFINANZEN": 4940,
      "GE": 4941,
      "Ġging": 4942,
      "ĠDom": 4943,
      "Ġzweiten": 4944,
      "Ã¶ffnung": 4945,
      "ransport": 4946,
      "FORM": 4947,
      "ĠFirma": 4948,
      "IO": 4949,
      "standen": 4950,
      "artige": 4951,
      "Vers": 4952,
      "zeitig": 4953,
      "Ġerfolgreich": 4954,
      "angeb": 4955,
      "ĠBug": 4956,
      "Ġzahl": 4957,
      "ĠKn": 4958,
      "ĠWieder": 4959,
      "ĠTrans": 4960,
      "ĠZU": 4961,
      "ĠErd": 4962,
      "Ind": 4963,
      "okes": 4964,
      "Quelle": 4965,
      "wortet": 4966,
      "ĠHaushalts": 4967,
      "ĠWerte": 4968,
      "KÃ¶nnen": 4969,
      "ĠMrd": 4970,
      "reff": 4971,
      "ĠGefahr": 4972,
      "ĠerklÃ¤rt": 4973,
      "Ġbenutzen": 4974,
      "Abstimmung": 4975,
      "Dennis": 4976,
      "Ġgesamte": 4977,
      "USAMMENARBEIT": 4978,
      "MÃ¶chten": 4979,
      "letter": 4980,
      "Ġeuch": 4981,
      "Ã¤mp": 4982,
      "ĠAust": 4983,
      "Ġwert": 4984,
      "ĠFreiheit": 4985,
      "ĠFolgendes": 4986,
      "ĠKonsultation": 4987,
      "Ġangesprochen": 4988,
      "42": 4989,
      "eiger": 4990,
      "onds": 4991,
      "ĠSO": 4992,
      "ĠGriechenland": 4993,
      "ometer": 4994,
      "Ġleg": 4995,
      "ĠNew": 4996,
      "vertretender": 4997,
      "LÃľSS": 4998,
      "gliche": 4999,
      "mÃ¶": 5000,
      "ĠAB": 5001,
      "ĠVerÃ¤nder": 5002,
      "Derzeit": 5003,
      "Ġreag": 5004,
      "ĠFragestunde": 5005,
      "Euro": 5006,
      "Ġdringend": 5007,
      "sprechpartner": 5008,
      "urity": 5009,
      "schungs": 5010,
      "ĠArch": 5011,
      "neut": 5012,
      "Ġgesehen": 5013,
      "ĠMitarbeiter": 5014,
      "bedingt": 5015,
      "nach": 5016,
      "ĠMo": 5017,
      "ĠWTO": 5018,
      "ĠInsel": 5019,
      "ĠprÃ¼": 5020,
      "Ġihrem": 5021,
      "Ġ09": 5022,
      "ĠIntegration": 5023,
      "ĠRessourcen": 5024,
      "Ziel": 5025,
      "bott": 5026,
      "unehmen": 5027,
      "alist": 5028,
      "itor": 5029,
      "gefÃ¼hrt": 5030,
      "ĠKind": 5031,
      "ĠberÃ¼ck": 5032,
      "folgerung": 5033,
      "Werden": 5034,
      "2013": 5035,
      "ĠLesung": 5036,
      "bal": 5037,
      "det": 5038,
      "Ġus": 5039,
      "Ġsehe": 5040,
      "ĠGolf": 5041,
      "rug": 5042,
      "Ġkleinen": 5043,
      "ĠgewÃ¤hr": 5044,
      "SF": 5045,
      "ĠVOR": 5046,
      "eiligung": 5047,
      "baren": 5048,
      "itzen": 5049,
      "ĠAlb": 5050,
      "Ġaktuellen": 5051,
      "ĠAktiv": 5052,
      "Fusionskontrollvorschriften": 5053,
      "Ur": 5054,
      "dlich": 5055,
      "ĠSP": 5056,
      "ategor": 5057,
      "ĠLeit": 5058,
      "ĠCent": 5059,
      "SPAR": 5060,
      "Ġfreue": 5061,
      "ĠInfrastruktur": 5062,
      "ĠHerausforderung": 5063,
      "lÃ¤ndern": 5064,
      "ĠSelbst": 5065,
      "Ã¤gt": 5066,
      "Ġwider": 5067,
      "ish": 5068,
      "ĠNachbar": 5069,
      "ĠGewalt": 5070,
      "Ġschwierig": 5071,
      "ĠOrdnung": 5072,
      "OD": 5073,
      "ormal": 5074,
      "ĠTur": 5075,
      "klus": 5076,
      "Ġvielleicht": 5077,
      "Ġbedeuten": 5078,
      "rÃ¤nk": 5079,
      "ĠAuff": 5080,
      "ĠGruppen": 5081,
      "RUNG": 5082,
      "ĠSE": 5083,
      "gegeben": 5084,
      "ĠKontrolle": 5085,
      "ĠCamp": 5086,
      "Ġdefin": 5087,
      "wachung": 5088,
      "ĠRechnungs": 5089,
      "OW": 5090,
      "jekte": 5091,
      "mit": 5092,
      "stoffe": 5093,
      "ĠAUF": 5094,
      "ĠWinter": 5095,
      "ĠLink": 5096,
      "immungen": 5097,
      "ĠOber": 5098,
      "Ã¶rper": 5099,
      "STR": 5100,
      "Ã¼tzen": 5101,
      "ĠVertrauen": 5102,
      "dessen": 5103,
      "irektor": 5104,
      "Ġext": 5105,
      "ULT": 5106,
      "kraft": 5107,
      "mt": 5108,
      "ĠSw": 5109,
      "Ġmag": 5110,
      "ĠWI": 5111,
      "SAME": 5112,
      "Ġziehen": 5113,
      "ĠerwÃ¤hnt": 5114,
      "MS": 5115,
      "ĠSlow": 5116,
      "ĠKrank": 5117,
      "Ã¤tig": 5118,
      "ĠmÃ¼nd": 5119,
      "Ġ%.": 5120,
      "ĠExp": 5121,
      "Frage": 5122,
      "Zimmer": 5123,
      "ippe": 5124,
      "wser": 5125,
      "Ġsondern": 5126,
      "derung": 5127,
      "Ġverfolgt": 5128,
      "ĠKonzept": 5129,
      "Ġgewesen": 5130,
      "ĠProduktion": 5131,
      "ĠHinsicht": 5132,
      "ĠMittwoch": 5133,
      "Ġest": 5134,
      "Ġsetzt": 5135,
      "ĠFen": 5136,
      "ĠLeute": 5137,
      "sprÃ¼": 5138,
      "grÃ¼ndet": 5139,
      "leisch": 5140,
      "ĠSchluÃŁ": 5141,
      "ĠDateien": 5142,
      "Ġakzeptieren": 5143,
      "ĠPerspektiven": 5144,
      "ĠAss": 5145,
      "Ġmus": 5146,
      "ĠfÃ¼h": 5147,
      "0000": 5148,
      "Ġerweiter": 5149,
      "ĠNutzung": 5150,
      "ĠRest": 5151,
      "Ã¤llt": 5152,
      "ĠApartment": 5153,
      "verkehrs": 5154,
      "diglich": 5155,
      "ĠOperation": 5156,
      "da": 5157,
      "das": 5158,
      "iew": 5159,
      "ala": 5160,
      "ĠPC": 5161,
      "ĠKarten": 5162,
      "ĠDoppel": 5163,
      "Ġspricht": 5164,
      "Ġlediglich": 5165,
      "ĠÃ¼brigen": 5166,
      "43": 5167,
      "73": 5168,
      "OG": 5169,
      "itÃ¤r": 5170,
      "ĠGleich": 5171,
      "ĠerÃ¶ffnet": 5172,
      "Ġtragen": 5173,
      "Informationen": 5174,
      "ITÃĦ": 5175,
      "ĠSpaÃŁ": 5176,
      "ĠBetrieb": 5177,
      "Ġregistr": 5178,
      ".-": 5179,
      "dete": 5180,
      "Ã¤tigkeit": 5181,
      "ĠArgum": 5182,
      "oher": 5183,
      "ĠBewertung": 5184,
      "Ġ1997": 5185,
      "Ġgleiche": 5186,
      "Ġguter": 5187,
      "gehend": 5188,
      "EA": 5189,
      "by": 5190,
      "ness": 5191,
      "ĠAgentur": 5192,
      "ĠPosition": 5193,
      "Ġkaum": 5194,
      "ĠGet": 5195,
      "ĠBerichte": 5196,
      "Ã¼nsche": 5197,
      "EIB": 5198,
      "Ġverkauf": 5199,
      "Insgesamt": 5200,
      "91": 5201,
      "ativen": 5202,
      "ĠAfrika": 5203,
      "Ġverteilt": 5204,
      "ĠeuropÃ¤": 5205,
      "Ġmeines": 5206,
      "Ã¶tig": 5207,
      "Ġpositiv": 5208,
      "ĠSchweiz": 5209,
      "EF": 5210,
      "nissen": 5211,
      "rist": 5212,
      "vel": 5213,
      "ausen": 5214,
      "Ġunbedingt": 5215,
      "ĠPan": 5216,
      "ĠGlob": 5217,
      "andt": 5218,
      "ERN": 5219,
      "Ġdenken": 5220,
      "Ġabgeschlossen": 5221,
      "Ġspielt": 5222,
      "Hierzu": 5223,
      "Ã¼ltig": 5224,
      "Sh": 5225,
      "VII": 5226,
      "iden": 5227,
      "iten": 5228,
      "achse": 5229,
      "schafter": 5230,
      "ĠOpfer": 5231,
      "Vertrag": 5232,
      "Ġbetroffen": 5233,
      "ĠÃĸsterreich": 5234,
      "Ġgeboren": 5235,
      "GES": 5236,
      "oss": 5237,
      "wa": 5238,
      "Ġvan": 5239,
      "ĠMy": 5240,
      "ĠWill": 5241,
      "ĠZentral": 5242,
      "ĠJapan": 5243,
      "Ġoben": 5244,
      "imas": 5245,
      "Ġbetreffen": 5246,
      "zeugt": 5247,
      "ĠLiefer": 5248,
      "ĠUpd": 5249,
      "Men": 5250,
      "Mir": 5251,
      "zus": 5252,
      "ĠSicht": 5253,
      "ates": 5254,
      "ĠIrland": 5255,
      "ĠOsten": 5256,
      "ÃĦnder": 5257,
      "Schutz": 5258,
      "2002": 5259,
      "ĠLebensmittel": 5260,
      "verstÃ¤ndlich": 5261,
      "vÃ¶lkerung": 5262,
      "LÃľSSE": 5263,
      "Kein": 5264,
      "eisen": 5265,
      "anten": 5266,
      "irt": 5267,
      "Ġloc": 5268,
      "barung": 5269,
      "2009": 5270,
      "Ã¤hrungs": 5271,
      "ĠPersonal": 5272,
      "ĠBestell": 5273,
      "prÃ¼fung": 5274,
      "66": 5275,
      "ament": 5276,
      "00352": 5277,
      "ĠInternation": 5278,
      "utsche": 5279,
      "euerung": 5280,
      "ĠMobilitÃ¤t": 5281,
      "SchluÃŁ": 5282,
      "UCHT": 5283,
      "Ġeinzelnen": 5284,
      "VD": 5285,
      "ĠEing": 5286,
      "ĠOption": 5287,
      "avig": 5288,
      "ĠSuche": 5289,
      "bringen": 5290,
      "Ġorganis": 5291,
      "Ġfrom": 5292,
      "Ġfahren": 5293,
      "igur": 5294,
      "ĠLo": 5295,
      "ĠVerl": 5296,
      "Ġtrifft": 5297,
      "ĠRatsprÃ¤sident": 5298,
      "SchlieÃŁ": 5299,
      "ĠAlle": 5300,
      "dam": 5301,
      "ius": 5302,
      "ĠBon": 5303,
      "ĠIrak": 5304,
      "how": 5305,
      "Ġempfehlen": 5306,
      "MW": 5307,
      "NÃ¼tzliche": 5308,
      "Preis": 5309,
      "ua": 5310,
      "chmal": 5311,
      "Ġweil": 5312,
      "isl": 5313,
      "ĠBahn": 5314,
      "ĠhÃ¤ufig": 5315,
      "spokes": 5316,
      "100": 5317,
      "lÃ¤u": 5318,
      "Ġsauber": 5319,
      "ĠfrÃ¼": 5320,
      "ĠGR": 5321,
      "ĠBeruf": 5322,
      "meer": 5323,
      "ĠGesellschaft": 5324,
      "ĠKommun": 5325,
      "Ġunge": 5326,
      "ĠRegelung": 5327,
      "Ġwunder": 5328,
      "ĠClub": 5329,
      "ÃĦFT": 5330,
      "Start": 5331,
      "ertig": 5332,
      "artement": 5333,
      "ECspokes": 5334,
      "ĠRECH": 5335,
      "ĠschlÃ¤gt": 5336,
      "ĠComputer": 5337,
      "Bar": 5338,
      "ezial": 5339,
      "zwischen": 5340,
      "Ġsechs": 5341,
      "asur": 5342,
      "ONT": 5343,
      "ĠZusammenhang": 5344,
      "radition": 5345,
      "ĠPie": 5346,
      "ĠMag": 5347,
      "ĠMart": 5348,
      "udem": 5349,
      "ction": 5350,
      "ĠHerzen": 5351,
      "ĠMaÃŁnahme": 5352,
      "ĠTerrorismus": 5353,
      "ift": 5354,
      "iegen": 5355,
      "ĠImm": 5356,
      "ĠBereichen": 5357,
      "Ġ45": 5358,
      "Ġherzlich": 5359,
      "ĠPrioritÃ¤t": 5360,
      "ĠwÃ¼nsche": 5361,
      "ĠOrganis": 5362,
      "Lesen": 5363,
      "mann": 5364,
      "vid": 5365,
      "Ġ).": 5366,
      "itieren": 5367,
      "Ġbein": 5368,
      "tere": 5369,
      "ĠDritt": 5370,
      "Ġerneut": 5371,
      "mension": 5372,
      "Verkehr": 5373,
      "Ġjeweil": 5374,
      "Antidumping": 5375,
      "aterial": 5376,
      "legung": 5377,
      "Ko": 5378,
      "sto": 5379,
      "Einzel": 5380,
      "hilippe": 5381,
      "ĠbenÃ¶tigt": 5382,
      "Ġautomat": 5383,
      "SPARENZ": 5384,
      "iar": 5385,
      "Ġzustimmen": 5386,
      "Ġangem": 5387,
      "cks": 5388,
      "ĠNation": 5389,
      "ĠOl": 5390,
      "ĠAngelegenheit": 5391,
      "ĠMonat": 5392,
      "tragen": 5393,
      "eng": 5394,
      "dert": 5395,
      "ĠGas": 5396,
      "ĠlÃ¤nd": 5397,
      "ĠBereiche": 5398,
      "ĠVorgehen": 5399,
      "alta": 5400,
      "ĠMenge": 5401,
      "Ġfreund": 5402,
      "Michael": 5403,
      "Ġkurze": 5404,
      "FAHREN": 5405,
      "ROGRAMM": 5406,
      "Aktion": 5407,
      "Zudem": 5408,
      "eib": 5409,
      "Diesen": 5410,
      "ĠLauf": 5411,
      "ienste": 5412,
      "iell": 5413,
      "alls": 5414,
      "Ġ90": 5415,
      "Ġ2020": 5416,
      "ĠMenschenrechte": 5417,
      "ĠSicherheits": 5418,
      "anderung": 5419,
      "Zusammenarbeit": 5420,
      "ĠErfahrung": 5421,
      "Jedes": 5422,
      "Ġserviert": 5423,
      "ĠKosovo": 5424,
      "Lszl": 5425,
      "Ph": 5426,
      "lant": 5427,
      "Ġdritte": 5428,
      "Ġil": 5429,
      "ĠMacht": 5430,
      "omep": 5431,
      "schlÃ¤ge": 5432,
      "ETZ": 5433,
      "Ġendlich": 5434,
      "UTZ": 5435,
      "Ger": 5436,
      "fg": 5437,
      "kten": 5438,
      "ĠLuxemburg": 5439,
      "ĠInformations": 5440,
      "Ġrichtigen": 5441,
      "ĠĠĠ": 5442,
      "ĠAltern": 5443,
      "ava": 5444,
      "Jede": 5445,
      "ĠKopf": 5446,
      "83": 5447,
      "WEIT": 5448,
      "ii": 5449,
      "karte": 5450,
      "liste": 5451,
      "umm": 5452,
      "ĠAspekt": 5453,
      "ĠPH": 5454,
      "ĠHause": 5455,
      "ĠTier": 5456,
      "eilung": 5457,
      "Information": 5458,
      "Ġvorliegen": 5459,
      "ĠArb": 5460,
      "Ġ43": 5461,
      "nete": 5462,
      "ELLE": 5463,
      "Ġleisten": 5464,
      "IGUNGSPOLITIK": 5465,
      "Ġerlaubt": 5466,
      "ĠprÃ¼fen": 5467,
      "Komm": 5468,
      "ym": 5469,
      "ĠSant": 5470,
      "Ã¤cht": 5471,
      "alia": 5472,
      "ĠKÃ¼r": 5473,
      "ĠTem": 5474,
      "ĠgefÃ¼hrt": 5475,
      "ĠtrÃ¤gt": 5476,
      "Ġunseres": 5477,
      "ĠVorhaben": 5478,
      "ave": 5479,
      "Entwicklung": 5480,
      "ĠNewsletter": 5481,
      "Beitrag": 5482,
      "Nehmen": 5483,
      "Ġarbeitet": 5484,
      "ese": 5485,
      "ĠAlt": 5486,
      "ehnt": 5487,
      "ĠArmut": 5488,
      "Verfasst": 5489,
      "orgung": 5490,
      "gewiesen": 5491,
      "alisiert": 5492,
      "ocus": 5493,
      "Pressekontakte": 5494,
      "Ġwelchen": 5495,
      "ĠModell": 5496,
      "dienste": 5497,
      "gruppe": 5498,
      "Ġentspricht": 5499,
      "Nie": 5500,
      "ancen": 5501,
      "ĠWider": 5502,
      "Ġ1000": 5503,
      "rÃ¼cken": 5504,
      "ivid": 5505,
      "ickt": 5506,
      "ERTEID": 5507,
      "ziehung": 5508,
      "Gegen": 5509,
      "La": 5510,
      "Ro": 5511,
      "Sonst": 5512,
      "falt": 5513,
      "zeichen": 5514,
      "ĠSil": 5515,
      "orgt": 5516,
      "ĠAusgaben": 5517,
      "ĠUntersuch": 5518,
      "forderungen": 5519,
      "ontrollen": 5520,
      "undert": 5521,
      "Ġhoffen": 5522,
      "Ġgarant": 5523,
      "ĠfÃ¼gte": 5524,
      "meldung": 5525,
      "Ġoptim": 5526,
      "TRANSPARENZ": 5527,
      "omepage": 5528,
      "ĠVII": 5529,
      "ĠStÃ¤d": 5530,
      "ĠBotschaft": 5531,
      "System": 5532,
      "iÃŁ": 5533,
      "ĠKur": 5534,
      "schau": 5535,
      "Ġausreichen": 5536,
      "izenz": 5537,
      "ĠProtokolls": 5538,
      "Ġvollkommen": 5539,
      "mitteln": 5540,
      "bekÃ¤mpfung": 5541,
      "Rechts": 5542,
      "GEMEINSAME": 5543,
      "ĠKOMMISSION": 5544,
      "Ġgratul": 5545,
      "celona": 5546,
      "DS": 5547,
      "Ġbl": 5548,
      "ĠBanken": 5549,
      "ĠhÃ¤lt": 5550,
      "scheidung": 5551,
      "Inter": 5552,
      "ĠBef": 5553,
      "ĠAufgaben": 5554,
      "Ġbessere": 5555,
      "ĠPasswort": 5556,
      "MÃ¶chtest": 5557,
      "Kro": 5558,
      "UG": 5559,
      "greifen": 5560,
      "ikt": 5561,
      "lÃ¤nd": 5562,
      "ĠÃ¶": 5563,
      "ĠSinne": 5564,
      "Ġfehlt": 5565,
      "Ġno": 5566,
      "ole": 5567,
      "ĠDoll": 5568,
      "eschl": 5569,
      "ĠMac": 5570,
      "ALL": 5571,
      "plant": 5572,
      "Ġbehandelt": 5573,
      "ĠReserv": 5574,
      "Ġversuchen": 5575,
      "afft": 5576,
      "ffizienz": 5577,
      "Datenbank": 5578,
      "Seine": 5579,
      "Zus": 5580,
      "isse": 5581,
      "isiert": 5582,
      "ĠUrteil": 5583,
      "ĠStÃ¼ck": 5584,
      "Ã¤nglich": 5585,
      "laf": 5586,
      "retariat": 5587,
      "Ġdein": 5588,
      "esien": 5589,
      "Ã¤st": 5590,
      "ĠPot": 5591,
      "ĠBi": 5592,
      "ĠHintergrund": 5593,
      "ĠVERTEID": 5594,
      "istiken": 5595,
      "werte": 5596,
      "samen": 5597,
      "Ġklare": 5598,
      "ĠunterstÃ¼tze": 5599,
      "Ap": 5600,
      "ĠPortugal": 5601,
      "ĠMer": 5602,
      "Ã¶hn": 5603,
      "ĠStad": 5604,
      "losen": 5605,
      "bezogen": 5606,
      "aufnahme": 5607,
      "ĠFortschritt": 5608,
      "ĠAuftrag": 5609,
      "ĠAnmerkungen": 5610,
      "ĠSonder": 5611,
      "ĠVan": 5612,
      "ĠVerbesserung": 5613,
      "ĠtÃ¤tig": 5614,
      "Ġreden": 5615,
      "ĠTourismus": 5616,
      "ĠAktionsplan": 5617,
      "ĠSecurity": 5618,
      "Sc": 5619,
      "oto": 5620,
      "Ġstaff": 5621,
      "Ġvorbei": 5622,
      "ĠUnd": 5623,
      "barkeit": 5624,
      "ohnt": 5625,
      "ILD": 5626,
      "ĠEnglisch": 5627,
      "Gemeinsame": 5628,
      "Dort": 5629,
      "Is": 5630,
      "Ol": 5631,
      "Ġhistor": 5632,
      "raf": 5633,
      "Ġunterschied": 5634,
      "steller": 5635,
      "Ġerscheint": 5636,
      "PS": 5637,
      "ĠRech": 5638,
      "ĠAufenthalt": 5639,
      "affe": 5640,
      "PE": 5641,
      "ĠnÃ¤": 5642,
      "ĠImp": 5643,
      "ĠVilla": 5644,
      "uster": 5645,
      "qualitÃ¤t": 5646,
      "fuhren": 5647,
      "Ġdauert": 5648,
      "Drit": 5649,
      "zw": 5650,
      "ĠGro": 5651,
      "eits": 5652,
      "Ġregel": 5653,
      "apaz": 5654,
      "flÃ¤che": 5655,
      "Ġexist": 5656,
      "ampag": 5657,
      "Ġgleichen": 5658,
      "ĠCostasur": 5659,
      "Dadurch": 5660,
      "Pl": 5661,
      "nov": 5662,
      "onik": 5663,
      "Ġbil": 5664,
      "bereiche": 5665,
      "ĠHoff": 5666,
      "ĠRezept": 5667,
      "sprozess": 5668,
      "ĠergÃ¤n": 5669,
      "MaÃŁnahmen": 5670,
      "ĠFenster": 5671,
      "Pressemitteilungen": 5672,
      "stre": 5673,
      "Ġmm": 5674,
      "ĠDimas": 5675,
      "ĠLicht": 5676,
      "ĠCan": 5677,
      "STAGUNG": 5678,
      "eidungen": 5679,
      "flÃ¼": 5680,
      "ĠVerbindung": 5681,
      "SONSTIGES": 5682,
      "ĠSpieler": 5683,
      "ĠKlimawandel": 5684,
      "ĠAbend": 5685,
      "pekt": 5686,
      "Ã¼ter": 5687,
      "ĠBER": 5688,
      "ĠFakt": 5689,
      "ÃĦN": 5690,
      "Ansprechpartner": 5691,
      "losigkeit": 5692,
      "konom": 5693,
      "Region": 5694,
      "unkten": 5695,
      "ĠBESCHLÃľSSE": 5696,
      "AU": 5697,
      "aj": 5698,
      "hnt": 5699,
      "ĠKir": 5700,
      "dest": 5701,
      "chengen": 5702,
      "Ġabgel": 5703,
      "Ġniemand": 5704,
      "ĠAndor": 5705,
      "Ġsozialen": 5706,
      "useum": 5707,
      "ĠSICHERHEITS": 5708,
      "Kroatien": 5709,
      "Fragen": 5710,
      "PF": 5711,
      "finanz": 5712,
      "mod": 5713,
      "sichtig": 5714,
      "uern": 5715,
      "ene": 5716,
      "test": 5717,
      "ĠRumÃ¤nien": 5718,
      "reak": 5719,
      "Ġverlan": 5720,
      "bezÃ¼glich": 5721,
      "indestens": 5722,
      "Ġjederzeit": 5723,
      "Ġgeeignet": 5724,
      "siehe": 5725,
      "Fran": 5726,
      "Gest": 5727,
      "Russland": 5728,
      "Ġav": 5729,
      "akzept": 5730,
      "Verbesserung": 5731,
      "ORG": 5732,
      "Ġwenige": 5733,
      "China": 5734,
      "Ġthis": 5735,
      "ĠHerausforderungen": 5736,
      "SchluÃŁfolgerung": 5737,
      "SchlieÃŁlich": 5738,
      "Ġ$": 5739,
      "asmus": 5740,
      "ary": 5741,
      "ĠWall": 5742,
      "rekt": 5743,
      "umen": 5744,
      "ĠStock": 5745,
      "Ġlos": 5746,
      "ĠNein": 5747,
      "Ġoffiz": 5748,
      "Ã¶rden": 5749,
      "Ġgenommen": 5750,
      "ĠĠĠĠĠĠĠĠ": 5751,
      "ĠTechnologie": 5752,
      "ĠAsyl": 5753,
      "ĠFranch": 5754,
      "Ġentwickelt": 5755,
      "ĠEmpfehlungen": 5756,
      "ograf": 5757,
      "ĠBeratung": 5758,
      "62": 5759,
      "72": 5760,
      "RIS": 5761,
      "SEN": 5762,
      "We": 5763,
      "ĠAc": 5764,
      "text": 5765,
      "ĠPrem": 5766,
      "ĠWeiter": 5767,
      "ERB": 5768,
      "heben": 5769,
      "antie": 5770,
      "ĠAusgang": 5771,
      "Ġgenannt": 5772,
      "Genehmigung": 5773,
      "schlieÃŁlich": 5774,
      "Herzlich": 5775,
      "AUSHALT": 5776,
      "Hat": 5777,
      "holen": 5778,
      "ĠKredit": 5779,
      "Ġ475": 5780,
      "Stand": 5781,
      "ards": 5782,
      "ĠStellvertretender": 5783,
      "ĠZweifel": 5784,
      "Ġangeboten": 5785,
      "ĠKompromiss": 5786,
      "MUN": 5787,
      "Ġsinn": 5788,
      "ĠTreffen": 5789,
      "ENERGIE": 5790,
      "annten": 5791,
      "ĠBerg": 5792,
      "ANN": 5793,
      "iziert": 5794,
      "Ġ04": 5795,
      "ELT": 5796,
      "ĠDatenschutz": 5797,
      "Ġfunktionieren": 5798,
      "ĠReformen": 5799,
      "ĠKÃ¼che": 5800,
      "ĠVerwaltung": 5801,
      "Verwaltungs": 5802,
      "iot": 5803,
      "ĠTats": 5804,
      "achte": 5805,
      "Ġansprechen": 5806,
      "annen": 5807,
      "Ġbeachten": 5808,
      "ags": 5809,
      "avros": 5810,
      "Ã¶ffnen": 5811,
      "ĠLinie": 5812,
      "Ġbezahlen": 5813,
      "itÃ¤tsachse": 5814,
      "ĠFÃ¤llen": 5815,
      "ĠVERTEIDIGUNGSPOLITIK": 5816,
      "Ho": 5817,
      "ulen": 5818,
      "ather": 5819,
      "ram": 5820,
      "ĠDetails": 5821,
      "igh": 5822,
      "ĠgegrÃ¼ndet": 5823,
      "opy": 5824,
      "Ġerfolgen": 5825,
      "ĠFinanzierung": 5826,
      "ĠUnterschied": 5827,
      "alismus": 5828,
      "Ġbedarf": 5829,
      "UnterstÃ¼tzung": 5830,
      "ĠStraÃŁen": 5831,
      "aison": 5832,
      "Ob": 5833,
      "sum": 5834,
      "Ġbas": 5835,
      "ike": 5836,
      "Ġpassen": 5837,
      "2008": 5838,
      "Ġgesetzt": 5839,
      "ĠMenÃ¼": 5840,
      "Ġ%)": 5841,
      "indest": 5842,
      "ĠFranchise": 5843,
      "76": 5844,
      "zum": 5845,
      "stes": 5846,
      "ĠMand": 5847,
      "ĠIns": 5848,
      "rian": 5849,
      "heet": 5850,
      "Ã¶rt": 5851,
      "Ġanderer": 5852,
      "icherung": 5853,
      "Ġsolchen": 5854,
      "Ġangegeben": 5855,
      "ĠDimension": 5856,
      "ĠfÃ¶rdern": 5857,
      "Geben": 5858,
      "Mitteilung": 5859,
      "ya": 5860,
      "artet": 5861,
      "Ġzehn": 5862,
      "Ġintegr": 5863,
      "ĠDigit": 5864,
      "igin": 5865,
      "leb": 5866,
      "ktionen": 5867,
      "ĠNah": 5868,
      "Ġallgemein": 5869,
      "OLL": 5870,
      "BEREITUNG": 5871,
      "Ġverloren": 5872,
      "Welches": 5873,
      "acts": 5874,
      "Ġantworten": 5875,
      "ĠFelder": 5876,
      "balgs": 5877,
      "DI": 5878,
      "Ġnormal": 5879,
      "ĠBio": 5880,
      "sequ": 5881,
      "Ġtot": 5882,
      "ĠstÃ¤nd": 5883,
      "Ġpar": 5884,
      "ĠÃĸl": 5885,
      "richtlinie": 5886,
      "ologien": 5887,
      "ĠAdR": 5888,
      "Ġnahe": 5889,
      "behÃ¶rde": 5890,
      "Ġeinzig": 5891,
      "ĠAngebote": 5892,
      "alyse": 5893,
      "Ġbelieb": 5894,
      "ĠPiebalgs": 5895,
      "ĠnÃ¤mlich": 5896,
      "fast": 5897,
      "hotel": 5898,
      "olo": 5899,
      "ĠTeile": 5900,
      "Ġgekommen": 5901,
      "ĠZypern": 5902,
      "ĠStellen": 5903,
      "ĠverÃ¤ndert": 5904,
      "rÃ¤ger": 5905,
      "Ġ300": 5906,
      "ĠBezug": 5907,
      "Ġ70": 5908,
      "2003": 5909,
      "ĠFoto": 5910,
      "Ġnationalen": 5911,
      "Ġeher": 5912,
      "Ganz": 5913,
      "ĠSam": 5914,
      "ĠDar": 5915,
      "ohlen": 5916,
      "ques": 5917,
      "ondon": 5918,
      "Ġsage": 5919,
      "Ġkrit": 5920,
      "ĠTele": 5921,
      "Ġerk": 5922,
      "ĠverfÃ¼gen": 5923,
      "ternehm": 5924,
      "hode": 5925,
      "right": 5926,
      "Ġbestimmte": 5927,
      "Ġkonkrete": 5928,
      "ĠEuropÃ¤er": 5929,
      "cy": 5930,
      "ĠÃ¤l": 5931,
      "ĠAK": 5932,
      "Ġinakzept": 5933,
      "ĠWohl": 5934,
      "ĠbefÃ¼r": 5935,
      "ĠVerkauf": 5936,
      "lock": 5937,
      "elekt": 5938,
      "angel": 5939,
      "bew": 5940,
      "ĠMail": 5941,
      "2006": 5942,
      "hafter": 5943,
      "Englisch": 5944,
      "Ġgesamten": 5945,
      "ĠhÃ¶her": 5946,
      "ĠlÃ¶sen": 5947,
      "ECspokesAntoine": 5948,
      "545": 5949,
      "Ġur": 5950,
      "ĠMasch": 5951,
      "ĠGre": 5952,
      "loss": 5953,
      "risen": 5954,
      "Reform": 5955,
      "ĠBoden": 5956,
      "ĠLinux": 5957,
      "JA": 5958,
      "ZUSAMMENARBEIT": 5959,
      "Ã¤chen": 5960,
      "asc": 5961,
      "Ġkontakt": 5962,
      "ĠWaffen": 5963,
      "Ġzuge": 5964,
      "ilia": 5965,
      "Ġerreich": 5966,
      "ĠSchweden": 5967,
      "ĠAusbildung": 5968,
      "Ġnachhaltige": 5969,
      "Strategie": 5970,
      "schlÃ¼ssel": 5971,
      "Ġbeteil": 5972,
      "Fortsch": 5973,
      "RIT": 5974,
      "Teil": 5975,
      "cl": 5976,
      "cia": 5977,
      "par": 5978,
      "Ã¼ÃŁ": 5979,
      "Ġerken": 5980,
      "ehme": 5981,
      "ype": 5982,
      "ĠKoordin": 5983,
      "CD": 5984,
      "Kinder": 5985,
      "Per": 5986,
      "yt": 5987,
      "Ġ#": 5988,
      "Ġbr": 5989,
      "Ġbitten": 5990,
      "ĠnÃ¶tig": 5991,
      "ĠBelgien": 5992,
      "Ġlok": 5993,
      "iker": 5994,
      "ots": 5995,
      "gebiet": 5996,
      "ĠZeitraum": 5997,
      "Ġ285": 5998,
      "ĠBugt": 5999,
      "ĠDelegation": 6000,
      "71": 6001,
      "PO": 6002,
      "Ġfragen": 6003,
      "ĠMeter": 6004,
      "ĠFakten": 6005,
      "lean": 6006,
      "Ġbestimmt": 6007,
      "ĠAnzahl": 6008,
      "weite": 6009,
      "ĠAbstimm": 6010,
      "Ġ33": 6011,
      "ession": 6012,
      "Ġbenutzt": 6013,
      "ifik": 6014,
      "Daran": 6015,
      "Grund": 6016,
      "ĠKapital": 6017,
      "STAATEN": 6018,
      "ĠWIRTSCHAFT": 6019,
      "Lie": 6020,
      "ois": 6021,
      "zeiten": 6022,
      "ines": 6023,
      "onte": 6024,
      "ĠBekÃ¤mpfung": 6025,
      "schw": 6026,
      "rab": 6027,
      "ĠDo": 6028,
      "ĠZivil": 6029,
      "Ġ36": 6030,
      "ITZ": 6031,
      "ĠAlter": 6032,
      "ĠErnÃ¤hrung": 6033,
      "Ġerheb": 6034,
      "Ġmaxim": 6035,
      "ĠBugtraq": 6036,
      "Binnenmarkt": 6037,
      "swert": 6038,
      "zul": 6039,
      "chem": 6040,
      "ĠSign": 6041,
      "arch": 6042,
      "Ġbuchen": 6043,
      "ĠWar": 6044,
      "Ġtreffen": 6045,
      "quem": 6046,
      "ELL": 6047,
      "konferenz": 6048,
      "ĠKooper": 6049,
      "NÃ¤heres": 6050,
      "ĠInvestitionsb": 6051,
      "ĠerfÃ¼llt": 6052,
      "fghan": 6053,
      "79": 6054,
      "BESCH": 6055,
      "Focus": 6056,
      "Griechenland": 6057,
      "OB": 6058,
      "TH": 6059,
      "Traq": 6060,
      "mas": 6061,
      "ĠhÃ¤ngt": 6062,
      "ĠStre": 6063,
      "Ã¤rkt": 6064,
      "Ġvorbehalten": 6065,
      "STEN": 6066,
      "ĠDokumente": 6067,
      "ĠhÃ¤tten": 6068,
      "ĠBugTraq": 6069,
      "ĠSecurityFocus": 6070,
      "Nation": 6071,
      "Trotzdem": 6072,
      "wand": 6073,
      "Ġdigit": 6074,
      "ĠBud": 6075,
      "ĠGelegen": 6076,
      "Ġers": 6077,
      "ĠÃ¼berall": 6078,
      "Ġvorgelegt": 6079,
      "izei": 6080,
      "ĠbegrÃ¼ÃŁt": 6081,
      "ĠBrowser": 6082,
      "regelung": 6083,
      "Kurzbeschreibung": 6084,
      "riktive": 6085,
      "Gu": 6086,
      "WE": 6087,
      "nern": 6088,
      "Ġup": 6089,
      "ĠKurs": 6090,
      "aby": 6091,
      "ĠTo": 6092,
      "ĠTonnen": 6093,
      "amals": 6094,
      "plÃ¤tze": 6095,
      "hÃ¶ren": 6096,
      "ĠWettbewerbsfÃ¤higkeit": 6097,
      "Cl": 6098,
      "FrÃ¼": 6099,
      "Joe": 6100,
      "nungs": 6101,
      "sicherheit": 6102,
      "ĠBade": 6103,
      "ĠFR": 6104,
      "ĠRot": 6105,
      "illen": 6106,
      "ilanz": 6107,
      "ĠtatsÃ¤chlich": 6108,
      "este": 6109,
      "pport": 6110,
      "Ġgewinnen": 6111,
      "ĠSoziales": 6112,
      "ĠschÃ¶ne": 6113,
      "EWG": 6114,
      "ĠRisiko": 6115,
      "wÃ¼rd": 6116,
      "Drittens": 6117,
      "%)": 6118,
      "Ġas": 6119,
      "Ġdank": 6120,
      "Ġsenden": 6121,
      "ĠPlen": 6122,
      "ĠPrinzip": 6123,
      "ĠMor": 6124,
      "Ġzwar": 6125,
      "Ġgeh": 6126,
      "ologische": 6127,
      "auftrag": 6128,
      "Ġverbessert": 6129,
      "ĠKommentare": 6130,
      "onien": 6131,
      "ĠSim": 6132,
      "ato": 6133,
      "ĠBulgarien": 6134,
      "ĠDrogen": 6135,
      "istik": 6136,
      "Ġdemokrat": 6137,
      "izin": 6138,
      "enne": 6139,
      "IGE": 6140,
      "teilung": 6141,
      "Ġbekomm": 6142,
      "Ġausgestattet": 6143,
      "ĠElemente": 6144,
      "stehenden": 6145,
      "ĠFÃ¤lle": 6146,
      "avigation": 6147,
      "Et": 6148,
      "Selbst": 6149,
      "ba": 6150,
      "nummer": 6151,
      "Ġ01": 6152,
      "eicht": 6153,
      "ata": 6154,
      "ĠAR": 6155,
      "Ġmindestens": 6156,
      "ĠECU": 6157,
      "Ġzahlen": 6158,
      "ĠGarten": 6159,
      "ĠTick": 6160,
      "ĠLam": 6161,
      "ĠForschungs": 6162,
      "ĠKlein": 6163,
      "ĠBesucher": 6164,
      "ĠIsland": 6165,
      "ĠIdeen": 6166,
      "ĠpersÃ¶nlich": 6167,
      "ĠPa": 6168,
      "Ġgeplant": 6169,
      "ERK": 6170,
      "Ġuntersch": 6171,
      "Ġallgemeinen": 6172,
      "problem": 6173,
      "Ġgemeinsamen": 6174,
      "Nichts": 6175,
      "ĠInstall": 6176,
      "armon": 6177,
      "VORBEREITUNG": 6178,
      "Ġinakzeptabel": 6179,
      "Sicherheit": 6180,
      "TAC": 6181,
      "Ã¤us": 6182,
      "Ġfl": 6183,
      "anda": 6184,
      "reform": 6185,
      "erne": 6186,
      "eicher": 6187,
      "ĠVerfahrens": 6188,
      "ĠHÃ¶he": 6189,
      "ML": 6190,
      "lÃ¶s": 6191,
      "inc": 6192,
      "iness": 6193,
      "Ã¼cher": 6194,
      "ĠBan": 6195,
      "ĠIran": 6196,
      "Ã¤nden": 6197,
      "Ġstarten": 6198,
      "Ġ55": 6199,
      "ĠspÃ¤t": 6200,
      "ogle": 6201,
      "ĠLandes": 6202,
      "ĠBarcelona": 6203,
      "Ġverbunden": 6204,
      "rechts": 6205,
      "orea": 6206,
      "ĠFreunde": 6207,
      "ĠDienstleistungen": 6208,
      "Europas": 6209,
      "ĠBasis": 6210,
      "actsheet": 6211,
      "ous": 6212,
      "zn": 6213,
      "ĠzunÃ¤chst": 6214,
      "Ġgelegen": 6215,
      "Ġgood": 6216,
      "ĠSchlaf": 6217,
      "Invest": 6218,
      "Ġvorher": 6219,
      "ried": 6220,
      "achtung": 6221,
      "Gruppe": 6222,
      "volution": 6223,
      "Rat": 6224,
      "fÃ¤lt": 6225,
      "oben": 6226,
      "uell": 6227,
      "chter": 6228,
      "alk": 6229,
      "ĠMÃ¼n": 6230,
      "Ġzw": 6231,
      "rock": 6232,
      "ĠStahl": 6233,
      "Ã¤ngen": 6234,
      "Ġstattfinden": 6235,
      "David": 6236,
      "scheinlich": 6237,
      "stattung": 6238,
      "ÃĦFTIGUNG": 6239,
      "will": 6240,
      "Ġwichtigen": 6241,
      "ĠWeiÃŁ": 6242,
      "annes": 6243,
      "Ġverz": 6244,
      "ĠGrÃ¶ÃŁe": 6245,
      "fÃ¼hrungen": 6246,
      "ĠgewÃ¼n": 6247,
      "Ġschlecht": 6248,
      "ĠKohÃ¤sion": 6249,
      "ĠAuswÃ¤rtigen": 6250,
      "Aid": 6251,
      "Mark": 6252,
      "brech": 6253,
      "Ġsomit": 6254,
      "oriz": 6255,
      "ĠGem": 6256,
      "reib": 6257,
      "ehrte": 6258,
      "Ġober": 6259,
      "Ġ07": 6260,
      "ANDE": 6261,
      "viel": 6262,
      "enbahn": 6263,
      "ages": 6264,
      "rÃ¤gen": 6265,
      "ico": 6266,
      "ohnen": 6267,
      "ĠBeweg": 6268,
      "ĠMensch": 6269,
      "udio": 6270,
      "Ġbedau": 6271,
      "Zusammensetzung": 6272,
      "ĠFarbe": 6273,
      "sphÃ¤re": 6274,
      "ĠArbeiten": 6275,
      "sichtigt": 6276,
      "ĠwÃ¤ren": 6277,
      "ĠzustÃ¤nd": 6278,
      "industrie": 6279,
      "immern": 6280,
      "rufe": 6281,
      "ĠFreund": 6282,
      "ĠEmpfehlung": 6283,
      "ĠInvestitionsbank": 6284,
      "onio": 6285,
      "ĠEner": 6286,
      "ĠÃ¼berprÃ¼ft": 6287,
      "Ġvoran": 6288,
      "samer": 6289,
      "Entwick": 6290,
      "rasilien": 6291,
      "Ġverbessern": 6292,
      "ĠInstitutionen": 6293,
      "ĠOperationelles": 6294,
      "DA": 6295,
      "PL": 6296,
      "fil": 6297,
      "gas": 6298,
      "sÃ¤tz": 6299,
      "sfonds": 6300,
      "inst": 6301,
      "ierend": 6302,
      "ĠWahlen": 6303,
      "Ġleich": 6304,
      "ĠEint": 6305,
      "ĠgroÃŁes": 6306,
      "ĠZustimmung": 6307,
      "richtungen": 6308,
      "1999": 6309,
      "ĠJean": 6310,
      "Startseite": 6311,
      "ZE": 6312,
      "aw": 6313,
      "Ġag": 6314,
      "uni": 6315,
      "eige": 6316,
      "elbe": 6317,
      "Ġmen": 6318,
      "ĠLondon": 6319,
      "indungen": 6320,
      "ĠJos": 6321,
      "spr": 6322,
      "ella": 6323,
      "hebung": 6324,
      "Ġbesuchen": 6325,
      "Davon": 6326,
      "ĠGesprÃ¤": 6327,
      "ĠMinute": 6328,
      "Ġbesondere": 6329,
      "Ã¤dt": 6330,
      "aÃŁt": 6331,
      "Ġerzielt": 6332,
      "tÃ¤u": 6333,
      "aud": 6334,
      "ĠTri": 6335,
      "reiber": 6336,
      "Ġverantwort": 6337,
      "omen": 6338,
      "Ġtreten": 6339,
      "Ġperson": 6340,
      "ĠAbsatz": 6341,
      "Herrn": 6342,
      "Schwer": 6343,
      "Ġrein": 6344,
      "ĠBeihilfen": 6345,
      "eistet": 6346,
      "Ġbehandeln": 6347,
      "Ġbeantworten": 6348,
      "akete": 6349,
      "WEITERUNG": 6350,
      "63": 6351,
      "KAN": 6352,
      "frastruktur": 6353,
      "ĠPen": 6354,
      "ĠPina": 6355,
      "ĠBAR": 6356,
      "ĠgÃ¼nst": 6357,
      "ĠDVD": 6358,
      "ĠLib": 6359,
      "Ġerle": 6360,
      "ĠZiffer": 6361,
      "Ġverab": 6362,
      "oker": 6363,
      "gebnisse": 6364,
      "REG": 6365,
      "Ġeng": 6366,
      "Generalsek": 6367,
      "Ġglauben": 6368,
      "Ġfestgelegt": 6369,
      "Andre": 6370,
      "ĠEigent": 6371,
      "atherine": 6372,
      "Christ": 6373,
      "fangen": 6374,
      "uren": 6375,
      "ĠFach": 6376,
      "Ġstets": 6377,
      "ĠUngarn": 6378,
      "ANT": 6379,
      "hoben": 6380,
      "immerklÃ¤rungen": 6381,
      "fordert": 6382,
      "weisung": 6383,
      "Ġinternationalen": 6384,
      "Adresse": 6385,
      "ĠArbeitsplÃ¤tze": 6386,
      "Book": 6387,
      "Justiz": 6388,
      "Meiner": 6389,
      "fisch": 6390,
      "erweise": 6391,
      "atoren": 6392,
      "ĠMass": 6393,
      "istische": 6394,
      "ĠProzent": 6395,
      "Ġschreiben": 6396,
      "Vorlage": 6397,
      "ĠStellvertreterin": 6398,
      "ĠZahlungs": 6399,
      "ĠCasino": 6400,
      "ĠSekunden": 6401,
      "Niemand": 6402,
      "EO": 6403,
      "GroÃŁ": 6404,
      "nien": 6405,
      "po": 6406,
      "passung": 6407,
      "zahlung": 6408,
      "Ġuner": 6409,
      "ÃŁburg": 6410,
      "anner": 6411,
      "Ġwere": 6412,
      "ressere": 6413,
      "schafts": 6414,
      "Ġ37": 6415,
      "...?": 6416,
      "itzt": 6417,
      "ĠIndien": 6418,
      "gangenen": 6419,
      "handels": 6420,
      "ENTWICKLUNGS": 6421,
      "ĠKategorie": 6422,
      "54530": 6423,
      "Beschreibung": 6424,
      "El": 6425,
      "alog": 6426,
      "Ġko": 6427,
      "ĠTV": 6428,
      "ustr": 6429,
      "Ġsicherlich": 6430,
      "ĠauÃŁerdem": 6431,
      "itution": 6432,
      "resserefer": 6433,
      "FA": 6434,
      "pack": 6435,
      "ĠSuch": 6436,
      "ĠTisch": 6437,
      "ufe": 6438,
      "ĠSpiele": 6439,
      "Ġbetrach": 6440,
      "Ġeingerichtet": 6441,
      "ĠKÃ¼rze": 6442,
      "reakfast": 6443,
      "59": 6444,
      "Fischerei": 6445,
      "Lage": 6446,
      "gyp": 6447,
      "esc": 6448,
      "igungen": 6449,
      "ĠWÃ¤hrungs": 6450,
      "Ġentschieden": 6451,
      "Ġwichtiges": 6452,
      "ĠEnd": 6453,
      "ĠIsrael": 6454,
      "Ġpositive": 6455,
      "Ġtechnische": 6456,
      "ĠendgÃ¼lt": 6457,
      "ĠmÃ¼ndliche": 6458,
      "VIII": 6459,
      "ĠRANDE": 6460,
      "serv": 6461,
      "ungsk": 6462,
      "ĠVoraus": 6463,
      "ĠAngst": 6464,
      "ĠKonfl": 6465,
      "ĠNachricht": 6466,
      "ĠGebÃ¤ude": 6467,
      "ationsrat": 6468,
      "ĠCode": 6469,
      "ĠWege": 6470,
      "Karel": 6471,
      "kommunikation": 6472,
      "lexibilitÃ¤t": 6473,
      "Ã¤mpfen": 6474,
      "BRA": 6475,
      "Datei": 6476,
      "Eben": 6477,
      "Fort": 6478,
      "Vom": 6479,
      "ader": 6480,
      "oni": 6481,
      "ĠSand": 6482,
      "Ġbeit": 6483,
      "ĠGal": 6484,
      "Ġbewer": 6485,
      "ierende": 6486,
      "Stat": 6487,
      "ELE": 6488,
      "Ġdurchaus": 6489,
      "Ġwichtigste": 6490,
      "ĠÃ¤uÃŁ": 6491,
      "Ġziemlich": 6492,
      "Wirtschaftliche": 6493,
      "aussetz": 6494,
      "69": 6495,
      "GUB": 6496,
      "ora": 6497,
      "Ġme": 6498,
      "ema": 6499,
      "ĠComm": 6500,
      "spartner": 6501,
      "ulierung": 6502,
      "Ġabzu": 6503,
      "ErÃ¶ffnung": 6504,
      "law": 6505,
      "Ġcm": 6506,
      "ĠArbeitnehmer": 6507,
      "Ġ1996": 6508,
      "wegs": 6509,
      "ĠgrÃ¶ÃŁten": 6510,
      "ĠGerman": 6511,
      "ĠschlieÃŁlich": 6512,
      "Ġzahlreiche": 6513,
      "Ġautomatisch": 6514,
      "ĠPotonik": 6515,
      "fghanistan": 6516,
      "Empf": 6517,
      "press": 6518,
      "ena": 6519,
      "information": 6520,
      "ĠPressemitteilungen": 6521,
      "ĠKauf": 6522,
      "ĠGipfel": 6523,
      "ree": 6524,
      "Ġgebe": 6525,
      "ĠZeiten": 6526,
      "ĠZUR": 6527,
      "INTER": 6528,
      "arta": 6529,
      "schlieÃŁen": 6530,
      "mbol": 6531,
      "ĠRATSTAGUNG": 6532,
      "Androulla": 6533,
      "ifizierung": 6534,
      "Ġverdient": 6535,
      "Ġjemand": 6536,
      "ĠfrÃ¼her": 6537,
      "Ġkontaktieren": 6538,
      "Leb": 6539,
      "Pet": 6540,
      "Sein": 6541,
      "Wollen": 6542,
      "ieva": 6543,
      "Ġeinzu": 6544,
      "ĠBO": 6545,
      "Ġgerecht": 6546,
      "ĠHans": 6547,
      "reibt": 6548,
      "osk": 6549,
      "wÃ¤rtig": 6550,
      "AbschlieÃŁend": 6551,
      "affung": 6552,
      "rÃ¤ume": 6553,
      "ĠPHP": 6554,
      "HAUSHALT": 6555,
      "fallen": 6556,
      "nier": 6557,
      "irm": 6558,
      "Ġteilen": 6559,
      "Ġpress": 6560,
      "ÃľBER": 6561,
      "Ġ48": 6562,
      "Struktur": 6563,
      "ĠAktionen": 6564,
      "anlage": 6565,
      "Ġweg": 6566,
      "auchen": 6567,
      "Ġhei": 6568,
      "ĠIT": 6569,
      "ĠIX": 6570,
      "ĠGEMEIN": 6571,
      "ENS": 6572,
      "Ġschn": 6573,
      "Vert": 6574,
      "Stra": 6575,
      "Darin": 6576,
      "Ġebenso": 6577,
      "ĠWorten": 6578,
      "ĠInitiativen": 6579,
      "mÃ¶glichkeiten": 6580,
      "ĠUpdate": 6581,
      "ĠGelegenheit": 6582,
      "Ġwann": 6583,
      "ĠFeld": 6584,
      "Ġdenen": 6585,
      "rim": 6586,
      "ĠjÃ¼n": 6587,
      "Ġumgesetzt": 6588,
      "ohner": 6589,
      "Ġ03": 6590,
      "Ġ08": 6591,
      "2004": 6592,
      "fachung": 6593,
      "ĠTagung": 6594,
      "ĠMalm": 6595,
      "ĠMÃ¤rkte": 6596,
      "Konferenz": 6597,
      "zÃ¼g": 6598,
      "Ġerfordert": 6599,
      "ĠKritik": 6600,
      "Zahlungen": 6601,
      "fizit": 6602,
      "500": 6603,
      "Haupt": 6604,
      "ps": 6605,
      "wo": 6606,
      "zy": 6607,
      "unn": 6608,
      "unternehmen": 6609,
      "ĠDav": 6610,
      "ĠHolz": 6611,
      "Ġstand": 6612,
      "ildet": 6613,
      "ĠStaatsminister": 6614,
      "Projekt": 6615,
      "ĠMonaten": 6616,
      "rÃ¤nkt": 6617,
      "Ġfallen": 6618,
      "Ġhohe": 6619,
      "Ġverhinder": 6620,
      "Ãĸffentliche": 6621,
      "Drei": 6622,
      "Te": 6623,
      "lag": 6624,
      "Ġsonst": 6625,
      "atisch": 6626,
      "ask": 6627,
      "Ġfuer": 6628,
      "ĠElekt": 6629,
      "rÃ¤fte": 6630,
      "ollten": 6631,
      "ĠdurchgefÃ¼hrt": 6632,
      "Spiel": 6633,
      "prÃ¼fen": 6634,
      "freiheit": 6635,
      "ĠRechnungshof": 6636,
      "ĠWillkommen": 6637,
      "opyright": 6638,
      "53": 6639,
      "enh": 6640,
      "steuer": 6641,
      "atein": 6642,
      "ĠPeter": 6643,
      "ĠTyp": 6644,
      "ĠStavros": 6645,
      "Ġbegl": 6646,
      "ĠÃ¼berw": 6647,
      "grÃ¶ÃŁ": 6648,
      "Ġechte": 6649,
      "Ġweiterer": 6650,
      "fÃ¼hrer": 6651,
      "ĠUnterkunft": 6652,
      "Ġeinfache": 6653,
      "Ġbestellen": 6654,
      "RECH": 6655,
      "ĠHafen": 6656,
      "Ġextrem": 6657,
      "**": 6658,
      "LU": 6659,
      "Sehen": 6660,
      "Zwischen": 6661,
      "bett": 6662,
      "stieg": 6663,
      "eshalb": 6664,
      "ĠRel": 6665,
      "lehen": 6666,
      "agn": 6667,
      "EUR": 6668,
      "Ġberuf": 6669,
      "Ġweiteres": 6670,
      "ĠAuÃŁenbeziehungen": 6671,
      "Ġnationale": 6672,
      "78": 6673,
      "Aut": 6674,
      "Wissen": 6675,
      "mark": 6676,
      "ĠAk": 6677,
      "ĠbeschÃ¤ft": 6678,
      "ĠInnen": 6679,
      "ĠCity": 6680,
      "grenzen": 6681,
      "Ġmehreren": 6682,
      "ĠUmgebung": 6683,
      "SCHUNG": 6684,
      "SCHUTZ": 6685,
      "Ġfordern": 6686,
      "ĠKroatien": 6687,
      "ĠnÃ¤her": 6688,
      "Internationale": 6689,
      "Stellvertreter": 6690,
      "ĠRezeption": 6691,
      "%.": 6692,
      "VP": 6693,
      "zeigen": 6694,
      "Ġhast": 6695,
      "ĠWohnung": 6696,
      "ĠTal": 6697,
      "ikas": 6698,
      "vern": 6699,
      "ado": 6700,
      "egel": 6701,
      "gebnis": 6702,
      "ĠGrand": 6703,
      "ildung": 6704,
      "fluss": 6705,
      "Ġ1995": 6706,
      "ĠUrs": 6707,
      "ĠKatastrop": 6708,
      "ĠGlÃ¼ckw": 6709,
      "ĠCosta": 6710,
      "ĠvernÃ¼nft": 6711,
      "Ġzentrale": 6712,
      "ĠMalmstrÃ¶m": 6713,
      "Fol": 6714,
      "SITZ": 6715,
      "geiz": 6716,
      "tel": 6717,
      "auch": 6718,
      "ĠEuch": 6719,
      "ĠBeschÃ¤ft": 6720,
      "ĠBundes": 6721,
      "tent": 6722,
      "Ġhil": 6723,
      "schm": 6724,
      "ĠDI": 6725,
      "ĠGut": 6726,
      "ĠTar": 6727,
      "iend": 6728,
      "ĠEUROP": 6729,
      "sidi": 6730,
      "ÃľN": 6731,
      "Verordnung": 6732,
      "agentur": 6733,
      "ĠgefÃ¶rder": 6734,
      "Tagesordnung": 6735,
      "Forschung": 6736,
      "664": 6737,
      "Nor": 6738,
      "OK": 6739,
      "figur": 6740,
      "park": 6741,
      "preise": 6742,
      "Ġreich": 6743,
      "eier": 6744,
      "Ġunbe": 6745,
      "ĠHam": 6746,
      "ames": 6747,
      "anne": 6748,
      "Ġverfolgen": 6749,
      "ĠChe": 6750,
      "spunkt": 6751,
      "ĠSchn": 6752,
      "pflich": 6753,
      "ĠJahrh": 6754,
      "ĠBevÃ¶lkerung": 6755,
      "eidet": 6756,
      "ouse": 6757,
      "Ġnied": 6758,
      "ĠMeeres": 6759,
      "ĠStimmen": 6760,
      "Besuchen": 6761,
      "ĠShop": 6762,
      "SKI": 6763,
      "Ġmodern": 6764,
      "ĠBeschluss": 6765,
      "Mil": 6766,
      "Ort": 6767,
      "afrika": 6768,
      "sf": 6769,
      "wagen": 6770,
      "ĠPool": 6771,
      "reat": 6772,
      "ĠÃ¼berras": 6773,
      "Ġlebt": 6774,
      "ĠBeihilfe": 6775,
      "mack": 6776,
      "hÃ¤ltnis": 6777,
      "licherweise": 6778,
      "ĠKolleg": 6779,
      "Ġhervorragen": 6780,
      "ausschusses": 6781,
      "ĠGeorgieva": 6782,
      "ĠStellungnahme": 6783,
      "ĠZusatz": 6784,
      "brechung": 6785,
      "Br": 6786,
      "bie": 6787,
      "mot": 6788,
      "ĠSektor": 6789,
      "ĠBand": 6790,
      "ĠGAP": 6791,
      "Ġbequem": 6792,
      "ĠNutzen": 6793,
      "otos": 6794,
      "ĠjÃ¤hr": 6795,
      "Erweiterung": 6796,
      "Ġgener": 6797,
      "Ġ150": 6798,
      "ĠInteressen": 6799,
      "ombin": 6800,
      "ĠvollstÃ¤ndige": 6801,
      "RIFT": 6802,
      "STRÃĸ": 6803,
      "Ġangemessen": 6804,
      "Par": 6805,
      "ual": 6806,
      "van": 6807,
      "asen": 6808,
      "Ġmed": 6809,
      "Ġfair": 6810,
      "ĠMitte": 6811,
      "ĠkÃ¼": 6812,
      "bereit": 6813,
      "ĠHaut": 6814,
      "ando": 6815,
      "ĠVerhalten": 6816,
      "ĠgeschÃ¼tzt": 6817,
      "ĠAusnahme": 6818,
      "Ġdarin": 6819,
      "Ġkleiner": 6820,
      "107": 6821,
      "flug": 6822,
      "ecilia": 6823,
      "ĠMilch": 6824,
      "Neelie": 6825,
      "gypten": 6826,
      "FER": 6827,
      "KOMMEN": 6828,
      "drÃ¼ck": 6829,
      "Ġelekt": 6830,
      "ĠEmiss": 6831,
      "oph": 6832,
      "Ġaufmerksam": 6833,
      "ĠJo": 6834,
      "wech": 6835,
      "ĠAnteil": 6836,
      "Ġbegonnen": 6837,
      "ĠBestimmungen": 6838,
      "Ġverlieren": 6839,
      "ĠENT": 6840,
      "ĠBeginn": 6841,
      "Ġheutigen": 6842,
      "Ġlocation": 6843,
      "AKT": 6844,
      "TÃ¼r": 6845,
      "ci": 6846,
      "iber": 6847,
      "ziel": 6848,
      "ziele": 6849,
      "enter": 6850,
      "ela": 6851,
      "ĠMAR": 6852,
      "ĠFÃ¼": 6853,
      "ĠRub": 6854,
      "ĠTa": 6855,
      "ENMinister": 6856,
      "verstanden": 6857,
      "Ġsozial": 6858,
      "Ġnachhalt": 6859,
      "Ġfolgendes": 6860,
      "ĠChancen": 6861,
      "Ã¼hungen": 6862,
      "Ġbeantwortet": 6863,
      "ĠBegriff": 6864,
      "zufÃ¼gen": 6865,
      "ĠMichel": 6866,
      "Ġgrundlegen": 6867,
      "Ġdanach": 6868,
      "hre": 6869,
      "ĠFonds": 6870,
      "ĠVerfassung": 6871,
      "omas": 6872,
      "leiche": 6873,
      "dukt": 6874,
      "IKATION": 6875,
      "ĠEntscheidungen": 6876,
      "flation": 6877,
      "ĠGrundlage": 6878,
      "Ġniemals": 6879,
      "ĠNeues": 6880,
      "ĠVereinbarung": 6881,
      "ringlichkeit": 6882,
      "Ġselten": 6883,
      "Solche": 6884,
      "Ġheutige": 6885,
      "ENTWICKLUNGSZUSAMMENARBEIT": 6886,
      "Alex": 6887,
      "Ju": 6888,
      "Partner": 6889,
      "Ġdient": 6890,
      "emal": 6891,
      "ĠzÃ¤hlt": 6892,
      "ĠDis": 6893,
      "ĠWien": 6894,
      "ĠNieder": 6895,
      "ÃĦH": 6896,
      "gebaut": 6897,
      "Ġdaraus": 6898,
      "fÃ¼hrungs": 6899,
      "ĠReding": 6900,
      "ouis": 6901,
      "Ġbegrenz": 6902,
      "ynam": 6903,
      "Ġwelchem": 6904,
      "Wirtschafts": 6905,
      "ĠFarben": 6906,
      "HOF": 6907,
      "MITTEL": 6908,
      "STRÃĸM": 6909,
      "App": 6910,
      "Form": 6911,
      "MA": 6912,
      "VO": 6913,
      "paket": 6914,
      "hren": 6915,
      "Ġeingel": 6916,
      "Ġhas": 6917,
      "ĠIl": 6918,
      "schÃ¤tz": 6919,
      "ĠHaltung": 6920,
      "Ġzuvor": 6921,
      "Ġerstellen": 6922,
      "ĠVerwendung": 6923,
      "ĠJac": 6924,
      "barometer": 6925,
      "Verpflichtungen": 6926,
      "ehmbar": 6927,
      "iano": 6928,
      "Herzlichen": 6929,
      "leistung": 6930,
      "mittlung": 6931,
      "ĠSchluÃŁfolgerungen": 6932,
      "VerwaltungsbehÃ¶rde": 6933,
      "BRAUCH": 6934,
      "Lebhafter": 6935,
      "aun": 6936,
      "gefÃ¼gt": 6937,
      "ĠGold": 6938,
      "ĠUR": 6939,
      "ĠOpen": 6940,
      "ÃľH": 6941,
      "Ġkonzentr": 6942,
      "holt": 6943,
      "Ġwelcher": 6944,
      "ĠLiebe": 6945,
      "Ġoper": 6946,
      "ĠGoogle": 6947,
      "ĠSchiffe": 6948,
      "Ġindivid": 6949,
      "Ġrelativ": 6950,
      "ZusÃ¤tz": 6951,
      "Fax": 6952,
      "Mod": 6953,
      "Ã¤fen": 6954,
      "ierminister": 6955,
      "ĠWandel": 6956,
      "ĠStunde": 6957,
      "attform": 6958,
      "ĠKlage": 6959,
      "ĠSuper": 6960,
      "Bisher": 6961,
      "ĠTrend": 6962,
      "Ġherunterladen": 6963,
      "Menschen": 6964,
      "ampagne": 6965,
      "AuÃŁen": 6966,
      "KEIT": 6967,
      "Tab": 6968,
      "VI": 6969,
      "ball": 6970,
      "ĠFrank": 6971,
      "reche": 6972,
      "ĠProdi": 6973,
      "ĠVorbereitung": 6974,
      "Ġ202": 6975,
      "sichtigen": 6976,
      "ĠQual": 6977,
      "ĠNachrichten": 6978,
      "ĠGeneral": 6979,
      "ĠBehandlung": 6980,
      "regeln": 6981,
      "ĠHoffnung": 6982,
      "sidiaritÃ¤t": 6983,
      "58": 6984,
      "Sk": 6985,
      "volle": 6986,
      "ichtbar": 6987,
      "ley": 6988,
      "Ġladen": 6989,
      "rige": 6990,
      "gebiete": 6991,
      "ALE": 6992,
      "ĠBedenken": 6993,
      "ĠHandeln": 6994,
      "itiative": 6995,
      "ĠMehrheit": 6996,
      "ĠRisiken": 6997,
      "obilien": 6998,
      "ĠzusÃ¤tzliche": 6999,
      "Ġprofitieren": 7000,
      "ĠUntersuchung": 7001,
      "BekÃ¤mpfung": 7002,
      "Ġfand": 7003,
      "Ġfertig": 7004,
      "ĠPunkten": 7005,
      "ĠVAN": 7006,
      "ĠTitel": 7007,
      "ĠgeprÃ¼ft": 7008,
      "ĠInhalte": 7009,
      "ĠCa": 7010,
      "okko": 7011,
      "Ġacc": 7012,
      "Ġsprach": 7013,
      "echsel": 7014,
      "Ġeigenes": 7015,
      "ĠDebian": 7016,
      "ĠWorld": 7017,
      "ĠMilliar": 7018,
      "ĠManuel": 7019,
      "Ġglobale": 7020,
      "ĠPflicht": 7021,
      "fÃ¼hl": 7022,
      "Danach": 7023,
      "EP": 7024,
      "Welt": 7025,
      "iegel": 7026,
      "ĠPad": 7027,
      "Ġeinheit": 7028,
      "gent": 7029,
      "emie": 7030,
      "eth": 7031,
      "schuld": 7032,
      "ĠDel": 7033,
      "ĠDienste": 7034,
      "ĠWald": 7035,
      "ĠTiere": 7036,
      "ĠLizenz": 7037,
      "reite": 7038,
      "ĠIhres": 7039,
      "igend": 7040,
      "Beim": 7041,
      "obby": 7042,
      "IIa": 7043,
      "ideo": 7044,
      "gangs": 7045,
      "ĠSTRA": 7046,
      "ikanische": 7047,
      "Wiederaufnahme": 7048,
      "Ġabgelehnt": 7049,
      "Beg": 7050,
      "CA": 7051,
      "Vb": 7052,
      "yd": 7053,
      "atri": 7054,
      "ĠunabhÃ¤ng": 7055,
      "Ġneben": 7056,
      "ĠKÃ¶rper": 7057,
      "schte": 7058,
      "ĠgrÃ¼n": 7059,
      "ĠDan": 7060,
      "ĠDorf": 7061,
      "ĠGrÃ¼": 7062,
      "ĠTaten": 7063,
      "Ġert": 7064,
      "ĠZwischen": 7065,
      "Ġ39": 7066,
      "ĠÃ¼bernehmen": 7067,
      "stellte": 7068,
      "Ġbewusst": 7069,
      "ĠOptionen": 7070,
      "Ġausreichend": 7071,
      "orizont": 7072,
      "Entwicklungs": 7073,
      "kki": 7074,
      "raten": 7075,
      "erzeugnisse": 7076,
      "aust": 7077,
      "ĠPAP": 7078,
      "ĠErei": 7079,
      "ĠBAL": 7080,
      "ĠKenn": 7081,
      "ĠLeg": 7082,
      "ERWEITERUNG": 7083,
      "ĠAnliegen": 7084,
      "Ġstren": 7085,
      "eichert": 7086,
      "Ġgelangen": 7087,
      "ĠnÃ¤chster": 7088,
      "ĠAbgeordneten": 7089,
      "ĠPrÃ¼fung": 7090,
      "duziert": 7091,
      "ĠBestellung": 7092,
      "FrÃ¼here": 7093,
      "IF": 7094,
      "Or": 7095,
      "Somit": 7096,
      "ea": 7097,
      "inken": 7098,
      "ĠKamer": 7099,
      "ĠDre": 7100,
      "rot": 7101,
      "agung": 7102,
      "ival": 7103,
      "beauftrag": 7104,
      "ammer": 7105,
      "ĠGrunde": 7106,
      "ĠRichtlinien": 7107,
      "alerie": 7108,
      "Unterbrechung": 7109,
      "stausch": 7110,
      "ĠKollege": 7111,
      "ĠGemeinschafts": 7112,
      "Ġkomplex": 7113,
      "LÃĦRUNG": 7114,
      "ĠFlÃ¼cht": 7115,
      "ĠSOZIAL": 7116,
      "schlÃ¼sselung": 7117,
      "Leben": 7118,
      "gung": 7119,
      "hung": 7120,
      "vi": 7121,
      "zert": 7122,
      "ĠfÃ¤llt": 7123,
      "ĠPL": 7124,
      "Ġeinig": 7125,
      "schreiben": 7126,
      "ĠTransport": 7127,
      "ister": 7128,
      "Ġstolz": 7129,
      "ĠSchule": 7130,
      "ĠdiesbezÃ¼glich": 7131,
      "gerufen": 7132,
      "osnien": 7133,
      "werke": 7134,
      "ierender": 7135,
      "Ġ44": 7136,
      "Erwar": 7137,
      "ĠgenieÃŁen": 7138,
      "Ġlehnt": 7139,
      "ĠDeutsch": 7140,
      "Ġkonnten": 7141,
      "reude": 7142,
      "Ġverstehe": 7143,
      "ĠStraf": 7144,
      "amerika": 7145,
      "PrioritÃ¤tsachse": 7146,
      "ĠEuropeAid": 7147,
      "MUNIKATION": 7148,
      "Ġhilft": 7149,
      "Bot": 7150,
      "CS": 7151,
      "Preise": 7152,
      "ique": 7153,
      "kor": 7154,
      "val": 7155,
      "way": 7156,
      "ork": 7157,
      "ĠFerr": 7158,
      "ders": 7159,
      "ĠRen": 7160,
      "ĠTop": 7161,
      "ĠTex": 7162,
      "eugen": 7163,
      "oslaw": 7164,
      "ĠMindest": 7165,
      "ĠStraÃŁe": 7166,
      "ĠvollstÃ¤ndig": 7167,
      "ĠMÃ¤nner": 7168,
      "uffet": 7169,
      "FORMATION": 7170,
      "KON": 7171,
      "Letz": 7172,
      "Politik": 7173,
      "Rel": 7174,
      "ĠSorge": 7175,
      "ĠMinder": 7176,
      "emen": 7177,
      "ĠFactsheet": 7178,
      "ĠgÃ¼ltig": 7179,
      "ĠerÃ¶r": 7180,
      "Ġpla": 7181,
      "aktiv": 7182,
      "rief": 7183,
      "linge": 7184,
      "enzÃ¼ber": 7185,
      "ĠgelÃ¶st": 7186,
      "ĠTages": 7187,
      "zeichnis": 7188,
      "ĠGebiete": 7189,
      "ĠGemeinsame": 7190,
      "Ġhohen": 7191,
      "ĠStudie": 7192,
      "Folgende": 7193,
      "ĠInstrumente": 7194,
      "ĠRuhe": 7195,
      "ĠMotor": 7196,
      "Ġreagieren": 7197,
      "Jon": 7198,
      "Jul": 7199,
      "Titel": 7200,
      "do": 7201,
      "atik": 7202,
      "assi": 7203,
      "schreiten": 7204,
      "ĠgrÃ¼": 7205,
      "Ġkn": 7206,
      "ĠTR": 7207,
      "Ġaufgenommen": 7208,
      "ĠJava": 7209,
      "Inst": 7210,
      "Ġunters": 7211,
      "Ġ400": 7212,
      "Ġrasch": 7213,
      "IED": 7214,
      "ĠTeilnahme": 7215,
      "iane": 7216,
      "Ġlangsam": 7217,
      "ĠKindern": 7218,
      "ĠSteuern": 7219,
      "ĠResort": 7220,
      "ĠVersand": 7221,
      "Ġwegen": 7222,
      "Ġweder": 7223,
      "freund": 7224,
      "ĠTabak": 7225,
      "Ġwirtschaftliche": 7226,
      "ĠGedanken": 7227,
      "Ġlegisl": 7228,
      "ĠLeitlinien": 7229,
      "ĠstÃ¤ndig": 7230,
      "meister": 7231,
      "yan": 7232,
      "ĠÃ¶ffnen": 7233,
      "ernt": 7234,
      "inas": 7235,
      "une": 7236,
      "ĠPap": 7237,
      "ĠPapier": 7238,
      "ĠFA": 7239,
      "ĠschÃ¼tzen": 7240,
      "ĠOS": 7241,
      "ĠUnternehm": 7242,
      "itze": 7243,
      "Ġrest": 7244,
      "hoden": 7245,
      "ĠExt": 7246,
      "ĠFormular": 7247,
      "ĠSanktionen": 7248,
      "Ġerkennen": 7249,
      "GrÃ¼n": 7250,
      "Mitt": 7251,
      "SÃ¼d": 7252,
      "passen": 7253,
      "tell": 7254,
      "ĠMO": 7255,
      "ĠMorgen": 7256,
      "ĠKart": 7257,
      "Ġhilf": 7258,
      "ĠDr": 7259,
      "ĠDirekt": 7260,
      "Ġerleben": 7261,
      "Ġdessen": 7262,
      "ĠStrom": 7263,
      "ĠausfÃ¼hr": 7264,
      "grÃ¼ÃŁ": 7265,
      "ĠSchaden": 7266,
      "Ġgeschaffen": 7267,
      "akter": 7268,
      "Ġsparen": 7269,
      "unktionen": 7270,
      "ĠgenÃ¼": 7271,
      "Ãľbereinkommen": 7272,
      "ĠFlash": 7273,
      "smitglied": 7274,
      "holung": 7275,
      "ĠGerichtshofs": 7276,
      "ĠVielfalt": 7277,
      "ĠlÃ¤ndlichen": 7278,
      "596": 7279,
      "uc": 7280,
      "zone": 7281,
      "ĠAD": 7282,
      "ĠMuseum": 7283,
      "ichts": 7284,
      "raam": 7285,
      "ĠDen": 7286,
      "recher": 7287,
      "seh": 7288,
      "Ġalte": 7289,
      "ĠAnschluss": 7290,
      "neten": 7291,
      "Ġlangfrist": 7292,
      "code": 7293,
      "Ġyour": 7294,
      "Hering": 7295,
      "Ġsuper": 7296,
      "Ġkorrig": 7297,
      "ĠMigration": 7298,
      "ĠAvraam": 7299,
      "ĠMcC": 7300,
      "ĠAuffassung": 7301,
      "Ġdankbar": 7302,
      "pla": 7303,
      "wahl": 7304,
      "ĠMik": 7305,
      "ĠModer": 7306,
      "ĠHO": 7307,
      "ĠHu": 7308,
      "ĠHenn": 7309,
      "Ġverdien": 7310,
      "aktionen": 7311,
      "RAUM": 7312,
      "IEDEN": 7313,
      "schiede": 7314,
      "Ġform": 7315,
      "otenzial": 7316,
      "PrÃ¤sidentin": 7317,
      "ĠBeitrÃ¤ge": 7318,
      "ĠBemÃ¼hungen": 7319,
      "ĠBundesministerin": 7320,
      "ĠschlieÃŁen": 7321,
      "Worum": 7322,
      "ERSUCHT": 7323,
      "Ġmittler": 7324,
      "Link": 7325,
      "QL": 7326,
      "SSON": 7327,
      "gu": 7328,
      "hnung": 7329,
      "kur": 7330,
      "pa": 7331,
      "pass": 7332,
      "wSt": 7333,
      "instrum": 7334,
      "Ġdadurch": 7335,
      "anon": 7336,
      "ĠSem": 7337,
      "schlagen": 7338,
      "ĠWo": 7339,
      "Ġph": 7340,
      "UNION": 7341,
      "ĠAbbott": 7342,
      "Ġunternehmen": 7343,
      "Ġ52": 7344,
      "Ġgenutzt": 7345,
      "hafte": 7346,
      "AMT": 7347,
      "ĠdÃ¼rfte": 7348,
      "Ġ282": 7349,
      "CCI": 7350,
      "ĠNorwegen": 7351,
      "ĠLeistung": 7352,
      "535": 7353,
      "Su": 7354,
      "wirk": 7355,
      "austausch": 7356,
      "ĠFlexibilitÃ¤t": 7357,
      "Ã¶nen": 7358,
      "ĠHol": 7359,
      "ĠHeim": 7360,
      "ums": 7361,
      "Ġalten": 7362,
      "ĠSpezial": 7363,
      "Ġfolgender": 7364,
      "ĠGewinner": 7365,
      "ĠGesundheits": 7366,
      "Ġschneller": 7367,
      "ĠVereinigten": 7368,
      "Mai": 7369,
      "FFEN": 7370,
      "ĠVORSITZ": 7371,
      "Ġgarantiert": 7372,
      "Generalsekretariat": 7373,
      "Dina": 7374,
      "NUNGS": 7375,
      "ete": 7376,
      "rien": 7377,
      "vin": 7378,
      "ĠQ": 7379,
      "Ã¤uft": 7380,
      "ory": 7381,
      "Ġkom": 7382,
      "Ġkultur": 7383,
      "rochen": 7384,
      "ĠTir": 7385,
      "ĠLas": 7386,
      "ĠAnwend": 7387,
      "INI": 7388,
      "Ġnachstehenden": 7389,
      "ILL": 7390,
      "ĠEntwicklungen": 7391,
      "ĠXIV": 7392,
      "rÃ¼hstÃ¼ck": 7393,
      "gruppen": 7394,
      "ĠErfahrungen": 7395,
      "ĠInstrument": 7396,
      "FL": 7397,
      "Sow": 7398,
      "bruch": 7399,
      "lÃ¤uf": 7400,
      "melden": 7401,
      "mÃ¤rkte": 7402,
      "Ġsur": 7403,
      "aschen": 7404,
      "ĠFinnland": 7405,
      "ĠIst": 7406,
      "ĠRh": 7407,
      "rain": 7408,
      "Ġangen": 7409,
      "Ġbeob": 7410,
      "ria": 7411,
      "sterdam": 7412,
      "Ġanderem": 7413,
      "altungen": 7414,
      "ĠerklÃ¤ren": 7415,
      "ĠÃľbernahme": 7416,
      "ĠDienstag": 7417,
      "379": 7418,
      "ĠWirklichkeit": 7419,
      "anzÃ¶sisch": 7420,
      "Ġregionale": 7421,
      "Ġperfekt": 7422,
      "begriffen": 7423,
      "ĠRechnung": 7424,
      "TÃ¼rkei": 7425,
      "Bundesminister": 7426,
      "Gem": 7427,
      "LÃ¤nder": 7428,
      "Philippe": 7429,
      "its": 7430,
      "ĠVal": 7431,
      "ĠerlÃ¤u": 7432,
      "ĠNiederlande": 7433,
      "ĠVergleich": 7434,
      "ĠAnlage": 7435,
      "Ġout": 7436,
      "TEGIE": 7437,
      "rÃ¼ckt": 7438,
      "ally": 7439,
      "ĠEntwurf": 7440,
      "Ġ85": 7441,
      "Ġgetroffen": 7442,
      "ĠStaatssekretÃ¤rin": 7443,
      "ĠSchwier": 7444,
      "ĠAllgemeine": 7445,
      "CCCC": 7446,
      "ĠBalkan": 7447,
      "Bas": 7448,
      "NL": 7449,
      "ces": 7450,
      "rich": 7451,
      "strategie": 7452,
      "irma": 7453,
      "ĠBern": 7454,
      "ĠBaum": 7455,
      "ffer": 7456,
      "Ġtritt": 7457,
      "ĠErasmus": 7458,
      "Ġvorber": 7459,
      "Ġvorange": 7460,
      "Ġentgegen": 7461,
      "gesetz": 7462,
      "zeÃŁ": 7463,
      "USA": 7464,
      "Ġkeines": 7465,
      "ĠgewÃ¤hlt": 7466,
      "exiko": 7467,
      "ĠBalkon": 7468,
      "ĠKommunal": 7469,
      "BAN": 7470,
      "Datum": 7471,
      "ĠSat": 7472,
      "elten": 7473,
      "Ġmark": 7474,
      "ĠEmail": 7475,
      "Ġeingesetzt": 7476,
      "ĠMED": 7477,
      "ĠKaffe": 7478,
      "Ġ46": 7479,
      "Ġclean": 7480,
      "ĠEinigung": 7481,
      "gelassen": 7482,
      "aldirekt": 7483,
      "bedarf": 7484,
      "FORSCHUNG": 7485,
      "aiser": 7486,
      "9258": 7487,
      "Ġkomplett": 7488,
      "ĠTodes": 7489,
      "ukle": 7490,
      "ĠÃ¤uÃŁern": 7491,
      "546": 7492,
      "Emiss": 7493,
      "Sicher": 7494,
      "ĠSn": 7495,
      "Ġbzw": 7496,
      "ĠBEI": 7497,
      "Ġhinn": 7498,
      "achs": 7499,
      "achtet": 7500,
      "ameter": 7501,
      "Ġbeein": 7502,
      "Ġtr": 7503,
      "lieben": 7504,
      "ĠSpa": 7505,
      "warz": 7506,
      "ĠForsten": 7507,
      "Ġ1994": 7508,
      "ĠBestand": 7509,
      "Entdecken": 7510,
      "ĠExper": 7511,
      "fortable": 7512,
      "Ġinteressant": 7513,
      "ĠVerwaltungs": 7514,
      "ULTUR": 7515,
      "ĠeuropÃ¤ischer": 7516,
      "ĠBewegung": 7517,
      "59667": 7518,
      "Beschl": 7519,
      "IX": 7520,
      "bs": 7521,
      "osen": 7522,
      "asche": 7523,
      "Ġbist": 7524,
      "ĠDir": 7525,
      "ssp": 7526,
      "ĠGeist": 7527,
      "ĠWh": 7528,
      "Ġpol": 7529,
      "Ã¤rm": 7530,
      "haltet": 7531,
      "ester": 7532,
      "Einen": 7533,
      "ÃĦM": 7534,
      "ics": 7535,
      "zeichnen": 7536,
      "sstaat": 7537,
      "Ġakzeptiert": 7538,
      "ĠStatus": 7539,
      "Ġentwickeln": 7540,
      "ĠVerÃ¤nderungen": 7541,
      "Booking": 7542,
      "Dan": 7543,
      "zo": 7544,
      "ĠSekt": 7545,
      "Ġsorgen": 7546,
      "arus": 7547,
      "ĠMutter": 7548,
      "Ġha": 7549,
      "ĠAnkunft": 7550,
      "Ã¤rke": 7551,
      "ĠAbschluss": 7552,
      "ĠenttÃ¤u": 7553,
      "ostat": 7554,
      "Ġgeleistet": 7555,
      "Ġgefallen": 7556,
      "ĠBÃ¼ro": 7557,
      "ĠBoot": 7558,
      "Ġoffensichtlich": 7559,
      "ĠJanez": 7560,
      "ĠWerbung": 7561,
      "itÃ¤tsachsen": 7562,
      "ĠMichael": 7563,
      "ĠPrÃ¼f": 7564,
      "ĠSubsidiaritÃ¤t": 7565,
      "Fortsetzung": 7566,
      "Erwartete": 7567,
      "NUNGSHOF": 7568,
      "59258": 7569,
      "BÃ¼rger": 7570,
      "HU": 7571,
      "KA": 7572,
      "On": 7573,
      "Zoll": 7574,
      "Zweck": 7575,
      "koh": 7576,
      "ĠSA": 7577,
      "ĠSÃ¼": 7578,
      "Ġser": 7579,
      "Ġfehlen": 7580,
      "ĠBla": 7581,
      "ĠMesse": 7582,
      "ĠhumanitÃ¤re": 7583,
      "ĠTraum": 7584,
      "ĠZuf": 7585,
      "ĠReaktion": 7586,
      "Ġstrateg": 7587,
      "laufen": 7588,
      "waren": 7589,
      "ĠZucker": 7590,
      "ĠGemeinschaften": 7591,
      "Ġsolcher": 7592,
      "ĠVerkehrs": 7593,
      "ĠgrundsÃ¤tz": 7594,
      "ĠStÃ¤dte": 7595,
      "Ġerreichbar": 7596,
      "znei": 7597,
      "enhagen": 7598,
      "Dienst": 7599,
      "machen": 7600,
      "nicht": 7601,
      "sur": 7602,
      "zig": 7603,
      "Ġatt": 7604,
      "Ġnein": 7605,
      "ĠPA": 7606,
      "ĠHomepage": 7607,
      "reist": 7608,
      "ĠJohn": 7609,
      "ula": 7610,
      "Ġallgemeine": 7611,
      "ĠUnternehmens": 7612,
      "Ġbegann": 7613,
      "apital": 7614,
      "ĠArbeitsmarkt": 7615,
      "ĠPhase": 7616,
      "ĠRegionalpolitik": 7617,
      "Jahres": 7618,
      "ĠTermin": 7619,
      "Ġehrgeiz": 7620,
      "BR": 7621,
      "Res": 7622,
      "ĠSTE": 7623,
      "Ġneg": 7624,
      "ĠEssen": 7625,
      "ĠFein": 7626,
      "ĠRO": 7627,
      "Ġkontroll": 7628,
      "reitet": 7629,
      "Ġuntern": 7630,
      "leiben": 7631,
      "lastung": 7632,
      "ĠGrundsatz": 7633,
      "Gener": 7634,
      "ECAF": 7635,
      "ĠgrÃ¶ÃŁer": 7636,
      "ĠHaft": 7637,
      "ĠPressestelle": 7638,
      "ĠerfÃ¼llen": 7639,
      "Ġspezielle": 7640,
      "ĠVeranstaltung": 7641,
      "Ġbilden": 7642,
      "Ġsinnvoll": 7643,
      "ĠAKP": 7644,
      "eesc": 7645,
      "ony": 7646,
      "ĠGi": 7647,
      "ĠGel": 7648,
      "ĠVoll": 7649,
      "ĠWÃ¤hrung": 7650,
      "ehle": 7651,
      "ĠErzeugnisse": 7652,
      "Ġbeispiel": 7653,
      "ĠhierfÃ¼r": 7654,
      "Ġspreche": 7655,
      "ĠVorschlags": 7656,
      "Ġverboten": 7657,
      "ĠspÃ¤teren": 7658,
      "ĠAppartement": 7659,
      "ĠBeschlÃ¼sse": 7660,
      "Ġdauern": 7661,
      "Ġruhig": 7662,
      "ĠZustand": 7663,
      "ĠWIRTSCHAFTS": 7664,
      "Schwerpunkt": 7665,
      "He": 7666,
      "Sonder": 7667,
      "Vier": 7668,
      "cell": 7669,
      "ga": 7670,
      "wes": 7671,
      "anismus": 7672,
      "allo": 7673,
      "ĠPreisen": 7674,
      "ĠFin": 7675,
      "ĠFreude": 7676,
      "ĠTool": 7677,
      "ĠNÃ¤ch": 7678,
      "ĠErde": 7679,
      "hton": 7680,
      "Ġsowohl": 7681,
      "Ġ42": 7682,
      "ĠRegistr": 7683,
      "Ġgewiss": 7684,
      "ĠKlar": 7685,
      "streng": 7686,
      "ĠGemeinsamen": 7687,
      "AHR": 7688,
      "ĠBehÃ¶rden": 7689,
      "ĠSchwerpunkte": 7690,
      "ĠprÃ¤sent": 7691,
      "Sonstige": 7692,
      "grÃ¼ÃŁung": 7693,
      "BeschÃ¤ftigung": 7694,
      "It": 7695,
      "Juni": 7696,
      "LUNG": 7697,
      "Uhr": 7698,
      "ĠEind": 7699,
      "ierre": 7700,
      "ĠVerstÃ¤nd": 7701,
      "ĠJob": 7702,
      "rib": 7703,
      "Ġschrift": 7704,
      "ugh": 7705,
      "Ã¼nschen": 7706,
      "ices": 7707,
      "gewicht": 7708,
      "ssysteme": 7709,
      "Ġfinanzielle": 7710,
      "Ã¤ume": 7711,
      "ĠstÃ¤rker": 7712,
      "ĠfÃ¼hlen": 7713,
      "ĠHennon": 7714,
      "Foren": 7715,
      "Kultur": 7716,
      "Luft": 7717,
      "gut": 7718,
      "Ġnehme": 7719,
      "ĠBett": 7720,
      "ĠDa": 7721,
      "ĠHalb": 7722,
      "ĠChr": 7723,
      "edingungen": 7724,
      "ORT": 7725,
      "Ġ65": 7726,
      "ourn": 7727,
      "ĠBeteiligung": 7728,
      "ĠFranz": 7729,
      "Ġverlassen": 7730,
      "ĠBedarf": 7731,
      "ĠBusiness": 7732,
      "KOMMUNIKATION": 7733,
      "ĠStatistiken": 7734,
      "iendly": 7735,
      "ĠkÃ¼mm": 7736,
      "53593": 7737,
      "Offen": 7738,
      "Weshalb": 7739,
      "sinn": 7740,
      "ergie": 7741,
      "eira": 7742,
      "Ã¤ck": 7743,
      "Ġeinverstanden": 7744,
      "Ã¼rz": 7745,
      "ĠKal": 7746,
      "ĠAnhang": 7747,
      "ĠAnalyse": 7748,
      "ellos": 7749,
      "ressourcen": 7750,
      "ĠAusland": 7751,
      "ĠAusgabe": 7752,
      "ĠAusdruck": 7753,
      "ĠVerbrauch": 7754,
      "ĠDatenbank": 7755,
      "azza": 7756,
      "Mitgliedstaaten": 7757,
      "Ġpassieren": 7758,
      "ĠAsien": 7759,
      "ĠGlobalisierung": 7760,
      "ETZUNG": 7761,
      "fÃ¤ltig": 7762,
      "EICH": 7763,
      "KI": 7764,
      "nor": 7765,
      "Ġdienen": 7766,
      "iter": 7767,
      "ĠPil": 7768,
      "ĠzÃ¤hlen": 7769,
      "ĠDol": 7770,
      "ĠVerz": 7771,
      "raucht": 7772,
      "Ġren": 7773,
      "ĠKlim": 7774,
      "Dezember": 7775,
      "ETT": 7776,
      "Ġbestimmten": 7777,
      "ĠfÃ¼l": 7778,
      "ĠhÃ¶chste": 7779,
      "ĠzugÃ¤nglich": 7780,
      "ĠerhÃ¶ht": 7781,
      "ĠbestÃ¤tigt": 7782,
      "Ġverantwortlich": 7783,
      "ĠVORSITZES": 7784,
      "UD": 7785,
      "WÃ¤hrend": 7786,
      "teste": 7787,
      "ĠKO": 7788,
      "Ġinbegriffen": 7789,
      "deck": 7790,
      "andid": 7791,
      "ista": 7792,
      "Ġbewegen": 7793,
      "Ġles": 7794,
      "Anlage": 7795,
      "ARD": 7796,
      "quote": 7797,
      "ranche": 7798,
      "Ã¤lfte": 7799,
      "management": 7800,
      "finition": 7801,
      "Ġ753": 7802,
      "ĠHof": 7803,
      "GRUND": 7804,
      "Ġkeinerlei": 7805,
      "alistisch": 7806,
      "GESAMT": 7807,
      "ĠBahnhof": 7808,
      "Ass": 7809,
      "ĠSzen": 7810,
      "aria": 7811,
      "Ġderen": 7812,
      "Ġzeit": 7813,
      "ĠKrisen": 7814,
      "Ã¶ger": 7815,
      "Ġinnov": 7816,
      "ĠDÃ¤nemark": 7817,
      "ssicherheit": 7818,
      "001": 7819,
      "Ġverpflich": 7820,
      "ĠAnhÃ¶r": 7821,
      "ĠAnspruch": 7822,
      "sprÃ¼n": 7823,
      "ĠAbfall": 7824,
      "rugs": 7825,
      "iment": 7826,
      "ĠEintrag": 7827,
      "Ġspezif": 7828,
      "BegrÃ¼ÃŁung": 7829,
      "ĠAmsterdam": 7830,
      "besserungen": 7831,
      "ĠSysteme": 7832,
      "ĠVertrags": 7833,
      "ĠFormat": 7834,
      "gangenheit": 7835,
      "ĠAshton": 7836,
      "ĠRechtsvorschriften": 7837,
      "PrioritÃ¤t": 7838,
      "ĠKonto": 7839,
      "ĠAgrarpolitik": 7840,
      "ĠApartments": 7841,
      "BRAUCHER": 7842,
      "Botschafter": 7843,
      "Ġverdienen": 7844,
      "Immer": 7845,
      "Wen": 7846,
      "ks": 7847,
      "zusammen": 7848,
      "anen": 7849,
      "aru": 7850,
      "gest": 7851,
      "tex": 7852,
      "ĠEM": 7853,
      "ĠKe": 7854,
      "row": 7855,
      "iviane": 7856,
      "ugoslaw": 7857,
      "ĠGran": 7858,
      "Ġlegen": 7859,
      "gleichheit": 7860,
      "ĠVorteil": 7861,
      "Ġwesentlich": 7862,
      "Aktuelle": 7863,
      "Ġdiskutieren": 7864,
      "ĠRECHNUNGSHOF": 7865,
      "ĠMilliarden": 7866,
      "John": 7867,
      "br": 7868,
      "bab": 7869,
      "pel": 7870,
      "isieren": 7871,
      "ĠFort": 7872,
      "ĠFOL": 7873,
      "Ġinzwischen": 7874,
      "Ġzudem": 7875,
      "ĠLU": 7876,
      "Ġteile": 7877,
      "ĠOff": 7878,
      "eichern": 7879,
      "echnet": 7880,
      "handelt": 7881,
      "LICHEN": 7882,
      "ĠPolizei": 7883,
      "Ġreserv": 7884,
      "reffend": 7885,
      "Finden": 7886,
      "Koh": 7887,
      "zunehmen": 7888,
      "ĠServ": 7889,
      "atastrop": 7890,
      "ĠEF": 7891,
      "ĠBay": 7892,
      "scher": 7893,
      "ĠHigh": 7894,
      "ĠNummer": 7895,
      "ĠAnstreng": 7896,
      "euern": 7897,
      "Ġeffekt": 7898,
      "akistan": 7899,
      "STRA": 7900,
      "Ġliebe": 7901,
      "fÃ¤hig": 7902,
      "Ġteilnehmen": 7903,
      "Welchen": 7904,
      "ĠberÃ¼cksichtigen": 7905,
      "ĠungefÃ¤hr": 7906,
      "ĠDavid": 7907,
      "aldirektion": 7908,
      "198": 7909,
      "AJ": 7910,
      "Kosten": 7911,
      "karten": 7912,
      "wÃ¤": 7913,
      "Ġter": 7914,
      "una": 7915,
      "ĠPhil": 7916,
      "ĠKunde": 7917,
      "ĠDich": 7918,
      "ĠWord": 7919,
      "ĠTAC": 7920,
      "ĠLive": 7921,
      "ĠNationen": 7922,
      "ĠÃ¼berzeugt": 7923,
      "artig": 7924,
      "barer": 7925,
      "ĠVoraussetz": 7926,
      "ĠBew": 7927,
      "ARE": 7928,
      "laut": 7929,
      "erkennung": 7930,
      "Ġweitergehen": 7931,
      "Ġvoller": 7932,
      "BERG": 7933,
      "ĠNetzwerk": 7934,
      "Ġentsprechend": 7935,
      "BESCHÃĦFTIGUNG": 7936,
      "CZ": 7937,
      "Gesch": 7938,
      "RIE": 7939,
      "Suchen": 7940,
      "Tele": 7941,
      "Ġdah": 7942,
      "ĠSm": 7943,
      "aup": 7944,
      "ĠPoker": 7945,
      "ilater": 7946,
      "anze": 7947,
      "iertes": 7948,
      "Ġspan": 7949,
      "ido": 7950,
      "ĠÃľberprÃ¼fung": 7951,
      "ĠRedaktion": 7952,
      "ĠBÃ¼rgern": 7953,
      "Manchmal": 7954,
      "ĠselbstverstÃ¤ndlich": 7955,
      "selbe": 7956,
      "Ġbeschlossen": 7957,
      "ĠSkype": 7958,
      "ĠMehrwert": 7959,
      "Ġideal": 7960,
      "Zimmerbeschreibung": 7961,
      "ĠBeschÃ¤ftigungs": 7962,
      "ĠEreig": 7963,
      "Ferner": 7964,
      "Falls": 7965,
      "hi": 7966,
      "sd": 7967,
      "wohnung": 7968,
      "Ġrie": 7969,
      "Ġreichen": 7970,
      "einigung": 7971,
      "genz": 7972,
      "Ġzerst": 7973,
      "Ġinvest": 7974,
      "ĠHel": 7975,
      "Ġland": 7976,
      "Ġlag": 7977,
      "ĠVergangenheit": 7978,
      "nisierung": 7979,
      "ĠParad": 7980,
      "Ġgefragt": 7981,
      "ĠUmweltschutz": 7982,
      "ĠAutob": 7983,
      "ĠShar": 7984,
      "ĠKomfort": 7985,
      "Ġmensch": 7986,
      "LT": 7987,
      "ZOLL": 7988,
      "geg": 7989,
      "ĠBE": 7990,
      "ĠFÃ¤h": 7991,
      "schul": 7992,
      "chtung": 7993,
      "INS": 7994,
      "Ġzweif": 7995,
      "IKA": 7996,
      "orgnis": 7997,
      "ĠStaats": 7998,
      "ĠXII": 7999,
      "Ġgebracht": 8000,
      "URG": 8001,
      "ĠEWR": 8002,
      "ĠTerrasse": 8003,
      "Ġhervorheben": 8004,
      "ĠAktivitÃ¤ten": 8005,
      "ĠGemÃ¼": 8006,
      "Sub": 8007,
      "fleisch": 8008,
      "jo": 8009,
      "uz": 8010,
      "ĠSchengen": 8011,
      "Ġmar": 8012,
      "ĠMut": 8013,
      "berge": 8014,
      "ĠHeil": 8015,
      "lichung": 8016,
      "reif": 8017,
      "ĠComp": 8018,
      "ungsstunde": 8019,
      "INA": 8020,
      "Ġhierbei": 8021,
      "imes": 8022,
      "Ã¼ckw": 8023,
      "ĠRegierungen": 8024,
      "Ġbesucht": 8025,
      "eldet": 8026,
      "GenieÃŁen": 8027,
      "ĠGeldb": 8028,
      "ĠFrem": 8029,
      "Ġkostenfrei": 8030,
      "abelj": 8031,
      "Ġempfohlen": 8032,
      "ĠTrain": 8033,
      "ĠFirmen": 8034,
      "ĠLiber": 8035,
      "ĠErwachsen": 8036,
      "riminierung": 8037,
      "ĠAbgeordnete": 8038,
      "GLIED": 8039,
      "Ġdiskutiert": 8040,
      "ĠArgument": 8041,
      "ĠInstallation": 8042,
      "drÃ¼cklich": 8043,
      "Eigen": 8044,
      "inent": 8045,
      "eiert": 8046,
      "Ã¤mt": 8047,
      "Ġsh": 8048,
      "ĠPakete": 8049,
      "ĠKurz": 8050,
      "bergen": 8051,
      "ĠWetter": 8052,
      "opf": 8053,
      "ops": 8054,
      "Ġanerk": 8055,
      "ĠVerpflichtungen": 8056,
      "ittling": 8057,
      "ĠSchm": 8058,
      "ESTE": 8059,
      "ida": 8060,
      "ove": 8061,
      "leistungs": 8062,
      "IERUNG": 8063,
      "ĠMarke": 8064,
      "ĠMethode": 8065,
      "ĠBerichterstatterin": 8066,
      "VizeprÃ¤sidentin": 8067,
      "ĠAlternative": 8068,
      "ĠendgÃ¼ltigen": 8069,
      "ĠbeglÃ¼ckw": 8070,
      "()": 8071,
      "Machen": 8072,
      "bad": 8073,
      "gy": 8074,
      "inien": 8075,
      "asy": 8076,
      "ĠnatÃ¼r": 8077,
      "berto": 8078,
      "ĠHÃ¤lfte": 8079,
      "deckt": 8080,
      "ams": 8081,
      "ĠZimmern": 8082,
      "Ġpri": 8083,
      "Ã¤tigkeiten": 8084,
      "ivitÃ¤t": 8085,
      "leichen": 8086,
      "aufbau": 8087,
      "ffentlich": 8088,
      "Ġlegt": 8089,
      "Ġwenigen": 8090,
      "ĠSitzungen": 8091,
      "zeugung": 8092,
      "ĠGeschenk": 8093,
      "ĠSozialausschuss": 8094,
      "ĠZahlungen": 8095,
      "ĠInfos": 8096,
      "ĠpersÃ¶nlichen": 8097,
      "ĠSlowenien": 8098,
      "lÃ¤ndische": 8099,
      "Fraktion": 8100,
      "Gut": 8101,
      "Rep": 8102,
      "Wald": 8103,
      "sa": 8104,
      "sbericht": 8105,
      "zed": 8106,
      "iti": 8107,
      "Ġbrit": 8108,
      "ĠES": 8109,
      "ĠMult": 8110,
      "ĠDauer": 8111,
      "entwicklung": 8112,
      "Ġerf": 8113,
      "ĠCal": 8114,
      "Ã¤rz": 8115,
      "ochen": 8116,
      "gress": 8117,
      "ungsmittel": 8118,
      "arbeite": 8119,
      "Ġgelungen": 8120,
      "aturen": 8121,
      "Mitgliedstaat": 8122,
      "ĠauÃŁerhalb": 8123,
      "Ġqual": 8124,
      "EWSA": 8125,
      "ĠPlayer": 8126,
      "Ġrespekt": 8127,
      "Beitritt": 8128,
      "ĠEisenbahn": 8129,
      "Ġwork": 8130,
      "ĠMartin": 8131,
      "Gestatten": 8132,
      "ĠNahen": 8133,
      "ĠVerstÃ¤ndnis": 8134,
      "Not": 8135,
      "Nov": 8136,
      "td": 8137,
      "ĠSorgen": 8138,
      "elia": 8139,
      "ĠAfghanistan": 8140,
      "ĠnÃ¼tz": 8141,
      "Ã¶sen": 8142,
      "ĠglÃ¼ck": 8143,
      "ĠGleiche": 8144,
      "ĠTU": 8145,
      "andal": 8146,
      "Ġerh": 8147,
      "Ġbezieht": 8148,
      "ĠVerh": 8149,
      "hek": 8150,
      "ĠOSTEN": 8151,
      "rÃ¼stung": 8152,
      "esto": 8153,
      "Ġ38": 8154,
      "Ġnochmals": 8155,
      "Anca": 8156,
      "last": 8157,
      "Ġ58": 8158,
      "Ġamer": 8159,
      "REFFEN": 8160,
      "ĠMittelpunkt": 8161,
      "ĠSupport": 8162,
      "ĠBuchung": 8163,
      "athan": 8164,
      "Ġinteressiert": 8165,
      "ĠRestaurants": 8166,
      "ifiziert": 8167,
      "PrioritÃ¤ten": 8168,
      "ĠTabelle": 8169,
      "ĠKapitel": 8170,
      "ILDUNG": 8171,
      "At": 8172,
      "KS": 8173,
      "Prakt": 8174,
      "eed": 8175,
      "tes": 8176,
      "ych": 8177,
      "ĠDiese": 8178,
      "ordent": 8179,
      "ĠAS": 8180,
      "Ġfrage": 8181,
      "Ġfassen": 8182,
      "ĠBrasilien": 8183,
      "ĠKontrollen": 8184,
      "ĠDetail": 8185,
      "ĠVol": 8186,
      "Ġverf": 8187,
      "Ġtyp": 8188,
      "Ġtrotzdem": 8189,
      "ĠOR": 8190,
      "blatt": 8191,
      "werden": 8192,
      "uÃŁland": 8193,
      "Ġdeutsche": 8194,
      "uba": 8195,
      "Pressedienst": 8196,
      "Ġkonst": 8197,
      "Umsetzung": 8198,
      "Markt": 8199,
      "tensiv": 8200,
      "Ġbesonderen": 8201,
      "mbud": 8202,
      "ĠbemÃ¼": 8203,
      "ĠAusschuÃŁ": 8204,
      "Versammlung": 8205,
      "ĠSchwierigkeiten": 8206,
      "abeljau": 8207,
      "Il": 8208,
      "MUS": 8209,
      "NDER": 8210,
      "WEST": 8211,
      "kel": 8212,
      "Ã¼ssen": 8213,
      "Ġweist": 8214,
      "atter": 8215,
      "mma": 8216,
      "ĠMalta": 8217,
      "denk": 8218,
      "ĠNahr": 8219,
      "Ġsieben": 8220,
      "ĠBerichtig": 8221,
      "auso": 8222,
      "Ġgeschrieben": 8223,
      "iveau": 8224,
      "ĠÃľbereinkommen": 8225,
      "ĠÃľberwachung": 8226,
      "alender": 8227,
      "517": 8228,
      "ĠbegrÃ¼ndet": 8229,
      "ĠYork": 8230,
      "ĠArbeitslosigkeit": 8231,
      "omentan": 8232,
      "Ġentsprechende": 8233,
      "ĠVizeprÃ¤sidentin": 8234,
      "ENTWICKLUNG": 8235,
      "Monica": 8236,
      "ĠDrittlÃ¤ndern": 8237,
      "ĠKoordinierung": 8238,
      "ĠKommunalvertreter": 8239,
      "Clau": 8240,
      "DIE": 8241,
      "IAN": 8242,
      "hat": 8243,
      "Ġdamals": 8244,
      "Ġmor": 8245,
      "ĠBur": 8246,
      "Ã¼ro": 8247,
      "ĠFRE": 8248,
      "Ġkg": 8249,
      "ĠHouse": 8250,
      "utto": 8251,
      "ĠStil": 8252,
      "ĠAnerkennung": 8253,
      "ĠJur": 8254,
      "Ġauszu": 8255,
      "version": 8256,
      "Uns": 8257,
      "Scholle": 8258,
      "ziale": 8259,
      "Ġ06": 8260,
      "rina": 8261,
      "ritann": 8262,
      "403": 8263,
      "ĠInnov": 8264,
      "ĠPlug": 8265,
      "ĠAutor": 8266,
      "ĠgrÃ¶ÃŁere": 8267,
      "ĠNeue": 8268,
      "zahlungen": 8269,
      "ĠParkplatz": 8270,
      "Ġverschw": 8271,
      "ĠGarantie": 8272,
      "ĠRadio": 8273,
      "ĠKommentar": 8274,
      "ĠPatent": 8275,
      "zureichen": 8276,
      "NAHMEN": 8277,
      "ĠNachbarschaft": 8278,
      "Ġbeinhaltet": 8279,
      "ĠInseln": 8280,
      "FIN": 8281,
      "War": 8282,
      "YP": 8283,
      "fan": 8284,
      "mes": 8285,
      "ĠMess": 8286,
      "Ġhart": 8287,
      "ĠFÃ¼r": 8288,
      "schuÃŁ": 8289,
      "ĠWa": 8290,
      "ĠLux": 8291,
      "ĠVerk": 8292,
      "ruption": 8293,
      "ĠÃ¼bernommen": 8294,
      "mech": 8295,
      "ĠFormen": 8296,
      "udan": 8297,
      "alisieren": 8298,
      "ĠfÃ¼hrte": 8299,
      "ĠeingefÃ¼hrt": 8300,
      "Ġverkaufen": 8301,
      "ĠverkÃ¼ndet": 8302,
      "Ġfalsche": 8303,
      "Ġfreie": 8304,
      "Tagung": 8305,
      "Arbeits": 8306,
      "ĠVision": 8307,
      "Ġinformiert": 8308,
      "ĠFÃ¼hrung": 8309,
      "ĠberÃ¼cksichtigt": 8310,
      "Ġjeweils": 8311,
      "ĠEnergien": 8312,
      "ECH": 8313,
      "FrÃ¼hstÃ¼ck": 8314,
      "LOS": 8315,
      "Nutzen": 8316,
      "Seite": 8317,
      "Vassiliou": 8318,
      "Ġsen": 8319,
      "Ġna": 8320,
      "Ġeins": 8321,
      "Ġeiniges": 8322,
      "Ã¶se": 8323,
      "dex": 8324,
      "legt": 8325,
      "ĠTro": 8326,
      "ĠTher": 8327,
      "utin": 8328,
      "Inn": 8329,
      "Schauen": 8330,
      "schluÃŁ": 8331,
      "Ġgewonnen": 8332,
      "ĠhinzufÃ¼gen": 8333,
      "1998": 8334,
      "Ġversucht": 8335,
      "ĠfranzÃ¶s": 8336,
      "napp": 8337,
      "ĠAusschusses": 8338,
      "fertigt": 8339,
      "apazitÃ¤t": 8340,
      "lÃ¶sung": 8341,
      "ĠjÃ¼ng": 8342,
      "Ġberufliche": 8343,
      "ĠGlÃ¼ckwunsch": 8344,
      "VassiliouEU": 8345,
      "574": 8346,
      "Jn": 8347,
      "gast": 8348,
      "reitung": 8349,
      "Ġwachsen": 8350,
      "arische": 8351,
      "ĠBR": 8352,
      "ĠFISCH": 8353,
      "ĠRos": 8354,
      "ĠAnpassung": 8355,
      "Ġschlagen": 8356,
      "edro": 8357,
      "bliot": 8358,
      "werber": 8359,
      "Ã¶rter": 8360,
      "gebracht": 8361,
      "StÃ¤rkung": 8362,
      "Ġ800": 8363,
      "inea": 8364,
      "ource": 8365,
      "ĠUnterschiede": 8366,
      "Ġsolches": 8367,
      "ĠGraf": 8368,
      "Ġgestrigen": 8369,
      "raktionen": 8370,
      "mittag": 8371,
      "Ã¼nstler": 8372,
      "dienstleistungen": 8373,
      "ĠErwart": 8374,
      "Verbraucher": 8375,
      "ĠArchiv": 8376,
      "ĠGreen": 8377,
      "Ã¤user": 8378,
      "babwe": 8379,
      "NUNG": 8380,
      "Rad": 8381,
      "VA": 8382,
      "WF": 8383,
      "part": 8384,
      "inos": 8385,
      "steht": 8386,
      "ĠSatz": 8387,
      "ĠAlex": 8388,
      "Ġbar": 8389,
      "ĠMaterial": 8390,
      "eting": 8391,
      "schirm": 8392,
      "ĠHimm": 8393,
      "ĠVIII": 8394,
      "ĠWander": 8395,
      "ĠLeiter": 8396,
      "ĠLernen": 8397,
      "Ġgefordert": 8398,
      "ĠEine": 8399,
      "ĠEinfÃ¼hrung": 8400,
      "Ã¤ndler": 8401,
      "ĠParameter": 8402,
      "ĠZeitplan": 8403,
      "rategien": 8404,
      "ĠGlas": 8405,
      "ĠAuÃŁenhandel": 8406,
      "pflichtung": 8407,
      "Ġkonkret": 8408,
      "300": 8409,
      "Bl": 8410,
      "Med": 8411,
      "Sim": 8412,
      "iam": 8413,
      "wissen": 8414,
      "erung": 8415,
      "ĠSonnen": 8416,
      "Ġsorg": 8417,
      "atib": 8418,
      "Ġunmittel": 8419,
      "uraru": 8420,
      "Ġmy": 8421,
      "ĠEm": 8422,
      "Ã¶konom": 8423,
      "Ġ250": 8424,
      "entscheidung": 8425,
      "Ġletzt": 8426,
      "ĠSchÃ¶n": 8427,
      "Ġvoraus": 8428,
      "ruh": 8429,
      "Wasser": 8430,
      "ĠEinstellung": 8431,
      "Ġ600": 8432,
      "ĠLandwir": 8433,
      "ĠUrspr": 8434,
      "ĠVERH": 8435,
      "Ġvermeiden": 8436,
      "ĠStudio": 8437,
      "Michel": 8438,
      "ĠDurchfÃ¼hrung": 8439,
      "Ġausgewogen": 8440,
      "ĠEngagement": 8441,
      "ĠNational": 8442,
      "Ġfreundlich": 8443,
      "PFUNG": 8444,
      "Ġ0475": 8445,
      "GH": 8446,
      "Gerne": 8447,
      "SL": 8448,
      "mine": 8449,
      "nam": 8450,
      "Ġdritten": 8451,
      "iefert": 8452,
      "Ġsah": 8453,
      "ĠsÃ¼d": 8454,
      "atch": 8455,
      "oler": 8456,
      "ĠIdent": 8457,
      "Ġkennt": 8458,
      "ĠDringlichkeit": 8459,
      "sselt": 8460,
      "ĠGRA": 8461,
      "ĠVar": 8462,
      "Ġzuerst": 8463,
      "ilde": 8464,
      "ĠLager": 8465,
      "Ġaufzu": 8466,
      "ĠCECAF": 8467,
      "Ġmiteinander": 8468,
      "sprach": 8469,
      "ahrt": 8470,
      "sens": 8471,
      "rÃ¼cke": 8472,
      "egow": 8473,
      "Ġabstimmen": 8474,
      "Erste": 8475,
      "pful": 8476,
      "erto": 8477,
      "ĠHerbst": 8478,
      "eckt": 8479,
      "ĠBarnier": 8480,
      "ezunge": 8481,
      "Ã¤ngerung": 8482,
      "imitri": 8483,
      "ĠFolge": 8484,
      "Ġherrscht": 8485,
      "ĠZentralbank": 8486,
      "918": 8487,
      "Hoch": 8488,
      "RÃ¼ck": 8489,
      "got": 8490,
      "ĠSen": 8491,
      "ĠFunktionen": 8492,
      "ĠVen": 8493,
      "Ġgehalten": 8494,
      "ĠStein": 8495,
      "erraum": 8496,
      "senden": 8497,
      "ALM": 8498,
      "ĠDanke": 8499,
      "ĠKontext": 8500,
      "ĠÃľbersetzung": 8501,
      "AufschlÃ¼sselung": 8502,
      "Sozial": 8503,
      "ĠGrundsÃ¤tze": 8504,
      "worte": 8505,
      "ĠOrigin": 8506,
      "Ġwahrscheinlich": 8507,
      "Gesundheit": 8508,
      "Ġstarke": 8509,
      "ĠGeheim": 8510,
      "ĠWallstrÃ¶m": 8511,
      "ĠPension": 8512,
      "ĠPaduraru": 8513,
      "Juli": 8514,
      "ĠfÃ¼llen": 8515,
      "view": 8516,
      "zentrum": 8517,
      "stÃ¤nde": 8518,
      "ira": 8519,
      "Ġnice": 8520,
      "ĠPack": 8521,
      "ĠPaul": 8522,
      "ĠVAL": 8523,
      "ĠTH": 8524,
      "ĠLab": 8525,
      "Dasselbe": 8526,
      "ĠStar": 8527,
      "verlÃ¤ss": 8528,
      "ntag": 8529,
      "Einfach": 8530,
      "Ġapp": 8531,
      "Ġzumindest": 8532,
      "StimmerklÃ¤rungen": 8533,
      "ĠMarc": 8534,
      "BEK": 8535,
      "sbuffet": 8536,
      "Amer": 8537,
      "Ġgestern": 8538,
      "Ã¶chst": 8539,
      "ĠAndroulla": 8540,
      "ĠAtmo": 8541,
      "Ġvertrau": 8542,
      "Ġexistiert": 8543,
      "Ġverlangt": 8544,
      "ĠWeiÃŁbuch": 8545,
      "zusammenarbeit": 8546,
      "Hilfe": 8547,
      "Mart": 8548,
      "PROGRAMM": 8549,
      "zellen": 8550,
      "ĠPAR": 8551,
      "mme": 8552,
      "ĠBanner": 8553,
      "Ã¶ten": 8554,
      "ĠRSS": 8555,
      "ĠHilf": 8556,
      "ĠWelche": 8557,
      "ĠWÃ¼nsche": 8558,
      "ĠAnlass": 8559,
      "Ġpo": 8560,
      "Ġeffizien": 8561,
      "Ġ53": 8562,
      "ĠPrÃ¤sidentschaft": 8563,
      "Ġbetreffend": 8564,
      "Ã¤hrt": 8565,
      "setzungen": 8566,
      "ĠApart": 8567,
      "2012": 8568,
      "wegische": 8569,
      "ĠGrÃ¼nbuch": 8570,
      "ĠFahrt": 8571,
      "ĠEinwohner": 8572,
      "ĠHinweis": 8573,
      "Ġergreifen": 8574,
      "ĠParteien": 8575,
      "oldau": 8576,
      "ĠSchwerpunkt": 8577,
      "svorsitz": 8578,
      "Ġinstallieren": 8579,
      "Ġpraktisch": 8580,
      "ĠVerÃ¤nderung": 8581,
      "klusive": 8582,
      "Investitionen": 8583,
      "ZOLLUNION": 8584,
      "ritannien": 8585,
      "Wohnung": 8586,
      "britannien": 8587,
      "mon": 8588,
      "por": 8589,
      "ĠÃ¤ndert": 8590,
      "ĠBru": 8591,
      "ĠBek": 8592,
      "Ġzentral": 8593,
      "ĠKontroll": 8594,
      "ĠFeuer": 8595,
      "Ġgl": 8596,
      "ĠVinc": 8597,
      "eitag": 8598,
      "ĠTun": 8599,
      "ĠStano": 8600,
      "ĠÃ¼berprÃ¼fen": 8601,
      "werbe": 8602,
      "Anzahl": 8603,
      "Beispiele": 8604,
      "rate": 8605,
      "ILITÃĦ": 8606,
      "ĠKonvent": 8607,
      "arbeits": 8608,
      "ĠAmts": 8609,
      "Ġverstanden": 8610,
      "aint": 8611,
      "box": 8612,
      "ĠVideos": 8613,
      "gnor": 8614,
      "Ġkorrekt": 8615,
      "ĠFOLGEN": 8616,
      "egowina": 8617,
      "Helen": 8618,
      "MEMO": 8619,
      "effizienz": 8620,
      "pe": 8621,
      "Ġmeist": 8622,
      "ĠMic": 8623,
      "Ġhave": 8624,
      "ĠTradition": 8625,
      "ĠLang": 8626,
      "Ġbeen": 8627,
      "Ġbezeichnet": 8628,
      "ĠAnreg": 8629,
      "Schon": 8630,
      "ĠAngriff": 8631,
      "SPROGRAMM": 8632,
      "haber": 8633,
      "Ġwiederholen": 8634,
      "ĠÃĸffentliche": 8635,
      "ĠSystems": 8636,
      "Jeden": 8637,
      "752": 8638,
      "ĠTechnische": 8639,
      "Ġlauten": 8640,
      "ĠKopenhagen": 8641,
      "ĠerwÃ¤hnen": 8642,
      "ĠWesteren": 8643,
      "SOZIAL": 8644,
      "ASSNAHMEN": 8645,
      "ĠMITGLIED": 8646,
      "ĠTorres": 8647,
      "Ġaussehen": 8648,
      "angebote": 8649,
      "Ġilleg": 8650,
      "ĠPremierminister": 8651,
      "ĠMaschinen": 8652,
      "Empfeh": 8653,
      "ĠGemÃ¼se": 8654,
      "Bahn": 8655,
      "Mer": 8656,
      "Oktober": 8657,
      "masch": 8658,
      "zin": 8659,
      "eide": 8660,
      "Ġsk": 8661,
      "gef": 8662,
      "ĠAg": 8663,
      "Ġnieder": 8664,
      "ĠEvent": 8665,
      "ĠMB": 8666,
      "ĠKol": 8667,
      "ĠFarb": 8668,
      "Ġklin": 8669,
      "ĠWesent": 8670,
      "ĠLad": 8671,
      "ahnen": 8672,
      "Ġjunge": 8673,
      "Ġumgehend": 8674,
      "TELE": 8675,
      "endes": 8676,
      "Erfahren": 8677,
      "kennt": 8678,
      "ĠProdukten": 8679,
      "Ġgering": 8680,
      "VERFAHREN": 8681,
      "ĠReihen": 8682,
      "ĠVERFAHREN": 8683,
      "Ġverkauft": 8684,
      "wiesen": 8685,
      "Ġque": 8686,
      "Handels": 8687,
      "Ġtechnischen": 8688,
      "ograph": 8689,
      "Ġgespielt": 8690,
      "ĠKategorien": 8691,
      "Jonathan": 8692,
      "ĠAnstrengungen": 8693,
      "AST": 8694,
      "Lib": 8695,
      "Weil": 8696,
      "cis": 8697,
      "invest": 8698,
      "ĠMel": 8699,
      "ĠFac": 8700,
      "oth": 8701,
      "Ġstaat": 8702,
      "Ã¼nter": 8703,
      "Ã¼hrt": 8704,
      "ĠGenehmigung": 8705,
      "Ġaktualisiert": 8706,
      "ĠAuge": 8707,
      "ĠSki": 8708,
      "sonsten": 8709,
      "Ġgross": 8710,
      "ĠÃ¤hnlich": 8711,
      "rÃ¤nkungen": 8712,
      "sprÃ¼che": 8713,
      "laga": 8714,
      "As": 8715,
      "SB": 8716,
      "SID": 8717,
      "Vorg": 8718,
      "fa": 8719,
      "mel": 8720,
      "erlei": 8721,
      "ieh": 8722,
      "ĠShow": 8723,
      "ĠPet": 8724,
      "Ġzweit": 8725,
      "rachte": 8726,
      "ĠDub": 8727,
      "ĠWell": 8728,
      "abgabe": 8729,
      "ĠTÃ¤tigkeit": 8730,
      "annung": 8731,
      "ĠStoffe": 8732,
      "omin": 8733,
      "ives": 8734,
      "Integr": 8735,
      "Ã¶ren": 8736,
      "ohin": 8737,
      "ammt": 8738,
      "ISCHEN": 8739,
      "Ãľberblick": 8740,
      "Ġ62": 8741,
      "Ġeinfacher": 8742,
      "ĠBetrag": 8743,
      "ĠverstÃ¤rkt": 8744,
      "ĠGerÃ¤t": 8745,
      "ĠTechnologien": 8746,
      "ĠEinwanderung": 8747,
      "ĠpersÃ¶nliche": 8748,
      "programme": 8749,
      "689": 8750,
      "lebnis": 8751,
      "ĠKonflikt": 8752,
      "ĠAnhÃ¶rung": 8753,
      "Innovation": 8754,
      "MAN": 8755,
      "TV": 8756,
      "TatsÃ¤chlich": 8757,
      "YI": 8758,
      "datei": 8759,
      "leit": 8760,
      "Ġdeinen": 8761,
      "ario": 8762,
      "ĠRob": 8763,
      "ĠDatum": 8764,
      "ĠGVO": 8765,
      "Ġlog": 8766,
      "ĠAnforderungen": 8767,
      "ĠJack": 8768,
      "anzler": 8769,
      "Ġeur": 8770,
      "Ã¶lle": 8771,
      "Ġenorm": 8772,
      "ĠBeste": 8773,
      "weisungen": 8774,
      "ationsabkommen": 8775,
      "zÃ¼ge": 8776,
      "Ġ2734": 8777,
      "Bessere": 8778,
      "Mittelmeer": 8779,
      "ĠStandards": 8780,
      "ĠAugenblick": 8781,
      "ĠSonne": 8782,
      "Ġideale": 8783,
      "ĠKompeten": 8784,
      "ĠProfil": 8785,
      "ĠCamping": 8786,
      "ĠOrganisation": 8787,
      "ĠTatsache": 8788,
      "Ġbeispielsweise": 8789,
      "(%": 8790,
      "CE": 8791,
      "Mob": 8792,
      "bte": 8793,
      "leiter": 8794,
      "prechen": 8795,
      "zte": 8796,
      "ĠSohn": 8797,
      "Ġsm": 8798,
      "ĠunmÃ¶glich": 8799,
      "ĠPER": 8800,
      "ĠBitte": 8801,
      "Ġzunehmen": 8802,
      "ĠGE": 8803,
      "ĠVÃ¶lker": 8804,
      "ĠWik": 8805,
      "indlich": 8806,
      "Ġermut": 8807,
      "Ġbeziehen": 8808,
      "Ġausw": 8809,
      "rucken": 8810,
      "lauben": 8811,
      "ĠUmfang": 8812,
      "kehrt": 8813,
      "Ġproblem": 8814,
      "Ġ1993": 8815,
      "Vorsitz": 8816,
      "Ġbedauer": 8817,
      "ĠHauptstadt": 8818,
      "rÃ¤nke": 8819,
      "Ġjedenfalls": 8820,
      "fÃ¤llen": 8821,
      "Ġdennoch": 8822,
      "Ġfriendly": 8823,
      "ĠNovak": 8824,
      "Ġchines": 8825,
      "ĠWebsites": 8826,
      "organisation": 8827,
      "ĠTodd": 8828,
      "ĠAnmerkung": 8829,
      "Ġinstalliert": 8830,
      "ĠAssozi": 8831,
      "service": 8832,
      "ÃĦMPFUNG": 8833,
      "CI": 8834,
      "bieten": 8835,
      "fo": 8836,
      "fest": 8837,
      "ĠÃ¼": 8838,
      "steh": 8839,
      "anlagen": 8840,
      "Ġvolle": 8841,
      "ĠIt": 8842,
      "ĠLied": 8843,
      "reide": 8844,
      "ĠReferenz": 8845,
      "Ġ--": 8846,
      "Ġausges": 8847,
      "ĠErholung": 8848,
      "allas": 8849,
      "Ġ47": 8850,
      "ĠAusfÃ¼hrungen": 8851,
      "ohannes": 8852,
      "Ġbesitzt": 8853,
      "ĠAlc": 8854,
      "ĠKonsequ": 8855,
      "maÃŁen": 8856,
      "Ġ1992": 8857,
      "Produ": 8858,
      "ĠManagement": 8859,
      "ĠPalÃ¤st": 8860,
      "Ġdeutschen": 8861,
      "ĠÃľb": 8862,
      "Ġfinanziert": 8863,
      "Ã¤hlte": 8864,
      "Ġgratulieren": 8865,
      "ĠMerc": 8866,
      "zÃ¼gigkeit": 8867,
      "FERENZ": 8868,
      "kohol": 8869,
      "ĠMITGLIEDSTAATEN": 8870,
      "BURG": 8871,
      "Jens": 8872,
      "MÃ¤rz": 8873,
      "WÃ¼r": 8874,
      "Wachstum": 8875,
      "dre": 8876,
      "nes": 8877,
      "Ġche": 8878,
      "anat": 8879,
      "Ġimm": 8880,
      "Ġmil": 8881,
      "ĠPre": 8882,
      "ĠEstland": 8883,
      "Ġzweiter": 8884,
      "Ġhal": 8885,
      "ĠFalle": 8886,
      "Ã¶pf": 8887,
      "ĠRab": 8888,
      "Ġkont": 8889,
      "Ġkamen": 8890,
      "ĠWichtig": 8891,
      "achter": 8892,
      "Ġgeehrte": 8893,
      "ĠNAT": 8894,
      "ĠCard": 8895,
      "usse": 8896,
      "rÃ¤cht": 8897,
      "schaftliche": 8898,
      "Ãĸff": 8899,
      "izza": 8900,
      "Erst": 8901,
      "Ġco": 8902,
      "Ġcan": 8903,
      "ĠMax": 8904,
      "ĠZusammenhalt": 8905,
      "Ġfordert": 8906,
      "AMP": 8907,
      "ĠGewinn": 8908,
      "ĠGrad": 8909,
      "ĠElement": 8910,
      "Ġfreien": 8911,
      "Besonder": 8912,
      "ĠMarken": 8913,
      "urteilen": 8914,
      "ĠbestÃ¤tigen": 8915,
      "Aktionsplan": 8916,
      "66430": 8917,
      "Ġbegrenzt": 8918,
      "betten": 8919,
      "Ã¤gen": 8920,
      "urm": 8921,
      "Ġmult": 8922,
      "Ġname": 8923,
      "ĠBa": 8924,
      "ĠFu": 8925,
      "ĠTAGUNG": 8926,
      "Ġessen": 8927,
      "ulation": 8928,
      "ict": 8929,
      "ĠMaria": 8930,
      "ĠBildungs": 8931,
      "strich": 8932,
      "Ġhelpful": 8933,
      "Januar": 8934,
      "Ġprivate": 8935,
      "ĠKirche": 8936,
      "Related": 8937,
      "cellent": 8938,
      "Bildung": 8939,
      "Copyright": 8940,
      "Kaiser": 8941,
      "Liste": 8942,
      "MT": 8943,
      "Mak": 8944,
      "krise": 8945,
      "wirkungen": 8946,
      "infrastruktur": 8947,
      "ĠSing": 8948,
      "ĠfrÃ¼h": 8949,
      "ĠMART": 8950,
      "iga": 8951,
      "ĠLtd": 8952,
      "ĠZeile": 8953,
      "ĠRegen": 8954,
      "Ġsteigen": 8955,
      "sprache": 8956,
      "Ġschauen": 8957,
      "Ġvorgehen": 8958,
      "ĠArznei": 8959,
      "ROZ": 8960,
      "Ġberaten": 8961,
      "ĠProblems": 8962,
      "BEW": 8963,
      "ĠPlÃ¤ne": 8964,
      "rufen": 8965,
      "Ġausgezeich": 8966,
      "ĠEltern": 8967,
      "ĠGeschmack": 8968,
      "bedingungen": 8969,
      "fÃ¼llt": 8970,
      "ĠAtt": 8971,
      "94107": 8972,
      "ĠGerichtshofes": 8973,
      "ĠgefÃ¤hrlich": 8974,
      "ĠKompon": 8975,
      "Gruppen": 8976,
      "ĠSalz": 8977,
      "ĠObjekt": 8978,
      "ĠstÃ¤rken": 8979,
      "Einzelheiten": 8980,
      "Script": 8981,
      "Ġbeteiligt": 8982,
      "Ġelektron": 8983,
      "schÃ¤tzung": 8984,
      "Soweit": 8985,
      ".,": 8986,
      "Irina": 8987,
      "PrÃ¤": 8988,
      "dorf": 8989,
      "passt": 8990,
      "ubl": 8991,
      "Ġignor": 8992,
      "Ġvis": 8993,
      "Ġbildet": 8994,
      "ĠBSE": 8995,
      "ĠKON": 8996,
      "ĠIr": 8997,
      "Ġgezeigt": 8998,
      "ĠZahlung": 8999,
      "ĠNo": 9000,
      "ĠVerhand": 9001,
      "ĠVerbesserungen": 9002,
      "ĠAnn": 9003,
      "Ġtief": 9004,
      "Ġpr": 9005,
      "liegt": 9006,
      "ebook": 9007,
      "ierenden": 9008,
      "erseits": 9009,
      "Ġberu": 9010,
      "Ġ700": 9011,
      "ĠProblemen": 9012,
      "retung": 9013,
      "Ġhergestellt": 9014,
      "Ġbefassen": 9015,
      "Allgemein": 9016,
      "ĠzurÃ¼ckge": 9017,
      "Ã¤ufer": 9018,
      "Ġ....": 9019,
      "Ġmoderne": 9020,
      "ĠSchulden": 9021,
      "ifferenz": 9022,
      "ĠFeed": 9023,
      "Phone": 9024,
      "Ġbasiert": 9025,
      "ĠSchlafzimmer": 9026,
      "ĠFerrero": 9027,
      "Ġschriftlich": 9028,
      "Leit": 9029,
      "Nat": 9030,
      "Netz": 9031,
      "NET": 9032,
      "Red": 9033,
      "SQL": 9034,
      "TR": 9035,
      "bindung": 9036,
      "ior": 9037,
      "obe": 9038,
      "sichten": 9039,
      "yen": 9040,
      "testen": 9041,
      "irl": 9042,
      "ĠFL": 9043,
      "ĠFab": 9044,
      "ĠHT": 9045,
      "ĠHar": 9046,
      "igar": 9047,
      "ĠLitauen": 9048,
      "ĠZert": 9049,
      "Ġstay": 9050,
      "ĠSchuld": 9051,
      "edig": 9052,
      "ĠAbsicht": 9053,
      "ĠBeach": 9054,
      "ĠGrundrechte": 9055,
      "ĠQuoten": 9056,
      "acio": 9057,
      "KTOR": 9058,
      "ips": 9059,
      "865": 9060,
      "ĠDiam": 9061,
      "ĠheiÃŁen": 9062,
      "ĠNetze": 9063,
      "ikanischen": 9064,
      "ĠEuropÃ¤ischer": 9065,
      "ĠausgewÃ¤hlt": 9066,
      "ĠVolks": 9067,
      "Ġkleines": 9068,
      "Ġehrlich": 9069,
      "strafe": 9070,
      "ĠursprÃ¼n": 9071,
      "Ġgrundlegende": 9072,
      "Waldner": 9073,
      "57484": 9074,
      "ĠErwartungen": 9075,
      "TELEKOMMUNIKATION": 9076,
      "906": 9077,
      "Aud": 9078,
      "DO": 9079,
      "Deleg": 9080,
      "Kan": 9081,
      "SV": 9082,
      "Ġrad": 9083,
      "Ġbit": 9084,
      "ĠPatten": 9085,
      "ĠDAS": 9086,
      "ded": 9087,
      "ĠLy": 9088,
      "ERE": 9089,
      "uth": 9090,
      "Ġlive": 9091,
      "ĠCast": 9092,
      "forschung": 9093,
      "sport": 9094,
      "ĠOmbud": 9095,
      "grundlage": 9096,
      "Ġ49": 9097,
      "echte": 9098,
      "setzungs": 9099,
      "ĠFlor": 9100,
      "maÃŁ": 9101,
      "Ġhinweisen": 9102,
      "Vorschriften": 9103,
      "Prozess": 9104,
      "ĠBetrugs": 9105,
      "ĠĠĠĠĠ": 9106,
      "Ã¤ÃŁt": 9107,
      "ĠHandy": 9108,
      "Regel": 9109,
      "Wettbewerbs": 9110,
      "Ġentscheidend": 9111,
      "Steuer": 9112,
      "ĠKomprom": 9113,
      "grenzung": 9114,
      "ĠAmerika": 9115,
      "ĠAlbum": 9116,
      "Ġdefiniert": 9117,
      "Ġmusste": 9118,
      "zusetzen": 9119,
      "Ġgratuliere": 9120,
      "*)": 9121,
      "Ed": 9122,
      "Jo": 9123,
      "Politische": 9124,
      "Presserefer": 9125,
      "uhe": 9126,
      "Ã¤den": 9127,
      "orten": 9128,
      "Ġmon": 9129,
      "Ġhand": 9130,
      "ĠHinder": 9131,
      "deb": 9132,
      "lehnen": 9133,
      "Ġaufnehmen": 9134,
      "ĠVerpack": 9135,
      "ĠAnna": 9136,
      "ĠReal": 9137,
      "ĠRevolution": 9138,
      "ebast": 9139,
      "zustellen": 9140,
      "stechn": 9141,
      "Ã¤nderung": 9142,
      "Ġ05": 9143,
      "ĠberÃ¼h": 9144,
      "zeuger": 9145,
      "Abbott": 9146,
      "hÃ¶rt": 9147,
      "ĠVerbot": 9148,
      "ĠCook": 9149,
      "ĠTechnik": 9150,
      "Ġunglaub": 9151,
      "Ġerscheinen": 9152,
      "Ġfinanziellen": 9153,
      "ĠSymbol": 9154,
      "Ġbezahlt": 9155,
      "Ġwesentliche": 9156,
      "Ġitalien": 9157,
      "Ġaktiviert": 9158,
      "DennisAbbott": 9159,
      "ategorie": 9160,
      "ausend": 9161,
      "ĠGroup": 9162,
      "ĠNovakova": 9163,
      "Ġdeiner": 9164,
      "ĠSach": 9165,
      "Ġunzureichen": 9166,
      "Ġmer": 9167,
      "Ġfanden": 9168,
      "teneg": 9169,
      "ĠKy": 9170,
      "ĠVater": 9171,
      "reck": 9172,
      "ĠInc": 9173,
      "ĠVerst": 9174,
      "ago": 9175,
      "ĠAbschnitt": 9176,
      "Erleben": 9177,
      "stellungs": 9178,
      "ĠBeob": 9179,
      "Ġmanchmal": 9180,
      "epar": 9181,
      "Frauen": 9182,
      "ĠgrenzÃ¼ber": 9183,
      "ĠBesitz": 9184,
      "Ġ!!": 9185,
      "ĠStreit": 9186,
      "ĠResiden": 9187,
      "ĠPrioritÃ¤tsachsen": 9188,
      "mittelt": 9189,
      "Ġakzeptabel": 9190,
      "Ġteilweise": 9191,
      "ĠJugendher": 9192,
      "Gemeinsam": 9193,
      "Worin": 9194,
      "Flug": 9195,
      "produkte": 9196,
      "ĠAustausch": 9197,
      "ascal": 9198,
      "bieter": 9199,
      "Ġverpflichtet": 9200,
      "ĠSharrock": 9201,
      "ĠAtmosphÃ¤re": 9202,
      "Vorgesch": 9203,
      "Afrika": 9204,
      "BILDUNG": 9205,
      "Frieden": 9206,
      "Gericht": 9207,
      "Ide": 9208,
      "West": 9209,
      "band": 9210,
      "kÃ¼nd": 9211,
      "lor": 9212,
      "letzt": 9213,
      "nio": 9214,
      "wind": 9215,
      "unruh": 9216,
      "Ġvirt": 9217,
      "ĠPrag": 9218,
      "ĠWarum": 9219,
      "ĠTax": 9220,
      "Ġanmelden": 9221,
      "ĠNet": 9222,
      "Ġtro": 9223,
      "formular": 9224,
      "ĠSchrift": 9225,
      "Ġour": 9226,
      "Eines": 9227,
      "icks": 9228,
[...]
